{"<s>":0,"<pad>":1,"</s>":2,"<unk>":3,"<mask>":4,"!":5,"\"":6,"#":7,"$":8,"%":9,"&":10,"'":11,"(":12,")":13,"*":14,"+":15,",":16,"-":17,".":18,"/":19,"0":20,"1":21,"2":22,"3":23,"4":24,"5":25,"6":26,"7":27,"8":28,"9":29,":":30,";":31,"<":32,"=":33,">":34,"?":35,"@":36,"A":37,"B":38,"C":39,"D":40,"E":41,"F":42,"G":43,"H":44,"I":45,"J":46,"K":47,"L":48,"M":49,"N":50,"O":51,"P":52,"Q":53,"R":54,"S":55,"T":56,"U":57,"V":58,"W":59,"X":60,"Y":61,"Z":62,"[":63,"\\":64,"]":65,"^":66,"_":67,"`":68,"a":69,"b":70,"c":71,"d":72,"e":73,"f":74,"g":75,"h":76,"i":77,"j":78,"k":79,"l":80,"m":81,"n":82,"o":83,"p":84,"q":85,"r":86,"s":87,"t":88,"u":89,"v":90,"w":91,"x":92,"y":93,"z":94,"{":95,"|":96,"}":97,"~":98,"¡":99,"¢":100,"£":101,"¤":102,"¥":103,"¦":104,"§":105,"¨":106,"©":107,"ª":108,"«":109,"¬":110,"®":111,"¯":112,"°":113,"±":114,"²":115,"³":116,"´":117,"µ":118,"¶":119,"·":120,"¸":121,"¹":122,"º":123,"»":124,"¼":125,"½":126,"¾":127,"¿":128,"À":129,"Á":130,"Â":131,"Ã":132,"Ä":133,"Å":134,"Æ":135,"Ç":136,"È":137,"É":138,"Ê":139,"Ë":140,"Ì":141,"Í":142,"Î":143,"Ï":144,"Ð":145,"Ñ":146,"Ò":147,"Ó":148,"Ô":149,"Õ":150,"Ö":151,"×":152,"Ø":153,"Ù":154,"Ú":155,"Û":156,"Ü":157,"Ý":158,"Þ":159,"ß":160,"à":161,"á":162,"â":163,"ã":164,"ä":165,"å":166,"æ":167,"ç":168,"è":169,"é":170,"ê":171,"ë":172,"ì":173,"í":174,"î":175,"ï":176,"ð":177,"ñ":178,"ò":179,"ó":180,"ô":181,"õ":182,"ö":183,"÷":184,"ø":185,"ù":186,"ú":187,"û":188,"ü":189,"ý":190,"þ":191,"ÿ":192,"Ā":193,"ā":194,"Ă":195,"ă":196,"Ą":197,"ą":198,"Ć":199,"ć":200,"Ĉ":201,"ĉ":202,"Ċ":203,"ċ":204,"Č":205,"č":206,"Ď":207,"ď":208,"Đ":209,"đ":210,"Ē":211,"ē":212,"Ĕ":213,"ĕ":214,"Ė":215,"ė":216,"Ę":217,"ę":218,"Ě":219,"ě":220,"Ĝ":221,"ĝ":222,"Ğ":223,"ğ":224,"Ġ":225,"ġ":226,"Ģ":227,"ģ":228,"Ĥ":229,"ĥ":230,"Ħ":231,"ħ":232,"Ĩ":233,"ĩ":234,"Ī":235,"ī":236,"Ĭ":237,"ĭ":238,"Į":239,"į":240,"İ":241,"ı":242,"Ĳ":243,"ĳ":244,"Ĵ":245,"ĵ":246,"Ķ":247,"ķ":248,"ĸ":249,"Ĺ":250,"ĺ":251,"Ļ":252,"ļ":253,"Ľ":254,"ľ":255,"Ŀ":256,"ŀ":257,"Ł":258,"ł":259,"Ń":260,"Ġt":261,"he":262,"Ġa":263,"in":264,"ou":265,"Ġw":266,"Ġthe":267,"re":268,"Ġs":269,"ha":270,"on":271,"er":272,"nd":273,"Ġb":274,"it":275,"Ġm":276,"is":277,"Ġc":278,"Ġo":279,"Ġd":280,"Ġf":281,"ing":282,"Ġto":283,"ll":284,"Ġy":285,"ed":286,"or":287,"Ġyou":288,"an":289,"en":290,"es":291,"hat":292,"Ġp":293,"Ġg":294,"Ġl":295,"Ġand":296,"Ġof":297,"ar":298,"as":299,"Ġin":300,"Ġn":301,"ĠI":302,"om":303,"at":304,"Ġhe":305,"ow":306,"Ġh":307,"ot":308,"Ġha":309,"'s":310,"ve":311,"le":312,"Ġit":313,"Ġth":314,"ay":315,"et":316,"Ġthat":317,"Ġon":318,"ic":319,"us":320,"Ġbe":321,"gh":322,"id":323,"ld":324,"ut":325,"Ġe":326,"Ġwe":327,"Ġwas":328,"al":329,"Ġis":330,"oo":331,"im":332,"'t":333,"ke":334,"ac":335,"ver":336,"Ġre":337,"ght":338,"Ġfor":339,"ly":340,"..":341,"ad":342,"se":343,"ri":344,"ent":345,"ir":346,"Ġst":347,"ion":348,"Ġu":349,"Ġdo":350,"out":351,"am":352,"Ġk":353,"Ġme":354,"ith":355,"st":356,"The":357,"ro":358,"âĢ":359,"Ġwith":360,"ĠĊ":361,"ĠM":362,"her":363,"Ġan":364,"ĠS":365,"ome":366,"Ġas":367,"all":368,"ould":369,"Ġse":370,"Ġnot":371,"ea":372,"Ġwh":373,"Ġli":374,"ĠA":375,"ch":376,"Ġgo":377,"Ġhave":378,"ur":379,"ill":380,"Ġat":381,"and":382,"ter":383,"ĠC":384,"Ġkn":385,"ce":386,"ĠB":387,"Ġthis":388,"ust":389,"if":390,"ell":391,"Ġhis":392,"ĠH":393,"ant":394,"Ġher":395,"Ġknow":396,"Ġare":397,"ct":398,"ĠĠ":399,"Ġthey":400,"Ġhad":401,"il":402,"Ġj":403,"Ġr":404,"Ġso":405,"un":406,"ain":407,"Ġshe":408,"Ġyour":409,"Ġup":410,"Ġne":411,"Ġmy":412,"You":413,"Ġone":414,"ĠT":415,"...":416,"ore":417,"ook":418,"Ġdon":419,"Ġcan":420,"ie":421,"pp":422,"Ġall":423,"Ġthere":424,"Ġsa":425,"Ġwhat":426,"our":427,"th":428,"Ġ\"":429,"ight":430,"Ġhim":431,"eah":432,"Ġsh":433,"um":434,"ge":435,"rom":436,"Ġwhe":437,"Ġbut":438,"Ġde":439,"Ġab":440,"op":441,"ood":442,"ab":443,"Ġout":444,"ĠW":445,"Ġlike":446,"ry":447,"art":448,"ess":449,"ink":450,"ul":451,"ack":452,"ake":453,"ĠP":454,"very":455,"ĠD":456,"'re":457,"ck":458,"red":459,"el":460,"ol":461,"han":462,"Ġget":463,"Ġfrom":464,"Ġwere":465,"'m":466,"Ġsu":467,"qu":468,"Ġal":469,"ĠThe":470,"Ġsee":471,"Ġno":472,"Ġpl":473,"Ġdid":474,"est":475,"Ġor":476,"right":477,"ĠG":478,"one":479,"ation":480,"Ġthem":481,"ind":482,"ers":483,"ig":484,"ĠF":485,"itt":486,"ound":487,"ĠJ":488,"Ġabout":489,"os":490,"ĠL":491,"ame":492,"--":493,"Ġby":494,"Ġsaid":495,"xx":496,"ist":497,"ra":498,"Ġwould":499,"ong":500,"ally":501,"ard":502,"Ġjust":503,"Ġthink":504,"Ġwor":505,"Ġsome":506,"Ġcom":507,"res":508,"Ġus":509,"ĠR":510,"ive":511,"Ġ1":512,"ast":513,"Ġhere":514,"nt":515,"Ġgot":516,"Ġcon":517,"Ġwant":518,"Ġif":519,"own":520,"ak":521,"Ġsp":522,"'ll":523,"ate":524,"na":525,"Ġex":526,"ĠN":527,"oh":528,"Ġany":529,".\"":530,"It":531,"Ġlook":532,"Ġwho":533,"ap":534,"em":535,"Ġv":536,"ime":537,"ich":538,"ven":539,"ort":540,"fe":541,"Ġman":542,"ough":543,"Ġwill":544,"ĠE":545,"ep":546,"Ġer":547,"Ġwhen":548,"here":549,"ice":550,"âĢĻ":551,"od":552,"ous":553,"ĠO":554,"Ġsay":555,"hing":556,"ick":557,"Ġright":558,"âĢľ":559,"other":560,"Ġint":561,"you":562,"Ġthen":563,"Ġnow":564,"ear":565,"ittle":566,"Ġbeen":567,"Ġtw":568,"ag":569,"use":570,"Ġpro":571,"Ġcould":572,"ĠĠĠĠ":573,"ther":574,"ine":575,"lf":576,"way":577,"Ġtime":578,"He":579,"âĢĿ":580,"ide":581,",\"":582,"are":583,"'ve":584,"Ġag":585,"Ġlittle":586,"Ġlo":587,"no":588,"Ġbo":589,"ber":590,"What":591,"hi":592,"kay":593,"Ġback":594,"Ġtr":595,"Ġ2":596,"And":597,"Ġvery":598,"what":599,"Ġwhich":600,"Ġdown":601,"Ġgoing":602,"Ġgood":603,"Ġqu":604,"ies":605,"ace":606,"end":607,"ose":608,"Ġtoo":609,"Ġover":610,"ause":611,"Yeah":612,"Ġar":613,"Ġmore":614,"Ġoff":615,"Ġtheir":616,"ite":617,"Ġcl":618,"ree":619,"Oh":620,"ĠHe":621,"Ġhas":622,"Ġfe":623,"ity":624,"Ġthing":625,"au":626,"Ġother":627,"Ġaf":628,"ost":629,"].":630,"ure":631,"No":632,"reat":633,"Ġro":634,"we":635,"yeah":636,"Ġcome":637,"Ġtwo":638,"Ġput":639,"Ġbr":640,"ought":641,"Ġle":642,"ment":643,"cause":644,"Ġpe":645,"alk":646,"Ġgr":647,"Ġam":648,"omet":649,"ish":650,"Ġbl":651,"hed":652,"We":653,"ft":654,"xxx":655,"ud":656,"Ġinto":657,"urn":658,"ond":659,"Ġway":660,"iss":661,"Ġhow":662,"Ġthan":663,"ĠIt":664,"ect":665,"age":666,"ase":667,"hy":668,"ble":669,"ty":670,"Ġ[":671,"uh":672,"Ġ(":673,"the":674,"that":675,"Ġagain":676,"ĠK":677,"ving":678,"uck":679,"Ġen":680,"That":681,"ass":682,"uch":683,"Well":684,"ople":685,"ue":686,"self":687,"Ġtake":688,"Ġmake":689,"so":690,"Ġwell":691,"But":692,"onna":693,"Ġco":694,"ade":695,"Ġwork":696,"Ġsomet":697,"orn":698,"Ġday":699,"Ġwhere":700,"Ġmean":701,"ved":702,"Yes":703,"Ġshould":704,"Ġtell":705,"Ġour":706,"ire":707,"irst":708,"Ġplay":709,"ather":710,"act":711,"pt":712,"Ġgonna":713,"Ġ20":714,"ho":715,"ves":716,"ps":717,"pl":718,"my":719,"Ġpeople":720,"ian":721,"Ġmuch":722,"Ġlet":723,"ull":724,"fore":725,"ren":726,"be":727,"ount":728,"Ġneed":729,"his":730,"ĠMr":731,"Ġun":732,"Ġ'":733,"Ġafter":734,"Ġevery":735,"Ġcall":736,"Ġ19":737,"ress":738,"wn":739,"Ġhand":740,"ise":741,"nder":742,"Ġdoes":743,"Ġbet":744,"HI":745,"Ġonly":746,"ary":747,"Ġpart":748,"yes":749,"ci":750,"thing":751,"Ġfirst":752,"?\"":753,"te":754,"per":755,"ile":756,"har":757,"ff":758,"ady":759,"Ġpo":760,"ater":761,"Ġfl":762,"able":763,"ord":764,"Ġthr":765,"Ġpre":766,"Ġgu":767,"ang":768,"Ġreally":769,"Ġdidn":770,"ĠU":771,"Ġyear":772,"Ġsomething":773,"cc":774,"ach":775,"Ġpr":776,"Ġboy":777,"ting":778,"Ġsc":779,"ance":780,"So":781,"ng":782,"irl":783,"ark":784,"ia":785,"'d":786,"Ġmade":787,"Ġlong":788,"Ġmo":789,"Ġbefore":790,"Ġcar":791,"Ġhapp":792,"Ġdis":793,"ouse":794,"Ġxxx":795,"Ġad":796,"les":797,"Ġtalk":798,"Ġim":799,"Ġnever":800,"Ġask":801,"Ġke":802,"Ġunder":803,"int":804,"ru":805,"iz":806,"ne":807,"ool":808,"Ġthese":809,"Ġrem":810,"Ġthought":811,"Ġsm":812,"ĠSt":813,"Ġaway":814,"Ġsec":815,"Ġbecause":816,"ody":817,"Ġold":818,"Ġwent":819,"get":820,"mer":821,"Ġwr":822,"Ġper":823,"ew":824,"cl":825,"day":826,"Ġgirl":827,"Ġte":828,"ence":829,"Ġcame":830,"Ġfo":831,"ful":832,"Ġcomp":833,"Ġsha":834,"ated":835,"ory":836,"av":837,"Ġchi":838,"hen":839,"Ġmust":840,"ied":841,"HE":842,"gg":843,"Ġeven":844,"Ġgreat":845,"ions":846,"ward":847,"pe":848,"Ġapp":849,"ah":850,"Ġact":851,"Ġhel":852,"ried":853,"tain":854,"ict":855,"where":856,"¿½":857,"ï¿½":858,"Ġthree":859,"riend":860,"Ġthose":861,"Ġchild":862,"Ġmay":863,"do":864,"ĠShe":865,"âĻ":866,"atch":867,"ks":868,"Ġlove":869,"Ġturn":870,"Ġhome":871,"Ġdoing":872,"ious":873,"hes":874,"Ġthings":875,"ub":876,"âĻª":877,"ob":878,"Ġch":879,"ave":880,"ix":881,"okay":882,"Ġfind":883,"augh":884,"ĠY":885,"OT":886,"Ġthrough":887,"oy":888,"Ġnew":889,"ily":890,"Ġgive":891,"ens":892,"She":893,"ons":894,"They":895,"Ġhead":896,"ĠV":897,".âĢĿ":898,"ock":899,"Ġlast":900,"lease":901,"Ġstill":902,"ait":903,"ĠĠĠĠĠĠĠĠ":904,"anna":905,"Ġsl":906,"Ġcr":907,"Ġlea":908,"Ġres":909,"Ġhouse":910,"Ġbig":911,"man":912,"ors":913,"Ġhelp":914,"Ġstart":915,"ĠâĢľ":916,"Ġerm":917,"Ġmight":918,"Ġdone":919,"IN":920,"Ġtry":921,"ĠYou":922,"Ġbit":923,"ip":924,"Ġbel":925,"og":926,"This":927,"med":928,"ings":929,"Ġnight":930,"ened":931,"Ġchan":932,"Ġfeel":933,"und":934,"ign":935,"air":936,"ath":937,"ER":938,"aking":939,"hm":940,"Ġmother":941,"Ġanother":942,"but":943,"ms":944,"Ġcont":945,"There":946,"igh":947,"old":948,"ny":949,"Ġmany":950,"oss":951,"Ġalso":952,"Ġbu":953,"xt":954,"oney":955,"Ġcour":956,"Ġown":957,"ans":958,"ail":959,"Ġhar":960,"ild":961,"Ġfriend":962,"ling":963,"Ġkind":964,"body":965,"Ġmin":966,"ually":967,"aw":968,"Ġ.":969,"Ġwon":970,"Ġname":971,"Ġlife":972,"How":973,"ult":974,"Ġuh":975,"Ġsuch":976,"ever":977,"orry":978,"there":979,"Ġche":980,"Ġser":981,"ĠIn":982,"ars":983,"Ġstr":984,"Ġdif":985,"Ġgl":986,"Ġwhy":987,"Ġshow":988,"ways":989,"Ġplace":990,"Ġfound":991,"Ġlot":992,"Ġbetter":993,"up":994,"Ġsure":995,"ee":996,"If":997,"CHI":998,"Ġmom":999,"Ġbeing":1000,"Ġkeep":1001,"ĠCh":1002,"Ġatt":1003,"Ġop":1004,"aby":1005,"Ġwanna":1006,"Ġyears":1007,"Ġcare":1008,"Ġanything":1009,"dy":1010,"anc":1011,"iv":1012,"Ġmost":1013,"Ġbook":1014,"Ġend":1015,"port":1016,"Ġrec":1017,"Ġcha":1018,"00":1019,"led":1020,"Ġdes":1021,"ove":1022,"side":1023,"In":1024,"Ġsupp":1025,"Ġused":1026,"Ġtold":1027,"well":1028,"Do":1029,"li":1030,"akes":1031,"Ġcomm":1032,"oth":1033,"Ġcount":1034,"rest":1035,"Ġeat":1036,"ning":1037,"!\"":1038,"Ġwhile":1039,"come":1040,"Ġaround":1041,".]":1042,"chool":1043,"Ġel":1044,",âĢĿ":1045,"ys":1046,"Ġsame":1047,"----":1048,"imes":1049,"Ġcalled":1050,"let":1051,"Ġits":1052,"row":1053,"Why":1054,"ye":1055,"Ġalways":1056,"ember":1057,"als":1058,"ank":1059,"AN":1060,"not":1061,"rent":1062,"atter":1063,"ple":1064,"Ġfour":1065,"land":1066,"Ġokay":1067,"Ġfather":1068,"Ġroom":1069,"Ġquite":1070,"Ġleft":1071,"ute":1072,"Ġword":1073,"Ġrun":1074,"orm":1075,"can":1076,"OU":1077,"Ġfar":1078,"hank":1079,"ĠThey":1080,"Ġset":1081,"Ġyes":1082,"ness":1083,"pect":1084,"ates":1085,"ations":1086,"Now":1087,"Ġyeah":1088,"Ġhard":1089,"Ġacc":1090,"ss":1091,"Ġnext":1092,"Ġmen":1093,"Ġmoney":1094,"ition":1095,"ince":1096,"uc":1097,"Ġsaw":1098,"Ġear":1099,"Ġcourse":1100,"ident":1101,"Ġface":1102,"Ġcle":1103,"AT":1104,"Okay":1105,"aught":1106,"Ġtook":1107,"laugh":1108,"Ġnice":1109,"ical":1110,"Ġpres":1111,"Ġbre":1112,"Don":1113,"Ġwater":1114,"ret":1115,"Ġbeg":1116,"ner":1117,"Ġmon":1118,"Ġbus":1119,"Ġfin":1120,"Ġever":1121,"ung":1122,"Ġisn":1123,"pped":1124,"Ġschool":1125,"Ġ_":1126,"Ġdoesn":1127,"Ġsit":1128,"Ġbaby":1129,"Ġpol":1130,"Ġwait":1131,"huh":1132,"Ġ201":1133,"Ġelse":1134,"Ġsw":1135,"Ġenough":1136,"oun":1137,"ction":1138,"ream":1139,"Ġwee":1140,"ĠBut":1141,"Ġasked":1142,"Ġac":1143,"Ġob":1144,"Ġupon":1145,"bab":1146,"ĠBr":1147,"Ġpoint":1148,"Ġpret":1149,"Ġgi":1150,"ĠUn":1151,"look":1152,"oc":1153,"ĠAnd":1154,"ĠTHE":1155,"Ġthough":1156,"ph":1157,"Ġunt":1158,"Ġdist":1159,"Ġdiffe":1160,"der":1161,"Ġyoung":1162,"Ġreal":1163,"Ġsur":1164,"Ġwar":1165,"now":1166,"orning":1167,"Ġread":1168,"ott":1169,"Ġind":1170,"Ġwom":1171,"Ġfew":1172,"Ġpass":1173,"Ġbelie":1174,"Ġdr":1175,"ane":1176,"Come":1177,"Ġcoming":1178,"Ġeyes":1179,"Ġhear":1180,"ited":1181,"Ġfam":1182,"ope":1183,"ĠFr":1184,"vers":1185,"llow":1186,"Ġpers":1187,"ible":1188,"Ġmind":1189,"Ġnothing":1190,"Ġret":1191,"Ġsorry":1192,"Ġwalk":1193,"Er":1194,"ont":1195,"how":1196,"vel":1197,"eak":1198,"ta":1199,"Ġuse":1200,"Ġdoor":1201,"Ġside":1202,"ĠMrs":1203,"Ġstay":1204,"Let":1205,"Ġfun":1206,"Ġlooks":1207,"gether":1208,"Ġmorning":1209,"ĠWhat":1210,"MOT":1211,"Is":1212,"Ġplease":1213,"leep":1214,"ished":1215,"Ġfell":1216,"Ġgone":1217,"Ġbest":1218,"ON":1219,"Ġuntil":1220,"Ġbed":1221,"Ġfive":1222,"Ġstand":1223,"Mm":1224,"less":1225,"outh":1226,"Ġchildren":1227,"Ġyet":1228,"Ġseen":1229,"me":1230,"Ġent":1231,"Ġhimself":1232,"rew":1233,"ĠMiss":1234,"ĠMar":1235,"Ġter":1236,"Ġonce":1237,"Ġheart":1238,"az":1239,"Ġheard":1240,"ING":1241,"Ġkill":1242,"ired":1243,"amp":1244,"ross":1245,"vent":1246,"Ġsays":1247,"Ġ3":1248,"Ġrest":1249,"Ġreg":1250,"Uh":1251,"laughs":1252,"ins":1253,"Ġnum":1254,"Ġopen":1255,"Ġwithout":1256,"Ġmoment":1257,"stand":1258,"Ġknew":1259,"ject":1260,"ohn":1261,"Ġlooking":1262,"Ġdra":1263,"Ġnear":1264,"Ġdear":1265,"oll":1266,"Ġfr":1267,"All":1268,"My":1269,"ES":1270,"Ġlight":1271,"omb":1272,"ump":1273,"Ġlooked":1274,"fect":1275,"ww":1276,"Ġri":1277,"mb":1278,"OR":1279,"Ġleave":1280,"uff":1281,"Ġrel":1282,"ec":1283,"Ġhold":1284,"Ġhalf":1285,"ows":1286,"Hey":1287,"Ġball":1288,"ower":1289,"Ġsix":1290,"Ġchar":1291,"addy":1292,"gr":1293,"Not":1294,"most":1295,"Ġmeet":1296,"Ġtri":1297,"Ġsort":1298,"ered":1299,"Ġmar":1300,"Ġtogether":1301,"Ġsoon":1302,"Ġbad":1303,"St":1304,"ug":1305,"ces":1306,"Ġcol":1307,"cle":1308,"ister":1309,"Ġround":1310,"Ġgetting":1311,"ĠAl":1312,"meric":1313,"Ġlist":1314,"ummy":1315,"Ġremember":1316,"Ġans":1317,"Ġcons":1318,"Ġhands":1319,"she":1320,"AR":1321,"Ġsecond":1322,"ween":1323,"ush":1324,"ertain":1325,"Ġmatter":1326,"Ġï¿½":1327,"Ġeach":1328,"unt":1329,"den":1330,"Ġhur":1331,"Ġtoday":1332,"aster":1333,"Ġhaving":1334,"ared":1335,"Ġair":1336,"ures":1337,"leas":1338,"Ġhour":1339,"Ġdec":1340,"Ġfollow":1341,"ener":1342,"ash":1343,"ason":1344,"Ġdri":1345,"Ġworld":1346,"Ġboth":1347,"ird":1348,"Ġwanted":1349,"its":1350,"Ġshall":1351,"Ġdifferent":1352,"mp":1353,"oot":1354,"Ġass":1355,"Ġbetween":1356,"Ġeverything":1357,"Ġi":1358,"Ġperson":1359,"cept":1360,"Ġbelieve":1361,"Be":1362,"ib":1363,"Ġinst":1364,"ma":1365,"Ġstop":1366,"ork":1367,"this":1368,"Right":1369,"Ġsing":1370,"att":1371,"ĠNo":1372,"to":1373,"mber":1374,"Ġsound":1375,"any":1376,"Ġwind":1377,"ial":1378,"ating":1379,"Ġgoes":1380,"Ġsmall":1381,"Ġpick":1382,"Ġagainst":1383,"ĠAmeric":1384,"Ġquest":1385,"Ġpretty":1386,"Ġwond":1387,"Ġdays":1388,"Ġfall":1389,"ready":1390,"ife":1391,"ched":1392,"Ġcap":1393,"ange":1394,"Then":1395,"Ġinte":1396,"Just":1397,"osed":1398,"LL":1399,"Ġbro":1400,"sel":1401,"Ġmil":1402,"aut":1403,"Ġinter":1404,"Ġpap":1405,"iness":1406,"Ġfact":1407,"pr":1408,"ither":1409,"Ġgave":1410,"âĢĵ":1411,"Ġwatch":1412,"Ġ,":1413,"Ġele":1414,"Ġtalking":1415,"ged":1416,"Ġhigh":1417,"ger":1418,"uring":1419,"Ġhappened":1420,"ctor":1421,"ised":1422,"ular":1423,"they":1424,"ully":1425,"ĠGod":1426,"When":1427,"Ġboys":1428,"Ġsk":1429,"Ġunderstand":1430,"ĠEd":1431,"ĠWe":1432,"Ġlive":1433,"Ġactually":1434,"ĠThere":1435,"Ġwhole":1436,"ames":1437,"elt":1438,"Ġmiss":1439,"ets":1440,"ale":1441,"oke":1442,"rist":1443,"Ġinterest":1444,"Ġred":1445,"Ġoh":1446,"Ġsleep":1447,"Ġfire":1448,"orth":1449,"Ġadd":1450,"Ġinv":1451,"ines":1452,"Ġlater":1453,"iet":1454,"Ġhaven":1455,"Ġknown":1456,"bably":1457,"âĢĺ":1458,"Ġid":1459,"Are":1460,"Ġdire":1461,"enty":1462,"ĠThis":1463,"ned":1464,"Ġph":1465,"ĠJohn":1466,"mm":1467,"Ġsil":1468,"Ġimp":1469,"br":1470,"Ġready":1471,"?âĢĿ":1472,"Ġkid":1473,"Ġalong":1474,"EN":1475,"Ġmaking":1476,"ĠInd":1477,"uth":1478,"Where":1479,"ual":1480,"Who":1481,"sh":1482,"Ġfamily":1483,"Ġvo":1484,"Ġpie":1485,"Ġdep":1486,"Thank":1487,"app":1488,"aken":1489,"by":1490,"orrow":1491,"Ġbox":1492,"Ġspeak":1493,"Ġtown":1494,"ĠAr":1495,"Ġtrying":1496,"Ġbring":1497,"ton":1498,"Ġsub":1499,"Ġwouldn":1500,"ier":1501,"Ġposs":1502,"Ġalmost":1503,"Ġwoman":1504,"ents":1505,"\".":1506,"go":1507,"Ġmove":1508,"ced":1509,"Ġwasn":1510,"Ġmet":1511,"Ġeight":1512,"oor":1513,"Ġ18":1514,"ĠNew":1515,"Ġwonder":1516,"Ġexp":1517,"cial":1518,"uss":1519,"IS":1520,"ike":1521,"Ġreturn":1522,"Ġfoot":1523,"ok":1524,"Look":1525,"oe":1526,"ts":1527,"lic":1528,"Ġalready":1529,"Ġhope":1530,"Ġpay":1531,"Ġjob":1532,"Ġstory":1533,"Ġtable":1534,"ined":1535,"Ġdog":1536,"wards":1537,"haps":1538,"Ġdisc":1539,"Did":1540,"Ġref":1541,"undred":1542,"Ġsaying":1543,"Ġmus":1544,"Ġhor":1545,"ĠGer":1546,"Ġtra":1547,"Ġnumber":1548,"Ġ200":1549,"Ġsince":1550,"Ġtop":1551,"Ġguess":1552,"Ġcut":1553,"Ġhat":1554,"Ġseemed":1555,"ters":1556,"Ġbreak":1557,"Ġlar":1558,"ery":1559,"RE":1560,"Ġsent":1561,"ield":1562,"ational":1563,"who":1564,"ĠâĻª":1565,"ax":1566,"ĠAn":1567,"ex":1568,"Ġconf":1569,"Ġten":1570,"Ġsign":1571,"Ġsir":1572,"Ġhundred":1573,"une":1574,"eed":1575,"Ġrep":1576,"Ġum":1577,"aid":1578,"Ġson":1579,"Ġplan":1580,"Good":1581,"ten":1582,"Ġfriends":1583,"Mr":1584,"ĠHar":1585,"Ġrather":1586,"Ġ202":1587,"Ġwrong":1588,"Ġblack":1589,"why":1590,"Ġeas":1591,"Ġfull":1592,"Ġproble":1593,"reen":1594,"mhm":1595,"Ġinf":1596,"On":1597,"ĠCHI":1598,"Ġext":1599,"ying":1600,"Ġaw":1601,"ense":1602,"ric":1603,"ĠEng":1604,"Ġclose":1605,"Ġexc":1606,"Ġcertain":1607,"ony":1608,"Ġgirls":1609,"ision":1610,"ats":1611,"Ġdied":1612,"Ġbrought":1613,"don":1614,"Ġstarted":1615,"Ġ4":1616,"Ġcity":1617,"Ġturned":1618,"Ġbrother":1619,"ĠAs":1620,"Ġland":1621,"omba":1622,"ball":1623,"ries":1624,"Ġprobably":1625,"wer":1626,"Can":1627,"ently":1628,"Ġinc":1629,"Ġcomes":1630,"Ġcountry":1631,"ĠDe":1632,"Ġmonth":1633,"CH":1634,"Ġste":1635,"Ġmyself":1636,"Ġdro":1637,"ĠTh":1638,"Ġstate":1639,"Th":1640,"ants":1641,"fta":1642,"ative":1643,"Ġswe":1644,"Ġbec":1645,"Ġtimes":1646,"Ġbeaut":1647,"vie":1648,"hip":1649,"Ġlost":1650,"Ġvoice":1651,"Ġgame":1652,"Ġ5":1653,"Ġfine":1654,"Ġtaken":1655,"Ġyourself":1656,"ĠGr":1657,"Ġwhite":1658,"Ġhafta":1659,"Ġsat":1660,"Ġfeet":1661,"Ġweek":1662,"selves":1663,"ĠChrist":1664,"Ġwords":1665,"Ġidea":1666,"Ġtrain":1667,"Ġdin":1668,"Ġanim":1669,"Ġmeans":1670,"Ġthank":1671,"aj":1672,"ention":1673,"Ġminute":1674,"bo":1675,"Ġfelt":1676,"ize":1677,"ĠĠĠĠĠĠĠĠĠĠĠĠĠĠĠĠ":1678,"Ġfood":1679,"eter":1680,"Ġexpl":1681,"Ġchair":1682,").":1683,"ĠOh":1684,"Ġprom":1685,"ene":1686,"Ġpoor":1687,"IT":1688,"oub":1689,"oud":1690,"Ġnoise":1691,"Ġsim":1692,"ones":1693,"essie":1694,"fully":1695,"eb":1696,"ted":1697,"Ġdead":1698,"ief":1699,"Ġpict":1700,"ments":1701,"Ġpur":1702,"Ġlad":1703,"ĠSo":1704,"Ġdeal":1705,"Ġhot":1706,"fter":1707,"Ġable":1708,"Ġlaugh":1709,"did":1710,"aybe":1711,"Ġstuff":1712,"cess":1713,"hind":1714,"Ġsy":1715,"Ġbas":1716,"wo":1717,"Ġdrink":1718,"Ġtre":1719,"ĠBen":1720,"ĠCl":1721,"wh":1722,"ama":1723,"itting":1724,"Ġquick":1725,"ï¿½ï¿½":1726,"ouch":1727,"ĠBart":1728,"Ġgener":1729,"Ġbegan":1730,"ĠAmerican":1731,"Ġpop":1732,"ouble":1733,"Ġdeath":1734,"Ġcoll":1735,"Ġcur":1736,"utes":1737,"Ġless":1738,"Ġgrand":1739,"Ġcra":1740,"ured":1741,"Ġcase":1742,"ided":1743,"Ġteam":1744,"du":1745,"Ġtill":1746,"Ġbusiness":1747,"Ġsqu":1748,"Ġshort":1749,"vern":1750,"iful":1751,"clud":1752,"aces":1753,"ches":1754,"ison":1755,"Ġpleas":1756,"ĠTom":1757,"Ġquestion":1758,"Ġes":1759,"ities":1760,"--------":1761,"Ġpaper":1762,"Ġhappen":1763,"ati":1764,"ĠFl":1765,"put":1766,"Ġwin":1767,"ford":1768,"Ġcontin":1769,"Ġform":1770,"ises":1771,"ĠBe":1772,"ĠThen":1773,"For":1774,"Ġdoll":1775,"ately":1776,"As":1777,"Ġpull":1778,"agg":1779,"ern":1780,"for":1781,"AS":1782,"Ġdress":1783,"ĠIs":1784,"Ġfight":1785,"Ġgiven":1786,"key":1787,"ĠYOU":1788,"ues":1789,"Go":1790,"Ġmaybe":1791,"fort":1792,"Ġtaking":1793,"Ġcent":1794,"eth":1795,"ander":1796,"Ġbehind":1797,"anger":1798,"TER":1799,"Ġhair":1800,"Ġclear":1801,"Ġhappy":1802,"Ġpain":1803,"Ġgotta":1804,"Ġwish":1805,"Ġones":1806,"Ġborn":1807,"ages":1808,"Ġleast":1809,"Ġserv":1810,"used":1811,"Ġbuild":1812,"oup":1813,"Ġocc":1814,"airs":1815,"Ġlear":1816,"Ġstra":1817,"Ġlead":1818,"Ġminutes":1819,"gs":1820,"room":1821,"Ġimport":1822,"ĠTO":1823,"head":1824,"Ġev":1825,"ific":1826,"ape":1827,"Ġfront":1828,"Ġduring":1829,"ote":1830,"Ġago":1831,"irty":1832,"io":1833,"Ġcouldn":1834,"Ġins":1835,"Erm":1836,"cil":1837,"Ġplaying":1838,"ald":1839,"Ġstud":1840,"Ġparty":1841,"ital":1842,"Ġsomeone":1843,"Ġalone":1844,"),":1845,"ring":1846,"Ġherself":1847,"Ġchange":1848,"Ġlady":1849,"Ġpresent":1850,"oint":1851,"Ġbar":1852,"Ġfig":1853,"Ġtrue":1854,"Ġfuck":1855,"ĠHow":1856,"Ġguys":1857,"Ġwants":1858,"ina":1859,"aughter":1860,"Ġwife":1861,"enn":1862,"ĠBessie":1863,"Ġreason":1864,"ley":1865,"Ġvis":1866,"\",":1867,"Ġtwenty":1868,"Ġline":1869,"Ġothers":1870,"Ġfav":1871,"reet":1872,"Ġoffic":1873,"Ġcry":1874,"ĠCha":1875,"ĠJap":1876,"ider":1877,"ousand":1878,"Here":1879,"ics":1880,"ized":1881,"Your":1882,"Ġoften":1883,"ĠBomba":1884,"Ġeither":1885,"Get":1886,"Ġstick":1887,"Ġground":1888,"Ġ6":1889,"rence":1890,"ommy":1891,"light":1892,"ert":1893,"like":1894,"iously":1895,"ĠZ":1896,"Ġglad":1897,"ained":1898,"ĠThat":1899,"ik":1900,"unk":1901,"AP":1902,"lish":1903,"Ġrepl":1904,"morrow":1905,"Ġadv":1906,"ED":1907,"aim":1908,"arent":1909,"cy":1910,"Ġem":1911,"Ġmakes":1912,"Ġroad":1913,"fic":1914,"tern":1915,"read":1916,"Ġpri":1917,"olog":1918,"hil":1919,"Ġsister":1920,"Ġmess":1921,"ards":1922,"Ġchance":1923,"Ġlik":1924,"ĠCar":1925,"Al":1926,"Ġdraw":1927,"Ġcir":1928,"Ġmusic":1929,"Ġbeautiful":1930,"Ġguy":1931,"Ġdar":1932,"ots":1933,"een":1934,"Ġfif":1935,"Ġfair":1936,"Ġed":1937,"cted":1938,"Ġstrong":1939,"olly":1940,"ĠUnited":1941,"Ġexpect":1942,"At":1943,"Ġgun":1944,"Ġlisten":1945,"son":1946,"ĠHis":1947,"Ġprov":1948,"ians":1949,"Ġage":1950,"Ġamong":1951,"ster":1952,"Ġ199":1953,"good":1954,"ĠĠĊ":1955,"LE":1956,"ead":1957,"Ġhum":1958,"ĠIf":1959,"Ġopp":1960,"Ġthousand":1961,"II":1962,"Ġdark":1963,"omm":1964,"OM":1965,"ey":1966,"raid":1967,"Ġ8":1968,"ĠYes":1969,"ety":1970,"rict":1971,"Ġoutside":1972,"Ġhon":1973,"Ġfloor":1974,"Ġorder":1975,"Ġbody":1976,"Ġmag":1977,"Ġfore":1978,"Ġarea":1979,"Ġlarge":1980,"aggie":1981,"lex":1982,"Ġplayed":1983,"Ġmouth":1984,"Ġlay":1985,"Ġbecame":1986,"Ġproblem":1987,"Ġpower":1988,"Ġcold":1989,"Ġpar":1990,"Ġimportant":1991,"Ġsum":1992,"Ġtried":1993,"Ġmine":1994,"dle":1995,"just":1996,"Ġpast":1997,"see":1998,"atur":1999,"rie":2000,"ury":2001,"Ġsweet":2002,"Ġmain":2003,"Ġlate":2004,"Ġworking":2005,"Ġseems":2006,"Ġdef":2007,"ides":2008,"ese":2009,"ello":2010,"ĠOF":2011,"Ġmark":2012,"Ġriver":2013,"bed":2014,"Ġforg":2015,"men":2016,"ustr":2017,"Ġcheck":2018,"Re":2019,"Ġmid":2020,"ached":2021,"itch":2022,"Ġpos":2023,"ĠAll":2024,"Ġsn":2025,"Ġthinking":2026,"Ġpartic":2027,"Because":2028,"Ġblue":2029,"Ġsometimes":2030,"Ah":2031,"www":2032,"HAT":2033,"pping":2034,"ND":2035,"ĠMOT":2036,"Ġblood":2037,"Ġrecord":2038,"Ġran":2039,"Ġloc":2040,"Ġacross":2041,"One":2042,"iting":2043,"aced":2044,"oes":2045,"Ġinclud":2046,"ffe":2047,"Ġpub":2048,"Ġbott":2049,"Ġappro":2050,"ĠChar":2051,"Ġrece":2052,"Ġrock":2053,"hall":2054,"ĠAt":2055,"ĠWill":2056,"Ġhell":2057,"Ġinside":2058,"Ġpen":2059,"Ġafraid":2060,"Ġhorse":2061,"Ġaren":2062,"Ġboat":2063,"ĠYork":2064,"ming":2065,"more":2066,"ĠRe":2067,"Ġbear":2068,"Ġhuh":2069,"sing":2070,"ering":2071,"ĠYeah":2072,"ĠStates":2073,"Ġwrite":2074,"Ġtrans":2075,"ze":2076,"hey":2077,"Ġletter":2078,"Ġperhaps":2079,"Ġsurpr":2080,"de":2081,"Ġsun":2082,"Ġsend":2083,"Ġconc":2084,"owing":2085,"Ġseven":2086,"Ġnews":2087,"wered":2088,"Ġhurt":2089,"Ġdinner":2090,"Ġmill":2091,"Ġfunny":2092,"unch":2093,"Ġanswer":2094,"!âĢĿ":2095,".'":2096,"ĠQ":2097,"Ġstood":2098,"Ġgets":2099,"An":2100,"dden":2101,"Ġmed":2102,"Ġho":2103,"oon":2104,"Ġattack":2105,"19":2106,"Ġsong":2107,"Ġra":2108,"Ġfree":2109,"To":2110,"zy":2111,"Ġwear":2112,"gin":2113,"ĠWhen":2114,"Ġanswered":2115,"Ġkept":2116,"Ġpiece":2117,"Ġpicture":2118,"ĠMay":2119,"Ġ7":2120,"umb":2121,"Ġkilled":2122,"cri":2123,"Ġyell":2124,"Ġsudden":2125,"eared":2126,"THE":2127,"Ġcried":2128,"owed":2129,"Ġeng":2130,"Ġearly":2131,"Ġgreen":2132,"ution":2133,"ĠSp":2134,"Ġknows":2135,"Ġain":2136,"ĠJane":2137,"teen":2138,"ĠMaggie":2139,"illy":2140,"ĠAd":2141,"avid":2142,"though":2143,"Ġtrouble":2144,"Ġwood":2145,"Ġhours":2146,"Ġexam":2147,"ices":2148,"Ġ198":2149,"Ġdarling":2150,"RO":2151,"pri":2152,"Ġfast":2153,"Please":2154,"gan":2155,"ature":2156,"ober":2157,"Ġquiet":2158,"Ġbuy":2159,"els":2160,"iding":2161,"Ġsuppose":2162,"AM":2163,"Ġcat":2164,"Ġdaughter":2165,"Ġart":2166,"ued":2167,"âĢĶ":2168,"ains":2169,"idge":2170,"Ġcompany":2171,"ically":2172,"Ġtele":2173,"Ġwhether":2174,"Ġdream":2175,"Ġcannot":2176,"ĠFor":2177,"Ġprot":2178,"irth":2179,"Ġgovern":2180,"Ġwithin":2181,"nce":2182,"Ġheld":2183,"Ġclass":2184,"Ġty":2185,"entle":2186,"Ġsto":2187,"Ġtomorrow":2188,"Ġthemselves":2189,"Ġsomebody":2190,"actly":2191,"acher":2192,"aul":2193,"Ġdoub":2194,"ham":2195,"Ġforward":2196,"Ġreport":2197,"Ġcarry":2198,"Ġresp":2199,"Ġap":2200,"Ġnin":2201,"Ġfro":2202,"Ġlived":2203,"ract":2204,"ality":2205,"Ġsitting":2206,"ility":2207,"rap":2208,"ĠJapan":2209,"Ġcou":2210,"tle":2211,"Ġmovie":2212,"Ġ9":2213,"Ġtree":2214,"Ġwall":2215,"ĠPhil":2216,"hanks":2217,"over":2218,"ounds":2219,"Ġjo":2220,"ĠEnglish":2221,"ĠPe":2222,"Ġphone":2223,"Ġlaw":2224,"ding":2225,"zz":2226,"Ġclean":2227,"Ġpassed":2228,"ken":2229,"amed":2230,"Ġliving":2231,"erv":2232,"ara":2233,"alth":2234,"oof":2235,"Ġclot":2236,"Ġvill":2237,"col":2238,"eng":2239,"Ġcho":2240,"Have":2241,"Ġseem":2242,"Ġsold":2243,"Ġmonths":2244,"Ġca":2245,"Ġspe":2246,"Ġarm":2247,"Ġfear":2248,"Ġfeeling":2249,"artment":2250,"Ġtouch":2251,",--":2252,"ivers":2253,"Ġhit":2254,"ĠDon":2255,"joy":2256,"Ġpossible":2257,"Ġ10":2258,"Ex":2259,"ude":2260,"Ġcook":2261,"bit":2262,"Ġeasy":2263,"Ġwat":2264,"Ġsever":2265,"Ġ-":2266,"Ġmod":2267,"ĠIN":2268,"ists":2269,"Ġton":2270,"Ġfish":2271,"ressed":2272,"Ġrunning":2273,"]?":2274,"ĠBl":2275,"Ġstraight":2276,"Ġfa":2277,"Ġadm":2278,"Ġdie":2279,"Ġfinished":2280,"ST":2281,"bye":2282,"VE":2283,"ator":2284,"ĠDo":2285,"ĠĠĠĠĠĠ":2286,"Ġ*":2287,"Ġfing":2288,"Sh":2289,"Ġheav":2290,"cha":2291,"Ġabs":2292,"eor":2293,"night":2294,"Every":2295,"Maybe":2296,"ocal":2297,"Ġ?":2298,"ism":2299,"Ġconst":2300,"ĠâĢĵ":2301,"Ġcolor":2302,"uly":2303,"Ġill":2304,"Ġbegin":2305,"band":2306,"arch":2307,"AL":2308,"ĠHer":2309,"Ġnine":2310,"Ġstep":2311,"Ġdanger":2312,"aged":2313,"ived":2314,"thank":2315,"Ġterri":2316,"child":2317,"Ġdiffic":2318,"Ġcorn":2319,"ouncil":2320,"ĠMummy":2321,"Ġworry":2322,"Ġ...":2323,"Ġcamp":2324,"Ġseveral":2325,"aser":2326,"Ġbecome":2327,"Ġve":2328,"Ġdem":2329,"Ġcross":2330,"ement":2331,"Ġbooks":2332,"ges":2333,"itc":2334,"Ġobject":2335,"ler":2336,"aur":2337,"gy":2338,"lo":2339,"Ġwhom":2340,"noon":2341,"Ġgentle":2342,"Ġarri":2343,"ays":2344,"aptain":2345,"Of":2346,"osp":2347,"Ġwaiting":2348,"par":2349,"ipp":2350,"ession":2351,"Ġmur":2352,"Ġbirth":2353,"ĠPr":2354,"Ġlovely":2355,"Ġstar":2356,"With":2357,"Ġfield":2358,"oops":2359,"Ġlow":2360,"Ġexcl":2361,"GH":2362,"Ġpolit":2363,"Ġcor":2364,"ls":2365,"Ġcouple":2366,"Ġmot":2367,"Ġcos":2368,"Ġord":2369,"ggy":2370,"iew":2371,"Ġmist":2372,"ĠGu":2373,"empt":2374,"iam":2375,"Ġgra":2376,"Ġexper":2377,"ĠEdna":2378,"Ġforget":2379,"Ġdoctor":2380,"Ġkiss":2381,"itten":2382,"Ġgroup":2383,"bles":2384,"Ġalright":2385,"ept":2386,"velop":2387,"cent":2388,"Ġwomen":2389,"Ġroll":2390,"Ġbreat":2391,"ney":2392,"Ġperfect":2393,"Ġda":2394,"urch":2395,"Ġproper":2396,"Ġce":2397,"OW":2398,"Ġsight":2399,"Ġlives":2400,"Ġtired":2401,"Ġhowever":2402,"co":2403,"Ġhus":2404,"ĠCan":2405,"che":2406,"oop":2407,"rench":2408,"Ġ197":2409,"Ġfavor":2410,"ajor":2411,"Ġdest":2412,"Ġfur":2413,"hard":2414,"ĠX":2415,"Ġmiles":2416,"Ġenjoy":2417,"angu":2418,"Some":2419,"ĠBar":2420,"Ġcreat":2421,"ories":2422,"ruary":2423,"Ġdad":2424,"stem":2425,"ceed":2426,"Ġsoft":2427,"ebruary":2428,"Ġtakes":2429,"ask":2430,"alright":2431,"Ġtonight":2432,"ilt":2433,"ĠJack":2434,"ek":2435,"Ġmer":2436,"ĠPro":2437,"ĠCount":2438,"Ġafternoon":2439,"Ġslow":2440,"Ġpolic":2441,"Ġreplied":2442,"iver":2443,"ager":2444,"000":2445,"Ġtea":2446,"Ġought":2447,"Ġmis":2448,"Ġhung":2449,"Ġtoys":2450,"Ġmeant":2451,"Ġtelling":2452,"Any":2453,"Ġ17":2454,"que":2455,"Ġview":2456,"Ġworked":2457,"Ġfellow":2458,"aint":2459,"Ġwhatever":2460,"Hello":2461,"duc":2462,"Ġdisapp":2463,"Ġcharac":2464,"Ġmarried":2465,"Ġbath":2466,"Ġspecial":2467,"ended":2468,"have":2469,"Ġhist":2470,"Ġesc":2471,"bs":2472,"Ġyours":2473,"ĠOn":2474,"Ġbase":2475,"Ġluck":2476,"Ġanimals":2477,"Ġfix":2478,"Ġparticular":2479,"Ġbur":2480,"Ġabove":2481,"Ġrequ":2482,"uro":2483,"Ġsal":2484,"Ġshot":2485,"Ġeverybody":2486,"asp":2487,"Ġblock":2488,"Ġprof":2489,"Ġevening":2490,"Ġfort":2491,"ggest":2492,"Ġwindow":2493,"Ġkids":2494,"aimed":2495,"IC":2496,"ĠCol":2497,"Ġcaught":2498,"amer":2499,"uri":2500,"Ġfly":2501,"Ġneeds":2502,"ID":2503,"va":2504,"iter":2505,"lete":2506,"Wh":2507,"anu":2508,"Ġsea":2509,"dd":2510,"Ġmad":2511,"Ġcatch":2512,"Ġsuggest":2513,"ĠFebruary":2514,"Ġoffice":2515,"See":2516,"Ġhang":2517,"Ġdeep":2518,"ĠLe":2519,"unity":2520,"Ġshar":2521,"ĠAunt":2522,"APTER":2523,"20":2524,"ĠDaddy":2525,"Ġsick":2526,"Ġclothes":2527,"ising":2528,"Ġdet":2529,"Ġworth":2530,"Ġ196":2531,"because":2532,"bl":2533,"Ġbird":2534,"ĠOr":2535,"Ġsecret":2536,"Ġappear":2537,"Ġcirc":2538,"reed":2539,"ances":2540,"Ġstru":2541,"Ġdistrict":2542,"Ġreturned":2543,"ĠNow":2544,"Ġdoubt":2545,"ffect":2546,"Ġring":2547,"ĠWhy":2548,"Ġanyway":2549,"Ġarms":2550,"ĠKing":2551,"Ġhusband":2552,"Ġking":2553,"Ġequ":2554,"ulation":2555,"Ġboard":2556,"ada":2557,"irt":2558,"ored":2559,"Ġsucc":2560,"ray":2561,"Ġbag":2562,"Ġcal":2563,"ĠSir":2564,"Ġsafe":2565,"Ġtrust":2566,"Ġ!":2567,"Ġexactly":2568,"note":2569,"Foot":2570,"Ġdat":2571,"Ġduck":2572,"Ġfill":2573,"Ġlangu":2574,"Ġstation":2575,"Ġmeeting":2576,"CHAPTER":2577,"Ġsystem":2578,"orence":2579,"Ġusually":2580,"Ġstanding":2581,"ET":2582,"Ġdaddy":2583,"Ġspend":2584,"Ġlonger":2585,"Ġpract":2586,"attle":2587,"Ġyellow":2588,"Ġeye":2589,"Ġvisit":2590,"hile":2591,"owers":2592,"Ġshoot":2593,"tered":2594,"AND":2595,"Ġseat":2596,"Ġfigure":2597,"olute":2598,"Ġpoints":2599,"AY":2600,"Ġtowards":2601,"Ġposition":2602,"Ġmilk":2603,"iled":2604,"itty":2605,"ondon":2606,"Ġjump":2607,"Ġmaster":2608,"Ġcost":2609,"Or":2610,"Ġsave":2611,"Ġsupport":2612,"Ġcertainly":2613,"Ġcup":2614,"Ġpolice":2615,"Ġsupposed":2616,"Ġcounty":2617,"uk":2618,"isten":2619,"Ġanyone":2620,"Ġchanged":2621,"Ġindeed":2622,"net":2623,"ean":2624,"Ġpost":2625,"Ġrain":2626,"uation":2627,"oose":2628,"unic":2629,"ĠDavid":2630,"Ġwild":2631,"Ġnur":2632,"idence":2633,"ĠBrit":2634,"Ġcontro":2635,"shall":2636,"Ġsus":2637,"Ġya":2638,"ĠGood":2639,"Footnote":2640,"Mummy":2641,"Ġest":2642,"onel":2643,"Ġship":2644,"Ġdirect":2645,"Ġahead":2646,"Ġnorth":2647,"Ġpu":2648,"icha":2649,"eal":2650,"Ġthirty":2651,"gar":2652,"Ġgold":2653,"Ġexcept":2654,"born":2655,"Ġdiv":2656,"ĠCharl":2657,"ana":2658,"Ġdevelop":2659,"Ġnearly":2660,"OK":2661,"ris":2662,"Ġfit":2663,"ĠJoe":2664,"gram":2665,"Ġbes":2666,"UT":2667,"com":2668,"ights":2669,"Ġprop":2670,"Ġmillion":2671,"Ġ15":2672,"Ġpot":2673,"rat":2674,"Ġcomfort":2675,"Ġremark":2676,"AD":2677,"ĠGeor":2678,"Ġconsider":2679,"Ġeffect":2680,"ĠCon":2681,"fer":2682,"Ġsad":2683,"Ġru":2684,"rupt":2685,"ĠWell":2686,"Ġvar":2687,"then":2688,"Ġmoved":2689,"Ġtest":2690,"cially":2691,"Ġdecided":2692,"Ġsand":2693,"ĠSte":2694,"pril":2695,"Ġshut":2696,"ĠâĢĺ":2697,"Ġhop":2698,"Ġfollowed":2699,"Ġfootball":2700,"ium":2701,"Ġaccount":2702,"ĠCaptain":2703,"iling":2704,"Ġleg":2705,"Ġsounds":2706,"Ġtoy":2707,"ĠMin":2708,"ĠBrad":2709,"ĠCounty":2710,"Ġsilver":2711,"terday":2712,"ĠAlex":2713,"ĠOne":2714,"ĠGerman":2715,"Ġz":2716,"ushed":2717,"Ġknock":2718,"anuary":2719,"ĠâĢĻ":2720,"Ġwa":2721,"ĠWar":2722,"Ġputting":2723,"ĠLondon":2724,"Ġcomplete":2725,"ichael":2726,"ĠAND":2727,"ror":2728,"ĠMc":2729,"Ġbroken":2730,"Ġreached":2731,"mas":2732,"itted":2733,"Ġparent":2734,"form":2735,"Ġla":2736,"ĠDr":2737,"Sorry":2738,"Ġquickly":2739,"ior":2740,"uthor":2741,"la":2742,"Ġtoward":2743,"reek":2744,"ĠIndian":2745,"....":2746,"Ġwhose":2747,"gas":2748,"Ġtreat":2749,"Ġbab":2750,"Ġquar":2751,"ogn":2752,"king":2753,"ĠRos":2754,"Ġstrange":2755,"Ġgiving":2756,"Ġservice":2757,"Ġsuddenly":2758,"Ġgovernment":2759,"Ġspoke":2760,"Ġdrive":2761,"Ġsense":2762,"rigin":2763,"Ġlearn":2764,"cuse":2765,"_,":2766,"Ġav":2767,"Ġmount":2768,"ĠFlorence":2769,"Ġpress":2770,"iron":2771,"ĠMy":2772,"Ġ12":2773,"Ġclim":2774,"Ġclos":2775,"Ġleaving":2776,"when":2777,"Ġoper":2778,"stairs":2779,"hern":2780,"Ġspec":2781,"Ġval":2782,"Ġstri":2783,"Ġcover":2784,"ffic":2785,"Thanks":2786,"ĠFrank":2787,"Ġwritten":2788,"Ġexpress":2789,"emy":2790,"Ġband":2791,"ging":2792,"Ġprotect":2793,"itchen":2794,"Ġmention":2795,"Ġevent":2796,"Ġnose":2797,"Ġtot":2798,"vision":2799,"Ġbroke":2800,"Ġdam":2801,"Ġpage":2802,"Ġburn":2803,"iff":2804,"ffee":2805,",'":2806,"Ġhors":2807,"Ġmember":2808,"Ġshout":2809,"hold":2810,"Ġdifficult":2811,"omp":2812,"Ġiss":2813,"Ġhappens":2814,"Ġinstead":2815,"Ġlie":2816,"Ġcarried":2817,"ĠIT":2818,"ighb":2819,"Ġisland":2820,"Ġexclaimed":2821,"lean":2822,"Ġsuper":2823,"Ġorgan":2824,"Ġopened":2825,"Ġaccept":2826,"ĠJanuary":2827,"Ġtruth":2828,"Ġheavy":2829,"Ġbirthday":2830,"Ġdecl":2831,"Ġinform":2832,"ichard":2833,"Ġnamed":2834,"ift":2835,"ĠTr":2836,"arden":2837,"Ġfifty":2838,"Ġcool":2839,"Ġsuccess":2840,"sc":2841,"Ġpack":2842,"rill":2843,"Ġkitchen":2844,"Ġrecogn":2845,"oul":2846,"Ġweeks":2847,"Ġcharacter":2848,"Ġtick":2849,"ĠFrench":2850,"mbers":2851,"Ġcrazy":2852,"Ġride":2853,"Ġstopped":2854,"mother":2855,"Ġstreet":2856,"Wait":2857,"ounter":2858,"Ġice":2859,"ency":2860,"EL":2861,"Hi":2862,"ĠPar":2863,"Ġ195":2864,"does":2865,"fast":2866,"Ġah":2867,"Ġimag":2868,"Ġeating":2869,"con":2870,"Ġgall":2871,"Ġnecess":2872,"Ġcompan":2873,"Ġseries":2874,"'.":2875,"ient":2876,"ination":2877,"ĠNorth":2878,"Ġbelong":2879,"ience":2880,"ously":2881,"ancy":2882,"ospital":2883,"Ġbright":2884,"Ġcast":2885,"Ġann":2886,"----------------":2887,"gue":2888,"rer":2889,"ips":2890,"iles":2891,"Ġeveryone":2892,"Ġ]":2893,"Ġtem":2894,"Ġang":2895,"Ġplaces":2896,"Tell":2897,"Ste":2898,"two":2899,"Ġcop":2900,"Ġpig":2901,"Ġdelight":2902,"After":2903,"sy":2904,"time":2905,"Ġfail":2906,"Ġegg":2907,"acy":2908,"Ġut":2909,"ĠSc":2910,"Ġwhis":2911,"ĠTo":2912,"Ġvillage":2913,"Ġsomewhere":2914,"bert":2915,"Ġgeneral":2916,"ĠMan":2917,"Ġgrow":2918,"Ġfollowing":2919,"Ġbuilding":2920,"Really":2921,"hell":2922,"Ġ194":2923,"Ġfucking":2924,"Ġfurther":2925,"ishing":2926,"ooh":2927,"Ġprison":2928,"Ġled":2929,"Ġstore":2930,"ified":2931,"Ġpublic":2932,"Take":2933,"ĠAb":2934,"Ġyesterday":2935,"Ġinterested":2936,"ives":2937,"Ġbra":2938,"Ġorigin":2939,"Ġresult":2940,"Ġalthough":2941,"Ġbull":2942,"Ġ16":2943,"Ġanybody":2944,"IR":2945,"Ġlevel":2946,"Ġthrow":2947,"resent":2948,"Ġbow":2949,"Ġmiddle":2950,"Ġteacher":2951,"Ġcab":2952,"Ġnational":2953,"Ġju":2954,"ingly":2955,"Ġneck":2956,"Ġwarm":2957,"ĠFrance":2958,"which":2959,"singing":2960,"Ġspir":2961,"amb":2962,"amma":2963,"ears":2964,"Ġbank":2965,"Ġshop":2966,"Ġlim":2967,"Ġreleas":2968,"rop":2969,"Ġcre":2970,"ĠNove":2971,"Ġcommon":2972,"Fr":2973,"say":2974,"iversity":2975,"CK":2976,"Ġlikes":2977,"ĠGo":2978,"icks":2979,".--":2980,"orld":2981,"Ġslight":2982,"Ġcareful":2983,"Ġcurrent":2984,"nes":2985,"Ġsnow":2986,"Ġmembers":2987,"Ġsingle":2988,"ĠNot":2989,"Ġlocal":2990,"Like":2991,"roy":2992,"ĠSouth":2993,"ĠNovember":2994,"yn":2995,"iny":2996,"Ġemp":2997,"Ġsilence":2998,"hel":2999,"ĠPer":3000,"Ġloved":3001,"Ġtur":3002,"Ġdev":3003,"His":3004,"was":3005,"ills":3006,"Ġsituation":3007,"Ġdistance":3008,"work":3009,"Ġban":3010,"ĠWest":3011,"Ġwrote":3012,"Ġdescri":3013,"Stop":3014,"Ġreceived":3015,"ĠBob":3016,"Ġmatch":3017,"Ġcond":3018,"Ġhuman":3019,"ply":3020,"ĠEuro":3021,"pecially":3022,"ai":3023,"Ġbought":3024,"Ġitself":3025,"Ġthird":3026,"iday":3027,"Ġanx":3028,"ĠEngland":3029,"Ġfut":3030,"Ġhol":3031,"Ġbusy":3032,"Ġlanguage":3033,"Will":3034,"some":3035,"Ġmoving":3036,"Ġsummer":3037,"Ġauthor":3038,"ctober":3039,"ĠWh":3040,"cient":3041,"Ġquestions":3042,"arr":3043,"ĠJim":3044,"eptember":3045,"leanor":3046,"ya":3047,"Ġneighb":3048,"olutely":3049,"Ġlab":3050,"phone":3051,"Ġwatching":3052,"Ġcoffee":3053,"Ġrespect":3054,"rief":3055,"Ġshouldn":3056,"Ġdepartment":3057,"Ġbud":3058,"uty":3059,"Ġdefe":3060,"ardon":3061,"Ġcompl":3062,"Ġattention":3063,"Ch":3064,"cket":3065,"aug":3066,"gged":3067,"Ġvol":3068,"ĠCal":3069,"Ġ2020":3070,"ege":3071,"ician":3072,"Ġcow":3073,"Ġself":3074,"ĠAfter":3075,"play":3076,"mo":3077,"Ġhospital":3078,"ALL":3079,"Ġreach":3080,"Ġsell":3081,"Ġvict":3082,"ugust":3083,"SIS":3084,"resh":3085,"ĠUncle":3086,"bing":3087,"mon":3088,"Ġusing":3089,"Ġmajor":3090,"val":3091,"Ġnor":3092,"friend":3093,"Ġnone":3094,"Ġsubject":3095,"Ġcrow":3096,"Ġadded":3097,"Ġincre":3098,"Ġtape":3099,"Ġhealth":3100,"ament":3101,"Ġsol":3102,"asion":3103,"Ġprogram":3104,"Ġcontinued":3105,"makes":3106,"yond":3107,"ĠDan":3108,"Ġfinish":3109,"Ġcause":3110,"ĠCity":3111,"Ġmommy":3112,".âĢĻ":3113,"ral":3114,"Ġformer":3115,"Ġ2021":3116,"Ġslowly":3117,"Gr":3118,"Ġbene":3119,"ums":3120,"Ġlose":3121,"Ġregion":3122,"ĠApril":3123,"Ġseeing":3124,"rene":3125,"Ġdi":3126,"ĠComm":3127,"ĠLet":3128,"ission":3129,"Ġchief":3130,"Ġtrees":3131,"IGH":3132,"Ġrid":3133,"cious":3134,"Ġcommand":3135,"Ġearth":3136,"ĠPaul":3137,"Ġprodu":3138,"Ġprin":3139,"Ġcharge":3140,"Ġbottom":3141,"Ġparents":3142,"Ġlots":3143,"Ġreleased":3144,"sit":3145,"Ġdry":3146,"Ġblow":3147,"ĠFraser":3148,"Ġallowed":3149,"ĠJuly":3150,"Ġwalked":3151,"Ġinvol":3152,"rit":3153,"ĠAm":3154,"viously":3155,"Ġver":3156,"icken":3157,"Ġcapt":3158,"Ġwonderful":3159,"Ġfuture":3160,"chan":3161,"Ġshit":3162,"Ġanymore":3163,"Ġappeared":3164,"Ġcorner":3165,"LD":3166,"lect":3167,"Ġlegs":3168,"uhhuh":3169,"Ġpieces":3170,"Ġexample":3171,"Ġhorses":3172,"ĠST":3173,"ĠWorld":3174,"Ġserious":3175,"Ġshowed":3176,"Ġpaid":3177,"Ġbeat":3178,"Ġleaves":3179,"Ġbuilt":3180,"bers":3181,"gu":3182,"Ġspot":3183,"Ġdollars":3184,"ĠSh":3185,"ĠAdam":3186,"ased":3187,"ĠSeptember":3188,"Ġgod":3189,"ĠRichard":3190,"iod":3191,"Ġhoney":3192,"ĠSw":3193,"Ġshoes":3194,"Ġscar":3195,"babbles":3196,"Ġtelevision":3197,"Listen":3198,"Ġfarm":3199,"Ġswim":3200,"Ġbreakfast":3201,"lay":3202,"ining":3203,"ĠON":3204,"Ġlock":3205,"Ġaccident":3206,"gasps":3207,"house":3208,"vol":3209,"ĠOctober":3210,"Ġclub":3211,"Ġturns":3212,"Ġglass":3213,"aff":3214,"ĠPol":3215,"isted":3216,"ĠChristmas":3217,"Un":3218,"ploy":3219,"hello":3220,"Ġsex":3221,"antly":3222,"Ġregard":3223,"Ġtruck":3224,"SE":3225,"Ġlift":3226,"Ġtast":3227,"iced":3228,"Ġtor":3229,"athe":3230,"Ġrad":3231,"ron":3232,"Ġworks":3233,"Ġhate":3234,"sp":3235,"with":3236,"ume":3237,"Ġletters":3238,"Ġextra":3239,"ribut":3240,"ĠMe":3241,"ĠSha":3242,"ĠBE":3243,"Ġrub":3244,"esus":3245,"Ġforce":3246,"ground":3247,"llustr":3248,"Ġport":3249,"amund":3250,"Ġseason":3251,"Ġattempt":3252,"hood":3253,"ĠAlexander":3254,"Ġnoises":3255,"Ġ11":3256,"ology":3257,"aching":3258,"Ġbreath":3259,"Ġeff":3260,"ĠDor":3261,"medi":3262,"Ġdirection":3263,"Ġpopulation":3264,"ille":3265,"ĠTe":3266,"fl":3267,"your":3268,"Ġnatur":3269,"Ġterrible":3270,"ires":3271,"Ġkick":3272,"ĠChi":3273,"ĠBy":3274,"Ġhistory":3275,"off":3276,"Ġcas":3277,"Ġweren":3278,"Ġdropped":3279,"Ġbeginning":3280,"Ġpati":3281,"Ġstuck":3282,"Give":3283,"iol":3284,"Ġnorm":3285,"Ġmanner":3286,"aret":3287,"Ġlunch":3288,"Ġhasn":3289,"Ġlying":3290,"Ġcollect":3291,"Me":3292,"Ġ$":3293,"isf":3294,"Ġcouncil":3295,"Ġchurch":3296,"Ġentire":3297,"ĠBritish":3298,"Ġvocal":3299,"Ġhall":3300,"ĠAugust":3301,"Ġjud":3302,"ounded":3303,"Ġtype":3304,"Ġhig":3305,"Ġarr":3306,"Ġbread":3307,"ENT":3308,"nect":3309,"isc":3310,"Ġhast":3311,"ĠEl":3312,"Ġnames":3313,"cember":3314,"Ġworse":3315,"Ġ193":3316,"Ġperiod":3317,"Ġterm":3318,"Per":3319,"Ġpromise":3320,"ppy":3321,"ĠGrand":3322,"._":3323,"ino":3324,"lly":3325,"Ġhous":3326,"irm":3327,"ode":3328,"Ġanimal":3329,"VER":3330,"ĠGreat":3331,"ĠEurope":3332,"Ġmach":3333,"ĠAg":3334,"Ġpresident":3335,"Ġputs":3336,"Ġprep":3337,"view":3338,"Ġinformation":3339,"Ġpal":3340,"anced":3341,"Ġliked":3342,"gest":3343,"ti":3344,"estern":3345,"Ġpriv":3346,"isk":3347,"riage":3348,"Ġsmile":3349,"Ġshare":3350,"Ġcontrol":3351,"Um":3352,"ĠJune":3353,"Ġ14":3354,"Ġwalking":3355,"Ġinteresting":3356,"itive":3357,"Ġpark":3358,"uts":3359,"Ġmem":3360,"ĠMal":3361,"Ġarmy":3362,"Ġcray":3363,"Ġpretend":3364,"of":3365,"Ġgarden":3366,"aven":3367,"rel":3368,"elve":3369,"Ġye":3370,"Ġwel":3371,"ĠTHAT":3372,"Ġeduc":3373,"ien":3374,"Ġhey":3375,"clock":3376,"Ġcrying":3377,"ĠSome":3378,"aker":3379,"ength":3380,"would":3381,"ĠPat":3382,"Ġtalked":3383,"Ġdiscuss":3384,"Ġcrowd":3385,"omes":3386,"Ġbeyond":3387,"Ġconvers":3388,"ization":3389,"vin":3390,"inite":3391,"Ġpounds":3392,"Ġsmell":3393,"Does":3394,"Ġdrop":3395,"sey":3396,"Ġjack":3397,"ably":3398,"ĠLuc":3399,"Ġcamer":3400,"ĠMark":3401,"duced":3402,"By":3403,"Ġdance":3404,"omas":3405,"acing":3406,"ula":3407,"erson":3408,"upid":3409,"ston":3410,"wood":3411,"has":3412,"Ġsurprise":3413,"UN":3414,"Ġremain":3415,"ELL":3416,"Ġsle":3417,"Ġalive":3418,"resident":3419,"Ġsettle":3420,"ĠGerva":3421,"Nothing":3422,"Ġhungry":3423,"Ġeffort":3424,"Would":3425,"ĠLord":3426,"overed":3427,"Ġproblems":3428,"AK":3429,"inary":3430,"erve":3431,"Ġfool":3432,"Ġjour":3433,"Ġholding":3434,"ĠGervaise":3435,"lt":3436,"ĠSund":3437,"Ġdifference":3438,"Somet":3439,"eep":3440,"Ġtend":3441,"Ġneeded":3442,"ĠGeorge":3443,"Mar":3444,"Ġcand":3445,"Ġstren":3446,"astic":3447,"Ġasking":3448,"Ġbelow":3449,"Ġpleasure":3450,"ĠWho":3451,"Ġfil":3452,"Ġbutter":3453,"unny":3454,"ustom":3455,"ĠPeter":3456,"ference":3457,"Ġcove":3458,"ĠMarch":3459,"ĠPeggy":3460,"Ġtow":3461,"chn":3462,"Ġwriting":3463,"Ġcompet":3464,"Ġelect":3465,"lished":3466,"uge":3467,"Ġimmedi":3468,"ĠDecember":3469,"Even":3470,"Sure":3471,"oman":3472,"ica":3473,"ĠCo":3474,"cell":3475,"ument":3476,"]!":3477,"Ġpush":3478,"igg":3479,"ĠJust":3480,"Ġsatisf":3481,"ala":3482,"Ġlaughing":3483,"Ġpolicy":3484,"Which":3485,"unicip":3486,"counter":3487,"ĠCome":3488,"Ġagree":3489,"Ġobs":3490,"ĠRosamund":3491,"Mhm":3492,"Ġfat":3493,"Ġthanks":3494,"Ġfinally":3495,"lden":3496,"arty":3497,"aper":3498,"iers":3499,"set":3500,"Ġdrew":3501,"Ġlength":3502,"ĠMad":3503,"ĠSe":3504,"Ġjoy":3505,"unting":3506,"Ġcourt":3507,"CE":3508,"mit":3509,"Ġdeter":3510,"Ġpicked":3511,"Ġrespons":3512,"baby":3513,"Ġcru":3514,"Ġgen":3515,"Ġmanage":3516,"Ġreading":3517,"box":3518,"Ġgames":3519,"ashed":3520,"cture":3521,"Ġaff":3522,"azing":3523,"Ġinvest":3524,"Ġfavorite":3525,"bur":3526,"Ġfresh":3527,"pper":3528,"Ġolder":3529,"Ġmass":3530,"Ġfright":3531,"will":3532,"pose":3533,"yl":3534,"zen":3535,"Ġrepe":3536,"Ġnobody":3537,"ĠRoy":3538,"Ġuncle":3539,"Ġjuice":3540,"under":3541,"Ġfle":3542,"ilar":3543,"Ġninet":3544,"bout":3545,"ashing":3546,"ĠMary":3547,"Ġspent":3548,"oseph":3549,"Ġbrown":3550,"RI":3551,"please":3552,"Ġviol":3553,"Ġamount":3554,"ĠIndians":3555,"Ġrul":3556,"Ġproject":3557,"Ġstreng":3558,"Ġwide":3559,"othy":3560,"illa":3561,"Ġpossib":3562,"board":3563,"ees":3564,"ĠWith":3565,"Ġlikely":3566,"su":3567,"atives":3568,"ĠRuss":3569,"pes":3570,"Ġturning":3571,"ancing":3572,"take":3573,"Ġears":3574,"ades":3575,"ption":3576,"Ġespecially":3577,"Ġma":3578,"Ġfrog":3579,"Ġtall":3580,"str":3581,"elen":3582,"Ġfinger":3583,"inct":3584,"Ġwag":3585,"Very":3586,"cer":3587,"vious":3588,"Ġsens":3589,"Ġgrew":3590,"Ġsepar":3591,"Ġrap":3592,"ĠUniversity":3593,"NG":3594,"lin":3595,"Ġdate":3596,"Ġhero":3597,"ĠSec":3598,"Ġtrack":3599,"ashion":3600,"Ġinfl":3601,"Ġloud":3602,"aded":3603,"ils":3604,"ĠFOR":3605,"Ġgives":3606,"Ġhole":3607,"ĠMa":3608,"ĠRep":3609,"nel":3610,"wow":3611,"wise":3612,"erved":3613,"ĠIrene":3614,"ĠItal":3615,"Ġrose":3616,"Ġraised":3617,"Daddy":3618,"por":3619,"olf":3620,"Ġcomb":3621,"Ġdesign":3622,"Ġtail":3623,"Ġemb":3624,"ĠJames":3625,"ĠJones":3626,"Ġspring":3627,"Ġcareer":3628,"aturday":3629,"Ġforgot":3630,"nie":3631,"oming":3632,"ĠMom":3633,"Ġspeed":3634,"Ġfeed":3635,"Ġexplain":3636,"ĠBradford":3637,"Ġlaid":3638,"ĠFather":3639,"Ġsky":3640,"Ġspeaking":3641,"iar":3642,"Ġmunicip":3643,"ĠWhere":3644,"cks":3645,"pered":3646,"Ġhardly":3647,"Ġconcer":3648,"Ġcamera":3649,"Mom":3650,"Ġsilly":3651,"Ġsuff":3652,"Ġ13":3653,"ĠEx":3654,"Ġgrass":3655,"Ġhandle":3656,"CT":3657,"Ġlaug":3658,"Ġthinks":3659,"Ġrepresent":3660,"Ġsimply":3661,"ION":3662,"Ġaut":3663,"ĠSu":3664,"Ġrough":3665,"Ġoccasion":3666,"Excuse":3667,"Ġwet":3668,"Ġfol":3669,"These":3670,"Ġknights":3671,"Ġmonkey":3672,"ĠAmerica":3673,"Ġinterrupt":3674,"Ġarrived":3675,"ĠSunday":3676,"Ġlaughed":3677,"Ġwash":3678,"ales":3679,"ĠSm":3680,"ĠTHI":3681,"Ġspace":3682,"Ġflowers":3683,"Ġbound":3684,"atic":3685,"Ġtwelve":3686,"Illustr":3687,"Pe":3688,"cher":3689,"erry":3690,"Ġcake":3691,"Ġhide":3692,"Ġengine":3693,"Ġdestroy":3694,"Ġbattle":3695,"Ġdue":3696,"Ġthreat":3697,"ĠHarry":3698,"UR":3699,"tr":3700,"Ġstupid":3701,"ĠAf":3702,"aps":3703,"Ġintro":3704,"Ġoccur":3705,"Ġsouth":3706,"Ġcream":3707,"ora":3708,"Ġpray":3709,"lier":3710,"Ġcaptain":3711,"Ġdeterm":3712,"rem":3713,"itions":3714,"eder":3715,"Was":3716,"Ġteeth":3717,"Ġninety":3718,"Ġpuzz":3719,"omin":3720,"ĠAre":3721,"ĠCharlie":3722,"LY":3723,"Ġbrief":3724,"Ġweap":3725,"ĠOK":3726,"OP":3727,"rect":3728,"Ġpause":3729,"ĠME":3730,"Ġcontain":3731,"Ġsett":3732,"ĠWilliam":3733,"Ġcovered":3734,"Ġguard":3735,"Ġ30":3736,"iant":3737,"ico":3738,"ĠMarie":3739,"Ġbottle":3740,"Cl":3741,"Two":3742,"kes":3743,"whis":3744,"Ġhy":3745,"Ġasleep":3746,"ĠEm":3747,"Ġways":3748,"Ar":3749,"Our":3750,"bes":3751,"ky":3752,"kin":3753,"itude":3754,"ĠIS":3755,"Ġhost":3756,"elly":3757,"ĠLady":3758,"Ġarrest":3759,"Ġpocket":3760,"Ġentered":3761,"Ġbabies":3762,"cul":3763,"Ġ2019":3764,"Ġhurry":3765,"Ġofficer":3766,"ari":3767,"Ġgoin":3768,"Ġcalling":3769,"Ġhelped":3770,"Ġoppos":3771,"Sp":3772,"Ġfre":3773,"iment":3774,"...?":3775,"Ġ2018":3776,"Ġemploy":3777,"Ġsurprised":3778,"ox":3779,"Ġvide":3780,"Ġclosed":3781,"ĠIsland":3782,"Ġcard":3783,"Ġforth":3784,"Ġladies":3785,"Ġopport":3786,"Ġfingers":3787,"From":3788,"Ġmeat":3789,"ĠMichael":3790,"Ġrich":3791,"ording":3792,"Mrs":3793,"ners":3794,"iforn":3795,"Ġterms":3796,"ipe":3797,"Ġident":3798,"ĠLea":3799,"ĠOf":3800,"Ġstarts":3801,"ket":3802,"Ġnotice":3803,"Ġpeace":3804,"Illustration":3805,"maybe":3806,"raph":3807,"Ġbridge":3808,"Ġannoun":3809,"Ġstage":3810,"ĠSam":3811,"Ġprocess":3812,"Ġconnect":3813,"Ġscared":3814,"Ġfellows":3815,"eneral":3816,"Ġcapital":3817,"Ġincluding":3818,"IGHT":3819,"wait":3820,"Ġstream":3821,"chie":3822,"Ġsimple":3823,"Ġcabin":3824,"Ġduty":3825,"ĠMer":3826,"ĠHey":3827,"Ġpleased":3828,"Ġmistake":3829,"IM":3830,"itary":3831,"eddy":3832,"Ġund":3833,"Ġtherefore":3834,"hire":3835,"gon":3836,"phan":3837,"ration":3838,"elest":3839,"Ġnineteen":3840,"din":3841,"ipped":3842,"Ġcuri":3843,"Ġeast":3844,"Ġeager":3845,"Ġwelcome":3846,"usion":3847,"ushing":3848,"ads":3849,"Ġkey":3850,"ivid":3851,"Ġbuck":3852,"Ġthrew":3853,"Ġdriving":3854,"ĠCaliforn":3855,"Ġnecessary":3856,"Miss":3857,"Ġgar":3858,"Ġforty":3859,"roat":3860,"Ġneg":3861,"Ġjoin":3862,"Ġsusp":3863,"Ġnote":3864,"Ġsinging":3865,"Ġescape":3866,"tell":3867,"ĠHall":3868,"ression":3869,"Ġhonest":3870,"Pro":3871,"Ġgate":3872,"ĠRE":3873,"Could":3874,"Ġtone":3875,"Ġdeli":3876,"iance":3877,"ns":3878,"reme":3879,"ĠMommy":3880,"ĠLou":3881,"aves":3882,"Ġur":3883,"essor":3884,"yer":3885,"Ġtax":3886,"Ġmamma":3887,"Ġplaced":3888,"ĠNational":3889,"Ġsimilar":3890,"ĠJapanese":3891,"initely":3892,"ita":3893,"Ġpir":3894,"ĠPresident":3895,"Ġspell":3896,"ida":3897,"ograp":3898,"Ġholds":3899,"May":3900,"cour":3901,"sings":3902,"uce":3903,"Ġbomb":3904,"Ġnea":3905,"ĠChe":3906,"ittee":3907,"Ġspread":3908,"Ġshows":3909,"Ġskin":3910,"Bl":3911,"down":3912,"Ġyouth":3913,"Ġgas":3914,"ables":3915,"Ġanywhere":3916,"ĠCalifornia":3917,"John":3918,"Sir":3919,"ella":3920,"Ġunless":3921,"Ġpictures":3922,"Ġstrength":3923,"Mommy":3924,"Tr":3925,"Ġfamil":3926,"Ġtight":3927,"rey":3928,"itz":3929,"arth":3930,"Ġsearch":3931,"ĠDad":3932,"Ġtechn":3933,"Ġvarious":3934,"rs":3935,"Ġsoul":3936,"ĠThese":3937,"Ġbroad":3938,"Ġcaused":3939,"Ġpet":3940,"aches":3941,"eless":3942,"Ġchap":3943,"Ġnumbers":3944,"Ġmarket":3945,"Ġstrugg":3946,"Ġcompletely":3947,"Ġdeclared":3948,"Ġmachine":3949,"YOU":3950,"da":3951,"oved":3952,"oring":3953,"Ġinqu":3954,"Ġenemy":3955,"ungle":3956,"Ġnatural":3957,"Ġlines":3958,"Ġstories":3959,"ĠMon":3960,"ĠSaturday":3961,"Ġparts":3962,"Ġlaughs":3963,"Ġdressed":3964,"Ġfaith":3965,"De":3966,"ini":3967,"Ġsize":3968,"ites":3969,"Ġrole":3970,"Ġproud":3971,"Ġappre":3972,"Ġcommune":3973,"Ġrelations":3974,"Ġconversation":3975,"Celest":3976,"line":3977,"cely":3978,"hys":3979,"uckles":3980,"Ġscene":3981,"Ġbased":3982,"Ġfilled":3983,"vey":3984,"Ġhappening":3985,"Ġexpected":3986,"ville":3987,"Ġsevent":3988,"Ġimm":3989,"arm":3990,"Ġweather":3991,"Ġcollege":3992,"Ġimmediately":3993,"AVE":3994,"Ġwit":3995,"Ġshore":3996,"Ġ24":3997,"Ġcoat":3998,"ublic":3999,"Ġcrack":4000,"Ġcheer":4001,"exas":4002,"Ġsharp":4003,"God":4004,"Ġdru":4005,"ests":4006,"Ġspr":4007,"Ġ2022":4008,"Ġsteps":4009,"Ġnature":4010,"Ġdeb":4011,"Ġtwice":4012,"Ġourselves":4013,"ails":4014,"Ġregular":4015,"Ġdrawing":4016,"Ġwoods":4017,"Ġremarked":4018,"Ġangry":4019,"Ġspirit":4020,"field":4021,"Ġhadn":4022,"Ġchicken":4023,"Ġeasily":4024,"Ġawful":4025,"Ġpromised":4026,"Ġvocalises":4027,"Celeste":4028,"iving":4029,"worth":4030,"Ġwest":4031,"Ġoffe":4032,"ĠCent":4033,"ĠHouse":4034,"ĠGO":4035,"Ġearn":4036,"Ġphot":4037,"Ġsquare":4038,"Ġinvolved":4039,"IL":4040,"boy":4041,"Ġwand":4042,"ids":4043,"ĠFred":4044,"Ġ25":4045,"ension":4046,"colm":4047,"Ġfault":4048,"Never":4049,"ato":4050,"Ġsaved":4051,"Ġoffer":4052,"Ġrefer":4053,"Ġgentleman":4054,"Ġconside":4055,"ucker":4056,"ĠChair":4057,"Ġconsidered":4058,"Ġflat":4059,"Ġactiv":4060,"give":4061,"Ġcrew":4062,"Ġpun":4063,"Ġlips":4064,"ively":4065,"Ġpersonal":4066,"ĠChristian":4067,"Ġmessage":4068,"Ġtour":4069,"ening":4070,"rian":4071,"ĠBill":4072,"Ġallow":4073,"elp":4074,"Ġsuit":4075,"Ġplain":4076,"Ġpercent":4077,"Ġkeeping":4078,"ĠAlbert":4079,"Ġmentioned":4080,"AU":4081,"haha":4082,"Ġmat":4083,"Ġpan":4084,"otion":4085,"Ġcircle":4086,"hand":4087,"Ġmm":4088,"arry":4089,"ĠTur":4090,"ems":4091,"ousin":4092,"ggie":4093,"Aye":4094,"father":4095,"anny":4096,"Ġpat":4097,"Ġpath":4098,"Ġstro":4099,"Ġusual":4100,"Ġcars":4101,"Ġcomput":4102,"Ġcrit":4103,"Ġsupper":4104,"Ġaddress":4105,"Ġfighting":4106,"Ġlearned":4107,"ĠQue":4108,"Ġbeside":4109,"Ġet":4110,"Ġrate":4111,"ĠDO":4112,"Ġenv":4113,"Ġplays":4114,"Ġperform":4115,"Ġstruck":4116,"Ġabsolutely":4117,"pret":4118,"Ġide":4119,"ences":4120,"ĠMex":4121,"antic":4122,"Ġalb":4123,"Ġblank":4124,"Ġdisp":4125,"Ġaction":4126,"ighs":4127,"otten":4128,"Ġthou":4129,"Ġmissed":4130,"Ġfigures":4131,"10":4132,"Ġsport":4133,"ĠIndia":4134,"Ġeggs":4135,"uel":4136,"ural":4137,"Ġearlier":4138,"Ġfallen":4139,"ustral":4140,"Che":4141,"Ġ&":4142,"Ġcell":4143,"Ġdread":4144,"iger":4145,"raft":4146,"Ġapart":4147,"conom":4148,"OL":4149,"dom":4150,"Ġjungle":4151,"Ġplane":4152,"ĠJesus":4153,"Ġdangerous":4154,"ĠDorothy":4155,"face":4156,"Ġden":4157,"Ġhi":4158,"ĠCreek":4159,"Ġquarter":4160,"yle":4161,"ify":4162,"Ġadvent":4163,"oken":4164,"Ġjoined":4165,"Ġwatches":4166,"Ġblocks":4167,"Ġempty":4168,"Ġcrayon":4169,"back":4170,"Ġ=":4171,"Ġbother":4172,"Ġthick":4173,"ĠMatt":4174,"ĠPl":4175,"ĠJenn":4176,"Ġpolitician":4177,"Ġtou":4178,"ĠKitty":4179,"Ġunc":4180,"Ġpulled":4181,"ointed":4182,"Rem":4183,"mommy":4184,"rim":4185,"want":4186,"Ġmix":4187,"ĠLem":4188,"ĠRam":4189,"cience":4190,"ossible":4191,"Bye":4192,"gress":4193,"wr":4194,"Ġlucky":4195,"Steven":4196,"Ġmunicipality":4197,"\")":4198,"Ġbang":4199,"asure":4200,"alt":4201,"ĠWAS":4202,"Ġmissing":4203,"!'":4204,".,":4205,"Ġble":4206,"ĠOkay":4207,"ensus":4208,"Ġbigger":4209,"Ġcheese":4210,"Ġacqu":4211,"Ġstudy":4212,"Ġgrave":4213,"af":4214,"ka":4215,"oom":4216,"Ġtears":4217,"orough":4218,"Ġspl":4219,"Ġbless":4220,"Ġcoach":4221,"Ġshoulder":4222,"ĠThomas":4223,"Ġperfectly":4224,"IE":4225,"Ġbell":4226,"three":4227,"Ġcalm":4228,"ique":4229,"Ġagreed":4230,"Ġwatched":4231,"Ġmotion":4232,"ĠAfric":4233,"Ġvideo":4234,"Ne":4235,"ran":4236,"Ġdare":4237,"Ġfashion":4238,"anton":4239,"Ġorange":4240,"Ġgrown":4241,"bered":4242,"Ġexperience":4243,"Ġtotal":4244,"Ġbrave":4245,"five":4246,"ugg":4247,"ett":4248,"ĠSchool":4249,"Ġplenty":4250,"Ġproceed":4251,"Ġgrad":4252,"Ġcentury":4253,"Her":4254,"ja":4255,"vies":4256,"cend":4257,"Ġ21":4258,"aud":4259,"Ġdesp":4260,"_.":4261,"orks":4262,"Ġpink":4263,"arily":4264,"urs":4265,"Ġended":4266,"Ġcommunity":4267,"Ġoccup":4268,"eer":4269,"four":4270,"Ġrisk":4271,"soci":4272,"ensive":4273,"Ġstarting":4274,"Only":4275,"Ġpurpose":4276,"Ġhotel":4277,"ï¿½ï¿½ï¿½ï¿½":4278,"Ġwinter":4279,"Ġmurder":4280,"Ġpractice":4281,"Ġimagine":4282,"Cos":4283,"Gu":4284,"ruction":4285,"Ġanxious":4286,"Ġstat":4287,"Ġsail":4288,"Ġexcited":4289,"Eleanor":4290,"uke":4291,"anch":4292,"Ġep":4293,"outhern":4294,"action":4295,"Ġsmoke":4296,"ivil":4297,"itor":4298,"asons":4299,"Ġhiding":4300,"Ġthroat":4301,"Ġrese":4302,"Ġguns":4303,"Ġchoice":4304,"Ġbirds":4305,"inal":4306,"Ġdirty":4307,"enry":4308,"Ġstone":4309,"ĠCouncil":4310,"ĠLo":4311,"ĠRiver":4312,"Ġtrick":4313,"Ġblind":4314,"Ag":4315,"Wow":4316,"Ġdelic":4317,"ĠFort":4318,"Ġloves":4319,"Ġfavour":4320,"Ġsandw":4321,"vell":4322,"Ġplans":4323,"ĠEve":4324,"Ġopportunity":4325,"Ġrace":4326,"Ġfifteen":4327,"18":4328,"Keep":4329,"bell":4330,"cue":4331,"Ġvers":4332,"Ġpleasant":4333,"OME":4334,"ially":4335,"oos":4336,"road":4337,"ĠDid":4338,"ĠJoseph":4339,"lor":4340,"ped":4341,"yep":4342,"Ġfirm":4343,"Ġstorm":4344,"ĠMother":4345,"Ġ(\"":4346,"Ġprice":4347,"ĠStreet":4348,"ilda":4349,"ledge":4350,"Ġissue":4351,"Perhaps":4352,"Ooh":4353,"ki":4354,"za":4355,"Ġ)":4356,"Ġbill":4357,"ĠAustral":4358,"Ġheads":4359,"mpions":4360,"ĠQu":4361,"IF":4362,"hal":4363,"Ġpa":4364,"Ġloss":4365,"Ġrevol":4366,"ĠTexas":4367,"Ġsake":4368,"ĠFrom":4369,"ĠUS":4370,"Ġremem":4371,"Ġexcuse":4372,"Ġbasket":4373,"Ġevidence":4374,"Ġinflu":4375,"Ġweak":4376,"Ġreck":4377,"ĠMart":4378,"eech":4379,"Ġsoldiers":4380,"ĠMalcolm":4381,"uhoh":4382,"astern":4383,"Ġevident":4384,"Qu":4385,"Ġworried":4386,"Ġfamous":4387,"Ġclearly":4388,"Ġflying":4389,"Ġhigher":4390,"wing":4391,"Ġhuge":4392,"anda":4393,"iction":4394,"US":4395,"Ġmud":4396,"Ġpin":4397,"ĠSer":4398,"Ġnoticed":4399,"ola":4400,"Ġplayer":4401,"ĠState":4402,"Bomba":4403,"OD":4404,"icro":4405,"ĠSch":4406,"ĠNe":4407,"Ġtrad":4408,"Ġener":4409,"Ġassist":4410,"Ġdemand":4411,"Ġcircum":4412,"Ġnurse":4413,"Ġtemper":4414,"Dad":4415,"Ġtong":4416,"Ġdig":4417,"ĠBur":4418,"osing":4419,"ĠHere":4420,"Ġcarefully":4421,"obert":4422,",âĢĻ":4423,"rain":4424,"Ġupstairs":4425,"Ġremained":4426,"Ġharm":4427,"ĠMarg":4428,"LES":4429,"cries":4430,"ux":4431,"watch":4432,"oted":4433,"ĠThank":4434,"ĠPark":4435,"Ġperm":4436,"Ġimpro":4437,"Ġhouses":4438,"TH":4439,"west":4440,"Ġchat":4441,"Ġheat":4442,"otte":4443,"Ġformed":4444,"Ġsocial":4445,"Ġneither":4446,"Ġafterwards":4447,"Ġfinal":4448,"Ġdecision":4449,"Ġfalling":4450,"Ġdogs":4451,"Ġofficers":4452,"**":4453,"Ġwake":4454,"lected":4455,"ĠHigh":4456,"Ġeighty":4457,"Ġprepared":4458,"GE":4459,"ĠBert":4460,"Ġvan":4461,"Ġscr":4462,"Ġmoon":4463,"Ġpopular":4464,"Ġjourney":4465,"ere":4466,"lem":4467,"Ġstock":4468,"ĠMac":4469,"ĠMama":4470,"ĠGeneral":4471,"Ġattract":4472,"kiss":4473,"icle":4474,"Ġstret":4475,"--\"":4476,"Ġrob":4477,"Ġfairly":4478,"Ġoriginal":4479,"Ġbudget":4480,"Br":4481,"BRO":4482,"RA":4483,"lebr":4484,"idden":4485,"Ġstars":4486,"ĠAlf":4487,"istic":4488,"Ġfund":4489,"Ġnet":4490,"Ġ23":4491,"ending":4492,"Ġshad":4493,"uses":4494,"Ġdeg":4495,"Ġwilling":4496,"Ġbackground":4497,"Ġimpossible":4498,"wanna":4499,"erm":4500,"arah":4501,"urity":4502,"ĠRob":4503,"Ġscream":4504,"Ġmovies":4505,"Ġsmart":4506,"Ġclever":4507,"Ġgenerally":4508,"arently":4509,"Got":4510,"orter":4511,"Ġexist":4512,"Ġcloud":4513,"INV":4514,"Ġindivid":4515,"Ġwearing":4516,"Ġconcerned":4517,"ctions":4518,"Ġsomewhat":4519,"asy":4520,"ciety":4521,"17":4522,"Great":4523,"vocal":4524,"Ġtiny":4525,"Ġcustom":4526,"aries":4527,"arrow":4528,"Ġinj":4529,"Ġrab":4530,"Ġserved":4531,"Ġobviously":4532,"Ġcolonel":4533,"ĠYour":4534,"Ġyounger":4535,"Ġsleeping":4536,"Ġutter":4537,"Ġtit":4538,"Ġfaces":4539,"Ġlatter":4540,"stop":4541,"Ġareas":4542,"ĠTed":4543,"ĠRed":4544,"noise":4545,"ĠKe":4546,"Ġlistening":4547,"Ġdevelopment":4548,"Ġavail":4549,"Ġnormal":4550,"Car":4551,"First":4552,"FAT":4553,"Ġphys":4554,"urry":4555,"Ġknowing":4556,"ĠEast":4557,"ITH":4558,"Ġfixed":4559,"bly":4560,"Ġiron":4561,"Ġmut":4562,"Ġfem":4563,"Ġweight":4564,"oph":4565,"orthern":4566,"Ġcreated":4567,"Ġprofession":4568,"Ġnaught":4569,"lder":4570,"iring":4571,"Ġ192":4572,"Ġ50":4573,"Ġedge":4574,"Ġestab":4575,"Am":4576,"Say":4577,"Ġign":4578,"Ġaud":4579,"ĠJul":4580,"Ġteach":4581,"Ġdirected":4582,"Ġtravel":4583,"aura":4584,"Ġcomfortable":4585,"Ġspecies":4586,"Hold":4587,"Poss":4588,"jo":4589,"yal":4590,"asc":4591,"ĠSid":4592,"ĠHelen":4593,"Ġroof":4594,"âĢľâĢĺ":4595,"Ġtrip":4596,"non":4597,"reg":4598,"Ġmir":4599,"ĠCass":4600,"Ġwheel":4601,"Ġenter":4602,"Ġmarry":4603,"Ġtaste":4604,"ba":4605,"Ġbeha":4606,"Ġships":4607,"oday":4608,"Ġmedic":4609,"Ġscarcely":4610,"Ġcircumst":4611,"Ġpound":4612,"Ġonto":4613,"Ġeconom":4614,"aked":4615,"ĠChic":4616,"Ġairport":4617,"Ġpurple":4618,"Ġhonor":4619,"Ġprivate":4620,"ĠChairman":4621,"Ha":4622,"heart":4623,"ĠLittle":4624,"Ġdefend":4625,"Fuck":4626,"spect":4627,"het":4628,"Ġhill":4629,"Ġhunting":4630,"Ġwaste":4631,"Ġopin":4632,"Ġbloody":4633,"ography":4634,"TO":4635,"ses":4636,"Ġir":4637,"Ġmater":4638,"Ġtower":4639,"Ġthus":4640,"Ġspoken":4641,"ANT":4642,"Ġtowns":4643,"Ad":4644,"ishes":4645,"Ġdouble":4646,"ĠTucker":4647,"Ġcomment":4648,"Ġlights":4649,"Ġdefinitely":4650,"WE":4651,"craft":4652,"rees":4653,"Ġlap":4654,"Ġemer":4655,"ented":4656,"ĠHi":4657,"istory":4658,"Ġworst":4659,"Ġmeaning":4660,"Ġsettled":4661,"50":4662,"Ġbite":4663,"amn":4664,"ĠRand":4665,"ples":4666,"Ġmostly":4667,"Ġmilitary":4668,"ĠJennie":4669,"turn":4670,"ĠMY":4671,"ĠEll":4672,"Ġeleven":4673,"ĠHowever":4674,"Ġvictim":4675,"ishment":4676,"ival":4677,"Ġsurr":4678,"Ġindic":4679,"Ġparticularly":4680,"Ġrule":4681,"vo":4682,"Ġteddy":4683,"Ġate":4684,"umber":4685,"Ġpencil":4686,"Ġappreci":4687,"using":4688,"abr":4689,"Ġplant":4690,"Ġplate":4691,"Ġquality":4692,"Ġbrain":4693,"ooper":4694,"Ġrelig":4695,"Ġexcit":4696,"Huh":4697,"Mum":4698,"min":4699,"erc":4700,"ĠWE":4701,"Ġarrow":4702,"Ġdriver":4703,"Ġstatement":4704,"ĠBobby":4705,"anning":4706,"vere":4707,"utch":4708,"allas":4709,"ĠAN":4710,"ĠAlden":4711,"Ġbringing":4712,"Ġdiscovered":4713,"Ġeducation":4714,"Ġalbum":4715,"nal":4716,"essel":4717,"Ġcalls":4718,"Ġactor":4719,"Ġresol":4720,"sych":4721,"Ed":4722,"eh":4723,"fit":4724,"got":4725,"ked":4726,"Ġpony":4727,"stit":4728,"ĠBoy":4729,"Ġafford":4730,"Ġcondition":4731,"cellent":4732,"Ġboss":4733,"Ġmum":4734,"ators":4735,"Ġdoc":4736,"Ġ100":4737,"Ġgrowing":4738,"Ġremind":4739,"Ġcontact":4740,"Ġswing":4741,"Ġwalls":4742,"ĠGuy":4743,"Ġrapid":4744,"pen":4745,"Ġtaught":4746,"Ġwed":4747,"Ġthee":4748,"Ġspeech":4749,"Ġsuspect":4750,"UST":4751,"oured":4752,"Ġfond":4753,"Ġheaven":4754,"stood":4755,"ĠHE":4756,"ours":4757,"Ġvac":4758,"ago":4759,"ĠSpan":4760,"ĠDonald":4761,"Ġwagon":4762,"Jack":4763,"dra":4764,"gen":4765,"isa":4766,"Ġcart":4767,"uten":4768,"Ġstaff":4769,"ĠAh":4770,"urt":4771,"Ġrail":4772,"ĠIntern":4773,"Ġsilent":4774,"Ġcontinue":4775,"isy":4776,"Ġodd":4777,"Ġnon":4778,"Ġstairs":4779,"Ġsuc":4780,"berry":4781,"Ġgoodness":4782,"Man":4783,"host":4784,"paper":4785,"Ġtask":4786,"Ġsides":4787,"Ġvessel":4788,"Ġbedroom":4789,"Ġtries":4790,"Ġpicks":4791,"ĠAnge":4792,"Ġbrothers":4793,"Ġcelebr":4794,"Ġburst":4795,"Ġstructure":4796,"Ġmountain":4797,"Ġtongue":4798,"Ġsucceed":4799,"iot":4800,"kins":4801,"Ġfru":4802,"sequ":4803,"Ġdozen":4804,"ESS":4805,"Ġopposite":4806,"Ġcomputer":4807,"hin":4808,"ups":4809,"Ġ#":4810,"Ġbeach":4811,"ĠTwo":4812,"ĠFenn":4813,"Ġclock":4814,"Ġcoast":4815,"Ġseconds":4816,"Ġpapers":4817,"ajest":4818,"ification":4819,"car":4820,"Ġcong":4821,"Ġcult":4822,"ache":4823,"ĠDist":4824,"epend":4825,"Ġservices":4826,"Ġrange":4827,"Ġtells":4828,"Ġfinding":4829,"Ġfeelings":4830,"Ġsurv":4831,"fortun":4832,"ĠGovern":4833,"Gl":4834,"gl":4835,"Ġ..":4836,"Ġtap":4837,"Ġfancy":4838,"Ġpill":4839,"Ġgro":4840,"ĠHenry":4841,"onday":4842,"Ġstranger":4843,"Ġobl":4844,"Ġlawyer":4845,"Ġinvestig":4846,"Ġpossibly":4847,"About":4848,"Ġrow":4849,"Ġtroops":4850,"Ġshape":4851,"Ġchoose":4852,"ONE":4853,"Chi":4854,"Ġlower":4855,"Ġknife":4856,"Ġcondu":4857,"Ġsixty":4858,"ĠColonel":4859,"fall":4860,"ius":4861,"Ġwrest":4862,"icked":4863,"ĠStone":4864,"Ġtext":4865,"ĠGerald":4866,"Ġprovince":4867,"ĠLucy":4868,"Ġdetermined":4869,"ILL":4870,"lend":4871,"outs":4872,"Ġmeal":4873,"fection":4874,"izes":4875,"Ġcontract":4876,"Ġpresence":4877,"Ġcraw":4878,"Ġorders":4879,"Ġsuggested":4880,"Ġradio":4881,"Ġexcitement":4882,"'?":4883,"bb":4884,"cast":4885,"hod":4886,"Ġham":4887,"abri":4888,"Ġfeels":4889,"Ġwaited":4890,"Ġindust":4891,"Ġhello":4892,"Ġprinci":4893,"Ġcensus":4894,"Ġeh":4895,"aled":4896,"Ġstre":4897,"ĠLaw":4898,"Ġ27":4899,"Ġthoughts":4900,"Ġrealize":4901,"Ġaddition":4902,"Ġinclude":4903,"Ġcases":4904,"ĠAir":4905,"tering":4906,"Ġvote":4907,"order":4908,"Ġprefer":4909,"oups":4910,"Ġpair":4911,"Ġant":4912,"Ġtroub":4913,"Ġbelieved":4914,"Ġlargest":4915,"Ġcentre":4916,"ĠLouis":4917,"15":4918,"Ġtar":4919,"Ġcred":4920,"Ġknowledge":4921,"Ġdesk":4922,"Isn":4923,"Ġmatters":4924,"Ġenergy":4925,"sha":4926,"ĠKore":4927,"Ġcourage":4928,"ultan":4929,"Ġaware":4930,"Ġsteal":4931,"Ġforgotten":4932,"Ġmodel":4933,"Ġordered":4934,"People":4935,"Con":4936,"Mama":4937,"Se":4938,"aign":4939,"pa":4940,"Ġbal":4941,"imate":4942,"Ġmere":4943,"Ġbutton":4944,"ulous":4945,"eman":4946,"ĠEvery":4947,"Ġ26":4948,"Ġapple":4949,"oger":4950,"Ġcorrect":4951,"ĠSteven":4952,"Ġpatient":4953,"Ġrepeated":4954,"Ġoffered":4955,"Char":4956,"NOW":4957,"Put":4958,"ĠWind":4959,"Ġconv":4960,"Ġthrown":4961,"HER":4962,"Ġcrime":4963,"Alright":4964,"Ġpolitical":4965,"oid":4966,"Ġbare":4967,"Ġmanaged":4968,"Ġclaim":4969,"ĠIts":4970,"Ġmagnet":4971,"sn":4972,"Ġprevent":4973,"Ġopening":4974,"Ġextreme":4975,"Le":4976,"nown":4977,"ĠCup":4978,"izing":4979,"Ġdecide":4980,"Ġcarrying":4981,"Ġfrightened":4982,"Ġnaughty":4983,"Dr":4984,"HO":4985,"lie":4986,"Ġdancing":4987,"aning":4988,"ĠDem":4989,"Ġ28":4990,"Ġgrab":4991,"ictor":4992,"Ġstayed":4993,"Ġinstant":4994,"Ġwindows":4995,"Ġappearance":4996,"ĠLeague":4997,"ero":4998,"Ġhm":4999,"Ġforces":5000,"ĠNor":5001,"Ġaffect":5002,"Ġstaying":5003,"Ġreply":5004,"Tw":5005,"Ġthin":5006,"icy":5007,"ĠĠĠĠĠĠĠĠĠĠĠĠĠĠĠĠĠĠĠĠĠĠĠĠ":5008,"rilliant":5009,"Ġarrange":5010,"Ġtowel":5011,"Possum":5012,"Ġ--":5013,"Ġdying":5014,"Ġfurn":5015,"keep":5016,"lymp":5017,"looking":5018,"Ġcompanion":5019,"cut":5020,"die":5021,"van":5022,"Ġpool":5023,"Ġforced":5024,"ĠSE":5025,"ĠTheir":5026,"Ġ22":5027,"oking":5028,"Ġleader":5029,"book":5030,"Ġshirt":5031,"Ġdeck":5032,"bey":5033,"HING":5034,"Ġprevious":5035,"Ġ2010":5036,"ĠRepublic":5037,"Ġreckon":5038,"?'":5039,"pro":5040,"rin":5041,"Ġsna":5042,"Ġmor":5043,"atoes":5044,"Ġhomes":5045,"Ġdoors":5046,"osh":5047,"atherine":5048,"Ġhelping":5049,"Ġexplained":5050,"burg":5051,"12":5052,"ĠSan":5053,"chief":5054,"ĠRo":5055,"Ġeasier":5056,"Ġrocks":5057,"AMY":5058,"Ġproperly":5059,"ironment":5060,"ompany":5061,"Ġsuspic":5062,"fle":5063,"rid":5064,"isher":5065,"ords":5066,"Ġmotor":5067,"ĠCharlotte":5068,"Ġrules":5069,"Ġfully":5070,"Ġnarrow":5071,"Ġknees":5072,"Ġshown":5073,"Ġ29":5074,"Ġ2012":5075,"Ġpassing":5076,"ĠFriday":5077,"Fraser":5078,"Ġmemory":5079,"ĠQueen":5080,"Ġetc":5081,"Bart":5082,"oly":5083,"Ġcivil":5084,"Ġlake":5085,"Ġwhist":5086,"ĠAmy":5087,"ĠTV":5088,"Ġshook":5089,"Ġamazing":5090,"Ġmoves":5091,"tained":5092,"Ġpublished":5093,"Ġhistor":5094,"Ġpalace":5095,"Ġwitness":5096,"sed":5097,"amm":5098,"Ġpartner":5099,"Ġprepar":5100,"Ġprim":5101,"Ġsmiling":5102,"PE":5103,"bre":5104,"Ġliter":5105,"usic":5106,"ademy":5107,"ĠAT":5108,"ĠHAVE":5109,"Ġsheep":5110,"ĠPort":5111,"Ġsplend":5112,"Ġqueer":5113,"Ġgroups":5114,"Ġshoulders":5115,"Ġslaves":5116,"Before":5117,"Ġplanning":5118,"Ġmodern":5119,"ĠSmith":5120,"Ġopinion":5121,"ae":5122,"aed":5123,"pardon":5124,"ĠGl":5125,"Ġrights":5126,"Ġproduced":5127,"Ġsurface":5128,"Ġforest":5129,"Ġannounced":5130,"Ġcro":5131,"Ġrout":5132,"Ġshock":5133,"ĠJean":5134,"Ġspoon":5135,"Ġexec":5136,"Ġprogress":5137,"Ġtrunk":5138,"Ġdesper":5139,"Ġrequire":5140,"30":5141,"Tilda":5142,"bits":5143,"could":5144,"every":5145,"sm":5146,"ura":5147,"ĠColl":5148,"ĠRobert":5149,"ucky":5150,"Ġflag":5151,"Ġelection":5152,"Ġadvant":5153,"ĠTHIS":5154,"Ġcircumstances":5155,"roll":5156,"ĠĠĠ":5157,"Ġsaf":5158,"Ġbye":5159,"Ġshake":5160,"Ġstands":5161,"Ġpapa":5162,"ault":5163,"ker":5164,"point":5165,"Ġmate":5166,"ĠHER":5167,"ĠDick":5168,"Ġhurried":5169,"Ġsinger":5170,"Ġleading":5171,"ĠOrder":5172,"ĠSteve":5173,"Ġcloser":5174,"Ġexpression":5175,"Ġcopy":5176,"lear":5177,"olars":5178,"Ġtrade":5179,"ective":5180,"pering":5181,"azed":5182,"Ġshouted":5183,"Ġpuzzle":5184,"Ġcott":5185,"Ġpsych":5186,"Ġdel":5187,"Ġexerc":5188,"ĠOlymp":5189,"udd":5190,"Ġgreatest":5191,"Those":5192,"Ġquietly":5193,"Act":5194,"Ġgift":5195,"rible":5196,"Ġupset":5197,"Didn":5198,"Ġescap":5199,"Ġhanging":5200,"BE":5201,"OH":5202,"Tom":5203,"mund":5204,"ram":5205,"Ġwished":5206,"Ġthy":5207,"place":5208,"Ġflo":5209,"appy":5210,"ĠGermany":5211,"Ġslightly":5212,"Ġswimming":5213,"DS":5214,"ooth":5215,"ĠSing":5216,"Ġsho":5217,"ends":5218,"Ġgreater":5219,"Ġremembered":5220,"Ġsac":5221,"urance":5222,"ulf":5223,"ĠLO":5224,"these":5225,"Ġschools":5226,"Ġ2011":5227,"Ġdirector":5228,"Ġrespond":5229,"ĠBarry":5230,"Something":5231,"ds":5232,"gn":5233,"Ġpad":5234,"Ġaside":5235,"ĠCor":5236,"ĠParty":5237,"ĠLaura":5238,"Ġspo":5239,"apa":5240,"Ġprove":5241,"gging":5242,"ĠChurch":5243,"brother":5244,"Ġadvice":5245,"Ġvalue":5246,"Ġtotally":5247,"Ma":5248,"low":5249,"while":5250,"iti":5251,"Ġfought":5252,"ĠDallas":5253,"osaur":5254,"Ġscrew":5255,"ibility":5256,"Ġwondering":5257,"Ġbathroom":5258,"Ġwhispered":5259,"Ġjudge":5260,"Ġrelationship":5261,"ares":5262,"Ġcad":5263,"ĠDE":5264,"Ġprint":5265,"Ġsmiled":5266,"Ġballs":5267,"\"?":5268,"Ġfra":5269,"Ġple":5270,"Ġinno":5271,"ĠRem":5272,"Ġruns":5273,"199":5274,"ĠSecret":5275,"ajesty":5276,"David":5277,"happy":5278,"itation":5279,"ĠProf":5280,"Since":5281,"ij":5282,"Ġweird":5283,"ching":5284,"Ġshel":5285,"Ġclown":5286,"Ġdism":5287,"Ġfox":5288,"Ġglance":5289,"Ġ2016":5290,"Three":5291,"Ġcampaign":5292,"Ġfortune":5293,"Ġdamn":5294,"Ġavailable":5295,"aeddin":5296,"Ġbod":5297,"Ġfile":5298,"Ġyards":5299,"Ġnap":5300,"enth":5301,"ĠOld":5302,"Ġdreams":5303,"Everything":5304,"Ġneighbor":5305,"Ġwestern":5306,"ĠCH":5307,"Ġjoke":5308,"ĠTH":5309,"Ġsomehow":5310,"Ġscore":5311,"Ġelephan":5312,"iety":5313,"Ġbeauty":5314,"Ġdisappeared":5315,"ĠMinister":5316,"athered":5317,"Â¶":5318,"Ġtie":5319,"Ġachie":5320,"Ġsour":5321,"Ġcards":5322,"Ġstyle":5323,"eaks":5324,"urb":5325,"ilver":5326,"Ġrom":5327,"Ġflight":5328,"Ġcontr":5329,"Ġshowing":5330,"laughing":5331,"ocrat":5332,"Ġstraw":5333,"Ġcruel":5334,"Ġcousin":5335,"ĠSea":5336,"ĠGra":5337,"ĠJo":5338,"Ġperfor":5339,"Ġacting":5340,"Ġtribe":5341,"Ġgentlemen":5342,"Ġknocked":5343,"rick":5344,"Ġwid":5345,"Ġmult":5346,"Ġdun":5347,"Ġhesit":5348,"Ġhunt":5349,"ĠMid":5350,"ĠWil":5351,"Ġsentence":5352,"asped":5353,"Ġevents":5354,"Call":5355,"ole":5356,"Ġwine":5357,"ĠMor":5358,"ĠHay":5359,"ĠDolly":5360,"Ġdownstairs":5361,"Ġchanges":5362,"Ġchem":5363,"EST":5364,"Ġ187":5365,"III":5366,"Ġreceive":5367,"Ġfolks":5368,"Ġsandwich":5369,"UCK":5370,"pers":5371,"rate":5372,"Ġta":5373,"Ġgir":5374,"ĠMat":5375,"ĠSus":5376,"Ġshoe":5377,"ĠPolly":5378,"olan":5379,"Ġaged":5380,"Ġmission":5381,"Ġfilm":5382,"Ġprofessional":5383,"IV":5384,"Nice":5385,"ilian":5386,"Ġeverywhere":5387,"Ġunderstood":5388,"Ġdesire":5389,"Ġentertain":5390,"ĠAlaeddin":5391,"Ġdepart":5392,"Ġsongs":5393,"Ben":5394,"Lea":5395,"Mother":5396,"uous":5397,"inting":5398,"ental":5399,"rost":5400,"chuckles":5401,"ulty":5402,"oughs":5403,"Ġfeat":5404,"aws":5405,"azy":5406,"Ġcolors":5407,"utenant":5408,"MAN":5409,"Michael":5410,"],":5411,"cing":5412,"Ġmort":5413,"ican":5414,"ĠMonday":5415,"elle":5416,"ĠTy":5417,"ulations":5418,"Ġkeeps":5419,"ĠMarilla":5420,"Ġdrinking":5421,"whoops":5422,"Ġprize":5423,"Ġdirectly":5424,"Ġholiday":5425,"Ġnearer":5426,"Ġmedicine":5427,"Sc":5428,"Ġess":5429,"Ġow":5430,"eds":5431,"Ġpra":5432,"Ġpale":5433,"Ġlion":5434,"ĠMaster":5435,"ĠSen":5436,"Ġmanager":5437,"hips":5438,"OULD":5439,"Ġeighteen":5440,"ĠFlor":5441,"Ġevil":5442,"Ġbarn":5443,"Ġchocol":5444,"Ġenvironment":5445,"ĠSpanish":5446,"Ġoblig":5447,"Ġtim":5448,"hest":5449,"Ġboo":5450,"Ġfal":5451,"ĠAc":5452,"ĠBO":5453,"ĠHy":5454,"ilities":5455,"geant":5456,"ĠRy":5457,"ĠNOT":5458,"ĠEven":5459,"aren":5460,"Ġarg":5461,"thew":5462,"Ġcountries":5463,"Ġbeneath":5464,"Ġsafety":5465,"Mad":5466,"Ġpushed":5467,"Ġstir":5468,"Ġknee":5469,"ĠBro":5470,"Ġcarriage":5471,"Ġpowerful":5472,"ĠCharles":5473,"Ġengaged":5474,"ĠBlack":5475,"ĠRamsey":5476,"Cause":5477,"isions":5478,"ooke":5479,"entworth":5480,"Ġstates":5481,"essed":5482,"ĠEn":5483,"ĠKen":5484,"Ġfold":5485,"Ġrecently":5486,"Ġdistribut":5487,"Ġpaying":5488,"ĠItalian":5489,"Ġepis":5490,"water":5491,"uments":5492,"Ġburied":5493,"Ġmovement":5494,"ĠBarty":5495,"Ġcontinues":5496,"ĠYOUR":5497,"--------------------------------":5498,"rant":5499,"ingu":5500,"atory":5501,"Ġreasons":5502,"ulated":5503,"Ġsche":5504,"Ġbitch":5505,"Ġ2017":5506,"Ġsmaller":5507,"Ġ186":5508,"Ġproperty":5509,"Ġearnest":5510,"Fine":5511,"ĠMo":5512,"ĠBat":5513,"Ġneat":5514,"Ġsugar":5515,"ĠLook":5516,"Ġaccording":5517,"Ġtraining":5518,"Ġforgive":5519,"Ġrequest":5520,"ĠMargaret":5521,"ĠCat":5522,"uns":5523,"ocks":5524,"Ġmonster":5525,"Grand":5526,"ĠDistrict":5527,"AIN":5528,"pal":5529,"vi":5530,"Ġcute":5531,"Ġoil":5532,"Ġfishing":5533,"ĠHal":5534,"ila":5535,"ĠLab":5536,"ĠNed":5537,"Ġcommittee":5538,"Ġdrawn":5539,"Ġtrail":5540,"Ġmagic":5541,"Ġsuccessful":5542,"Ġgalley":5543,"Ġfailed":5544,"Ġproduct":5545,"Ġwedding":5546,"AB":5547,"make":5548,"Ġaver":5549,"ĠBra":5550,"ĠTony":5551,"ĠLa":5552,"Ġgrate":5553,"ograph":5554,"Ġcheek":5555,"Ġjobs":5556,"Ġinspect":5557,"Ġcastle":5558,"Ġauthority":5559,"eg":5560,"ship":5561,"Ġwha":5562,"Ġbatter":5563,"Ġfier":5564,"Ġtoast":5565,"ading":5566,"ĠBel":5567,"usted":5568,"aboo":5569,"inese":5570,"Shut":5571,"ĠParis":5572,"Ġentirely":5573,"Ġtouched":5574,"ĠLoire":5575,"pet":5576,"try":5577,"kend":5578,"ĠEleanor":5579,"annah":5580,"Ġmagn":5581,"Ġwound":5582,"oned":5583,"ima":5584,"ĠCour":5585,"Ġjail":5586,"ĠWentworth":5587,"eping":5588,"Ġthrowing":5589,"Ġactress":5590,"Ġdarkness":5591,"sorry":5592,"Ġaim":5593,"Ġgang":5594,"ĠII":5595,"etch":5596,"anta":5597,"ĠFanning":5598,"ĠRuth":5599,"actually":5600,"Ġapparently":5601,"Ġserve":5602,"ĠChris":5603,"Ġ2014":5604,"Ġdrunk":5605,"Ġterror":5606,"apping":5607,"Ġ2008":5608,"Ġcenter":5609,"Ġpropos":5610,"known":5611,"Ġmicro":5612,"Ġox":5613,"Ġfaint":5614,"Ġghost":5615,"etter":5616,"those":5617,"ĠGold":5618,"Ġbrush":5619,"ishop":5620,"ERS":5621,"bow":5622,"Ġgathered":5623,"Ġrushed":5624,"Ġcancer":5625,"ĠPet":5626,"ĠPal":5627,"hang":5628,"ĠRoman":5629,"Ġmarriage":5630,"Ġmagaz":5631,"Again":5632,"Ġsplendid":5633,"big":5634,"ule":5635,"Ġpred":5636,"aining":5637,".\"]":5638,"aging":5639,"Ġfoc":5640,"Ġpaint":5641,"Ġhonour":5642,"Ġforever":5643,"Ġsoftly":5644,"Ġclimb":5645,"fa":5646,"rot":5647,"ĠMum":5648,"ĠMany":5649,"ĠBern":5650,"Ġshell":5651,"inking":5652,"ĠGet":5653,"Ġboats":5654,"Ġplayers":5655,"Ġneedta":5656,"Ġbits":5657,"Ġwarri":5658,"Ġordinary":5659,"Ġtarget":5660,"Actually":5661,"',":5662,"KE":5663,"Ġlone":5664,"Ġforms":5665,"ĠHave":5666,"ĠWin":5667,"Ġotherwise":5668,"Ġ2013":5669,"Alex":5670,"IA":5671,"Ġfart":5672,"ĠSultan":5673,"ĠAward":5674,"liament":5675,"together":5676,"Ġstepped":5677,"Ġdrove":5678,"Ġsoldier":5679,"Ġpressure":5680,"History":5681,"ym":5682,"asing":5683,"omen":5684,"Ġhook":5685,"ĠHaw":5686,"ĠTown":5687,"cky":5688,"oles":5689,"igs":5690,"ĠOk":5691,"Ġproced":5692,"Ġshower":5693,"ĠUnion":5694,"ĠCla":5695,"Ġenjoyed":5696,"Ġobserved":5697,"Ġfruit":5698,"NO":5699,"ona":5700,"Ġnative":5701,"oto":5702,"Ġbeast":5703,"Ġsection":5704,"andy":5705,"ĠHam":5706,"ĠOx":5707,"Ġpoet":5708,"Ġshame":5709,"ansas":5710,"Ġindepend":5711,"Ġrelated":5712,"Ġofficial":5713,"Ġapproach":5714,"ĠDoctor":5715,"ĠPatty":5716,"Ġweapon":5717,"Ġsprang":5718,"zes":5719,"Ġsch":5720,"semb":5721,"Ġdoin":5722,"aming":5723,"ammy":5724,"ĠALL":5725,"open":5726,"ĠWITH":5727,"ĠDav":5728,"apt":5729,"Ġfriendly":5730,"Ġentr":5731,"ĠMission":5732,"Ġaircraft":5733,"ĠCasson":5734,"Cha":5735,"Paul":5736,"Ġpant":5737,"ushes":5738,"ential":5739,"Ġassoci":5740,"ilty":5741,"umn":5742,"anged":5743,"Ġattend":5744,"Ġwalks":5745,"Ġfalls":5746,"ointment":5747,"ĠWhite":5748,"Ġincrease":5749,"yo":5750,"Ġdise":5751,"vert":5752,"Ġstones":5753,"ĠMed":5754,"ĠAB":5755,"ĠCamp":5756,"Ġdere":5757,"ols":5758,"Ġproduc":5759,"Ġtruly":5760,"Ġweekend":5761,"Ġhearing":5762,"Ġdragon":5763,"Once":5764,"Ġincluded":5765,"Ġcurious":5766,"Ġresearch":5767,"Ġindividual":5768,"win":5769,"Ġsoup":5770,"Ġmail":5771,"Ġdim":5772,"Ġfan":5773,"Ġrelease":5774,"ĠHad":5775,"iel":5776,"onder":5777,"Ġencour":5778,"Ġsits":5779,"ARD":5780,"Ġchocolate":5781,"ov":5782,"inc":5783,"Ġpit":5784,"Ġloose":5785,"asm":5786,"Ġrush":5787,"Ġriding":5788,"ateg":5789,"ĠNE":5790,"Ġvent":5791,"Ġuseful":5792,"ĠĠĠĠĠĠĠĠĠĠĠĠĠĠĠĠĠĠĠĠĠĠĠĠĠĠĠĠĠĠĠĠ":5793,"Ġcraft":5794,"Ġadvantage":5795,"sure":5796,"onse":5797,"Ġmile":5798,"esides":5799,"Ġlord":5800,"ĠMore":5801,"ĠBull":5802,"ĠEli":5803,"Ġchest":5804,"Ġretired":5805,"ĠEdmund":5806,"Ġincred":5807,"Ġbecoming":5808,"Ġdifficulty":5809,"Ġlifted":5810,"200":5811,"eff":5812,"show":5813,"erable":5814,"Ġnerv":5815,"ĠMost":5816,"herry":5817,"Ġliber":5818,"Ġsaving":5819,"ĠFa":5820,"osen":5821,"Ġcomed":5822,"ĠRush":5823,"Nobody":5824,"Ġflower":5825,"ĠStan":5826,"Ġsecurity":5827,"----\"":5828,"Ġkidding":5829,"should":5830,"Ġconcern":5831,"16":5832,"gency":5833,"somet":5834,"Ġfired":5835,"Ġgather":5836,"irgin":5837,"Ġsurely":5838,"ĠZeal":5839,"Ġtelephone":5840,"chair":5841,"Ġinfluence":5842,"Ind":5843,"uf":5844,"hew":5845,"Ġwore":5846,"Ġbunny":5847,"Ġlack":5848,"cean":5849,"ĠBer":5850,"Ġplat":5851,"ĠLee":5852,"Ġconce":5853,"Ġbranch":5854,"uchi":5855,"ĠVictor":5856,"otted":5857,"Ġinstru":5858,"Ġexciting":5859,"Ġsnake":5860,"Ġintrodu":5861,"Pl":5862,"Ġsore":5863,"Ġsav":5864,"cked":5865,"emies":5866,"Ġ()":5867,"Ġhearts":5868,"Ġbadly":5869,"Ġlistened":5870,"Ġsignific":5871,"ĠHarold":5872,"Ġfairy":5873,"Ġmedical":5874,"ĠBradley":5875,"ĠAgnes":5876,"Ġresponsible":5877,"Ġoccurred":5878,"Ġcredit":5879,"fish":5880,"ua":5881,"Ġsen":5882,"only":5883,"Ġcities":5884,"ĠMel":5885,"ĠSarah":5886,"abeth":5887,"ĠWolf":5888,"Ġagent":5889,"Ġcoal":5890,"Ġsignal":5891,"Ġgovernor":5892,"Ġburning":5893,"Ġideas":5894,"ĠAlfgar":5895,"Su":5896,"daddy":5897,"yell":5898,"Ġaunt":5899,"Ġpants":5900,"Ġelder":5901,"Ġreact":5902,"Ġbutt":5903,"ĠRight":5904,"Ġkindly":5905,"Ġlads":5906,"Should":5907,"Sometimes":5908,"Ġfrequ":5909,"Ġfemale":5910,"ĠFlorida":5911,"En":5912,"UL":5913,"Ġscient":5914,"Ġbat":5915,"achel":5916,"Ġancient":5917,"ĠBo":5918,"ctors":5919,"ĠDep":5920,"ĠJwww":5921,"uhuh":5922,"angle":5923,"Ġadop":5924,"Ġslave":5925,"Ġkinds":5926,"Ġpresently":5927,"Ġtransfer":5928,"Ġraise":5929,"ĠMartin":5930,"Other":5931,"Ġaston":5932,"Ġcash":5933,"ĠIr":5934,"aly":5935,"ĠMos":5936,"Ġplants":5937,"Ġqual":5938,"Ġremoved":5939,"Ġowner":5940,"Ġseriously":5941,"Ġregret":5942,"Ġgrandma":5943,"Ġapolog":5944,"ĠGreater":5945,"ĠProfessor":5946,"iest":5947,"lock":5948,"Ġtough":5949,"Ġdwell":5950,"ano":5951,"another":5952,"chi":5953,"iffe":5954,"Ġjeal":5955,"Ġinvited":5956,"Ġdinosaur":5957,"ĠCarl":5958,"Ġveh":5959,"Ġissues":5960,"Ġrecognized":5961,"Ġelectric":5962,"itzer":5963,"abriella":5964,"13":5965,"Ġwave":5966,"Ġsite":5967,"Ġbrilliant":5968,"inger":5969,"rol":5970,"Ġexcellent":5971,"wey":5972,"Ġfourth":5973,"Ġinterview":5974,"Ġadmin":5975,"Ġversion":5976,"Help":5977,"IG":5978,"RY":5979,"ials":5980,"ĠMike":5981,"cel":5982,"ummer":5983,"ĠNat":5984,"ĠKNOW":5985,"Ġprecious":5986,"Stay":5987,"Ġsigned":5988,"Ġdata":5989,"Ġdeveloped":5990,"Ġresults":5991,"Ġfamiliar":5992,"ĠAustralia":5993,"bu":5994,"Ġwounded":5995,"Ġgently":5996,"ĠCr":5997,"ĠHim":5998,"Ġrings":5999,"Ġsuffe":6000,"Ġconsequ":6001,"Ġquit":6002,"Ġguilty":6003,"Ġcrim":6004,"OUT":6005,"Whoa":6006,"Ġcrossed":6007,"ĠGeorg":6008,"mpionship":6009,"Ġrabbit":6010,"Love":6011,"Try":6012,"Ġtun":6013,"ĠSy":6014,"elcome":6015,"ĠJew":6016,"Ġcompar":6017,"hmm":6018,"Ġrealized":6019,"aze":6020,"Ġhorrible":6021,"Ġsymp":6022,"Ġmadam":6023,"Ġcompanions":6024,"Ġseparate":6025,"Ġweapons":6026,"Ġappreciate":6027,"14":6028,"Ġaid":6029,"Ġcave":6030,"Ġfuss":6031,"Ġinn":6032,"Ġstern":6033,"ands":6034,"ellig":6035,"ĠTri":6036,"ĠLat":6037,"ĠRoger":6038,"Ġresponse":6039,"Ġstrike":6040,"Ġdescribed":6041,"Ġlonely":6042,"dat":6043,"law":6044,"ught":6045,"Ġwan":6046,"Ġfant":6047,"Ġfreed":6048,"lla":6049,"Ġpension":6050,"Ġlin":6051,"Ġreve":6052,"Ġstol":6053,"alled":6054,"ĠCO":6055,"ĠBig":6056,"iece":6057,"ĠLake":6058,"eps":6059,"Ġintended":6060,"ockey":6061,"Ġhandsome":6062,"Ġstops":6063,"going":6064,"Ġ2006":6065,"Ġlarger":6066,"Ġmountains":6067,"ĠMexico":6068,"LO":6069,"gate":6070,"pos":6071,"vis":6072,"Ġtid":6073,"Ġtied":6074,"Ġpatter":6075,"riff":6076,"umed":6077,"umble":6078,"ops":6079,"Ġenemies":6080,"Ġprovide":6081,"Ġpositive":6082,"ĠCourt":6083,"fers":6084,"pir":6085,"sighs":6086,"Ġbi":6087,"Ġyo":6088,"Ġvoices":6089,"Ġprovided":6090,"Ġartist":6091,"Hmm":6092,"Ġdust":6093,"Ġpity":6094,"oma":6095,"ette":6096,"Ġknight":6097,"ĠDar":6098,"ĠDay":6099,"ĠDutch":6100,"Ġsuffic":6101,"Ġspare":6102,"Ġlog":6103,"Ġappl":6104,"obile":6105,"Ġkinda":6106,"Ġtribes":6107,"Everyone":6108,"Ġsettlement":6109,"iggles":6110,"ĠRussian":6111,"Leave":6112,"itzerland":6113,"Sit":6114,"dis":6115,"Ġcit":6116,"Ġlid":6117,"Ġthorough":6118,"Ġbee":6119,"cho":6120,"Ġaltogether":6121,"Ġgreatly":6122,"ĠChina":6123,"Ġ40":6124,"Ġincident":6125,"ĠDewey":6126,"Ġlearning":6127,"Steve":6128,"ĠSwitzerland":6129,"Ġslept":6130,"Ġautom":6131,"Ġinquired":6132,"Ġevidently":6133,"ĠInternational":6134,"Ġjealous":6135,"Ġtear":6136,"hee":6137,"llen":6138,"enny":6139,"ases":6140,"Ġlies":6141,"Ġrise":6142,"ĠTra":6143,"ĠNight":6144,"aval":6145,"Ġactive":6146,"Ġcrash":6147,"Ġdeser":6148,"Ġdrown":6149,"Ġteams":6150,"Ġaccepted":6151,"ĠJimmy":6152,"ĠRoyal":6153,"Ġstreets":6154,"Ġbodies":6155,"Ros":6156,"Ġpour":6157,"ĠMic":6158,"Ġmyster":6159,"...\"":6160,"izabeth":6161,"Ġslipped":6162,"ĠChinese":6163,"Ġwondered":6164,"ĠArab":6165,"Ġ2009":6166,"Ġconstit":6167,"Ġexperien":6168,"Ġjumped":6169,"Ġprisoner":6170,"ĠPerhaps":6171,"Ġprogramme":6172,"Ġaffair":6173,"Move":6174,"[.":6175,"eral":6176,"orse":6177,"Ġpile":6178,"Ġpump":6179,"Ġgained":6180,"ompl":6181,"Ġmel":6182,"ĠSim":6183,"ĠBible":6184,"Ġrare":6185,"Ġsociety":6186,"ĠFrost":6187,"awa":6188,"Ġconfidence":6189,"ĠReg":6190,"Ġsending":6191,"Ġhoping":6192,"Ġspecific":6193,"ĠEuropean":6194,"ĠTurk":6195,"Ġdegree":6196,"fly":6197,"ridge":6198,"tin":6199,"hab":6200,"Ġmap":6201,"ĠMajesty":6202,"eable":6203,"Ġbitter":6204,"anches":6205,"Ġeaten":6206,"IST":6207,"Ġ2007":6208,"ĠBlue":6209,"Ġdelicious":6210,"eat":6211,"year":6212,"Ġtent":6213,"Ġsorrow":6214,"Ġfac":6215,"Ġpup":6216,"Ġhabit":6217,"Ġseek":6218,"reeks":6219,"Ġblame":6220,"Ġbetray":6221,"ileen":6222,"Ġrifle":6223,"ART":6224,"Ġsquee":6225,"ĠCarol":6226,"ĠCanada":6227,"Anyway":6228,"Ġnurs":6229,"Ġtitle":6230,"Ġrapidly":6231,"Glory":6232,"ĠZealand":6233,"Ġscience":6234,"Ġbike":6235,"ena":6236,"Ġbend":6237,"ado":6238,"Ġnovel":6239,"ĠRel":6240,"ĠKat":6241,"Ġresour":6242,"Ġ2015":6243,"ocr":6244,"Ġrelax":6245,"Ġsigns":6246,"Ġpursu":6247,"Ġobjects":6248,"Ġbesides":6249,"Ġdelighted":6250,"Ġsatisfied":6251,"ashington":6252,"olarship":6253,"ocratic":6254,"Ġaverage":6255,"Fl":6256,"long":6257,"mes":6258,"Ġtv":6259,"Ġtiger":6260,"Ġboun":6261,"Ġhidden":6262,"Ġhaha":6263,"ĠBu":6264,"acks":6265,"ĠDel":6266,"Ġspite":6267,"hib":6268,"Ġsmooth":6269,"Ġactual":6270,"Ġends":6271,"Ġmoments":6272,"ception":6273,"Ġcreature":6274,"Ġrecognize":6275,"Ġshopping":6276,"Ġtal":6277,"icles":6278,"Ġrejo":6279,"Ġange":6280,"berg":6281,"Ġchosen":6282,"ailed":6283,"ATION":6284,"Ġbreaking":6285,"Ġswitch":6286,"Ġrestaur":6287,"Ġtransport":6288,"Ġkissed":6289,"Ġtender":6290,"Te":6291,"THAT":6292,"lim":6293,"Ġwra":6294,"Ġsin":6295,"Ġyard":6296,"Ġpil":6297,"omach":6298,"Ġsevere":6299,"ĠChan":6300,"Ġrising":6301,"Ġuses":6302,"asty":6303,"Ġgrace":6304,"Ġamb":6305,"Ġunfortun":6306,"Ġbegins":6307,"ĠFranc":6308,"Ġtrial":6309,"Ġstudents":6310,"Ġcooking":6311,"AKE":6312,"Ġarrested":6313,"Remember":6314,"Make":6315,"While":6316,"dad":6317,"mom":6318,"making":6319,"real":6320,"Ġbark":6321,"Ġdea":6322,"ria":6323,"ĠMont":6324,"ĠSee":6325,"Ġgoal":6326,"inda":6327,"ĠEX":6328,"Ġclient":6329,"Ġresist":6330,"Ġcommunic":6331,"Ġhighly":6332,"Ġextent":6333,"Ġdolls":6334,"Ġapartment":6335,"Ġmurd":6336,"Ġdamage":6337,"Ġturtle":6338,"Ġperformance":6339,"Ġmirror":6340,"OF":6341,"Watch":6342,"cr":6343,"iation":6344,"Ġwise":6345,"Ġfate":6346,"Ġnic":6347,"gend":6348,"Ġours":6349,"Ġrooms":6350,"Ġswift":6351,"Still":6352,"Looks":6353,"Ġdestroyed":6354,"ederal":6355,"ĠAfrica":6356,"Ġestablished":6357,"Ġnervous":6358,"Hurry":6359,"gly":6360,"know":6361,"omed":6362,"ĠMot":6363,"ĠMajor":6364,"alley":6365,"illed":6366,"uman":6367,"Ġvain":6368,"icking":6369,"ĠĠĠĠĠ":6370,"Ġbreast":6371,"Ġsooner":6372,"ISS":6373,"Ġshooting":6374,"Ġnormally":6375,"Ġpirates":6376,"Ġelephant":6377,"Ġsuffered":6378,"\"'":6379,"Sm":6380,"bel":6381,"eks":6382,"gues":6383,"hah":6384,"enger":6385,"Ġgay":6386,"Ġnation":6387,"Ġnorthern":6388,"rier":6389,"ĠMount":6390,"ĠSel":6391,"Ġshr":6392,"ĠPak":6393,"Ġloving":6394,"Ġscreen":6395,"Ġpointed":6396,"Ġpicking":6397,"Ġformula":6398,"Ġseventy":6399,"Ġdrugs":6400,"Ġsports":6401,"Ġnursery":6402,"11":6403,"NA":6404,"__":6405,"ga":6406,"hus":6407,"lings":6408,"really":6409,"Ġbent":6410,"Ġborrow":6411,"Ġowe":6412,"alph":6413,"ams":6414,"stead":6415,"ĠHello":6416,"Ġrang":6417,"Ġguest":6418,"Ġbiggest":6419,"Ġnorthwest":6420,"Ġpaused":6421,"UM":6422,"bark":6423,"hun":6424,"arly":6425,"Ġinvent":6426,"Ġhorn":6427,"Ġdoggie":6428,"ĠAct":6429,"ĠThanks":6430,"Ġboot":6431,"Ġboots":6432,"Ġchanging":6433,"ĠHarris":6434,"Ġrecords":6435,"Ġveget":6436,"Ġequal":6437,"Ġtreated":6438,"Ġavoid":6439,"Ġflew":6440,"Ġeagerly":6441,"Ġdeliver":6442,"Bob":6443,"IES":6444,"Yep":6445,"after":6446,"mark":6447,"ugh":6448,"Ġcaut":6449,"Ġpow":6450,"ota":6451,"ĠCross":6452,"ĠGreen":6453,"iano":6454,"Ġchums":6455,"Ġopens":6456,"Ġpassion":6457,"Ġmethod":6458,"Ġcutting":6459,"ological":6460,"Ġdivor":6461,"Ġmajority":6462,"Ġblanket":6463,"Next":6464,"Ġmaterial":6465,"Today":6466,"nine":6467,"enced":6468,"ĠCON":6469,"Ġdelay":6470,"ability":6471,"Ġcomr":6472,"agu":6473,"Ġproved":6474,"Ġpoison":6475,"Ġfounded":6476,"Ġsorts":6477,"Ġstudied":6478,"Ġlocated":6479,"umbled":6480,"ĠFaith":6481,"Ġsouthern":6482,"Ġpor":6483,"ste":6484,"stery":6485,"ĠARE":6486,"elled":6487,"ores":6488,"ĠFin":6489,"ĠLi":6490,"izza":6491,"Ġstring":6492,"Ġrecomm":6493,"Ġaccompl":6494,"Ġrelief":6495,"Ġclosely":6496,"orkshire":6497,"Ġexercise":6498,"Ġgrateful":6499,",]":6500,"Aha":6501,"WHAT":6502,"lers":6503,"hamed":6504,"irteen":6505,"Ġunus":6506,"Ġpregn":6507,"Ġwriter":6508,"ĠBrown":6509,"Ġpainting":6510,"Ġparticip":6511,"Ġrolling":6512,"Ġproposed":6513,"Ġresponsibility":6514,"ĠAcademy":6515,"ĠOxford":6516,"Father":6517,"Joe":6518,"Ġbast":6519,"Ġmig":6520,"Ġmale":6521,"Ġhut":6522,"ĠSa":6523,"Ġgodd":6524,"ĠCong":6525,"umps":6526,"lfriend":6527,"osta":6528,"Ġbranches":6529,"Ġadult":6530,"igned":6531,"ĠAnn":6532,"Ġplanned":6533,"Ġadvance":6534,"Ġadvanced":6535,"priate":6536,"Everybody":6537,"Ġfamilies":6538,"Ġescaped":6539,"care":6540,"little":6541,"six":6542,"aned":6543,"Ġkitty":6544,"ĠMi":6545,"Ġcannon":6546,"Ġvot":6547,"oston":6548,"uced":6549,"Think":6550,"Ġcentral":6551,"Ġnewspaper":6552,"ĠXX":6553,"Ġlocked":6554,"Ġefforts":6555,"Ġmatches":6556,"Ġtradition":6557,"Ġshadow":6558,"Ġfarther":6559,"AH":6560,"isn":6561,"Ġcig":6562,"Ġsees":6563,"ĠBay":6564,"Ġupper":6565,"about":6566,"ĠLong":6567,"istan":6568,"agn":6569,"Ġtalks":6570,"Ġcomplet":6571,"ĠYorkshire":6572,"ivity":6573,"Ġdesert":6574,"Ġharder":6575,"Ġelected":6576,"Ġtrem":6577,"Ġconcent":6578,"ipper":6579,"iamond":6580,"Ġhoped":6581,"Ġadventure":6582,"amin":6583,"ĠMill":6584,"ĠMil":6585,"Ġminor":6586,"Ġfarmer":6587,"Ġcolour":6588,"Ġinstance":6589,"Ġchecked":6590,"ĠRussia":6591,"FOR":6592,"Over":6593,"gent":6594,"mat":6595,"press":6596,"wyn":6597,"Ġwire":6598,"Ġstomach":6599,"ĠAyl":6600,"uma":6601,"ĠPorter":6602,"ĠFre":6603,"ĠRock":6604,"Ġconclud":6605,"Ġvast":6606,"osely":6607,"weet":6608,"Ġpron":6609,"ĠStanton":6610,"onsense":6611,"Ġhousehold":6612,"Ġdistinct":6613,"Ġpersons":6614,"Ġconsult":6615,"Ġpulling":6616,"Ġmurm":6617,"Ġbowl":6618,"Ġjacket":6619,"Ġsuffer":6620,"Ġdreadful":6621,"ĠAylmer":6622,"AC":6623,"ACK":6624,"More":6625,"ige":6626,"nic":6627,"Ġbump":6628,"aring":6629,"olic":6630,"ĠJer":6631,"ĠOUT":6632,"Whatever":6633,"Ġbrings":6634,"Ġfields":6635,"Ġfortun":6636,"Ġpirate":6637,"ĠChicago":6638,"Ġsurround":6639,"ĠRoad":6640,"zing":6641,"Ġsang":6642,"oni":6643,"Ġcy":6644,"lection":6645,"Ġalarm":6646,"Ġgrant":6647,"Ġdeserve":6648,"Ġpersu":6649,"Ġterrit":6650,"Ġkilling":6651,"Ġintern":6652,"ĠPeople":6653,"ĠPrince":6654,"Ġequip":6655,"Ġinnocent":6656,"Ġdunno":6657,"ĠBatala":6658,"New":6659,"dro":6660,"nament":6661,"rough":6662,"Ġtom":6663,"Ġge":6664,"Ġugly":6665,"ĠCOM":6666,"ĠTim":6667,"soft":6668,"plane":6669,"Ġprem":6670,"ĠStep":6671,"ahul":6672,"Ġamongst":6673,"Ġburned":6674,"Ġvictory":6675,"Ġcompetition":6676,"Ġmanagement":6677,"Ġobliged":6678,"Ġadminist":6679,"overy":6680,"Ġcents":6681,"Ġdish":6682,"icated":6683,"imit":6684,"ĠCAN":6685,"thur":6686,"umm":6687,"ĠWashington":6688,"ĠLos":6689,"Ġworn":6690,"ĠRalph":6691,"Ġcloth":6692,"Ġrope":6693,"ĠKim":6694,"Ġprec":6695,"Ġfourteen":6696,"ĠAnne":6697,"Ġgrandfather":6698,"ethro":6699,"blue":6700,"Ġfleet":6701,"Ġexecut":6702,"BUT":6703,"Ġaward":6704,"Ġconqu":6705,"Ġagre":6706,"Ġarmed":6707,"Ġaffection":6708,"Ġunf":6709,"Ġpartly":6710,"Ġmarked":6711,"Ġadmit":6712,"Ġspirits":6713,"Ġstruggle":6714,"Ġbalance":6715,"Ġstolen":6716,"Luc":6717,"silver":6718,"ware":6719,"Ġbone":6720,"Ġbones":6721,"Ġooh":6722,"ata":6723,"ĠMax":6724,"Ġsheet":6725,"ĠLike":6726,"Ġwhenever":6727,"Ġguide":6728,"eaking":6729,"Ġstandard":6730,"Ġrefused":6731,"atively":6732,"Ġattacked":6733,"ĠAdams":6734,"Ġhighest":6735,"ĠItaly":6736,"Ġemergency":6737,"Ġdisease":6738,"AG":6739,"Ġtheory":6740,"Ġbon":6741,"Ġdiss":6742,"Ġfaster":6743,"Ġpure":6744,"Ġeastern":6745,"sters":6746,"ĠMur":6747,"Ġshed":6748,"olph":6749,"ĠJerry":6750,"osity":6751,"actor":6752,"Ġpride":6753,"Ġcontribut":6754,"Ġ2005":6755,"Ġservants":6756,"Ġsisters":6757,"Ġheavily":6758,"Ġrequired":6759,"arrass":6760,"Ġdrug":6761,"Ġcitiz":6762,"aa":6763,"hta":6764,"Ġwow":6765,"Ġbot":6766,"Ġoo":6767,"Ġdump":6768,"Ġtoss":6769,"Ġlately":6770,"amie":6771,"ĠSH":6772,"Ġashamed":6773,"ĠAny":6774,"ĠHa":6775,"Ġdescend":6776,"Ġexpensive":6777,"Although":6778,"Ġsuffering":6779,"ĠSecretary":6780,"Poor":6781,"tw":6782,"Ġbunch":6783,"iture":6784,"ancial":6785,"icing":6786,"Ġselected":6787,"ĠCast":6788,"ĠPays":6789,"Ġspeaks":6790,"Ġexha":6791,"venue":6792,"ĠEarth":6793,"Ġhanded":6794,"nee":6795,"Ġhelps":6796,"Ġcheap":6797,"Ġchain":6798,"ĠBecause":6799,"Ġmainly":6800,"Ġprotest":6801,"Someone":6802,"Ġsplit":6803,"Ġperformed":6804,"ĠHayden":6805,"Ġscheme":6806,"Ġmagazine":6807,"isha":6808,"ormed":6809,"rose":6810,"ĠPL":6811,"ĠPlay":6812,"elia":6813,"ĠLie":6814,"Ġbold":6815,"Ġdishes":6816,"door":6817,"Ġthroughout":6818,"Ġcheeks":6819,"reams":6820,"ontin":6821,"Ġinstr":6822,"Ġawake":6823,"Ġprior":6824,"Ġoperation":6825,"Ġcreate":6826,"Ġcaptured":6827,"ophie":6828,"ĠRemi":6829,"Turn":6830,"from":6831,"pot":6832,"vest":6833,"rels":6834,"Ġfed":6835,"Ġlosing":6836,"rig":6837,"ĠSomet":6838,"ĠAust":6839,"Ġrhy":6840,"Ġsocks":6841,"unning":6842,"ĠWHAT":6843,"ĠEr":6844,"angers":6845,"Ġkeen":6846,"Ġcontent":6847,"ĠChief":6848,"Ġdrama":6849,"standing":6850,"Ġdriven":6851,"Ġ188":6852,"Ġcircus":6853,"Ġcurrently":6854,"Ġvolume":6855,"Ġintroduced":6856,"Ġpermission":6857,"Ġdocument":6858,"Ġgirlfriend":6859,"Ġentrance":6860,"EP":6861,"uction":6862,"Ġben":6863,"Ġtoile":6864,"oms":6865,"athy":6866,"icide":6867,"lyn":6868,"Ġanno":6869,"ĠAileen":6870,"ĠPo":6871,"ĠGames":6872,"Ġspin":6873,"Ġspect":6874,"cca":6875,"Ġcrown":6876,"Ġrescue":6877,"Ġminister":6878,"Ġmarks":6879,"Anything":6880,"bsolutely":6881,"ĠMcGlory":6882,"ĠKorea":6883,"Ġdesperate":6884,"ĠDavis":6885,"dr":6886,"po":6887,"war":6888,"orge":6889,"Ġpardon":6890,"amps":6891,"ĠBoston":6892,"Ġjew":6893,"Ġplus":6894,"ĠRes":6895,"lands":6896,"Ġballoon":6897,"Ġsixteen":6898,"Ġidiot":6899,"Ġsubst":6900,"oki":6901,"Ġdrops":6902,"ĠThree":6903,"Ġgrandmother":6904,"Ġstole":6905,"Ġspending":6906,"ĠBritain":6907,"Ġneighborhood":6908,"bird":6909,"uated":6910,"Ġbub":6911,"Ġtoes":6912,"Ġlit":6913,"Ġincl":6914,"etty":6915,"amily":6916,"ĠMosely":6917,"ĠSure":6918,"ĠSara":6919,"Ġseats":6920,"Ġnotes":6921,"Ġsofa":6922,"think":6923,"romer":6924,"ĠLI":6925,"udge":6926,"ĠVan":6927,"However":6928,"Ġsetting":6929,"pected":6930,"Ġbasically":6931,"Ġpulls":6932,"Another":6933,"ĠSpain":6934,"ĠCanad":6935,"Ġdisappear":6936,"ratulations":6937,"Ġscratch":6938,"Up":6939,"coughs":6940,"met":6941,"ollow":6942,"zed":6943,"heast":6944,"Ġpages":6945,"ĠAS":6946,"ĠAnt":6947,"ĠDON":6948,"ĠFR":6949,"ĠLilian":6950,"Ġgotten":6951,"Ġqueen":6952,"Ġletting":6953,"Ġguests":6954,"Ġshaking":6955,"ĠYoung":6956,"Ġsword":6957,"Ġlessons":6958,"Ġdemon":6959,"ekaboo":6960,"Ġpoliceman":6961,"Ġepisode":6962,"Boy":6963,"ev":6964,"mond":6965,"ture":6966,"Ġtu":6967,"had":6968,"Ġbay":6969,"Ġfence":6970,"Ġpushing":6971,"rif":6972,"ousers":6973,"Ġarch":6974,"Ġflung":6975,"Ġflash":6976,"ĠUN":6977,"Ġgiant":6978,"ibi":6979,"Ġboxes":6980,"Ġtravell":6981,"Ġpurcha":6982,"Ġwinning":6983,"Ġadmir":6984,"Ġdisappointed":6985,"ĠGeorgia":6986,"Ġequipment":6987,"Americ":6988,"gment":6989,"giggles":6990,"Ġpowers":6991,"iculous":6992,"ĠSqu":6993,"ĠBed":6994,"ĠBest":6995,"ĠHill":6996,"Ġsale":6997,"acker":6998,"hole":6999,"Ġthrows":7000,"Ġremains":7001,"ĠVirgin":7002,"Ġswall":7003,"Ġ1990":7004,"Ġ1980":7005,"Ġfailure":7006,"Ġregarded":7007,"Ġembarrass":7008,"Ġactivity":7009,"ĠCollege":7010,"Has":7011,"Last":7012,"Out":7013,"Ġgle":7014,"keys":7015,"ĠSoo":7016,"Ġsem":7017,"Ġseized":7018,"ĠBilly":7019,"ĠWal":7020,"ĠPre":7021,"ĠLE":7022,"Ġ2000":7023,"Ġcountryside":7024,"Ġexplan":7025,"Ġtremb":7026,"Ġpresented":7027,"Ġtyp":7028,"Ġmiserable":7029,"Ġticket":7030,"Ġincreased":7031,"Ġbriefly":7032,"Ġimprove":7033,"bon":7034,"bar":7035,"Ġmouse":7036,"ingle":7037,"eding":7038,"acle":7039,"lying":7040,"ĠBrian":7041,"ĠHome":7042,"ĠHolly":7043,"ĠWOR":7044,"Ġplastic":7045,"ĠGreek":7046,"ĠLight":7047,"raw":7048,"Ġune":7049,"Ġboyfriend":7050,"Ġappointed":7051,"Ġbelt":7052,"Ġowned":7053,"Ġaccess":7054,"ĠArmy":7055,"Ġchairs":7056,"Ġprompt":7057,"Ġreported":7058,"Ġvillages":7059,"Ġmicrophone":7060,"El":7061,"Four":7062,"Most":7063,"oug":7064,"Ġwealth":7065,"sell":7066,"ĠPir":7067,"ĠDiv":7068,"ĠDada":7069,"orted":7070,"odd":7071,"ialect":7072,"âĻ«":7073,"Ġwarning":7074,"Ġrelie":7075,"Ġhurts":7076,"Ġdecor":7077,"Ġsubm":7078,"Ġsweetheart":7079,"Ġprotection":7080,"Ġholes":7081,"Ġarranged":7082,"Ġsucceeded":7083,"eys":7084,"ipping":7085,"tic":7086,"itar":7087,"Ġmood":7088,"Ġcats":7089,"Ġdoo":7090,"Ġgreet":7091,"Ġwashed":7092,"ĠMus":7093,"ĠBon":7094,"ĠTw":7095,"Ġaband":7096,"ĠFirst":7097,"Ġsecure":7098,"Ġglanced":7099,"Ġdistant":7100,"Ġpossession":7101,"Ġlesson":7102,"Ġbullet":7103,"Ġproduce":7104,"Ġhousing":7105,"Ġcandy":7106,"Adam":7107,"IAN":7108,"Ġbore":7109,"Ġwashing":7110,"Ġash":7111,"umph":7112,"ĠFar":7113,"Ġgrat":7114,"ĠKelly":7115,"pless":7116,"Ġunable":7117,"Ġuncom":7118,"ĠUP":7119,"ccording":7120,"intend":7121,"ĠYe":7122,"Ġnights":7123,"Ġbushes":7124,"Ġï¿½ï¿½ï¿½ï¿½ï¿½":7125,"Ġmusical":7126,"Ġlanded":7127,"Ġbecomes":7128,"Ġemotion":7129,"Ġreports":7130,"Ġbaseball":7131,"Ġpillow":7132,"Ġfalse":7133,"22":7134,"Fin":7135,"Ser":7136,"cies":7137,"zo":7138,"ĠMia":7139,"ĠSC":7140,"inky":7141,"ĠJake":7142,"ĠLove":7143,"Ġparties":7144,"ĠUh":7145,"Ġscare":7146,"neath":7147,"ĠBefore":7148,"AME":7149,"ĠĠĠĠĠĠĠ":7150,"Ġconstruction":7151,"gypt":7152,"Ġarrival":7153,"Ġcompanies":7154,"Ġdelightful":7155,"culiar":7156,"Ġconnection":7157,"corn":7158,"Ġmaid":7159,"orious":7160,"Ġpitch":7161,"Ġgri":7162,"Ġthirteen":7163,"idays":7164,"imp":7165,"Ġrear":7166,"Ġanger":7167,"ĠSav":7168,"eav":7169,"ĠCatherine":7170,"ĠWood":7171,"Ġgray":7172,"issa":7173,"inton":7174,"rub":7175,"ĠYear":7176,"Ġmighty":7177,"Ġminds":7178,"ertainly":7179,"Ġapproached":7180,"Ġfrogs":7181,"Ġrolled":7182,"Ġcharacters":7183,"Ġwaves":7184,"Ġpigs":7185,"Christ":7186,"Ġprincess":7187,"Ġextremely":7188,"case":7189,"Ġtip":7190,"Ġwipe":7191,"rek":7192,"Ġborder":7193,"Ġdialect":7194,"Ġlt":7195,"Ġrent":7196,"Ġmeas":7197,"Ġjoint":7198,"Ġcommer":7199,"Ġguid":7200,"Ġcompos":7201,"Ġchoo":7202,"Ġcontest":7203,"Ġcommun":7204,"Ġenthus":7205,"ĠWillie":7206,"Ġbenefit":7207,"Ġglasses":7208,"ĠBertha":7209,"ĠTurkish":7210,"Ġenthusi":7211,"belt":7212,"uit":7213,"Ġsigh":7214,"Ġder":7215,"Ġfest":7216,"Ġlibr":7217,"Ġdebut":7218,"ulate":7219,"ĠDuring":7220,"Ġconcl":7221,"Ġexceed":7222,"ĠEgypt":7223,"Ġpeculiar":7224,"Ġhappiness":7225,"Ġimpl":7226,"Donald":7227,"Ġconscious":7228,"ĠAmericans":7229,"Ġbasis":7230,"Exactly":7231,"Ġdaily":7232,"Ġconsiderable":7233,"ĠScott":7234,"Ġselling":7235,"ĠRichards":7236,"ĠChild":7237,"Ġfolk":7238,"Ġadventures":7239,"Ġmixed":7240,"Jesus":7241,"Shall":7242,"bury":7243,"cod":7244,"phew":7245,"rison":7246,"esh":7247,"Ġbeer":7248,"ilight":7249,"Ġrank":7250,"Ġamend":7251,"new":7252,"Mmm":7253,"lessly":7254,"Ġexception":7255,"ALLY":7256,"Ġcollection":7257,"ĠScholarship":7258,"ĠMatthew":7259,"ĠLabour":7260,"Ġfreedom":7261,"Ġtoilet":7262,"Dear":7263,"Har":7264,"Sha":7265,"Ġwicked":7266,"Ġfacing":7267,"eness":7268,"Ġincome":7269,"imme":7270,"Ġanti":7271,"ĠHart":7272,"Ġwheels":7273,"ĠLola":7274,"ivered":7275,"emon":7276,"Ġprospect":7277,"Ġunit":7278,"Ġchose":7279,"Ġcommitted":7280,"nothing":7281,"Ġmetal":7282,"Ġtreasure":7283,"Ġsticks":7284,"Ġwaters":7285,"Ġ1960":7286,"Ġinterrupts":7287,"ĠBurton":7288,"Captain":7289,"Little":7290,"Ġtale":7291,"Ġwishes":7292,"Ġcoun":7293,"lled":7294,"Ġpressed":7295,"Ġpiano":7296,"Ġnomin":7297,"acious":7298,"sec":7299,"umes":7300,"ague":7301,"anche":7302,"ibly":7303,"Ġsounded":7304,"âĢĺ_":7305,"Ġphr":7306,"Ġphil":7307,"ĠArt":7308,"Ġtraffic":7309,"Ġ2004":7310,"whoa":7311,"Ġpurs":7312,"Ġreplaced":7313,"Ġstronger":7314,"Ġbearing":7315,"ĠElizabeth":7316,"ĠAfrican":7317,"ursday":7318,"Ġclouds":7319,"Ġunusual":7320,"Aren":7321,"Back":7322,"Damn":7323,"aft":7324,"uries":7325,"Ġtempt":7326,"Ġnuts":7327,"rial":7328,"Ġseated":7329,"Ġshy":7330,"ĠPh":7331,"ĠPan":7332,"ĠDet":7333,"ĠLin":7334,"ĠNick":7335,"ĠEmp":7336,"ĠOther":7337,"Ġload":7338,"Ġbegun":7339,"Ġswept":7340,"ĠBecky":7341,"Ġthousands":7342,"Ġincludes":7343,"engers":7344,"Ġdetails":7345,"Ġpotatoes":7346,"Ġoriginally":7347,"Ġconditions":7348,"Com":7349,"EM":7350,"gi":7351,"Ġcounter":7352,"Ġduh":7353,"anks":7354,"Ġnest":7355,"Ġhills":7356,"ros":7357,"ĠSA":7358,"ĠCom":7359,"Ġhers":7360,"Ġtrousers":7361,"were":7362,"Ġappeal":7363,"Ġslip":7364,"Ġ31":7365,"boat":7366,"Ġlanguages":7367,"lemn":7368,"ĠAngeles":7369,"Ġconduct":7370,"Ġindustry":7371,"$=":7372,"oons":7373,"ras":7374,"Ġwre":7375,"Ġwings":7376,"onies":7377,"enne":7378,"Ġthrill":7379,"Ġreview":7380,"Ġforb":7381,"ira":7382,"stone":7383,"ĠSun":7384,"ĠSanta":7385,"ili":7386,"Ġsolemn":7387,"ĠPers":7388,"Ġjustice":7389,"resp":7390,"Ġuseless":7391,"Ġspark":7392,"Ġrode":7393,"Ġblowing":7394,"Ġchick":7395,"ANK":7396,"Ġpassage":7397,"Ġsteel":7398,"Ġstudent":7399,"ĠAtl":7400,"Ġtypes":7401,"Ġarrive":7402,"Ġdebate":7403,"Ġrevolution":7404,"Ġachieve":7405,"Ġincredible":7406,"Em":7407,"yard":7408,"Ġaye":7409,"Ġdull":7410,"asa":7411,"ĠBord":7412,"ĠGirl":7413,"aka":7414,"useum":7415,"Ġlegend":7416,"Ġunex":7417,"Ġkeys":7418,"Ġoldest":7419,"ĠVal":7420,"Ġrecent":7421,"OUR":7422,"Ġacid":7423,"Ġrepro":7424,"ITT":7425,"Ġsquir":7426,"Ġtransl":7427,"Ġsalt":7428,"Ġgolden":7429,"iffs":7430,"nesday":7431,"Ġnearest":7432,"Ġtroubles":7433,"Ġshelter":7434,"Ġfeatures":7435,"Ġmysterious":7436,"Ġpregnant":7437,"Big":7438,"Open":7439,"bour":7440,"inging":7441,"Ġreaches":7442,"ĠBaker":7443,"ĠPlease":7444,"cking":7445,"aki":7446,"Ġloft":7447,"Ġbrace":7448,"Ġdisplay":7449,"Ġslide":7450,"IND":7451,"Ġswear":7452,"Ġframe":7453,"Ġimpression":7454,"okes":7455,"Ġsteady":7456,"umbling":7457,"Ġsatisfaction":7458,"Ġromantic":7459,"ĠCampbell":7460,"\"]":7461,"Mark":7462,"ROU":7463,"Welcome":7464,"bor":7465,"gabr":7466,"san":7467,"Ġx":7468,"Ġdiamond":7469,"Ġpizza":7470,"Ġinha":7471,"Ġitems":7472,"vering":7473,"Ġstout":7474,"ĠSU":7475,"Ġliqu":7476,"ĠCons":7477,"ĠHannah":7478,"Ġability":7479,"Ġaltern":7480,"Ġintense":7481,"Ġhelpless":7482,"INE":7483,"Ġsuppl":7484,"gery":7485,"goes":7486,"ĠGran":7487,"Ġdivision":7488,"Ġlegal":7489,"ĠScot":7490,"UNT":7491,"Ġaffairs":7492,"Ġreferred":7493,"Ġoccupied":7494,"Ġwhistle":7495,"Ġrestaurant":7496,"40":7497,"Five":7498,"SO":7499,"TON":7500,"gt":7501,"ties":7502,"Ġbatt":7503,"iser":7504,"Ġpipe":7505,"ayne":7506,"ĠNO":7507,"venge":7508,"âĢĿ.":7509,"Ġunion":7510,"Ġdisag":7511,"Ġchase":7512,"Ġladder":7513,"Ġdollar":7514,"Ġcookies":7515,"Ġillness":7516,"Ġdawn":7517,"Ġcalcul":7518,"Ġzoo":7519,"Ġbelongs":7520,"Ġbanks":7521,"Ġsource":7522,"Ġresources":7523,"April":7524,"dale":7525,"hu":7526,"ients":7527,"mine":7528,"Ġsam":7529,"erk":7530,"Ġbisc":7531,"Ġcanton":7532,"Ġlamp":7533,"iches":7534,"Ġkm":7535,"ĠBa":7536,"aine":7537,"Ġnephew":7538,"ĠWas":7539,"Ġconvin":7540,"udden":7541,"ptions":7542,"hess":7543,"Ġ2002":7544,"Ġdetect":7545,"Ġnecessarily":7546,"Ġridiculous":7547,"Ġinterrupted":7548,"Probably":7549,"Ġmurdered":7550,"Ġinternational":7551,"Absolutely":7552,"Pre":7553,"walk":7554,"hered":7555,"Ġarose":7556,"Ġsink":7557,"Ġgain":7558,"ali":7559,"Ġreward":7560,"Ġstiff":7561,"Their":7562,"ĠSal":7563,"ĠServ":7564,"ĠAwards":7565,"ĠCreeks":7566,"Ġmystery":7567,"ĠPri":7568,"ĠGil":7569,"ĠGabriella":7570,"ĠRod":7571,"Ġfever":7572,"rences":7573,"ĠClar":7574,"Ġapproaching":7575,"Ġappropriate":7576,"ippi":7577,"ĠMexican":7578,"Ġmuttered":7579,"Ġreligion":7580,"BY":7581,"Eh":7582,"oves":7583,"push":7584,"wa":7585,"Ġtrop":7586,"Ġbid":7587,"arl":7588,"aling":7589,"ĠSouthern":7590,"Ġassemb":7591,"Ġris":7592,"Ġrag":7593,"Ġrude":7594,"ĠFire":7595,"ĠFair":7596,"Ġsposta":7597,"Ġroles":7598,"becca":7599,"icted":7600,"Ġfinds":7601,"Ġattitude":7602,"Ġsupply":7603,"Ġthankful":7604,"Ġexplos":7605,"Ġcrap":7606,"Ġdressing":7607,"Ġleaders":7608,"Ġexpecting":7609,"Ġforeign":7610,"Ġrecording":7611,"ĠKingdom":7612,"Ġclimbing":7613,"Ġlimited":7614,"Ġplatform":7615,"ĠIrish":7616,"25":7617,"GO":7618,"foot":7619,"sque":7620,"talk":7621,"uct":7622,"Ġtack":7623,"erous":7624,"ĠCompany":7625,"Ġroyal":7626,"Ġunderneath":7627,"HEN":7628,"Ġcris":7629,"Ġchamp":7630,"Ġnicely":7631,"Ġfinancial":7632,"unts":7633,"Ġ2003":7634,"Ġbuildings":7635,"Ġsales":7636,"eanwhile":7637,"Ġproceeded":7638,"Ġmerely":7639,"Alexander":7640,"Ġbastard":7641,"Ġlibrary":7642,"SC":7643,"ban":7644,"bling":7645,"rated":7646,"Ġward":7647,"hati":7648,"rog":7649,"ĠSummer":7650,"ĠWed":7651,"quar":7652,"Ġnoble":7653,"theless":7654,"Ġworkers":7655,"Ġsomethin":7656,"Ġproof":7657,"Ġassured":7658,"Ġlanding":7659,"Ġvisited":7660,"Ġdivided":7661,"Ġdesigned":7662,"Ġblew":7663,"ĠGovernor":7664,"Ġpowder":7665,"ĠVirginia":7666,"cream":7667,"nice":7668,"Ġtummy":7669,"Ġlamb":7670,"ĠMu":7671,"ĠSand":7672,"ĠSpr":7673,"Ġjun":7674,"pple":7675,"ĠPen":7676,"igan":7677,"ĠOur":7678,"ĠOak":7679,"Ġintellig":7680,"issippi":7681,"Ġkindness":7682,"Ġdrag":7683,"Ġcharges":7684,"Ġimpati":7685,"Ġexped":7686,"fortable":7687,"Ġlaws":7688,"Shit":7689,"ompan":7690,"Ġbelonged":7691,"Ġviolence":7692,"Ġcheerful":7693,"ĠEliot":7694,"ĠFrancis":7695,"Ġunexpected":7696,"gbark":7697,"nor":7698,"wan":7699,"zer":7700,"Ġwitch":7701,"Ġbin":7702,"uties":7703,"ĠMall":7704,"ĠTer":7705,"Ġplot":7706,"ĠJess":7707,"Ġvig":7708,"Ġleather":7709,"Ġ(;":7710,"Ġunif":7711,"Ġunhappy":7712,"ruct":7713,"pecial":7714,"Ġapples":7715,"Ġchuck":7716,"Ġfollows":7717,"Ġdrift":7718,"Ġconfident":7719,"Ġcurtain":7720,"Ġauthorities":7721,"Ġverb":7722,"ĠWilliams":7723,"Ġdemanded":7724,"Ġphysical":7725,"ĠGovernment":7726,"Ġfocus":7727,"Ġpronoun":7728,"During":7729,"Jim":7730,"Want":7731,"ca":7732,"eight":7733,"Ġtank":7734,"Ġast":7735,"Ġsought":7736,"hers":7737,"ĠAsh":7738,"ĠWould":7739,"ardo":7740,"Ġconference":7741,"hia":7742,"Ġenc":7743,"Ġsched":7744,"ipina":7745,"Ġpolite":7746,"Ġelev":7747,"Ġexchan":7748,"Ġtrains":7749,"ikander":7750,"Ġshouting":7751,"Ġremaining":7752,"ĠBraz":7753,"ĠReliance":7754,"Ġcigaret":7755,"green":7756,"uable":7757,"itable":7758,"Ġmama":7759,"escue":7760,"add":7761,"Ġstove":7762,"Ġmeasure":7763,"throw":7764,"ĠRay":7765,"Ġvic":7766,"Ġguards":7767,"Ġaccord":7768,"Ġfuneral":7769,"Ġreturning":7770,"Ġtrave":7771,"Ġimportance":7772,"Ġcleaning":7773,"Ġappears":7774,"Ġcosts":7775,"Ġprisoners":7776,"Ġteachers":7777,"Ġproduction":7778,"Ġdiscussion":7779,"Ġintroduce":7780,"60":7781,"nam":7782,"pull":7783,"too":7784,"toy":7785,"rend":7786,"Ġbul":7787,"Ġtooth":7788,"Ġpic":7789,"Ġlat":7790,"atre":7791,"Ġhug":7792,"ĠMass":7793,"Ġsequ":7794,"ĠHon":7795,"Ġrust":7796,"Ġrider":7797,"Ġdeer":7798,"rying":7799,"ĠFe":7800,"ĠEv":7801,"never":7802,"arson":7803,"leton":7804,"uesday":7805,"Ġ60":7806,"Anne":7807,"Ġcreatures":7808,"Ġmerry":7809,"Ġviolent":7810,"ĠMerrim":7811,"Ġgarage":7812,"ĠWindows":7813,"Ġroute":7814,"Ġargument":7815,"ĠCongress":7816,"Ġcompleted":7817,"Life":7818,"cles":7819,"ping":7820,"Ġtin":7821,"Ġcouch":7822,"Ġdug":7823,"Ġfetch":7824,"Ġbelly":7825,"Ġere":7826,"eau":7827,"ĠCromer":7828,"Ġrage":7829,"ĠWestern":7830,"ĠDis":7831,"igger":7832,"Ġenqu":7833,"Ġunknown":7834,"Ġdisg":7835,"Ġfacts":7836,"ĠArthur":7837,"Ġwinner":7838,"Ġsweetie":7839,"ĠReally":7840,"ĠProv":7841,"Ġburden":7842,"ĠCommittee":7843,"Ġextraord":7844,"ĠGrandma":7845,"points":7846,"Ġchemical":7847,"ĠSusan":7848,"ĠLatin":7849,",...":7850,"[$=":7851,"squ":7852,"uy":7853,"Ġwret":7854,"refers":7855,"Ġcord":7856,"Ġgrey":7857,"Ġstared":7858,"Ġmechan":7859,"ĠGar":7860,"ĠFoot":7861,"Ġintention":7862,"Ġcock":7863,"Ġ190":7864,"Ġpointing":7865,"Ġmob":7866,"Ġmustn":7867,"gger":7868,"Ġeats":7869,"ĠMississippi":7870,"ï¿½ï¿½ï¿½":7871,"Ġmidst":7872,"Ġconstant":7873,"Ġmercy":7874,"ĠOnly":7875,"ICE":7876,"dded":7877,"Ġringing":7878,"Ġorganization":7879,"Ġcandid":7880,"Ġwarriors":7881,"Ġindependent":7882,"boo":7883,"oan":7884,"wick":7885,"Ġpond":7886,"ĠIm":7887,"Ġheight":7888,"Ġdoctors":7889,"âĢķ":7890,"ĠTan":7891,"ĠWacker":7892,"ĠDa":7893,"ĠJUST":7894,"ĠJethro":7895,"ĠEric":7896,"Ġlover":7897,"Ġclap":7898,"Ġreality":7899,"Ġdrank":7900,"Ġconfusion":7901,"Ġservant":7902,"Ġmistaken":7903,"Ġdistricts":7904,"Ġcomplain":7905,"Uncle":7906,"Ġportion":7907,"Ġpossibility":7908,"ĠSuper":7909,"hetti":7910,"Ġreligious":7911,"Edna":7912,"ĠMickey":7913,"Ġconcluded":7914,"ĠCanadian":7915,"BC":7916,"IX":7917,"LING":7918,"bie":7919,"cow":7920,"Ġnonsense":7921,"Ġanal":7922,"ĠSob":7923,"ĠTell":7924,"ĠNet":7925,"ĠOnce":7926,"agle":7927,"Were":7928,"issed":7929,"Ġcovers":7930,"avy":7931,"Ġheaded":7932,"rett":7933,"Ġobtained":7934,"Ġbelief":7935,"Ġretire":7936,"Ġdecent":7937,"Ġimpress":7938,"shine":7939,"Ġextended":7940,"ĠGrace":7941,"ervation":7942,"Ġabsence":7943,"Ġvisitors":7944,"Ġlimit":7945,"Ġcowboy":7946,"Ġcrayons":7947,"Ġcritic":7948,"Ġuncomfortable":7949,"Hang":7950,"Time":7951,"fin":7952,"sa":7953,"sho":7954,"Ġpace":7955,"Ġlink":7956,"Ġthief":7957,"alls":7958,"ĠCho":7959,"ĠWhile":7960,"ĠDun":7961,"ĠDever":7962,"inder":7963,"ĠStand":7964,"Ġapplic":7965,"Ġendeav":7966,"Ġcommander":7967,"Ġdraft":7968,"Ġribb":7969,"puts":7970,"ĠJapazy":7971,"uki":7972,"coming":7973,"Ġpacked":7974,"Ġfoolish":7975,"mitage":7976,"Ġthreatened":7977,"remember":7978,"whispering":7979,"ĠCentral":7980,"Ġpunishment":7981,"igsaw":7982,"Ġpattern":7983,"Ġinhabit":7984,"wen":7985,"wers":7986,"Ġdom":7987,"ĠIll":7988,"utation":7989,"Ġrev":7990,"ĠSl":7991,"ĠNas":7992,"ĠNever":7993,"Ġnowhere":7994,"Ġsmiles":7995,"Ġteaching":7996,"Ġacted":7997,"Ġleaf":7998,"Ġbuying":7999,"ATE":8000,"Ġairplane":8001,"Ġjumping":8002,"Ġclimbed":8003,"Ġtorn":8004,"AUGH":8005,"Ġresolution":8006,"ĠLawrence":8007,"Ġvehicle":8008,"CC":8009,"DO":8010,"HOR":8011,"Many":8012,"Ġwoke":8013,"Ġbishop":8014,"Ġcode":8015,"Ġocean":8016,"Ġhal":8017,"seven":8018,"ĠShow":8019,"ĠAli":8020,"ilst":8021,"Ġrac":8022,"ĠPac":8023,"Ġwanting":8024,"eme":8025,"Ġuniversity":8026,"Ġthrust":8027,"Ġstrict":8028,"ĠArmitage":8029,"Ġsubs":8030,"Ġattacks":8031,"urious":8032,"Ġtracks":8033,"Check":8034,"ĠABOUT":8035,"Col":8036,"Sec":8037,"XX":8038,"ois":8039,"uate":8040,"Ġdumb":8041,"Ġlou":8042,"Ġbegged":8043,"acity":8044,"Ġstable":8045,"ĠMet":8046,"Ġnoted":8047,"ĠAD":8048,"Ġerr":8049,"Ġflu":8050,"Ġchips":8051,"Ġchildhood":8052,"Ġchum":8053,"Ġdragged":8054,"Ġconfir":8055,"Ġhundreds":8056,"Ġfriendship":8057,"Ġpainted":8058,"Ġinsisted":8059,"Ġstudio":8060,"Ġrecorded":8061,"Ġestim":8062,"ĠWarren":8063,"kisses":8064,"vocalizes":8065,"uddenly":8066,"BER":8067,"Bring":8068,"Tony":8069,"bud":8070,"bage":8071,"giving":8072,"Ġwip":8073,"Ġmast":8074,"Ġcreek":8075,"Ġdies":8076,"adies":8077,"Ġlif":8078,"Ġshining":8079,"ĠLit":8080,"odes":8081,"endous":8082,"Ġprince":8083,"Ġchamber":8084,"Ġindign":8085,"ĠEdward":8086,"Ġsleepy":8087,"Ġaddressed":8088,"Ġconfl":8089,"Ġconfused":8090,"CHAR":8091,"ĠClub":8092,"ĠCarter":8093,"Ġmidnight":8094,"Ġbreathing":8095,"Ġ1970":8096,"ĠSwed":8097,"Ġhammer":8098,"ĠDemocratic":8099,"Ġcottage":8100,"Ġcomrades":8101,"24":8102,"Both":8103,"Co":8104,"Early":8105,"Such":8106,"away":8107,"hum":8108,"Ġsank":8109,"Ġfeared":8110,"asant":8111,"Ġitem":8112,"aman":8113,"ĠHend":8114,"ainted":8115,"Ġnodded":8116,"ĠGarth":8117,"ĠRose":8118,"Ġroast":8119,"Ġattached":8120,"lets":8121,"Ġobst":8122,"ORT":8123,"ARY":8124,"ĠAsia":8125,"Ġstopping":8126,"aspberry":8127,"Ġeffects":8128,"Ġtreatment":8129,"Ġtickle":8130,"ĠNothing":8131,"Ġholidays":8132,"playing":8133,"Ġnaturally":8134,"Ġfaithful":8135,"Ġamendment":8136,"ĠDevering":8137,"23":8138,"Happy":8139,"Maggie":8140,"NE":8141,"UE":8142,"ko":8143,"eram":8144,"Ġmac":8145,"Ġcam":8146,"Ġyer":8147,"Ġyum":8148,"Ġthirst":8149,"ĠAbe":8150,"ĠHol":8151,"osop":8152,"ĠLower":8153,"ĠKy":8154,"Ġpole":8155,"Ġremove":8156,"Ġcapable":8157,"Ġkidna":8158,"Ġawait":8159,"Ġdining":8160,"ASE":8161,"Ġengines":8162,"ĠParliament":8163,"ĠAbout":8164,"Ġanxiety":8165,"Ġconnected":8166,"Ġgradually":8167,"Ġinjured":8168,"Ġculture":8169,"Charlie":8170,"Ġfurniture":8171,"ĠRuthven":8172,"Ġapologize":8173,"American":8174,"21":8175,";\"":8176,"BR":8177,"Jane":8178,"Run":8179,"Under":8180,"War":8181,"fire":8182,"ouri":8183,"Ġfare":8184,"Ġheap":8185,"Ġhay":8186,"acon":8187,"ĠMars":8188,"ĠSince":8189,"urbed":8190,"ĠBaby":8191,"ighed":8192,"iana":8193,"cia":8194,"Ġpassengers":8195,"Ġdiscover":8196,"Ġhorror":8197,"Ġsymb":8198,"ĠPrime":8199,"Ġdeeply":8200,"Ġsafely":8201,"Ġcapture":8202,"Ġprepare":8203,"oosa":8204,"Ġassistant":8205,"Ġinvestigation":8206,"break":8207,"krain":8208,"Ġtables":8209,"leg":8210,"eaut":8211,"Ġwhilst":8212,"ĠRec":8213,"ĠRolan":8214,"Ġconver":8215,"Ġspots":8216,"Ġanyhow":8217,"aph":8218,"agement":8219,"asses":8220,"hart":8221,"enses":8222,"Ġobvious":8223,"Ġsumm":8224,"Ġadmitted":8225,"Ġceased":8226,"Ġpolicies":8227,"ICK":8228,"Ġkingdom":8229,"Ġwhisper":8230,"Ġbuddy":8231,"pretend":8232,"Ġresponded":8233,"ĠGolden":8234,"yellow":8235,"Ġthoroughly":8236,"Ġmigration":8237,"Ġterritory":8238,"Comm":8239,"Honey":8240,"OS":8241,"Phil":8242,"WELL":8243,"_;":8244,"nut":8245,"nge":8246,"picks":8247,"rul":8248,"sl":8249,"top":8250,"vant":8251,"Ġwolf":8252,"Ġcows":8253,"Ġtox":8254,"Ġhun":8255,"Ġbears":8256,"ĠCL":8257,"ĠCath":8258,"ĠBook":8259,"Ġjolly":8260,"Ġyourselves":8261,"Ġupside":8262,"Ġdece":8263,"ĠDes":8264,"ĠLang":8265,"rah":8266,"ĠRich":8267,"canora":8268,"Ġpresents":8269,"Ġfrank":8270,"Ġassume":8271,"Ġfactory":8272,"ĠArm":8273,"Ġplanet":8274,"ĠAsian":8275,"ĠTommy":8276,"ĠIsa":8277,"Ġshark":8278,"Ġlevels":8279,"ĠDanny":8280,"ĠONE":8281,"stitute":8282,"Ġextraordinary":8283,"Pol":8284,"VI":8285,"yy":8286,"yay":8287,"Ġsings":8288,"Ġcakes":8289,"Ġdu":8290,"Ġpud":8291,"Ġgazed":8292,"Ġlic":8293,"omi":8294,"ettle":8295,"Ġreference":8296,"irts":8297,"ĠAL":8298,"ĠGET":8299,"Ġtrace":8300,"Ġenorm":8301,"Ġunits":8302,"HIS":8303,"Ġflood":8304,"Ġscen":8305,"Ġimit":8306,"ĠStill":8307,"icture":8308,"umpy":8309,"Ġmarch":8310,"Ġexpressed":8311,"Ġrefers":8312,"Ġdefence":8313,"Ġprofessor":8314,"Ġworthy":8315,"ĠDaniel":8316,"Ġkicked":8317,"Ġmemories":8318,"Ġbucks":8319,"Ġstroke":8320,"ĠFortescue":8321,"Ġstretched":8322,"Bessie":8323,"Care":8324,"Sam":8325,"even":8326,"iries":8327,"nis":8328,"Ġ0":8329,"Ġsons":8330,"Ġswell":8331,"onia":8332,"Ġmal":8333,"Ġgrief":8334,"Ġgabr":8335,"alm":8336,"entine":8337,"ifts":8338,"olk":8339,"ĠFox":8340,"Ġvoy":8341,"hings":8342,"text":8343,"ĠUp":8344,"Ġcommit":8345,"Ġaccompan":8346,"Ġobtain":8347,"Ġdistingu":8348,"Ġretreat":8349,"Ġwooden":8350,"Ġstaring":8351,"Ġquarters":8352,"Ġpackage":8353,"Ġlabour":8354,"Ġhealthy":8355,"Ġrepresented":8356,"Ġignor":8357,"Ġaffected":8358,"Ġwrapped":8359,"Ġphrase":8360,"ĠBorden":8361,":--":8362,"AF":8363,"Bill":8364,"GR":8365,"PL":8366,"Pardon":8367,"first":8368,"girl":8369,"Ġbord":8370,"Ġpist":8371,"Ġthunder":8372,"Ġbeating":8373,"acco":8374,"urd":8375,"ĠLu":8376,"akin":8377,"ints":8378,"Ġsmoking":8379,"Ġcomplex":8380,"Ġattended":8381,"Ġconsist":8382,"Ġreduced":8383,"Ġinsist":8384,"iverse":8385,"Ġdescribe":8386,"Ġhasta":8387,"inois":8388,"ustomed":8389,"Ġphoto":8390,"Ġarrows":8391,"keeper":8392,"Ġsignificant":8393,"Ġpilot":8394,"ĠPakistan":8395,"ĠWednesday":8396,"bro":8397,"gie":8398,"master":8399,"sw":8400,"viet":8401,"Ġwars":8402,"Ġsession":8403,"Ġmental":8404,"Ġdirt":8405,"Ġgym":8406,"Ġlaughter":8407,"eta":8408,"ĠAri":8409,"unte":8410,"ĠRome":8411,"ĠNancy":8412,"oused":8413,"Ġbackwards":8414,"ĠUrs":8415,"Ġchim":8416,"Ġleague":8417,"Ġbush":8418,"Ġwarn":8419,"Ġassault":8420,"Ġdepends":8421,"ĠAssoci":8422,"Ġsteam":8423,"Ġroads":8424,"Ġprovision":8425,"Ġ1997":8426,"Ġrolls":8427,"Ġruined":8428,"Ġpiggy":8429,"Frank":8430,"Ġneighbour":8431,"ĠCenter":8432,"spector":8433,"draw":8434,"ĠOlympics":8435,"ĠWilson":8436,"eautiful":8437,"26":8438,"BLE":8439,"Cong":8440,"ECT":8441,"Int":8442,"bi":8443,"cat":8444,"mate":8445,"tes":8446,"hether":8447,"Ġdared":8448,"Ġfires":8449,"arant":8450,"Ġrend":8451,"ĠMag":8452,"ĠMolly":8453,"ĠSO":8454,"ĠSax":8455,"ĠChat":8456,"ĠCam":8457,"ĠPipina":8458,"oland":8459,"ntil":8460,"Ġblows":8461,"ĠBrooke":8462,"Ġbeds":8463,"Ġcharged":8464,"Ġgenerous":8465,"Ġleads":8466,"Ġpenny":8467,"Ġterribly":8468,"Ġtempor":8469,"Ġannounce":8470,"Ġtechnology":8471,"ĠSergeant":8472,"Brother":8473,"Ġaudience":8474,"rinini":8475,"Ġproducer":8476,"Ġcomedy":8477,"Ġsufficient":8478,"ĠSobrinini":8479,"ĠHenderson":8480,"!âĢĻ":8481,"App":8482,"Ġbond":8483,"itched":8484,"Ġcries":8485,"Ġlux":8486,"Ġnatives":8487,"omer":8488,"icop":8489,"Ġkil":8490,"ĠShar":8491,"oli":8492,"Ġscri":8493,"Ġmole":8494,"Ġcompared":8495,"onscious":8496,"Ġchannel":8497,"Ġchew":8498,"Ġearned":8499,"Ġinsurance":8500,"Ġfifth":8501,"Ġlocation":8502,"Ġarticle":8503,"Ġconsideration":8504,"Ġgrowth":8505,"ĠCoch":8506,"Ġseparated":8507,"Ġfierce":8508,"ĠPacific":8509,"Joseph":8510,"MY":8511,"kind":8512,"lah":8513,"inity":8514,"nded":8515,"Ġobey":8516,"ooja":8517,"urg":8518,"ĠHond":8519,"Ġrice":8520,"Ġrug":8521,"abel":8522,"inkie":8523,"ĠPost":8524,"ĠPoint":8525,"Ġpros":8526,"ĠVis":8527,"rows":8528,"Stand":8529,"Ġ184":8530,"ĠSociety":8531,"Ġ1999":8532,"Ġclasses":8533,"Ġillustr":8534,"Ġexperiment":8535,"Ġraining":8536,"Ġwaist":8537,"Ġcoward":8538,"Ġsolid":8539,"Ġbenef":8540,"arius":8541,"Ġdespair":8542,"Ġsenior":8543,"Ġrecommend":8544,"ĠCastle":8545,"Ġashore":8546,"VEN":8547,"bin":8548,"round":8549,"Ġtide":8550,"itan":8551,"Ġmour":8552,"Ġdough":8553,"Ġpier":8554,"armed":8555,"usie":8556,"Ġath":8557,"ĠCy":8558,"ĠĠĠĊ":8559,"ilton":8560,"ĠTake":8561,"Ġnoisy":8562,"estion":8563,"ĠField":8564,"Ġexact":8565,"Ġages":8566,"Ġloyal":8567,"Ġtractor":8568,"Ġgoodbye":8569,"Ġfee":8570,"Ġgrim":8571,"Ġblast":8572,"Ġpartners":8573,"Ġscale":8574,"people":8575,"Ġsla":8576,"retty":8577,"Ġsites":8578,"azz":8579,"unted":8580,"ĠJohnson":8581,"Ġ2001":8582,"Ġshortly":8583,"Ġreasonable":8584,"Ġstrongly":8585,"Ġrecorder":8586,"derer":8587,"Ġbags":8588,"AYS":8589,"Ġpuppy":8590,"ĠLucas":8591,"Ġloudly":8592,"Ġcontains":8593,"Ġseventeen":8594,"Remi":8595,"Ġtemperature":8596,"ĠDepartment":8597,"Ġconvinced":8598,"Ġinhabitants":8599,"Ge":8600,"Ok":8601,"Six":8602,"iven":8603,"part":8604,"uals":8605,"ĠAng":8606,"ĠCooper":8607,"ĠBY":8608,"Ġrushing":8609,"ĠDu":8610,"ĠDen":8611,"Ġcomments":8612,"Ġvirt":8613,"ĠElo":8614,"ĠOver":8615,"again":8616,"Ġ[?":8617,"ĠKnight":8618,"Ġwherever":8619,"uclear":8620,"Ġcleared":8621,"Ġinstit":8622,"Ġinstinct":8623,"Ġimpressed":8624,"Ġspeaker":8625,"Ġ1994":8626,"coln":8627,"Ġtouching":8628,"Ġsuggestion":8629,"Ġlaun":8630,"screams":8631,"Ġuttered":8632,"ĠShagbark":8633,"ĠEllie":8634,"Ġcadets":8635,"Ġenvironmental":8636,"Indeed":8637,"ufact":8638,"35":8639,"Hal":8640,"IVE":8641,"last":8642,"ni":8643,"pur":8644,"rots":8645,"tom":8646,"Ã¦":8647,"Ġlos":8648,"adal":8649,"ĠMaybe":8650,"ĠTall":8651,"Ġcanoe":8652,"ckets":8653,"ĠGun":8654,"istics":8655,"ĠNorthern":8656,"Ġmanufact":8657,"ucking":8658,"peror":8659,"Ġrecall":8660,"aughters":8661,"Ġfunction":8662,"Ġrivers":8663,"Ġunderstanding":8664,"Thomas":8665,"Ġbasic":8666,"AST":8667,"Ġfigured":8668,"Ġ1995":8669,"ĠMayenne":8670,"Ġcrossing":8671,"Ġjournal":8672,"Ġprayer":8673,"Ġacquaint":8674,"Ġdegrees":8675,"Ġsurrounded":8676,"Ġhesitated":8677,"ĠEmpire":8678,"ĠIllinois":8679,"27":8680,"99":8681,"Dada":8682,"EX":8683,"Rel":8684,"jac":8685,"rd":8686,"Ġtiss":8687,"Ġwoof":8688,"Ġcage":8689,"Ġdude":8690,"ani":8691,"arse":8692,"attered":8693,"Ġhee":8694,"Ġheels":8695,"imately":8696,"Ġsauce":8697,"ulse":8698,"ĠPenn":8699,"ĠDire":8700,"ĠRus":8701,"agger":8702,"cipl":8703,"ĠUkrain":8704,"ĠMissouri":8705,"amped":8706,"ORY":8707,"Ġdepend":8708,"REAM":8709,"Ġsunshine":8710,"ĠPhilip":8711,"Ġtickets":8712,"Ġstores":8713,"ĠPatrick":8714,"Ġfirmly":8715,"ĠAustralian":8716,"icycle":8717,"ocracy":8718,"Ġcitizens":8719,"Ġuniform":8720,"ĠNascanora":8721,"EF":8722,"Peter":8723,"cest":8724,"dri":8725,"name":8726,"uj":8727,"yed":8728,"Ġtha":8729,"inated":8730,"Ġwing":8731,"itors":8732,"Ġfaced":8733,"Ġgest":8734,"Ġgosh":8735,"ĠCT":8736,"ĠHot":8737,"Ġmyth":8738,"ĠTuesday":8739,"ppose":8740,"ĠWomen":8741,"Ġplung":8742,"ĠFil":8743,"aghetti":8744,"Ġfeather":8745,"ĠKansas":8746,"hens":8747,"Ġmothers":8748,"Ġglorious":8749,"fecture":8750,"ORE":8751,"Ġpersonally":8752,"Ġpossess":8753,"cript":8754,"Ġgreenbelt":8755,"Ġabsolute":8756,"Ġmischief":8757,"Ġsharply":8758,"ĠJoey":8759,"Ġimagined":8760,"Ġsolution":8761,"ĠRandolph":8762,"Ġinstructions":8763,"Ġcriminal":8764,"ĠLieutenant":8765,"ĠLIKE":8766,"Ġexplanation":8767,"Ġbracelet":8768,"ĠEloise":8769,"Certainly":8770,"Too":8771,"gun":8772,"lam":8773,"oard":8774,"vy":8775,"rec":8776,"Ġbored":8777,"Ġgrie":8778,"Ġhom":8779,"imum":8780,"riger":8781,"amas":8782,"ĠBear":8783,"ilk":8784,"Ġsoap":8785,"osition":8786,"ĠOff":8787,"Ġquant":8788,"reeze":8789,"Ġpeep":8790,"Ġdaylight":8791,"Ġscrap":8792,"Ġcarpet":8793,"Ġdisaster":8794,"OUS":8795,"Ġdoorway":8796,"Ġelement":8797,"ĠEdric":8798,"END":8799,"Ġcuts":8800,"Ġtrained":8801,"ĠSoviet":8802,"Ġstudies":8803,"Ġholy":8804,"Ġclothing":8805,"Without":8806,"Ġsupported":8807,"Ġhopes":8808,"Ġvaluable":8809,"Ġeventually":8810,"help":8811,"Ġdescription":8812,"Ġvolunte":8813,"Ġrubber":8814,"whispers":8815,"Ġcadet":8816,"Ġsympathy":8817,"Ġtremendous":8818,"500":8819,"CI":8820,"Mon":8821,"Mart":8822,"UP":8823,"bag":8824,"jack":8825,"ront":8826,"sk":8827,"uits":8828,"inate":8829,"Ġbund":8830,"Ġduties":8831,"Ġyield":8832,"Ġnut":8833,"rily":8834,"stick":8835,"Ġjigsaw":8836,"hane":8837,"ques":8838,"ĠRad":8839,"ĠOut":8840,"Ġbricks":8841,"Ġ[_":8842,"ewis":8843,"Ġteen":8844,"Ġchin":8845,"Ġchances":8846,"Ġsurgery":8847,"Ġdecisions":8848,"Ġinstantly":8849,"didn":8850,"Ġconstantly":8851,"Ġmistress":8852,"Ġsalary":8853,"Ġpupp":8854,"athetic":8855,"Ġhastily":8856,"Doesn":8857,"Ġbutterfly":8858,"Ġdelicate":8859,"Ġscreaming":8860,"Ġexistence":8861,"Ġadditional":8862,"Ġdistributed":8863,"Ġbattery":8864,"Ġadopted":8865,"Ġangel":8866,"codile":8867,"ngeun":8868,"Show":8869,"jamin":8870,"Ġwander":8871,"Ġbust":8872,"llie":8873,"Ġped":8874,"Ġhaul":8875,"Ġecho":8876,"still":8877,"ĠMAN":8878,"ĠMobile":8879,"ĠSP":8880,"ĠHIM":8881,"umption":8882,"ĠDave":8883,"ĠLisa":8884,"high":8885,"HERE":8886,"Ġchallen":8887,"ĠBrid":8888,"otta":8889,"Ġentering":8890,"Ġanswers":8891,"ARS":8892,"Ġinterests":8893,"Ġ185":8894,"Ġdiscovery":8895,"Ġhated":8896,"ĠHarrison":8897,"Ġstead":8898,"ĠThursday":8899,"APP":8900,"Ġsnakes":8901,"Ġcookie":8902,"Ġenjoying":8903,"Ġestate":8904,"Ġgods":8905,"._]":8906,"Ġphotograph":8907,"Ġvessels":8908,"Ġprincipal":8909,"Ġsavage":8910,"Ġfantastic":8911,"Ġconfirmed":8912,")}":8913,"Aunt":8914,"CL":8915,"Hy":8916,"YS":8917,"bal":8918,"ez":8919,"love":8920,"works":8921,"inem":8922,"Ġcors":8923,"Ġfasc":8924,"ori":8925,"Ġlan":8926,"Ġhen":8927,"Ġbew":8928,"imm":8929,"ador":8930,"ĠTIM":8931,"ppers":8932,"eling":8933,"Ġfeast":8934,"Ġroar":8935,"Ġgrin":8936,"pton":8937,"Ġunlike":8938,"Ġflesh":8939,"ĠUnder":8940,"Ġresident":8941,"Ġbeloved":8942,"ogue":8943,"ERE":8944,"Ġcounting":8945,"ysis":8946,"ĠTHERE":8947,"Ġcolored":8948,"Ġreflect":8949,"ĠHarwood":8950,"Ġsticking":8951,"OMAN":8952,"Ġchecking":8953,"Ġmedia":8954,"Ġ90":8955,"Ġterrif":8956,"Ġsecretary":8957,"Ġclosing":8958,"Ġbanana":8959,"ĠPolice":8960,"Ġoccasionally":8961,"ettie":8962,"Ġestablish":8963,"ĠAirport":8964,"Ġmurmured":8965,"ĠStephen":8966,"Ġguidance":8967,"Ġdisgust":8968,"'...":8969,"Had":8970,"UD":8971,"duck":8972,"hem":8973,"eno":8974,"iry":8975,"ĠSol":8976,"ĠCad":8977,"ĠHIS":8978,"Ġrat":8979,"oren":8980,"Ġshift":8981,"umper":8982,"ĠWall":8983,"ĠWANT":8984,"ĠGe":8985,"ĠLife":8986,"apers":8987,"ĠEaster":8988,"Ġleaning":8989,"uddle":8990,"ĠKas":8991,"Ġpockets":8992,"Ġcrick":8993,"Ġstartled":8994,"ailing":8995,"Ġcounties":8996,"Ġswung":8997,"vention":8998,"REE":8999,"Ġdolly":9000,"Ġmurderer":9001,"ĠGuadal":9002,"Somebody":9003,"aska":9004,"Ġcatching":9005,"ĠLeon":9006,"Ġpotato":9007,"Ġrepeat":9008,"Ġwagons":9009,"Ġnetwork":9010,"Ġbarely":9011,"Ġarrangements":9012,"ĠHERE":9013,"Ġmagnific":9014,"Ġnominated":9015,"ĠFootball":9016,"90":9017,"Better":9018,"RS":9019,"di":9020,"find":9021,"nope":9022,"pick":9023,"wind":9024,"{\\":9025,"Ġ:":9026,"Ġeth":9027,"erg":9028,"ito":9029,"isl":9030,"Ġcough":9031,"esome":9032,"Ġga":9033,"Ġhid":9034,"Ġhired":9035,"icip":9036,"Ġraid":9037,"ĠTW":9038,"ĠPapa":9039,"eline":9040,"ĠGall":9041,"Ġconven":9042,"Ġven":9043,"ĠKang":9044,"Ġlets":9045,"Ġhelicop":9046,"Ġslipp":9047,"Ġrecovered":9048,"Ġwarrant":9049,"ĠAlice":9050,"ĠAnother":9051,"Ġsweat":9052,"Ġmaintain":9053,"ĠINV":9054,"Ġbreathe":9055,"Ġburnt":9056,"Ġsystems":9057,"syl":9058,"ĠRepresent":9059,"Ġblessed":9060,"Ġfunds":9061,"Ġtroubled":9062,"Ġearnestly":9063,"Ġdemonstr":9064,"ĠCatholic":9065,"Jul":9066,"Nat":9067,"mar":9068,"sung":9069,"uing":9070,"Ġtub":9071,"ougl":9072,"Ġbars":9073,"Ġdaughters":9074,"Ġfake":9075,"Ġfederal":9076,"Ġrein":9077,"Ġaspect":9078,"ĠBye":9079,"ĠBesides":9080,"ĠDuke":9081,"cker":9082,"ĠFore":9083,"istry":9084,"ĠNa":9085,"Ġwhoa":9086,"Ġbrand":9087,"Ġgrasp":9088,"Ġamus":9089,"teacher":9090,"Ġguarant":9091,"close":9092,"Ġappointment":9093,"ANG":9094,"canal":9095,"Ġnumerous":9096,"Ġalongside":9097,"Ġtrap":9098,"Ġstuffed":9099,"Ġpainful":9100,"Ġislands":9101,"Ġincreasing":9102,"Ġbells":9103,"Ġvanished":9104,"Ġprocedure":9105,"stein":9106,"Ġexpedition":9107,"ĠCochran":9108,"Nor":9109,"Ten":9110,"wart":9111,"Ġdign":9112,"Ġtoe":9113,"Ġthumb":9114,"also":9115,"ĠAle":9116,"ĠHoll":9117,"uls":9118,"ĠGord":9119,"ĠLar":9120,"ĠRoss":9121,"ĠRIGHT":9122,"Ġgoods":9123,"Ġbrick":9124,"Ġunple":9125,"ĠStr":9126,"dog":9127,"ĠVer":9128,"Ġgloom":9129,"Ġskill":9130,"Ġrefuse":9131,"Ġdealing":9132,"Ġ1996":9133,"Ġopposed":9134,"ĠJackson":9135,"Ġbullets":9136,"Ġdefeat":9137,"moans":9138,"ĠTeam":9139,"Ġcontained":9140,"Ġdebt":9141,"Ġeconomy":9142,"Ġpreparing":9143,"kerchief":9144,"ĠLiber":9145,"ĠGuadalcanal":9146,"ouglas":9147,".=":9148,"AGE":9149,"None":9150,"bby":9151,"iat":9152,"ipt":9153,"Ġax":9154,"Ġpoo":9155,"Ġpushes":9156,"Ġhits":9157,"Ġstor":9158,"Ġstated":9159,"Ġseas":9160,"quick":9161,"ĠJan":9162,"Ġneedn":9163,"ĠUpper":9164,"Ġundert":9165,"Ġresc":9166,"Ġbug":9167,"upon":9168,"Ġ35":9169,"inson":9170,"mbre":9171,"Ġrelation":9172,"ĠAlan":9173,"ĠAlthough":9174,"Ġinformed":9175,"ĠChristians":9176,"Ġ1992":9177,"ommod":9178,"Ġhollow":9179,"Ġequally":9180,"Ġpractically":9181,"Ġcovering":9182,"ĠDanes":9183,"AKING":9184,"Madam":9185,"Ġexperienced":9186,"belie":9187,"Ġdivorced":9188,"ĠFreud":9189,"Ġconclusion":9190,"FO":9191,"bang":9192,"gone":9193,"hot":9194,"kward":9195,"move":9196,"Ġcooper":9197,"Ġgard":9198,"Ġnations":9199,"iments":9200,"verse":9201,"Ġreaching":9202,"Ġfork":9203,"sex":9204,"Ġjoking":9205,"Ġrum":9206,"Ġsob":9207,"ĠTa":9208,"ĠPRO":9209,"quet":9210,"ĠJud":9211,"ĠJung":9212,"ĠLane":9213,"ĠKi":9214,"izz":9215,"Ġcomposed":9216,"Ġactions":9217,"ĠEddie":9218,"Ġguessed":9219,"Ġdefense":9220,"ĠColin":9221,"ĠConf":9222,"Ġpuzzled":9223,"Ġactivities":9224,"Ġtournament":9225,"Ġfavourite":9226,"Ġeconomic":9227,"Ġdelivered":9228,"Ġinnit":9229,"aguar":9230,"Ġrelieved":9231,"Ġaccompanied":9232,"Besides":9233,"CON":9234,"La":9235,"coh":9236,"ios":9237,"mates":9238,"erves":9239,"Ġbol":9240,"Ġmummy":9241,"Ġcups":9242,"Ġoption":9243,"Ġdart":9244,"oral":9245,"Ġpoured":9246,"Ġanch":9247,"eaven":9248,"illing":9249,"Ġracing":9250,"Ġaboard":9251,"abs":9252,"Ġplates":9253,"ĠLara":9254,"ĠRom":9255,"Ġadvert":9256,"ĠStar":9257,"everal":9258,"OUN":9259,"Ġaccommod":9260,"Ġdistress":9261,"Ġlighted":9262,"Ġinterfe":9263,"brush":9264,"shit":9265,"ĠNewman":9266,"Ġhorrid":9267,"Ġawkward":9268,"ĠGroup":9269,"Ġpoorly":9270,"force":9271,"Ġvisible":9272,"ologist":9273,"Ġ1998":9274,"Ġforehead":9275,"THER":9276,"Ġcoloring":9277,"ĠDrusie":9278,"Ġshops":9279,"IGHS":9280,"chers":9281,"Ġidentified":9282,"Ġpursuit":9283,"respond":9284,"Ġpicnic":9285,"Bel":9286,"Hon":9287,"PH":9288,"Talk":9289,"gro":9290,"nat":9291,"tick":9292,"ĠÂ":9293,"Ġsack":9294,"Ġgasped":9295,"Ġinner":9296,"Ġbeard":9297,"irk":9298,"ĠMoon":9299,"ĠGive":9300,"ĠFel":9301,"Ġvision":9302,"ĠEst":9303,"agraph":9304,"ĠHee":9305,"Ġscary":9306,"irling":9307,"Ġasks":9308,"Ġwrites":9309,"Ġheading":9310,"ĠVic":9311,"Ġlasted":9312,"Ġbuff":9313,"Ġglory":9314,"Ġgloves":9315,"Ġkiller":9316,"Ġrelative":9317,"Ġimpact":9318,"Ġawfully":9319,"Ġcollea":9320,"ĠChampionship":9321,"Ġ1985":9322,"Ġ1988":9323,"Ġkissing":9324,"Ġmerchan":9325,"IDS":9326,"Ġdirections":9327,"Ġneighbors":9328,"Ġlabel":9329,"Ġkicking":9330,"VERY":9331,"Ġsettlements":9332,"Ġsensible":9333,"Ġstretch":9334,"ĠRandall":9335,"ĠRepublican":9336,"Ġsuspicion":9337,"ĠTyler":9338,"Ġprocedures":9339,"ifferent":9340,"Ġbench":9341,"ĠBedrul":9342,"squeals":9343,"Ġconflict":9344,"ĠAssociation":9345,"NK":9346,"Play":9347,"bara":9348,"cur":9349,"count":9350,"might":9351,"wha":9352,"western":9353,"ann":9354,"Ġbeans":9355,"irs":9356,"ĠMich":9357,"Ġancest":9358,"Ġgover":9359,"ĠCont":9360,"ĠBang":9361,"ĠHind":9362,"ĠTor":9363,"Ġsuicide":9364,"Ġaloud":9365,"aste":9366,"ĠOR":9367,"Ġpeas":9368,"cip":9369,"ĠYet":9370,"Ġcharming":9371,"excuse":9372,"Ġtennis":9373,"Ġ1986":9374,"Ġdetective":9375,"Ġducks":9376,"Ġvisitor":9377,"Ġcloses":9378,"ĠEmily":9379,"Ġcuriosity":9380,"Ġplainly":9381,"writer":9382,"Ġstatus":9383,"Quick":9384,"Ġanticip":9385,"Ġfrequently":9386,"ĠMerriman":9387,"budour":9388,"lahoma":9389,"ĠBedrulbudour":9390,"28":9391,"Jean":9392,"PS":9393,"Ġtires":9394,"once":9395,"Ġmars":9396,"Ġcateg":9397,"orous":9398,"Ġgre":9399,"Ġgal":9400,"Ġkings":9401,"ĠMau":9402,"Ġashes":9403,"ĠCur":9404,"ĠTib":9405,"oody":9406,"ĠDID":9407,"Ġgettin":9408,"ĠFour":9409,"ĠFord":9410,"ĠJenny":9411,"ĠLes":9412,"ĠLand":9413,"Ġintr":9414,"Ġleans":9415,"hedral":9416,"Ġuns":9417,"Ġrecon":9418,"Ġrecover":9419,"Ġaccustomed":9420,"Ġmonkeys":9421,"ĠArk":9422,"Ġreputation":9423,"Ġsteamer":9424,"Ġdrinks":9425,"ĠBenjamin":9426,"iko":9427,"Ġsneak":9428,"cription":9429,"Ġviews":9430,"Ġcloset":9431,"Ġorganis":9432,"Ġgalleys":9433,"Ġslightest":9434,"volution":9435,"Ġcrowded":9436,"Ġbroadcast":9437,"Ġrevolver":9438,"Ġhistorical":9439,"Ġwidow":9440,"Ġmultip":9441,"something":9442,"Ġinstrument":9443,"Ġsubstant":9444,"\").":9445,"45":9446,"Old":9447,"Richard":9448,"poor":9449,"reland":9450,"Ġmorn":9451,"Ġcri":9452,"Ġcared":9453,"alo":9454,"Ġult":9455,"ĠMm":9456,"ĠCelia":9457,"ĠBroad":9458,"Ġintend":9459,"Ġloads":9460,"Ġdisgr":9461,"Ġshared":9462,"Ġappet":9463,"Ġapply":9464,"Ġwarned":9465,"Ġlightning":9466,"nedy":9467,"Ġsilk":9468,"Ġsquad":9469,"Ġparrot":9470,"Ġmedal":9471,"Ġcauses":9472,"Ġpolitics":9473,"Ġpotential":9474,"Ġhopeless":9475,"Ġzero":9476,"Ġcops":9477,"Ġcrept":9478,"Ġmassive":9479,"Ġstruggling":9480,"Ġgravely":9481,"lemme":9482,"Ġattractive":9483,"Ġutterly":9484,"Ġsurvive":9485,"Ġstealing":9486,"careful":9487,"Ġtrembling":9488,"Ġcommercial":9489,"ITTLE":9490,"ĠMallory":9491,"Ġvoyage":9492,"Bro":9493,"URE":9494,"VID":9495,"ii":9496,"tt":9497,"vior":9498,"hamm":9499,"Ġpoop":9500,"Ġlemon":9501,"Ġiniti":9502,"Ġnasty":9503,"ĠIreland":9504,"ldom":9505,"Ġweary":9506,"rigg":9507,"Ġumbre":9508,"iller":9509,"inkle":9510,"ĠPa":9511,"Ġnoon":9512,"ĠRahul":9513,"ĠNich":9514,"ĠStop":9515,"Ġwrit":9516,"Ġinvite":9517,"Ġhumans":9518,"Ġdisappointment":9519,"black":9520,"Ġlieutenant":9521,"Ġsuperior":9522,"doesn":9523,"Ġlabor":9524,"Ġregarding":9525,"Ġhaste":9526,"Ġslee":9527,"whispered":9528,"Ġcabinet":9529,"Ġvictims":9530,"ĠOklahoma":9531,"ĠMissionary":9532,"Ġunfortunate":9533,"ĠSelwyn":9534,"ĠIsaac":9535,"Ken":9536,"Meanwhile":9537,"bish":9538,"gain":9539,"hous":9540,"iography":9541,"pre":9542,"pired":9543,"Ġtools":9544,"Ġnom":9545,"ĠMO":9546,"ĠSem":9547,"Ġjar":9548,"uno":9549,"ookie":9550,"ĠDod":9551,"Ġseeking":9552,"ĠJeff":9553,"ĠRachel":9554,"ĠNettie":9555,"Ġpean":9556,"Ġfled":9557,"Ġflow":9558,"Ġflour":9559,"ava":9560,"Ġresign":9561,"ĠAndy":9562,"ĠTHEY":9563,"Ġdepth":9564,"Ġdepression":9565,"Though":9566,"ĠClara":9567,"Ġevol":9568,"Ġraising":9569,"ĠMayor":9570,"Ġ1979":9571,"Ġremarkable":9572,"Ġtesting":9573,"Ġshouts":9574,"Ġ1950":9575,"Ġdevoted":9576,"Ġpatients":9577,"Ġeducated":9578,"Ġemployed":9579,"ĠSEE":9580,"Ġcotton":9581,"ĠOlympic":9582,"1999":9583,"ĠStanley":9584,"Ġbuttons":9585,"Ġtransferred":9586,"ĠRegion":9587,"Ġexhausted":9588,"ĠSometimes":9589,"Ġabandoned":9590,"Ġunpleasant":9591,"Ow":9592,"ele":9593,"race":9594,"Ġcure":9595,"Ġded":9596,"Ġtops":9597,"Ġgorge":9598,"Ġhockey":9599,"oting":9600,"etime":9601,"acement":9602,"Ġstack":9603,"Ġdoggy":9604,"ĠCap":9605,"Ġshove":9606,"geon":9607,"ĠDog":9608,"ĠDarius":9609,"cknow":9610,"oline":9611,"Ġalcoh":9612,"rael":9613,"ĠNob":9614,"emic":9615,"teenth":9616,"Ġpoll":9617,"achus":9618,"Ġimper":9619,"Ġstrateg":9620,"Ġaccused":9621,"Ġaccompany":9622,"Ġ33":9623,"ARE":9624,"shh":9625,"ĠAnna":9626,"Ġconfess":9627,"Ġcryst":9628,"Also":9629,"Ġlaying":9630,"Ġcares":9631,"Ġsexual":9632,"Ġideal":9633,"vocalization":9634,"Ġcrawl":9635,"ĠLOOK":9636,"Ġfortunate":9637,"rifice":9638,"ĠBonnet":9639,"quarters":9640,".[":9641,"Aw":9642,"Mat":9643,"Pr":9644,"iable":9645,"made":9646,"named":9647,"pack":9648,"Ġtune":9649,"Ġok":9650,"Ġoven":9651,"Ġfits":9652,"Ġnick":9653,"Ġnails":9654,"lement":9655,"imer":9656,"Ġstair":9657,"Ġstoop":9658,"âĢ²":9659,"ĠSikander":9660,"ifully":9661,"ĠHAD":9662,"ulu":9663,"Ġbru":9664,"bee":9665,"Ġscrub":9666,"Ġdiscipl":9667,"OTH":9668,"Ġhelpful":9669,"Ġchampionship":9670,"Ġsets":9671,"Ġaccur":9672,"Ġdrill":9673,"ĠEdith":9674,"shouts":9675,"Ġofficially":9676,"Ġprizes":9677,"OMET":9678,"ROW":9679,"Ġdestruction":9680,"Ġmounted":9681,"remony":9682,"Ġchapter":9683,"Ġrailway":9684,"Ġmagnetic":9685,"Ġliterally":9686,"Ġcontrast":9687,"ĠKennedy":9688,"ĠClavering":9689,"sometimes":9690,"ĠBrazil":9691,"Ġlaunched":9692,"hammad":9693,"Bar":9694,"Person":9695,"Same":9696,"cos":9697,"mind":9698,"Ġcert":9699,"Ġfitted":9700,"ĠIII":9701,"alie":9702,"stan":9703,"Ġseldom":9704,"Ġsoil":9705,"romise":9706,"inks":9707,"ĠFle":9708,"ĠLewis":9709,"Ġaft":9710,"Ġbride":9711,"Ġscattered":9712,"need":9713,"Doctor":9714,"Start":9715,"clears":9716,"Ġelements":9717,"Ġpossessed":9718,"Ġdropping":9719,"Ġstudying":9720,"Ġpropose":9721,"fficer":9722,"ĠMeg":9723,"vania":9724,"Ġmoral":9725,"Â¶Â¶":9726,"Ġpraise":9727,"Ġproducts":9728,"Ġporch":9729,"Ġphilosop":9730,"ĠProvince":9731,"Congratulations":9732,"ĠHondura":9733,"100":9734,"Cor":9735,"End":9736,"Ke":9737,"Mia":9738,"Ob":9739,"Pretty":9740,"comm":9741,"lots":9742,"Ġsout":9743,"Ġna":9744,"ĠMamie":9745,"Young":9746,"ĠWes":9747,"ĠDear":9748,"ĠDouglas":9749,"ĠFamily":9750,"ĠJun":9751,"ĠRh":9752,"Ġcontext":9753,"ĠNOW":9754,"Ġvalley":9755,"Ġclients":9756,"Ġpreviously":9757,"Ġcompound":9758,"ĠViz":9759,"ancer":9760,"liest":9761,"ĠAndre":9762,"Ġconscience":9763,"Ġinterpret":9764,"Ġhoriz":9765,"Ġhath":9766,"Goodbye":9767,"Ġawhile":9768,"Ġilleg":9769,"Ġcorrespond":9770,"Ġceremony":9771,"Ġmeantime":9772,"Ġremarks":9773,"Ġruin":9774,"ĠAbbey":9775,"Ġbeaten":9776,"Ġprojects":9777,"Ġhonestly":9778,"Ġdeliber":9779,"Ġsandwiches":9780,"ĠKeith":9781,"Ġprimary":9782,"ĠSenate":9783,"Ġtunnel":9784,"Ġbeef":9785,"Ġagreement":9786,"ĠLincoln":9787,"ĠPersian":9788,"Ġenormous":9789,"sylvania":9790,"29":9791,"Alf":9792,"Cut":9793,"mosp":9794,"uan":9795,"Ġsou":9796,"onge":9797,"Ġcattle":9798,"Ġcherry":9799,"Ġgates":9800,"ĠIV":9801,"etts":9802,"Ġeld":9803,"Ġrevenge":9804,"adi":9805,"rific":9806,"enton":9807,"Ġstress":9808,"Ġstations":9809,"ĠWILL":9810,"ĠPR":9811,"ĠDown":9812,"igator":9813,"ĠLuke":9814,"ĠRoll":9815,"ĠEach":9816,"Ġtramp":9817,"Ġamused":9818,"Ġprime":9819,"Ġdrawer":9820,"Ġmarched":9821,"Ġcapacity":9822,"Ġexpand":9823,"ĠClinton":9824,"Forget":9825,"Ġgrounds":9826,"Ġ1989":9827,"Ġexclam":9828,"OWN":9829,"Ġdetail":9830,"Ġpractical":9831,"Ġsaddle":9832,"ĠTrump":9833,"Ġpatience":9834,"ĠSecond":9835,"ĠIslands":9836,"Ġidentify":9837,"ĠGOING":9838,"Ġcritical":9839,"ĠRobin":9840,"Ġcustomer":9841,"ĠKorean":9842,"Ġwhale":9843,"ĠVictoria":9844,"Ġnicer":9845,"Ġarchite":9846,"CHARLES":9847,"ĠCTX":9848,"ĠMichigan":9849,"Geor":9850,"Lara":9851,"YES":9852,"gonna":9853,"via":9854,"Ġdomin":9855,"arian":9856,"leave":9857,"Ġrefe":9858,"Ġreaction":9859,"ĠSub":9860,"ĠSorry":9861,"ĠCall":9862,"ĠCind":9863,"ĠBoth":9864,"ĠHugh":9865,"ĠWait":9866,"ĠJr":9867,"ĠOs":9868,"agers":9869,"ection":9870,"before":9871,"ĠStud":9872,"gets":9873,"Ġleaped":9874,"Ġending":9875,"Ġindul":9876,"Step":9877,"ugs":9878,"Ġwinds":9879,"ĠArchie":9880,"ĠNews":9881,"ennes":9882,"Ġtelegram":9883,"byebye":9884,"Ġterrific":9885,"Ġclimate":9886,"Ġoperations":9887,"Unless":9888,"Ġfeeding":9889,"Ġdespite":9890,"Carl":9891,"Ġdocuments":9892,"Ġwrestler":9893,"ĠPortug":9894,"Ġdeaf":9895,"Ġinclined":9896,"Ġtissue":9897,"ĠTIME":9898,"Amy":9899,"According":9900,"Ger":9901,"Jwww":9902,"Jeff":9903,"Must":9904,"des":9905,"great":9906,"mag":9907,"Ġoars":9908,"Ġdashed":9909,"esar":9910,"Ġgit":9911,"Ġlun":9912,"..\"":9913,"Ġmeals":9914,"steps":9915,"tery":9916,"Ġdonkey":9917,"ĠWick":9918,"ĠFA":9919,"ĠLITTLE":9920,"ĠNeram":9921,"looks":9922,"oca":9923,"Ġmeetings":9924,"Ġskull":9925,"Ġreduce":9926,"Ġlands":9927,"Ġquestioned":9928,"iki":9929,"Ġ80":9930,"198":9931,"ĠPrin":9932,"Ġsecrets":9933,"Ġsadly":9934,"Ġaccounts":9935,"Ġorganized":9936,"Ġannual":9937,"Ġutmost":9938,"Ġcommonly":9939,"Ġgenius":9940,"Ġcombat":9941,"idae":9942,"elphia":9943,"Ġsailor":9944,"Ġbillion":9945,"Ġassistance":9946,"Ġvacation":9947,"ĠBuild":9948,"Ġvegetables":9949,"Ġsurrounding":9950,"rigerator":9951,"38":9952,"Things":9953,"rants":9954,"Ġgap":9955,"Ġnail":9956,"Ġrehe":9957,"Ġrept":9958,"adium":9959,"entions":9960,"ĠSay":9961,"ĠSally":9962,"ĠCould":9963,"ĠWater":9964,"ĠPope":9965,"Ġsuck":9966,"Ġcomin":9967,"Ġwhoever":9968,"Ġvague":9969,"ĠKo":9970,"ucks":9971,"Ġprey":9972,"Ġcontents":9973,"Ġowners":9974,"Ġserving":9975,"ATIA":9976,"ONG":9977,"Ġcharity":9978,"Ġassurance":9979,"ENCE":9980,"ĠHoward":9981,"Ġ1991":9982,"ĠRebecca":9983,"Ġmillions":9984,"Ġ1987":9985,"Ġexpert":9986,"blows":9987,"Ġnursing":9988,"ĠEmma":9989,"Ġunconscious":9990,"Ġutterance":9991,"Ġbehalf":9992,"ĠANY":9993,"Ġspoil":9994,"Grandma":9995,"Against":9996,"Ġastonishment":9997,"Ġtalent":9998,"Ġvotes":9999,"ĠJersey":10000,"ĠDivision":10001,"ĠAtlantic":10002,"ĠDisney":10003,"Ġamusement":10004,"Ġumbrella":10005,"70":10006,"CO":10007,"Des":10008,"Ellie":10009,"Mc":10010,"tree":10011,"vable":10012,"Ġbills":10013,"Ġmath":10014,"Ġcush":10015,"Ġfiring":10016,"anas":10017,"anim":10018,"Ġpatch":10019,"Ġinch":10020,"Ġnuclear":10021,"ĠIllustr":10022,"aya":10023,"Ġease":10024,"Ġeffic":10025,"Ġreign":10026,"adelphia":10027,"ĠSOME":10028,"Ġwhip":10029,"ĠAggie":10030,"chin":10031,"Ġsheets":10032,"Ġsaus":10033,"gee":10034,"ĠDal":10035,"Ġalter":10036,"ĠJon":10037,"ĠJoy":10038,"ĠLater":10039,"resently":10040,"ĠRhod":10041,"ender":10042,"Ġoffering":10043,"actory":10044,"Ġhandkerchief":10045,"Ġstrain":10046,"ancies":10047,"Ġdisturb":10048,"INGS":10049,"Ġnearby":10050,"grand":10051,"ugo":10052,"gedy":10053,"bridge":10054,"Ġdepos":10055,"Ġreturns":10056,"ĠAnnie":10057,"Ġsteep":10058,"Ġfoods":10059,"Ġtreas":10060,"ĠCarr":10061,"Ġprovin":10062,"Ġ1982":10063,"Ġruins":10064,"Ġprotected":10065,"Ġangle":10066,"Ġjudgment":10067,"OPLE":10068,"Ġresolved":10069,"Twenty":10070,"Tomorrow":10071,"Ġsacrifice":10072,"Ġdwellings":10073,"Ġwreck":10074,"ĠLangridge":10075,"Sho":10076,"Sounds":10077,"hh":10078,"picture":10079,"wide":10080,"Ġske":10081,"oning":10082,"Ġboring":10083,"Ġfiles":10084,"Ġfiction":10085,"edge":10086,"enra":10087,"Ġpeak":10088,"Ġginger":10089,"usa":10090,"ĠMaced":10091,"ĠSi":10092,"ĠBell":10093,"ifying":10094,"ĠHor":10095,"cts":10096,"Ġjam":10097,"unks":10098,"ĠTRI":10099,"Ġsailing":10100,"aba":10101,"abor":10102,"ĠGR":10103,"ĠFanny":10104,"ĠJob":10105,"ategy":10106,"ĠOVER":10107,"Ġagony":10108,"Ġboom":10109,"bery":10110,"uddy":10111,"Ġunivers":10112,"Ġuniverse":10113,"perhaps":10114,"Ġflashed":10115,"Ġstrategy":10116,"Ġdistract":10117,"Ġrelatives":10118,"Ġassure":10119,"ISH":10120,"ĠAshati":10121,"Ġevac":10122,"Ġobjection":10123,"Ġdifficulties":10124,"IRST":10125,"Ġselfish":10126,"Ġimmediate":10127,"ĠTHINK":10128,"Ġdelivery":10129,"Ġpanel":10130,"stitution":10131,"ĠGraham":10132,"ĠHawkins":10133,"Ġpoetry":10134,"Ġconcealed":10135,"Ġscientific":10136,"Ġtidy":10137,"Ġsqueeze":10138,"Ġresistance":10139,"ĠService":10140,"Ġexchange":10141,"ĠPennsylvania":10142,"ĠNichol":10143,"BO":10144,"BS":10145,"CDS":10146,"Down":10147,"Girl":10148,"MP":10149,"Music":10150,"Suddenly":10151,"eenth":10152,"pop":10153,"tles":10154,"Ġwounds":10155,"Ġshan":10156,"onent":10157,"Ġfuel":10158,"orus":10159,"ashes":10160,"Ġbehave":10161,"Ġejac":10162,"Ġreject":10163,"ĠMask":10164,"ĠSHE":10165,"Ġlip":10166,"ifted":10167,"ĠHun":10168,"ĠWERE":10169,"Ġspy":10170,"Ġclaimed":10171,"Ġfeature":10172,"orney":10173,"angled":10174,"next":10175,"Ġfoe":10176,"ĠBrother":10177,"Ġ36":10178,"brooke":10179,"shot":10180,"ĠHarvey":10181,"Ġ500":10182,"Ġdresses":10183,"Ġdraws":10184,"ĠAuntie":10185,"Ġdoubtless":10186,"ĠConway":10187,"Ġlawn":10188,"ĠFranklin":10189,"Ġhorsie":10190,"Ġcreep":10191,"Ġanxiously":10192,"Ġattempts":10193,"ĠAgain":10194,"Ġprivile":10195,"Ġdiscussed":10196,"Ġnegative":10197,"Ġimmense":10198,"Ġpermitted":10199,"Ġimproved":10200,"Ġexisting":10201,"Twilight":10202,"Ġprinted":10203,"Ġproposal":10204,"ĠPeters":10205,"Ġassociated":10206,"Ġsavings":10207,"____":10208,"Ġadmiration":10209,"ĠSquare":10210,"James":10211,"SH":10212,"SIGHS":10213,"fat":10214,"pher":10215,"||":10216,"Ġing":10217,"Ġapt":10218,"inn":10219,"inating":10220,"nda":10221,"Ġber":10222,"Ġmister":10223,"Ġdating":10224,"Ġdanced":10225,"Ġfab":10226,"Ġfurious":10227,"asions":10228,"ĠIran":10229,"atched":10230,"Ġhitting":10231,"utter":10232,"ĠAF":10233,"ĠBos":10234,"Ġdey":10235,"Ġabroad":10236,"abama":10237,"ĠPoor":10238,"ĠLoren":10239,"Ġmanners":10240,"agon":10241,"Ġbob":10242,"Ġclip":10243,"Ġamaz":10244,"iah":10245,"Ġcarrots":10246,"Ġchip":10247,"oby":10248,"ultural":10249,"Ġcommission":10250,"Ġdisturbed":10251,"Ġhurting":10252,"ĠDev":10253,"ITY":10254,"Ġclearing":10255,"Ġparagraph":10256,"ĠOFF":10257,"Ġapproved":10258,"Ġfreely":10259,"THERE":10260,"Ġdevil":10261,"ĠWestenra":10262,"Ġsensitive":10263,"Ġroughly":10264,"Ġnegot":10265,"write":10266,"ĠSimon":10267,"Ġexecutive":10268,"Ġfestival":10269,"ĠHartley":10270,"Ġtropical":10271,"Ġplunged":10272,"Gra":10273,"Won":10274,"pent":10275,"song":10276,"isse":10277,"Ġlung":10278,"aro":10279,"Ġhoo":10280,"utions":10281,"Ġuna":10282,"ĠMusic":10283,"ĠBank":10284,"Ġjus":10285,"Ġrates":10286,"ĠTok":10287,"Ġdeed":10288,"Ġabund":10289,"ĠWork":10290,"ĠPE":10291,"ĠDream":10292,"elf":10293,"Ġconcept":10294,"them":10295,"ressing":10296,"Ġflames":10297,"Ġtalkin":10298,"âĻªâĻª":10299,"Ġrestrict":10300,"Ġtriumph":10301,"ĠGerhart":10302,"ĠThose":10303,"Ġmessages":10304,"Always":10305,"ĠBlake":10306,"Ġabsor":10307,"Ġdemocracy":10308,"Ġbelonging":10309,"Ġdefeated":10310,"Ġpresidential":10311,"Ġbucket":10312,"course":10313,"Ġpanic":10314,"Ġbleeding":10315,"Ġshadows":10316,"ĠJuliet":10317,"Ġbehavior":10318,"ĠHadley":10319,"ĠCOMP":10320,"ĠPrefecture":10321,"ĠPirate":10322,"ĠFrancisco":10323,"Ġpudding":10324,"Geography":10325,"32":10326,"Eng":10327,"Mike":10328,"Sarah":10329,"YE":10330,"pan":10331,"rits":10332,"shar":10333,"uzz":10334,"vals":10335,"yum":10336,"Ġsunk":10337,"ishi":10338,"Ġcust":10339,"Ġcuddle":10340,"Ġly":10341,"arin":10342,"otions":10343,"iders":10344,"ĠSaint":10345,"Ġgoat":10346,"Ġgoals":10347,"ĠHan":10348,"Ġplains":10349,"ortheast":10350,"Ġloaded":10351,"Ġflame":10352,"Ġlongest":10353,"Ġstrangers":10354,"Ġcounted":10355,"Ġpasses":10356,"velope":10357,"Ġstays":10358,"Ġinvitation":10359,"Ġpurse":10360,"Ġpains":10361,"Ġreplace":10362,"Ġreceiving":10363,"Ġanswering":10364,"Ġtrusted":10365,"Ġstrip":10366,"IRL":10367,"Ġcommanded":10368,"athemat":10369,"Ġinvestment":10370,"strong":10371,"ĠTurks":10372,"Ġcelebrate":10373,"UCKLES":10374,"ĠHyun":10375,"Ġliberal":10376,"Ġelderly":10377,"ĠCarolina":10378,"Ġgoddamn":10379,"Ġexceedingly":10380,"Ġliquid":10381,"Ġbiscuits":10382,"Half":10383,"ĠDirector":10384,"Ġterrified":10385,"ĠArkansas":10386,"achusetts":10387,"ĠRhodes":10388,"Baby":10389,"TAIN":10390,"dire":10391,"gal":10392,"Ġacknow":10393,"inent":10394,"Ġtheatre":10395,"render":10396,"Ġsung":10397,"ington":10398,"Ġtomb":10399,"Ġyummy":10400,"Ġinse":10401,"Ġhamb":10402,"uster":10403,"kel":10404,"Ġstake":10405,"Ġseasons":10406,"ĠAR":10407,"Ġatmosp":10408,"ĠCousin":10409,"ĠBattle":10410,"ĠHard":10411,"ĠTem":10412,"ĠWHO":10413,"Ġalike":10414,"ĠGot":10415,"osis":10416,"ĠNan":10417,"employ":10418,"ĠEthe":10419,"ĠHead":10420,"Ġpeekaboo":10421,"Ġafterward":10422,"ahhah":10423,"ensions":10424,"mann":10425,"Ġcontempt":10426,"Ġdrum":10427,"Ġhats":10428,"Ġinches":10429,"ĠGrant":10430,"ĠBeach":10431,"Ġfuckin":10432,"Ġsticky":10433,"Ġartists":10434,"ĠProt":10435,"Ġ1969":10436,"Ġbandage":10437,"ĠAgent":10438,"Ġmemor":10439,"Ġpretending":10440,"ĠExpress":10441,"Ġurged":10442,"Ġsuitable":10443,"Ġtouches":10444,"Ġinjury":10445,"hearted":10446,"Ġprinciple":10447,"Ġwarrior":10448,"Ġpupil":10449,"Ġswiftly":10450,"Ġgranted":10451,"ĠDetective":10452,"ĠScotland":10453,"Ġdisagre":10454,"Ġsample":10455,"Ġlouder":10456,"Ġbenefits":10457,"ĠRepresentatives":10458,"ritsar":10459,"Jo":10460,"MENT":10461,"Red":10462,"Son":10463,"fs":10464,"ju":10465,"nin":10466,"nuts":10467,"vous":10468,"onation":10469,"Ġdick":10470,"Ġfulf":10471,"ingo":10472,"Ġlend":10473,"vet":10474,"uted":10475,"ĠMir":10476,"ĠSophie":10477,"Ġknot":10478,"ĠBor":10479,"ĠHank":10480,"ĠHoly":10481,"ĠPie":10482,"ĠGOT":10483,"ĠLine":10484,"Ġvoc":10485,"ousins":10486,"early":10487,"Ġclay":10488,"reece":10489,"Ġpoem":10490,"Ġadjust":10491,"Ġperil":10492,"Ġshade":10493,"ĠInter":10494,"ĠChin":10495,"ĠAndrew":10496,"Ġlightly":10497,"umpty":10498,"Ġcolumn":10499,"ĠIsrael":10500,"Ġpriest":10501,"Ready":10502,"NDER":10503,"Ġstarred":10504,"Ġmistakes":10505,"Ġkisses":10506,"Ġceiling":10507,"Ġcontrolled":10508,"Ġeffective":10509,"Ġtests":10510,"Ġopera":10511,"Ġoperating":10512,"ĠTrans":10513,"William":10514,"Ġhym":10515,"Ġimmig":10516,"Ġsuspected":10517,"Ġfolded":10518,"Ġdrowned":10519,"twenty":10520,"ĠFROM":10521,"ĠMuhammad":10522,"ĠMassachusetts":10523,"Ġlantern":10524,"Det":10525,"crow":10526,"hoo":10527,"lar":10528,"life":10529,"tis":10530,"Ġwins":10531,"Ġbade":10532,"Ġdried":10533,"Ġfres":10534,"otic":10535,"ĠMen":10536,"Ġank":10537,"urger":10538,"ĠBry":10539,"Ġsole":10540,"Ġshelf":10541,"Ġshrie":10542,"Ġabrupt":10543,"ĠWOULD":10544,"ĠPooja":10545,"ĠGreece":10546,"ĠLast":10547,"ĠLaugh":10548,"ĠEnd":10549,"Ġtwist":10550,"berries":10551,"Ġroots":10552,"ordan":10553,"ccer":10554,"Ġimage":10555,"ĠChick":10556,"OUGH":10557,"Ġyoungest":10558,"Ġsurf":10559,"Ġballoons":10560,"Ġmarvell":10561,"Ġintegr":10562,"Ġskills":10563,"Ġmovements":10564,"oked":10565,"Ġ45":10566,"Ask":10567,"Ġmessenger":10568,"Ġsummon":10569,"Ġdreamed":10570,"ervative":10571,"Ġcorpor":10572,"Ġfilling":10573,"Ġvariety":10574,"Ġdevice":10575,"Ġcomplicated":10576,"Ġsolve":10577,"Ġrubbish":10578,"Ġattempted":10579,"Ġreferring":10580,"Ġrabbits":10581,"ĠChicasa":10582,"probably":10583,"Ġentertainment":10584,"Ġconsequence":10585,"Ġconstitution":10586,"Ġcautiously":10587,"Ġaccomplished":10588,"Ġtraditional":10589,"Ġexplosion":10590,"ĠDuncan":10591,"?âĢĻ":10592,"Eight":10593,"HL":10594,"Hard":10595,"IRE":10596,"Par":10597,"Rob":10598,"Yo":10599,"bear":10600,"tit":10601,"woman":10602,"Ġ/":10603,"Ġsed":10604,"Ġbows":10605,"Ġfid":10606,"orpor":10607,"Ġgum":10608,"Ġlick":10609,"aylor":10610,"acles":10611,"adu":10612,"start":10613,"ĠAss":10614,"ĠCherry":10615,"Ġrot":10616,"Ġsock":10617,"ĠTime":10618,"ĠWalk":10619,"ĠWales":10620,"ĠPot":10621,"ested":10622,"Ġuseta":10623,"ĠRO":10624,"Ġspaghetti":10625,"Ġexisted":10626,"ureau":10627,"Ġlecture":10628,"Ġscored":10629,"izations":10630,"Ġchrist":10631,"Ġglimp":10632,"ports":10633,"ĠAlabama":10634,"Ġconfirm":10635,"Ġsweep":10636,"Ġanimated":10637,"Ġdeadly":10638,"Ġinsult":10639,"Ġeditor":10640,"Ġ1993":10641,"Ġparliament":10642,"ĠPhilipp":10643,"Ġlaunch":10644,"ĠAmritsar":10645,"ĠMadam":10646,"Ġcombined":10647,"Ġindividuals":10648,"Child":10649,"Ġcontrary":10650,"Ġcheeky":10651,"Ġshells":10652,"ĠMoscow":10653,"Ġpupils":10654,"Ġunfortunately":10655,"Ġjewels":10656,"Ġpromptly":10657,"intendent":10658,"HORATIA":10659,"Ġglimpse":10660,"37":10661,"Billy":10662,"Biography":10663,"Dan":10664,"Follow":10665,"KING":10666,"PER":10667,"Sim":10668,"Sea":10669,"listen":10670,"mouth":10671,"school":10672,"wl":10673,"Ġsust":10674,"Ġpine":10675,"Ġnaked":10676,"Ġhed":10677,"star":10678,"ĠMull":10679,"ĠSix":10680,"ĠCOULD":10681,"ĠHockey":10682,"ctures":10683,"Ġsoda":10684,"una":10685,"ĠPun":10686,"ĠPear":10687,"ĠGi":10688,"Ġbacks":10689,"Ġtray":10690,"Ġovercome":10691,"Ġbrid":10692,"beep":10693,"ĠUK":10694,"Ġleap":10695,"unde":10696,"Ġbuzz":10697,"Ġentry":10698,"Ġresting":10699,"Ġlighter":10700,"ĠJohnny":10701,"Ġhopefully":10702,"Ġmuscles":10703,"Ġdaring":10704,"Ġsurprising":10705,"Ġexamination":10706,"itcase":10707,"ĠGuard":10708,"Ġ1976":10709,"Ġwildly":10710,"Ġturtles":10711,"ĠCommission":10712,"Ġtastes":10713,"Ġdiscussing":10714,"Ġelectron":10715,"Ġcombination":10716,"Ġtechnical":10717,"Ġsuspicious":10718,"everybody":10719,"Ġprecise":10720,"Ġgratitude":10721,"Ġenthusiasm":10722,"Ġwretched":10723,"Ġbewild":10724,"Ġhelicopter":10725,"Ġalcohol":10726,",.":10727,"BL":10728,"Clear":10729,"DE":10730,"Fire":10731,"Work":10732,"]...":10733,"fight":10734,"Â°":10735,"Ġtum":10736,"Ġtuck":10737,"Ġwool":10738,"Ġgaze":10739,"asha":10740,"owl":10741,"kee":10742,"Ġstares":10743,"ĠMISS":10744,"ĠSur":10745,"ĠBACK":10746,"ellow":10747,"Ġratt":10748,"abbit":10749,"Ġalp":10750,"ĠEastern":10751,"aund":10752,"Ġleaned":10753,"iley":10754,"Ġdisgu":10755,"ĠValley":10756,"Ġheartily":10757,"Ġsixth":10758,"Ġcolon":10759,"ĠArch":10760,"Ġbreaks":10761,"Ġexplore":10762,"ĠBecket":10763,"ĠChampions":10764,"Except":10765,"Ġstarring":10766,"Ġdestiny":10767,"asket":10768,"Whoo":10769,"Ġdirectors":10770,"Ġstriking":10771,"Ġissued":10772,"Ġrepresentative":10773,"Ġhydro":10774,"Ġnegro":10775,"Ġtaxes":10776,"Ġscramb":10777,"fortunately":10778,"Ġinspector":10779,"Ġbetrayed":10780,"Ġcommunication":10781,"softly":10782,"Ġgrip":10783,"Ġschedule":10784,"Ġfarewell":10785,"Ġsymbol":10786,"Ġinterfere":10787,"Ġmerchant":10788,"Ġdisgrace":10789,"OMETHING":10790,".)":10791,"36":10792,"47":10793,"48":10794,"FF":10795,"Harry":10796,"Mary":10797,"NING":10798,"Until":10799,"breat":10800,"cray":10801,"gimme":10802,"may":10803,"pill":10804,"run":10805,"sound":10806,"specially":10807,"Ġsway":10808,"Ġbum":10809,"Ġpiss":10810,"Ġlest":10811,"athan":10812,"etween":10813,"Ġselect":10814,"Ġgolf":10815,"ĠCas":10816,"ĠBre":10817,"ĠBas":10818,"ĠBir":10819,"ĠHitch":10820,"Ġrural":10821,"Ġsailed":10822,"abin":10823,"ĠWHI":10824,"ĠLy":10825,"Ġerror":10826,"Ġprob":10827,"Ġtrash":10828,"Ġenvelope":10829,"Ġunique":10830,"Ġimpr":10831,"ogne":10832,"Ġpassenger":10833,"Ġpersonality":10834,"Ġadding":10835,"Ġrepair":10836,"Ġexcess":10837,"Ġgeneration":10838,"Ġgraph":10839,"IDE":10840,"Ġdeclare":10841,"Ġturb":10842,"Ġregional":10843,"Ġfarmers":10844,"Ġsmells":10845,"Ġcompeted":10846,"ĠChero":10847,"Ġsearching":10848,"AUSE":10849,"Ġcrocodile":10850,"Ġnapkin":10851,"Ġastonished":10852,"ĠJewish":10853,"Ġrevealed":10854,"Ġpouring":10855,"ĠKatie":10856,"ĠAustria":10857,"Ġbubbles":10858,"Ġalternative":10859,"Ġcrisis":10860,"Ġchampion":10861,"Ġlatest":10862,"Ġmobile":10863,"Ġmagnificent":10864,"ĠIllustrated":10865,"CHE":10866,"Sophie":10867,"folk":10868,"miss":10869,"shi":10870,"wash":10871,"Ġsan":10872,"Ġbos":10873,"Ġdial":10874,"Ġfer":10875,"Ġpuss":10876,"Ġgon":10877,"arms":10878,"asks":10879,"Ġbeings":10880,"Ġshield":10881,"estic":10882,"ĠFive":10883,"Ġproport":10884,"Ġtricks":10885,"Ġquack":10886,"Ġoverboard":10887,"Ġclin":10888,"Ġbrook":10889,"ĠKhan":10890,"Ġsometime":10891,"hoe":10892,"Ġguitar":10893,"into":10894,"Ġperman":10895,"class":10896,"Ġapparent":10897,"Ġchop":10898,"Ġcrab":10899,"Ġtryin":10900,"Ġsergeant":10901,"Ġchasing":10902,"Ġelbow":10903,"ANS":10904,"phones":10905,"ĠMarion":10906,"Ġ32":10907,"Ġreluct":10908,"apple":10909,"Ġreflected":10910,"Thirty":10911,"Ġoccasions":10912,"Ġofficials":10913,"Ġfastened":10914,"Ġmodest":10915,"Ġgrape":10916,"ĠConst":10917,"ĠAmanda":10918,"ĠPoland":10919,"ĠTele":10920,"Ġ1930":10921,"Ġmachines":10922,"trunk":10923,"Black":10924,"Ġblessing":10925,"Ġindustrial":10926,"Ġliterature":10927,"Ġrequirements":10928,"Ġmortg":10929,"ĠClarice":10930,"Ġcigarette":10931,"Ġpistol":10932,"Ġscript":10933,"Ġcricket":10934,"ĠGordon":10935,"Ġanchor":10936,"ennessee":10937,"Ġatmosphere":10938,"Ab":10939,"Ay":10940,"Find":10941,"LAUGH":10942,"VII":10943,"bot":10944,"chard":10945,"him":10946,"jump":10947,"music":10948,"Ġwrap":10949,"Ġmax":10950,"Ġcub":10951,"ario":10952,"rive":10953,"Ġstab":10954,"choo":10955,"ĠBL":10956,"ĠHas":10957,"ĠHorn":10958,"ĠTennessee":10959,"Ġouter":10960,"ĠPop":10961,"ĠDaw":10962,"ĠDuc":10963,"Ġalert":10964,"Ġnod":10965,"ĠJac":10966,"rage":10967,"places":10968,"Ġperce":10969,"Ġmayor":10970,"ĠViet":10971,"Ġdesired":10972,"Ġbreach":10973,"Ġpolar":10974,"Ġelsewhere":10975,"Ġacademy":10976,"Ġregister":10977,"Ġtrigger":10978,"Ġskipper":10979,"Ġ189":10980,"REAT":10981,"Ġsimpl":10982,"whose":10983,"ASS":10984,"Ġdefin":10985,"Ġpubl":10986,"somebody":10987,"Ġprograms":10988,"Ġmunicipal":10989,"Trust":10990,"Ġbanging":10991,"Guess":10992,"Ġswinging":10993,"Ġpreparations":10994,"Ġdeparture":10995,"build":10996,"Ġapplied":10997,"Ġchickens":10998,"Ġsupplies":10999,"Ġimpatient":11000,"Ġthirsty":11001,"ĠUrsula":11002,"ĠUkraine":11003,"ĠBridget":11004,"houses":11005,"Matthew":11006,"ĠMacedon":11007,"39":11008,"HY":11009,"Jess":11010,"MM":11011,"QU":11012,"gasp":11013,"iently":11014,"piece":11015,"takes":11016,"ube":11017,"zie":11018,"Ġvel":11019,"Ġtones":11020,"Ġaer":11021,"inea":11022,"Ġwis":11023,"Ġwives":11024,"itter":11025,"orange":11026,"anz":11027,"Ġstub":11028,"Ġdod":11029,"ami":11030,"ĠSon":11031,"ĠSAY":11032,"ĠCivil":11033,"ĠBR":11034,"ĠBax":11035,"ifty":11036,"Ġsoot":11037,"ĠTurn":11038,"ĠLau":11039,"ĠNap":11040,"icky":11041,"Ġtwisted":11042,"Ġagency":11043,"Ġroot":11044,"ĠKaren":11045,"ĠĠĠĠĠĠĠĠĠ":11046,"ĠInspector":11047,"Ġfract":11048,"Ġlisted":11049,"CHUCKLES":11050,"Ġparlor":11051,"THEY":11052,"Ġescort":11053,"Ġprofit":11054,"Ġsharing":11055,"Ġsleigh":11056,"Ġcandle":11057,"Peggy":11058,"Ġdigging":11059,"ĠCorpor":11060,"Ġessay":11061,"Ġventure":11062,"Ġgathering":11063,"Ġadopt":11064,"Ġassembled":11065,"Ġacquaintance":11066,"Ġchallenge":11067,"Ġgardens":11068,"Ġgoverness":11069,"ĠVizier":11070,"Cr":11071,"DON":11072,"Yet":11073,"grow":11074,"pha":11075,"pass":11076,"Ġtire":11077,"Ġtales":11078,"Ġbail":11079,"Ġbreeze":11080,"Ġding":11081,"Ġfury":11082,"Ġink":11083,"Ġnerve":11084,"Ġrenew":11085,"Ġmend":11086,"ĠSar":11087,"ĠSuch":11088,"Ġascend":11089,"Ġseed":11090,"ĠCare":11091,"ĠHeaven":11092,"umbo":11093,"ulting":11094,"ĠPil":11095,"ela":11096,"Ġorphan":11097,"Ġconvey":11098,"Ġspray":11099,"Ġtwins":11100,"Ġque":11101,"ĠKeep":11102,"Ġprices":11103,"pee":11104,"doll":11105,"ĠVER":11106,"Ġcheering":11107,"INGING":11108,"Ġregist":11109,"Ġrig":11110,"Ġtribut":11111,"ĠAlb":11112,"Ġ2023":11113,"Ġ48":11114,"ĠThus":11115,"whines":11116,"Ġvisiting":11117,"ĠChap":11118,"Ġbottles":11119,"Ġapproval":11120,"196":11121,"Ġ1981":11122,"ĠForce":11123,"Ġ99":11124,"Ġgrav":11125,"check":11126,"Ġmerged":11127,"Ġfortnight":11128,"ICT":11129,"Ġwaving":11130,"Ġimagination":11131,"ĠMadge":11132,"Ġengineer":11133,"ĠGOOD":11134,"IFA":11135,"Quite":11136,"Ġmaterials":11137,"urtis":11138,"ĠMiddle":11139,"Ġliberty":11140,"Ġadults":11141,"Ġcycl":11142,"Ġtomato":11143,"ĠMuslim":11144,"ĠYeon":11145,"Ġtackle":11146,"Ġannouncement":11147,"Ġrehears":11148,"pherd":11149,"\"--":11150,"75":11151,"AV":11152,"AW":11153,"BI":11154,"Home":11155,"Hall":11156,"Kat":11157,"Molly":11158,"Sa":11159,"lace":11160,"lady":11161,"pic":11162,"pol":11163,"tur":11164,"whe":11165,"era":11166,"Ġcousins":11167,"Ġtool":11168,"lling":11169,"Ġpuff":11170,"Ġgazing":11171,"Ġinit":11172,"Ġsty":11173,"Ġstim":11174,"âĢİ":11175,"ĠSk":11176,"ĠSER":11177,"ĠAIR":11178,"ĠHappy":11179,"Ġjury":11180,"Ġcanal":11181,"Ġdee":11182,"ĠDOWN":11183,"Ġsuitcase":11184,"ĠFriend":11185,"aks":11186,"nah":11187,"ements":11188,"Ġrod":11189,"issors":11190,"Ġflies":11191,"ruce":11192,"ĠStation":11193,"Ġpermit":11194,"Ġcompre":11195,"Ġcompelled":11196,"ensity":11197,"ĠVery":11198,"ĠVaug":11199,"ultane":11200,"babbling":11201,"Ġsurvey":11202,"Ġmissus":11203,"Ġdischar":11204,"etera":11205,"Ġpops":11206,"Ġemotions":11207,"Ġ85":11208,"Ġsummit":11209,"ĠWillis":11210,"Ġpenet":11211,"ĠPhiladelphia":11212,"Ġfearful":11213,"Ġabsent":11214,"Ġ1975":11215,"Ġmerc":11216,"Ġ1968":11217,"Ġboarding":11218,"Ġknocking":11219,"Ġemphas":11220,"Ġsubjects":11221,"Ġcasual":11222,"Ġdisposed":11223,"writing":11224,"Ġcalmly":11225,"Ġirrit":11226,"Ġindicate":11227,"Ġpreferred":11228,"Ġtimid":11229,"Enough":11230,"Ġconsequences":11231,"Ġdeserted":11232,"Florence":11233,"Ġawarded":11234,"Ġtravelling":11235,"Ġwiped":11236,"Ġkilomet":11237,"Ġmultiple":11238,"Ġstrategic":11239,"ĠMaskoki":11240,".!":11241,"Eat":11242,"Ever":11243,"Later":11244,"Morning":11245,"Pat":11246,"President":11247,"Sw":11248,"Send":11249,"THIS":11250,"aunt":11251,"hur":11252,"ias":11253,"mot":11254,"til":11255,"thanks":11256,"ui":11257,"Ġtag":11258,"Ġwo":11259,"Ġbri":11260,"Ġmammy":11261,"Ġmathemat":11262,"Ġgifts":11263,"Ġlod":11264,"Ġlazy":11265,"arched":11266,"Ġinher":11267,"Ġnarr":11268,"Ġweb":11269,"ĠAz":11270,"ifies":11271,"Ġallows":11272,"Ġshots":11273,"quis":11274,"Ġworship":11275,"ĠNavy":11276,"Ġagric":11277,"Ġlogs":11278,"Ġamid":11279,"Ġamazed":11280,"Ġ(,":11281,"uckle":11282,"Ġwhereas":11283,"cied":11284,"Soon":11285,"Ġcarrier":11286,"Ġsecured":11287,"Ġshakes":11288,"peekaboo":11289,"ĠVaud":11290,"Ġmines":11291,"Ġchart":11292,"Ġreduction":11293,"bring":11294,"ĠArgent":11295,"Ġrefuge":11296,"ĠClark":11297,"Going":11298,"reading":11299,"Ġ1984":11300,"Ġspecially":11301,"Ġdeeper":11302,"Ġ1966":11303,"ĠMcDonald":11304,"Ġdamaged":11305,"Ġ1943":11306,"ĠPercy":11307,"Ġturkey":11308,"Ġruled":11309,"Ġopposition":11310,"Ġidentity":11311,"Ġstatue":11312,"Ġbasketball":11313,"Ġconductor":11314,"sniffs":11315,"iji":11316,"Ġproposals":11317,"Ġdearest":11318,"ĠSAID":11319,"Ġbattles":11320,"Ġintelligence":11321,"Ġribbon":11322,"ĠOffice":11323,"Ġsteadily":11324,"natured":11325,"Ġgorgeous":11326,"George":11327,"BOTH":11328,"Fort":11329,"GAS":11330,"Roy":11331,"fia":11332,"town":11333,"Ġay":11334,"Ġcoo":11335,"Ġfret":11336,"Ġfert":11337,"Ġtoler":11338,"Ġgent":11339,"Ġlane":11340,"omy":11341,"atically":11342,"usive":11343,"Ġkettle":11344,"stra":11345,"ĠMem":11346,"ĠMuseum":11347,"ĠSPE":11348,"ĠAM":11349,"ĠAvenue":11350,"ĠBird":11351,"ĠHistory":11352,"ĠTre":11353,"ieve":11354,"ppa":11355,"ĠWalt":11356,"ĠGreg":11357,"ĠGulf":11358,"istling":11359,"ohoh":11360,"Ġclo":11361,"Ġbrisk":11362,"Ġpee":11363,"Ġensure":11364,"Ġflushed":11365,"Ġremote":11366,"Ġfog":11367,"obb":11368,"ĠYoungeun":11369,"Ġminus":11370,"Ġaccent":11371,"reaming":11372,"Str":11373,"ebra":11374,"Ġdeaths":11375,"rington":11376,"Ġbarrel":11377,"Ġforgiven":11378,"Ġ70":11379,"Ġyelled":11380,"ĠEnglishman":11381,"Ġcleaned":11382,"Ġfears":11383,"Ġ1977":11384,"Ġmisunder":11385,"ĠColor":11386,"Ġconsidering":11387,"Ġpressing":11388,"Ġlimbs":11389,"Ġformerly":11390,"Ġcollected":11391,"Ġfatal":11392,"Ġgenu":11393,"Ġautumn":11394,"Ġbombs":11395,"Ġcrawling":11396,"Ġclaims":11397,"Ġsnap":11398,"Ġhistoric":11399,"Ġfloating":11400,"Ġfraud":11401,"ĠBOY":11402,"ĠWinter":11403,"habet":11404,"Ġdistinctly":11405,"Ġdescended":11406,"ĠSpring":11407,"Ġcolleagues":11408,"44":11409,"Bern":11410,"Cour":11411,"Chan":11412,"Fe":11413,"Long":11414,"Matt":11415,"erest":11416,"fare":11417,"mill":11418,"sor":11419,"silly":11420,"inter":11421,"Ġsighed":11422,"isure":11423,"orters":11424,"Ġponies":11425,"Ġofthe":11426,"arling":11427,"ownt":11428,"owary":11429,"Ġeagle":11430,"ĠSn":11431,"Ġnotion":11432,"ĠBox":11433,"ilence":11434,"Ġjelly":11435,"Ġrack":11436,"thm":11437,"abi":11438,"ĠParson":11439,"iga":11440,"ĠFer":11441,"ĠRon":11442,"ĠRoland":11443,"akers":11444,"ĠErin":11445,"nock":11446,"angs":11447,"ĠUs":11448,"Ġscan":11449,"Ġscold":11450,"Ġthoughtful":11451,"Ġchill":11452,"Ġheadquarters":11453,"Ġcrimes":11454,"Ġleak":11455,"OUND":11456,"Ġsurrender":11457,"Ġreadily":11458,"Ġregions":11459,"ecil":11460,"Ġtriangle":11461,"Ġlively":11462,"ĠIndeed":11463,"Ġspeakers":11464,"Ġexposed":11465,"Ġthanked":11466,"enez":11467,"Ġvisits":11468,"atural":11469,"Ġreceipt":11470,"Ġraft":11471,"Ġ1973":11472,"Ġwaved":11473,"Ġbabe":11474,"ropol":11475,"nesota":11476,"Ġtorture":11477,"Ġgenus":11478,"ederation":11479,"Ġspelling":11480,"Ġdeny":11481,"Ġuncertain":11482,"ĠSeries":11483,"THANK":11484,"Ġattracted":11485,"Ġdismay":11486,"Ġdistribution":11487,"Ġinspection":11488,"Chair":11489,"Ġfancied":11490,"Ġfrequent":11491,"Ġgoddess":11492,"Seriously":11493,"Ġjunior":11494,"ĠWickham":11495,"ĠLorenzo":11496,"ĠDuchess":11497,"ĠVaughan":11498,"AX":11499,"DER":11500,"Ladies":11501,"Na":11502,"PP":11503,"TE":11504,"VIII":11505,"aah":11506,"cool":11507,"crying":11508,"fix":11509,"fashion":11510,"hor":11511,"lines":11512,"mare":11513,"nels":11514,"rad":11515,"rane":11516,"ugged":11517,"won":11518,"wari":11519,"haw":11520,"itals":11521,"Ġcher":11522,"Ġtore":11523,"escend":11524,"Ġhears":11525,"usk":11526,"ims":11527,"rod":11528,"Ġnothin":11529,"thony":11530,"opher":11531,"ĠFisher":11532,"ĠFederal":11533,"itts":11534,"ĠNice":11535,"Ġwholly":11536,"emen":11537,"Ġintake":11538,"agi":11539,"Ġcla":11540,"ĠKent":11541,"Ġflav":11542,"ĠYam":11543,"Ġcrashed":11544,"Ġdram":11545,"aza":11546,"Ġcharm":11547,"ĠAlso":11548,"prise":11549,"mmm":11550,"Ġexpenses":11551,"Ġrefrigerator":11552,"Ġcollar":11553,"Ġinsane":11554,"Ġpositions":11555,"Ġcereal":11556,"Anyone":11557,"Ġlegisl":11558,"Ġ1957":11559,"Ġgallop":11560,"ĠPolish":11561,"burgh":11562,"Ġsensation":11563,"ressional":11564,"Trans":11565,"Ġtightly":11566,"Ġbothering":11567,"ĠEllen":11568,"ĠBoys":11569,"sname":11570,"Ġmulti":11571,"ĠChannel":11572,"Ġdivorce":11573,"Lucy":11574,"ĠGranby":11575,"ĠOakdale":11576,"âĢķâĢķ":11577,"Ġhalted":11578,"Ġlifetime":11579,"Ġignorant":11580,"Ġbundle":11581,"ĠTibbits":11582,"Ġnegoti":11583,"General":11584,"Haven":11585,"Mind":11586,"MAR":11587,"Rahul":11588,"borough":11589,"cup":11590,"milk":11591,"pool":11592,"tape":11593,"whel":11594,"whee":11595,"Ġcrest":11596,"Ġdess":11597,"Ġdates":11598,"Ġfug":11599,"Ġgens":11600,"Ġwebs":11601,"Ġreci":11602,"Ġreception":11603,"stay":11604,"step":11605,"ĠMouse":11606,"Ġseal":11607,"ĠAG":11608,"ĠCray":11609,"ĠBUT":11610,"ĠHills":11611,"Ġje":11612,"Ġsober":11613,"Ġsheriff":11614,"ĠPleas":11615,"Ġtheme":11616,"ĠFIFA":11617,"ĠJO":11618,"ĠEN":11619,"ĠOcean":11620,"Ġgrade":11621,"ondisse":11622,"ĠKong":11623,"iren":11624,"hoibi":11625,"Ġunemploy":11626,"Ġperpet":11627,"Ġcompens":11628,"Ġhomework":11629,"Ġresumed":11630,"Ġ300":11631,"pron":11632,"Ġtrapped":11633,"donald":11634,"ĠMaya":11635,"Ġconstru":11636,"Ġcorners":11637,"Ġsalad":11638,"Ġ1964":11639,"ĠConference":11640,"Ġavo":11641,"Ġempire":11642,"ĠWhich":11643,"Ġthreatening":11644,"pretty":11645,"Ġplanted":11646,"Ġvehicles":11647,"hunters":11648,"Ġconcentrate":11649,"Ġtypical":11650,"anchester":11651,"Ġborders":11652,"Ġchimney":11653,"Ġprosper":11654,"Ġgesture":11655,"ĠTWO":11656,"Ġhorizon":11657,"Ġamazement":11658,"Ġgenuine":11659,"COME":11660,"Each":11661,"JECT":11662,"NY":11663,"SOP":11664,"SPE":11665,"dam":11666,"equ":11667,"faced":11668,"mamma":11669,"pie":11670,"xed":11671,"Ġtut":11672,"Ġawards":11673,"ouched":11674,"rep":11675,"itage":11676,"Ġpy":11677,"Ġgrap":11678,"Ġnit":11679,"ĠIF":11680,"Ġhire":11681,"icians":11682,"Ġbeam":11683,"ido":11684,"Ġee":11685,"aco":11686,"Ġstool":11687,"amen":11688,"ĠApp":11689,"ĠAcc":11690,"ĠCape":11691,"ĠBol":11692,"ifford":11693,"ĠHap":11694,"Ġjingle":11695,"umin":11696,"abe":11697,"abled":11698,"ĠFE":11699,"istor":11700,"aston":11701,"ĠNative":11702,"Ġdisple":11703,"clap":11704,"OTHER":11705,"Ġresent":11706,"ignment":11707,"Ġcontented":11708,"Ġharsh":11709,"Instead":11710,"Ġswam":11711,"Ġdifferences":11712,"Ġrealise":11713,"Ġ38":11714,"Ġconspir":11715,"maid":11716,"Ġ180":11717,"ĠHarrington":11718,"Ġbeautifully":11719,"Ġpopcorn":11720,"ĠZoe":11721,"Ġsunset":11722,"Ġconcert":11723,"Ġabsurd":11724,"Ġ1972":11725,"Ġsupporting":11726,"ĠMinnesota":11727,"Ġbands":11728,"Ġverse":11729,"iggle":11730,"ĠJustus":11731,"Ġgarbage":11732,"Ġurban":11733,"Ġdenied":11734,"ĠKevin":11735,"ĠJulie":11736,"Ġstrawberry":11737,"ĠSeabrooke":11738,"Ġinvented":11739,"Ġadministration":11740,"Ġdissol":11741,"Ġpursue":11742,"Ġtraveling":11743,"Ġretirement":11744,"Ġscenes":11745,"Ġathlet":11746,"Ġprovinces":11747,"ĠTokyo":11748,"ĠHitchiti":11749,");":11750,"Calm":11751,"Dis":11752,"Easy":11753,"Pinkie":11754,"Sub":11755,"Saint":11756,"Sweet":11757,"finitely":11758,"iper":11759,"must":11760,"parent":11761,"tan":11762,"vation":11763,"wah":11764,"woof":11765,"Ġwages":11766,"Ġtherap":11767,"Ġmic":11768,"Ġmuff":11769,"Ġdiver":11770,"Ġtob":11771,"Ġpha":11772,"Ġpanc":11773,"ĠInt":11774,"levant":11775,"uttering":11776,"Ġwasted":11777,"Ġwhirl":11778,"Ġlied":11779,"andal":11780,"ĠCub":11781,"ĠHye":11782,"ĠHAM":11783,"Ġruff":11784,"Ġrasc":11785,"Ġsoph":11786,"ĠTimes":11787,"Ġcann":11788,"umi":11789,"uming":11790,"ĠWel":11791,"ĠWild":11792,"ĠDie":11793,"olar":11794,"Ġsup":11795,"ĠGU":11796,"ĠLim":11797,"resents":11798,"Ġspan":11799,"ĠNord":11800,"Ġloan":11801,"Ġargue":11802,"ĠHealth":11803,"Ġlean":11804,"Ġcoinc":11805,"Ġscra":11806,"Ġscissors":11807,"Ġhappily":11808,"Ġwrist":11809,"Ġslim":11810,"Ġslate":11811,"Ġcareless":11812,"ĠBrook":11813,"Ġinval":11814,"Ġcurly":11815,"ifications":11816,"Ġmusician":11817,"Ġproviding":11818,"Ġhumble":11819,"Ġarticles":11820,"Ġfrozen":11821,"Ġcausing":11822,"Ġcreating":11823,"ekle":11824,"ĠOrton":11825,"Ġrecognise":11826,"ELY":11827,"Ġgallant":11828,"aretto":11829,"Ġindicated":11830,"Ġrailroad":11831,"ĠRyder":11832,"----------------------------------------":11833,"------------------------------------------------------------------------":11834,"ĠPete":11835,"Ġbeasts":11836,"Ġexperiences":11837,"Ġtossed":11838,"Finally":11839,"ĠHonor":11840,"Ġslavery":11841,"Ġejaculated":11842,"CLE":11843,"Kim":11844,"Lou":11845,"Rep":11846,"Robert":11847,"bam":11848,"ded":11849,"found":11850,"ji":11851,"vas":11852,"Ġeter":11853,"hero":11854,"Ġmild":11855,"Ġmask":11856,"Ġcunning":11857,"Ġdash":11858,"edale":11859,"annet":11860,"arc":11861,"ĠIce":11862,"Ġhither":11863,"acter":11864,"ader":11865,"Ġstamp":11866,"Ġraw":11867,"ĠTs":11868,"ooked":11869,"ĠWals":11870,"ĠPayne":11871,"Ġalt":11872,"ĠFIRST":11873,"ĠLion":11874,"ĠNic":11875,"Ġtwin":11876,"Ġquid":11877,"Ġclam":11878,"Ġbrains":11879,"ĠKar":11880,"pson":11881,"angar":11882,"Ġunderground":11883,"rund":11884,"Ġshapes":11885,"peed":11886,"Ġheadache":11887,"Ġrunway":11888,"Ġentit":11889,"Ġhearty":11890,"Ġrested":11891,"Ġdifferently":11892,"Ġasshole":11893,"Ġfireplace":11894,"Ġdepressed":11895,"Ġtragedy":11896,"Ġconfront":11897,"Ġplanes":11898,"Ġextract":11899,"Ġborne":11900,"Ġsnack":11901,"ĠRev":11902,"Ġexamined":11903,"Ġarmour":11904,"Ġcooked":11905,"Ġmode":11906,"Ġcorrupt":11907,"asping":11908,"ĠColumb":11909,"ĠLeices":11910,"Ġcompliment":11911,"Ġrubbing":11912,"Ġoccasional":11913,"Ġprayers":11914,"Ġacquainted":11915,"Ġheathen":11916,"Ġcustomers":11917,"voice":11918,"Ġshocked":11919,"Ġplebe":11920,"ĠRyedale":11921,"Ġbatteries":11922,"Otherwise":11923,"Ġbending":11924,"Ġpurchase":11925,"Ġuneasy":11926,"Ġguarantee":11927,"Ġdiscipline":11928,"Ġtobacco":11929,"LAND":11930,"Que":11931,"Rolan":11932,"bott":11933,"better":11934,"cill":11935,"date":11936,"irie":11937,"kers":11938,"liness":11939,"mont":11940,"mission":11941,"uz":11942,"ĠâĻ«":11943,"oust":11944,"Ġming":11945,"Ġmos":11946,"Ġmuseum":11947,"Ġfisher":11948,"Ġpets":11949,"Ġpunch":11950,"Ġhoof":11951,"achi":11952,"Ġstew":11953,"ĠSher":11954,"ĠAbr":11955,"ĠApal":11956,"ĠCorn":11957,"elling":11958,"Ġjaguar":11959,"Ġrattle":11960,"ĠTaylor":11961,"ieves":11962,"Ġ\"\"":11963,"Ġshone":11964,"abouts":11965,"ulance":11966,"ĠPooh":11967,"ĠDale":11968,"ĠDoub":11969,"Ġseeming":11970,"igo":11971,"Ġspared":11972,"Ġvice":11973,"odo":11974,"oded":11975,"Ġboast":11976,"Ġoverwhel":11977,"Ġclasped":11978,"ĠKaw":11979,"Ġcoff":11980,"Ġwhereupon":11981,"harm":11982,"ĠUFO":11983,"necess":11984,"Ġsmugg":11985,"closed":11986,"claps":11987,"Ġacts":11988,"ĠYang":11989,"ĠVI":11990,"Ġmonarch":11991,"ĠMaria":11992,"Ġfrown":11993,"mbass":11994,"ĠNewton":11995,"Ġawesome":11996,"Ġexplains":11997,"teddy":11998,"Atl":11999,"Ġlowered":12000,"ĠFranky":12001,"Ġbullshit":12002,"ĠCommander":12003,"ĠPauline":12004,"Ġcaptives":12005,"chants":12006,"ĠDora":12007,"ĠExcuse":12008,"Ġtaxi":12009,"Neither":12010,"Having":12011,"ĠAngel":12012,"Ġcongrat":12013,"Ġwitnesses":12014,"ĠGraeme":12015,"Ġepisodes":12016,"ĠHamilton":12017,"Ġdomestic":12018,"Second":12019,"GRUNT":12020,"Ġmanufacture":12021,"ĠÂ£":12022,"Ġappetite":12023,"Ġalphabet":12024,"fashioned":12025,";âĢĿ":12026,"Aub":12027,"Bra":12028,"Coming":12029,"Might":12030,"both":12031,"contin":12032,"funny":12033,"och":12034,"pat":12035,"path":12036,"rical":12037,"raspberry":12038,"table":12039,"uations":12040,"zona":12041,"Ġtact":12042,"Ġtroll":12043,"Ġbowed":12044,"Ġdiet":12045,"Ġfet":12046,"Ġgoose":12047,"Ġhipp":12048,"otty":12049,"Ġkit":12050,"ĠMAKE":12051,"ĠMORE":12052,"ĠSant":12053,"ĠSOMETHING":12054,"andom":12055,"ĠCle":12056,"ĠBEL":12057,"ĠBetty":12058,"eller":12059,"ĠHold":12060,"ĠHAS":12061,"Ġjerk":12062,"ĠTELL":12063,"ĠTigger":12064,"ĠWitch":12065,"ĠPur":12066,"ĠPart":12067,"ĠPony":12068,"ĠDra":12069,"ĠGre":12070,"ĠGal":12071,"ĠJen":12072,"osure":12073,"ĠLwww":12074,"ĠRim":12075,"earch":12076,"Ġoverall":12077,"ĠKath":12078,"resses":12079,"Ġparted":12080,"Ġscal":12081,"Ġscrat":12082,"Ġfoes":12083,"Ġcompass":12084,"Ġhelmet":12085,"Ġelim":12086,"plete":12087,"ĠBridge":12088,"Ġassess":12089,"Ġhighway":12090,"ĠFlo":12091,"headed":12092,"Ġinspired":12093,"Ġsticker":12094,"Ġemig":12095,"ĠRevolution":12096,".'\"":12097,"192":12098,"iversary":12099,"Ġnecessity":12100,"Ġcopies":12101,"ĠGrandpa":12102,"Ġwidely":12103,"Ġconcerning":12104,"Ġwandered":12105,"Ġenvy":12106,"ugging":12107,"achete":12108,"ĠWindsor":12109,"ammar":12110,"Ġrequirement":12111,"Ġsacred":12112,"Ġghosts":12113,"Ġpitched":12114,"Ġpersuaded":12115,"Ġpursued":12116,"Ġelevator":12117,"Ġcandidate":12118,"DOOR":12119,"Warren":12120,"Ġrescued":12121,"ĠColorado":12122,"\";":12123,"Lee":12124,"Tis":12125,"Whether":12126,"affe":12127,"papers":12128,"rating":12129,"tub":12130,"Ġ`":12131,"inals":12132,"Ġsinking":12133,"onight":12134,"erving":12135,"Ġmant":12136,"Ġmachete":12137,"Ġcul":12138,"Ġod":12139,"Ġol":12140,"Ġdyn":12141,"Ġfist":12142,"Ġpip":12143,"Ġpenn":12144,"Ġgreed":12145,"Ġlaund":12146,"Ġhint":12147,"usions":12148,"idre":12149,"ĠSky":12150,"ĠCf":12151,"ĠCru":12152,"ĠCHE":12153,"ĠCurtis":12154,"ĠBishop":12155,"ĠHung":12156,"Ġsoccer":12157,"Ġ\"_":12158,"ĠWy":12159,"hant":12160,"ĠFat":12161,"ĠLib":12162,"ĠNak":12163,"ĠEver":12164,"aga":12165,"Ġquote":12166,"Ġoffers":12167,"Ġclue":12168,"Ġbron":12169,"Ġbrute":12170,"Ġblown":12171,"Ġbloke":12172,"Ġenable":12173,"Ġencounter":12174,"Ġpreced":12175,"onson":12176,"onsider":12177,"Ġmotherf":12178,"Ġwont":12179,"Ġattic":12180,"Ġcommenced":12181,"Ġunto":12182,"Ġconsent":12183,"Ġawoke":12184,"ĠThough":12185,"Ġstatements":12186,"Ġchairman":12187,"agging":12188,"ĠIslam":12189,"ĠZekle":12190,"Ġmessed":12191,"Ġchecks":12192,"ĠAllyn":12193,"Ġapprox":12194,"Ġpengu":12195,"Ġjoining":12196,"Ġ1940":12197,"Ġneighbours":12198,"ĠPolicy":12199,"True":12200,"Guys":12201,"Ġstockings":12202,"Ġmiracle":12203,"Ġcommented":12204,"Ġreminds":12205,"ĠInternet":12206,"Ġcongressional":12207,"Ġtapes":12208,"ONEY":12209,"Ġromance":12210,"Suppose":12211,"Ġechoed":12212,"Ġdignity":12213,"Ġsubstantial":12214,"Ġillegal":12215,"ĠCheroki":12216,"Ain":12217,"Deb":12218,"Eve":12219,"Gee":12220,"July":12221,"Know":12222,"Kitty":12223,"Lady":12224,"Roan":12225,"bread":12226,"done":12227,"sur":12228,"yama":12229,"Ġtons":12230,"Ġtatt":12231,"Ġcinem":12232,"Ġoak":12233,"Ġfitting":12234,"Ġles":12235,"Ġlame":12236,"Ġlump":12237,"arn":12238,"Ġhood":12239,"Ġhind":12240,"Ġonline":12241,"imet":12242,"Ġretain":12243,"adays":12244,"Ġkite":12245,"Ġmead":12246,"ĠSong":12247,"ĠBoss":12248,"ĠBudd":12249,"anthoibi":12250,"Ġoutfit":12251,"olate":12252,"ĠFame":12253,"ĠJose":12254,"ĠLind":12255,"ods":12256,"Ġintim":12257,"Ġquot":12258,"Ġclick":12259,"Ġcob":12260,"Ġcoax":12261,"ĠUr":12262,"rup":12263,"ERING":12264,"Ġattorney":12265,"Ġaccus":12266,"Ġfinest":12267,"Ġbelieves":12268,"Ġrival":12269,"ugar":12270,"ĠNoel":12271,"Ġfactors":12272,"Ġeleg":12273,"Ġtopic":12274,"onym":12275,"ĠSocial":12276,"Ġdealt":12277,"putting":12278,"iolet":12279,"Anybody":12280,"Ġbaba":12281,"Ġicecream":12282,"Ġ1946":12283,"Ġnecklace":12284,"Chief":12285,"ĠSecurity":12286,"Ġcontaining":12287,"Ġhostile":12288,"ĠSamuel":12289,"court":12290,"Ġblankets":12291,"Ġsplash":12292,"IFE":12293,"ODY":12294,"Ġcelebrated":12295,"Ġconviction":12296,"Ġsacrific":12297,"ĠLOVE":12298,"Ġfrag":12299,"Ġdismissed":12300,"ĠMelissa":12301,"ĠCOVID":12302,"Ġautomobile":12303,"ĠThanksgiving":12304,"Ġcaution":12305,"Ġunfair":12306,"Ġswallowed":12307,"ĠSaxony":12308,"ĠChatah":12309,"Ġexclamation":12310,"Roanoke":12311,"33":12312,"76":12313,"80":12314,"Gold":12315,"Number":12316,"Ph":12317,"Rec":12318,"Ty":12319,"gers":12320,"refe":12321,"Ġshat":12322,"Ġdip":12323,"aroni":12324,"asper":12325,"Ġhabits":12326,"Ġthread":12327,"uscript":12328,"Ġbeads":12329,"entially":12330,"ĠMoo":12331,"ĠSean":12332,"Ġsearched":12333,"illes":12334,"ĠCoosa":12335,"ĠCaretto":12336,"ĠBea":12337,"ĠBBC":12338,"antry":12339,"Ġhadta":12340,"aints":12341,"ĠTR":12342,"ulating":12343,"ĠPower":12344,"ĠDoes":12345,"ĠGro":12346,"ĠJason":12347,"ĠJordan":12348,"Ġworm":12349,"ichi":12350,"Ġmanif":12351,"ĠOUR":12352,"Ġboiling":12353,"Ġoverhead":12354,"Ġbrass":12355,"Ġunnecess":12356,"wns":12357,"Ġhandy":12358,"Ġlonging":12359,"ĠStirling":12360,"obal":12361,"ĠVin":12362,"ogy":12363,"Ġbuggy":12364,"Ġglue":12365,"ĠChuck":12366,"ANCE":12367,"ATH":12368,"Ġsurve":12369,"Ġï¿½ï¿½ï¿½":12370,"Ġdrives":12371,"ENS":12372,"ĠBelden":12373,"ennis":12374,"cycle":12375,"Ġmessy":12376,"ĠQU":12377,"ĠForrest":12378,"Ġ1971":12379,"ĠBarbara":12380,"Ġ1967":12381,"ĠGermans":12382,"scape":12383,"Ġlimits":12384,"someone":12385,"Ġrubbed":12386,"Ġcandles":12387,"Ġcompete":12388,"whisper":12389,"Cheers":12390,"Ġcellar":12391,"Ġreminded":12392,"Connor":12393,"Ġarrangement":12394,"Ġpreparation":12395,"ĠEnter":12396,"Ġcomparatively":12397,"Ġpersuade":12398,"Ġpremium":12399,"Ġbothered":12400,"ĠArmstrong":12401,"Career":12402,"Ġjournalist":12403,"ĠFilm":12404,"ĠHolland":12405,"ĠEsther":12406,"Personal":12407,"Ġhamburger":12408,"Ġabruptly":12409,"AII":12410,"Bre":12411,"CAUSE":12412,"FT":12413,"GHING":12414,"HOW":12415,"Mal":12416,"Pull":12417,"Res":12418,"dig":12419,"dling":12420,"iac":12421,"rous":12422,"uer":12423,"uating":12424,"uously":12425,"heastern":12426,"Ġwoo":12427,"Ġcater":12428,"Ġdot":12429,"Ġdorm":12430,"Ġdancer":12431,"organ":12432,"encies":12433,"Ġpear":12434,"Ġgear":12435,"aye":12436,"Ġbeats":12437,"Ġreb":12438,"secut":12439,"allel":12440,"Ġseeds":12441,"Ġwhipped":12442,"ĠAms":12443,"chicken":12444,"Ġsails":12445,"gered":12446,"Ġoutta":12447,"inkling":12448,"ĠDNA":12449,"question":12450,"ĠGeno":12451,"ĠFL":12452,"ĠLily":12453,"Ġvest":12454,"ĠEp":12455,"Ġera":12456,"Ġarts":12457,"Ġpepper":12458,"Ġgrasped":12459,"Ġcopper":12460,"izzy":12461,"Ġthoughtfully":12462,"oyo":12463,"Ġcrush":12464,"Ġreserve":12465,"ulture":12466,"ĠInc":12467,"Ġchal":12468,"ĠBruno":12469,"ampa":12470,"Ġfrustr":12471,"Star":12472,"Ġrounds":12473,"Ġsmallest":12474,"Ġfactor":12475,"ISE":12476,"Ġ44":12477,"ĠDerek":12478,"Ġexplo":12479,"Ġgrandpa":12480,"Ġsqueal":12481,"ĠIsn":12482,"Ġoffices":12483,"ika":12484,"Ġadvised":12485,"Ġ75":12486,"Ġcatches":12487,"entlemen":12488,"Ġ1978":12489,"Ġdestination":12490,"ĠJackie":12491,"White":12492,"Ġcupboard":12493,"Ġzone":12494,"Ġstrangely":12495,"Ġvalues":12496,"Ġbowling":12497,"Ġdiagn":12498,"Ġinvolve":12499,"Ġtrucks":12500,"Ġparking":12501,"Ġwelcom":12502,"Ġfilms":12503,"Ġunclear":12504,"Death":12505,"Ġexecution":12506,"ĠNEW":12507,"ĠBerlin":12508,"Ġelectricity":12509,"ĠCaroline":12510,"Ġinstruments":12511,"Ġsquirrel":12512,"Ġrisen":12513,"ĠJessica":12514,"Ġcurtains":12515,"Ġpronounced":12516,"Ġtraveled":12517,"Ġapplication":12518,"Ġfrankly":12519,"ĠDodds":12520,"Ġtreasures":12521,"Ġmarvellous":12522,"?]":12523,"Ant":12524,"AIR":12525,"ACE":12526,"Fred":12527,"IZ":12528,"Win":12529,"WOMAN":12530,"aise":12531,"cont":12532,"gian":12533,"hr":12534,"home":12535,"iary":12536,"iency":12537,"jud":12538,"lan":12539,"mir":12540,"rors":12541,"rained":12542,"wich":12543,"Ġwhar":12544,"Ġwishing":12545,"rete":12546,"Ġbun":12547,"Ġoath":12548,"Ġoptions":12549,"Ġpathetic":12550,"Ġlur":12551,"Ġniece":12552,"Ġweigh":12553,"Ġrebell":12554,"ĠMRS":12555,"Ġliar":12556,"ĠAld":12557,"ĠHong":12558,"Ġrans":12559,"Ġsoci":12560,"ĠTour":12561,"ĠTAL":12562,"ĠJin":12563,"ĠListen":12564,"Ġbyeb":12565,"arded":12566,"ĠRud":12567,"Its":12568,"Ġmanuscript":12569,"ĠOfficer":12570,"Ġagents":12571,"Ġeveryday":12572,"Ġflats":12573,"Ġthrone":12574,"Ġchlor":12575,"ixon":12576,"ĠVenez":12577,"Ġslope":12578,"Ġnightmare":12579,"Ġdeserved":12580,"letta":12581,"yeh":12582,"ATHER":12583,"Ġswords":12584,"uffy":12585,"Ġmarbles":12586,"Ġconsisted":12587,"Ġdrivers":12588,"Ġsilently":12589,"Ġsqueak":12590,"Ġformal":12591,"Ġadvise":12592,"Ġdreaming":12593,"Ġadmire":12594,"Ġcorre":12595,"Ġ1974":12596,"Ġmisery":12597,"Ġ179":12598,"Ġsickness":12599,"Ġnurses":12600,"Ġdivide":12601,"Ġtested":12602,"ĠMcC":12603,"Ġpacking":12604,"Ġpacket":12605,"Ġcondem":12606,"ĠSTORY":12607,"Ġsexy":12608,"flies":12609,"relative":12610,"Wouldn":12611,"Marilla":12612,"Ġheroes":12613,"Ġdetermination":12614,"Ġprocession":12615,"Ġpetition":12616,"Ġcracked":12617,"Ġmortal":12618,"Ġstirred":12619,"Ġrequested":12620,"Ġcomedian":12621,"Ġpurchased":12622,"ĠWalter":12623,"Ġconsciousness":12624,"ĠChildren":12625,"Ġforbidden":12626,"ĠValentine":12627,"ĠPenelly":12628,"Ġstrictly":12629,"Colonel":12630,"ĠRussell":12631,"Martin":12632,"believable":12633,"Ġlaundry":12634,"ĠAmsden":12635,"AIT":12636,"Beautiful":12637,"Especially":12638,"Hope":12639,"Mo":12640,"Slow":12641,"]:":12642,"dear":12643,"dies":12644,"jan":12645,"lon":12646,"pink":12647,"today":12648,"uis":12649,"Ġbury":12650,"Ġbapt":12651,"Ġmike":12652,"Ġfiance":12653,"Ġling":12654,"Ġloop":12655,"Ġbegging":12656,"Ġree":12657,"Ġstadium":12658,"amil":12659,"roar":12660,"ĠSM":12661,"ĠShi":12662,"ĠAuthor":12663,"ĠAccording":12664,"ando":12665,"ĠComp":12666,"ĠBRO":12667,"Ġjer":12668,"Ġjunk":12669,"Ġjumper":12670,"ĠToby":12671,"iege":12672,"Ġalloc":12673,"abby":12674,"ĠDoto":12675,"Ġalarmed":12676,"ĠGang":12677,"ĠJe":12678,"Ġvib":12679,"ĠOP":12680,"ĠOt":12681,"itei":12682,"udder":12683,"Ġflock":12684,"ccess":12685,"Ġnevertheless":12686,"Ġcompare":12687,"Ġfinishing":12688,"Ġobsc":12689,"untary":12690,"prints":12691,"Ġphones":12692,"Ġmeth":12693,"Ġexpense":12694,"usson":12695,"Ġsentences":12696,"Thought":12697,"Through":12698,"Ġsym":12699,"Ġtreacher":12700,"Ġgrandson":12701,"Ġfights":12702,"Ġrocking":12703,"Ġengagement":12704,"Ġmodels":12705,"ĠHero":12706,"Ġcamping":12707,"Ġoperate":12708,"Ġanniversary":12709,"Ġ1945":12710,"Ġrespected":12711,"ĠCommun":12712,"Ġlocks":12713,"Unfortunately":12714,"withstanding":12715,"Ġcollecting":12716,"elena":12717,"Ġguardian":12718,"Ġemployee":12719,"Ġpeaceful":12720,"Ġchapel":12721,"Ġcomputers":12722,"Ġinvestigate":12723,"Seems":12724,"Ġachieved":12725,"Ġscientists":12726,"ĠNatalie":12727,"Ġfantasy":12728,"poses":12729,"Ġdelayed":12730,"Ġvoting":12731,"Ġadministr":12732,"ĠPLAY":12733,"ĠSomething":12734,"Ġcounsel":12735,"ĠEvans":12736,"ĠSweden":12737,"Ġdistinguished":12738,"Ġtemporary":12739,"ĠHotel":12740,"sharp":12741,"Ġproportion":12742,"Ġdefinition":12743,"Ġentitled":12744,"Aubusson":12745,"'!":12746,"):":12747,"31":12748,"Alden":12749,"BJECT":12750,"Dave":12751,"Nope":12752,"Rest":12753,"Tra":12754,"WHI":12755,"je":12756,"mummy":12757,"pow":12758,"uent":12759,"ygen":12760,"Ġau":12761,"Ġawe":12762,"inction":12763,"refer":12764,"onet":12765,"Ġmales":12766,"Ġfame":12767,"Ġfans":12768,"ĠAC":12769,"ĠCa":12770,"ĠCro":12771,"ĠBour":12772,"ifer":12773,"opy":12774,"ĠDam":12775,"ĠForm":12776,"ĠJill":12777,"osa":12778,"ako":12779,"akened":12780,"ĠNorm":12781,"orts":12782,"odern":12783,"ĠOb":12784,"Ġagg":12785,"Ġboil":12786,"Ġtrump":12787,"Ġleisure":12788,"Ġgracious":12789,"Ġbloss":12790,"Ġblazing":12791,"Ġthrong":12792,"anging":12793,"Ġchildish":12794,"kswari":12795,"ĠInstitute":12796,"Ġcounts":12797,"Ġobed":12798,"ĠTHEM":12799,"meal":12800,"Ġenters":12801,"Ġassumed":12802,"anything":12803,"Ġdeputy":12804,"Ġhates":12805,"Ġconfession":12806,"Ġ49":12807,"Ġpromises":12808,"Ġlargely":12809,"Ġparcel":12810,"ĠPrice":12811,"Ġforgetting":12812,"Ġsecretly":12813,"Ġeyeb":12814,"ĠMinchin":12815,"Ġprotecting":12816,"Ġ1948":12817,"Ġtasted":12818,"ĠCoast":12819,"Ġviolently":12820,"Ġsenses":12821,"Close":12822,"ĠEmperor":12823,"Ġopportun":12824,"Ġurgent":12825,"Ġstruggled":12826,"Ġcheerfully":12827,"boys":12828,"AUGHING":12829,"Ġdisposition":12830,"Ġinjuries":12831,"ĠCassowary":12832,"Ġencourage":12833,"ĠTripp":12834,"ĠZealanders":12835,"Ġseverely":12836,"omeday":12837,"ĠMountain":12838,"Ġannoying":12839,"Ġdialects":12840,"Ġaccordingly":12841,"ĠSwedish":12842,"Ġrendered":12843,"Ġslippers":12844,"Ġaccurate":12845,"YEAH":12846,"ĠVietnam":12847,"ĠVERY":12848,"rundy":12849,"Atlant":12850,"Ġbyebye":12851,"ĠVenezuel":12852,"AA":12853,"Bad":12854,"Best":12855,"Dun":12856,"Dude":12857,"Gannet":12858,"KS":12859,"Mel":12860,"Roger":12861,"Ter":12862,"Use":12863,"eem":12864,"fold":12865,"gic":12866,"graph":12867,"pea":12868,"Ġbass":12869,"Ġbait":12870,"Ġmart":12871,"Ġmush":12872,"Ġdum":12873,"Ġdamp":12874,"Ġpills":12875,"Ġgb":12876,"Ġlace":12877,"Ġinfect":12878,"verty":12879,"stream":12880,"ĠCOME":12881,"ĠHOW":12882,"ante":12883,"Ġjest":12884,"Ġrats":12885,"Ġraces":12886,"Ġupright":12887,"ĠTop":12888,"ĠTower":12889,"umer":12890,"geance":12891,"Ġabuse":12892,"ĠPut":12893,"ĠDoc":12894,"rait":12895,"ohra":12896,"emois":12897,"âĢĿ!":12898,"Ġaggress":12899,"hio":12900,"ĠKal":12901,"Ġcoco":12902,"Ġneedle":12903,"Ġpoverty":12904,"Ġflows":12905,"Ġprev":12906,"Ġhappier":12907,"ĠVe":12908,"Ġslap":12909,"Ġmini":12910,"Ġrestrain":12911,"Ġrelatively":12912,"Ġsingular":12913,"Ġinterior":12914,"Ġinvasion":12915,"appie":12916,"oker":12917,"Ġcutie":12918,"ĠAssemb":12919,"Throw":12920,"Ġsweeping":12921,"Ġbargain":12922,"Att":12923,"Ġsends":12924,"children":12925,"Ġarriving":12926,"Ġmotive":12927,"chee":12928,"Ġdestro":12929,"ĠBarletta":12930,"Ġsuggesting":12931,"Ġ1962":12932,"Ġcircles":12933,"ĠMinnie":12934,"Ġspecim":12935,"Ġsuperintendent":12936,"Ġwhispering":12937,"ĠManip":12938,"Ġ1942":12939,"ĠWhit":12940,"Ġvolcan":12941,"Grady":12942,"ĠShut":12943,"Ġscarce":12944,"ĠBEEN":12945,"Ġhurrying":12946,"ILTON":12947,"Ġaddressing":12948,"ĠQueens":12949,"ĠEvelyn":12950,"Ġweakness":12951,"ĠJeannine":12952,"ĠMurray":12953,"ĠHollywood":12954,"intendo":12955,"Ġemotional":12956,"Ġsupplied":12957,"Ġragged":12958,"Ġerrand":12959,"Relax":12960,"Ġwandering":12961,"Ġdisagreeable":12962,"Ġdessert":12963,"SOPHI":12964,"ĠHAMILTON":12965,"emoiselle":12966,"46":12967,"Bless":12968,"BAR":12969,"Din":12970,"Ev":12971,"Far":12972,"Gabriella":12973,"LF":12974,"Us":12975,"buh":12976,"cro":12977,"hol":12978,"kets":12979,"spl":12980,"tuce":12981,"yummy":12982,"zburg":12983,"Ġsor":12984,"Ġbom":12985,"Ġbib":12986,"Ġbicycle":12987,"Ġmarty":12988,"Ġpul":12989,"Ġnerves":12990,"Ġnortheast":12991,"Ġbees":12992,"utive":12993,"Ġkitten":12994,"ĠSho":12995,"Ġsod":12996,"ĠTes":12997,"Ġallowing":12998,"opard":12999,"ĠWars":13000,"ules":13001,"ĠDart":13002,"ĠGus":13003,"ĠLead":13004,"ĠLarry":13005,"Ġspill":13006,"ĠNations":13007,"ĠElf":13008,"Ġtrot":13009,"Ġaroused":13010,"ĠUm":13011,"Ġshallow":13012,"tainment":13013,"doing":13014,"ĠYE":13015,"airy":13016,"Ġrecess":13017,"liver":13018,"Ġearliest":13019,"Ġ400":13020,"Ġquicker":13021,"Ġforming":13022,"Ġnewspapers":13023,"Ġmedium":13024,"Shh":13025,"Ġcere":13026,"ĠColomb":13027,"ameron":13028,"Ġmasters":13029,"Ġrainbow":13030,"Ġestimate":13031,"ADE":13032,"Ġquarrel":13033,"ĠRosa":13034,"Ġ1952":13035,"Ġ1954":13036,"Ġ1955":13037,"Ġ1956":13038,"rers":13039,"Ġtemple":13040,"Ġcreation":13041,"flower":13042,"ENTS":13043,"._--":13044,"Ġphotos":13045,"Ġcells":13046,"Ġgraduated":13047,"Guy":13048,"Ġgrabs":13049,"Ġfurnished":13050,"Ġforests":13051,"Ġprairie":13052,"Ġscholars":13053,"Ġintroduction":13054,"ĠJews":13055,"ughty":13056,"Ġmethods":13057,"Ġsurroundings":13058,"ĠRaymond":13059,"Ġconvenient":13060,"Ġphilosophy":13061,"Ġpermanent":13062,"Ġwelcomed":13063,"56":13064,"Add":13065,"COL":13066,"NESS":13067,"Off":13068,"PORT":13069,"Sur":13070,"SHE":13071,"Wonder":13072,"cross":13073,"called":13074,"eating":13075,"food":13076,"fles":13077,"gies":13078,"mail":13079,"nity":13080,"occ":13081,"vard":13082,"yup":13083,"Ġwi":13084,"erted":13085,"Ġmoo":13086,"inge":13087,"esy":13088,"Ġlions":13089,"aria":13090,"ashi":13091,"Ġnaval":13092,"atures":13093,"Ġhaw":13094,"oog":13095,"imal":13096,"Ġreli":13097,"rived":13098,"Ġstall":13099,"robe":13100,"ĠSilver":13101,"ĠAy":13102,"illo":13103,"ĠBid":13104,"ĠBall":13105,"Ġrandom":13106,"ainty":13107,"ĠTeddy":13108,"ĠToday":13109,"ulgar":13110,"hanie":13111,"Ġsuits":13112,"inding":13113,"igen":13114,"igers":13115,"ĠRub":13116,"Ġexists":13117,"ĠNHL":13118,"Ġtraces":13119,"Ġoverse":13120,"Ġcler":13121,"Ġclapping":13122,"Ġunlock":13123,"Ġflashing":13124,"Ġcargo":13125,"Ġcarbon":13126,"ubb":13127,"ĠYuchi":13128,"ĠVol":13129,"Ġowns":13130,"Ġrecoll":13131,"Ġpretended":13132,"ĠAlaska":13133,"Ġmeters":13134,"Ġreflection":13135,"Ġrepresents":13136,"Ġpurposes":13137,"white":13138,"Ġbusinessman":13139,"uese":13140,"Ġeval":13141,"Ġopponent":13142,"Ġmagician":13143,"Ġparallel":13144,"Ġrocket":13145,"ĠAtt":13146,"Ġhorseman":13147,"zech":13148,"cribed":13149,"load":13150,"coat":13151,"holds":13152,"ĠPolulu":13153,"ĠMeitei":13154,"ĠRussians":13155,"Ġengineering":13156,"Ġemployment":13157,"ĠMonster":13158,"Fucking":13159,"Ġdesperately":13160,"Ġdeparted":13161,"Ġessential":13162,"ĠClaire":13163,"Ġconcerns":13164,"Ġsavages":13165,"Ġqualified":13166,"Ġliner":13167,"Ġswallow":13168,"Ġsemi":13169,"Ġsubmission":13170,"Ġmeasures":13171,"Ġanalysis":13172,"Ġhunter":13173,"ĠRadio":13174,"Ġdisgusting":13175,"current":13176,"ĠBroadway":13177,"ĠPEOPLE":13178,"titles":13179,"ĠWalsall":13180,"ĠChatahuchi":13181,"ĠAssembly":13182,"\"..":13183,"//":13184,"Bu":13185,"Cool":13186,"Dick":13187,"FR":13188,"Hit":13189,"Po":13190,"Post":13191,"Tur":13192,"lap":13193,"rr":13194,"uv":13195,"Ġ{":13196,"Ġ----":13197,"haired":13198,"Ġcf":13199,"Ġdated":13200,"Ġfaded":13201,"oration":13202,"orial":13203,"Ġhence":13204,"Ġhosp":13205,"lee":13206,"algi":13207,"imb":13208,"imming":13209,"irit":13210,"ĠMAR":13211,"ĠMicro":13212,"herlands":13213,"ĠSno":13214,"Ġsector":13215,"ĠAst":13216,"ĠHur":13217,"Ġjaw":13218,"Ġram":13219,"ĠTiger":13220,"ieur":13221,"ouring":13222,"thy":13223,"Ġspit":13224,"ĠName":13225,"ĠNumber":13226,"ĠNintendo":13227,"Ġvivid":13228,"Ġvault":13229,"orting":13230,"Ġropes":13231,"Ġpeac":13232,"soever":13233,"Ġpoems":13234,"Ġflights":13235,"Ġprecip":13236,"acht":13237,"ĠStu":13238,"Ġwrath":13239,"Ġperf":13240,"doors":13241,"ĠVen":13242,"eek":13243,"ĠChow":13244,"Ġpreserve":13245,"ottie":13246,"Eric":13247,"Ġbedtime":13248,"Ġ37":13249,"grunts":13250,"Ġmarble":13251,"Ġmarvel":13252,"clever":13253,"ĠAnthony":13254,"Ġincorpor":13255,"Ġsweater":13256,"Ġcenturies":13257,"ikes":13258,"eyed":13259,"Ġparade":13260,"Ġsunny":13261,"Ġexamples":13262,"Ġmoder":13263,"chester":13264,"Ġenjoyment":13265,"Ġsuccession":13266,"Ġdevotion":13267,"Ġ1939":13268,"ienna":13269,"Ġflee":13270,"truck":13271,"Ġdetermine":13272,"Ġsuspended":13273,"Blue":13274,"Bloody":13275,"Ġactivist":13276,"Ġperforming":13277,"Ġresemb":13278,"Ġwrestling":13279,"ĠEverything":13280,"Ġetcetera":13281,"Ġfloat":13282,"Ġowl":13283,"Ġfaintly":13284,"Ġpanting":13285,"Ġsufficiently":13286,"Ġdeserves":13287,"Ġambulance":13288,"Ġexecuted":13289,"Ġpriority":13290,"Ġrhythm":13291,"Ġtube":13292,"Ġgreeted":13293,"Ġcommunities":13294,"ROUND":13295,"driver":13296,"Ġcorsairs":13297,"immock":13298,"ĠPortuguese":13299,"ĠTelevision":13300,"angaroo":13301,"Ġcoffin":13302,").]":13303,"ACT":13304,"ICH":13305,"Lord":13306,"March":13307,"Nick":13308,"chat":13309,"fine":13310,"iques":13311,"oft":13312,"pig":13313,"skin":13314,"tra":13315,"held":13316,"rell":13317,"onom":13318,"Ġdainty":13319,"orms":13320,"Ġhan":13321,"icate":13322,"icals":13323,"idy":13324,"Ġwasting":13325,"acha":13326,"Ġrender":13327,"Ġkin":13328,"roit":13329,"ĠMess":13330,"ĠMamma":13331,"ĠManchester":13332,"ĠSAME":13333,"ĠSpecial":13334,"ĠCensus":13335,"ĠCLO":13336,"ifting":13337,"Ġric":13338,"unty":13339,"ĠTen":13340,"ĠTerry":13341,"ĠWon":13342,"ĠPatt":13343,"ĠPier":13344,"ĠPART":13345,"quack":13346,"ĠGina":13347,"ittin":13348,"ĠJosh":13349,"ardines":13350,"Ġconvention":13351,"Ġlookin":13352,"Ġrightly":13353,"Ġovert":13354,"Ġtheirs":13355,"Ġcliff":13356,"Ġbrut":13357,"Ġgrows":13358,"pert":13359,"Ġshawl":13360,"ĠĠĠĠĠĠĠĠĠĠ":13361,"Ġglancing":13362,"Ġdescent":13363,"ANY":13364,"Ġswamp":13365,"Ġretrie":13366,"onto":13367,"Ġdearly":13368,"Ġconsol":13369,"Ġassass":13370,"Ġinternal":13371,"alem":13372,"Ġfootsteps":13373,"Ġpays":13374,"Ġdiscount":13375,"Ġmuscle":13376,"Ġstepping":13377,"Ġfucked":13378,"ĠAllied":13379,"Ġapprove":13380,"Ġpenal":13381,"Ġfrock":13382,"Ġvillain":13383,"Ġ1961":13384,"Ġconsiderably":13385,"Ġeffectively":13386,"Ġquarry":13387,"Ġ1951":13388,"Ġ1958":13389,"Ġangrily":13390,"Ġ1947":13391,"Ġfatig":13392,"ĠSeoul":13393,"apsed":13394,"Wasn":13395,"Speaking":13396,"Couldn":13397,"Ġdreadfully":13398,"USIC":13399,"Ġchatter":13400,"****":13401,"erella":13402,"Ġignore":13403,"Ġwrestlers":13404,"Ġconvince":13405,"Ġroutine":13406,"everything":13407,"Ġhunted":13408,"Ġoxygen":13409,"Ġindependence":13410,"Ġencouraged":13411,"Ġventured":13412,"Rosa":13413,"pointing":13414,"Ġwealthy":13415,"Jimmy":13416,"Ġimpressive":13417,"ĠAlibam":13418,"purple":13419,"Ġfeathers":13420,"ĠConfeder":13421,"ĠNobody":13422,"ĠPrincess":13423,"Ġankle":13424,"ĠLaughs":13425,"crayon":13426,"Ġpussy":13427,"Ġmortgage":13428,"ĠMcDonalds":13429,"ropolitan":13430,"ĠMoore":13431,"ĠGenoa":13432,"referring":13433,"!--":13434,"\"),":13435,"55":13436,"Amen":13437,"NOT":13438,"TV":13439,"aire":13440,"bus":13441,"bble":13442,"cus":13443,"gins":13444,"hors":13445,"swer":13446,"sounds":13447,"Ġwires":13448,"itated":13449,"Ġmakin":13450,"Ġcel":13451,"Ġcable":13452,"Ġdummy":13453,"esc":13454,"Ġlorry":13455,"Ġhens":13456,"Ġhip":13457,"Ġhaz":13458,"ications":13459,"Ġey":13460,"almost":13461,"Ġreins":13462,"seen":13463,"ircle":13464,"ĠMas":13465,"ĠMUST":13466,"ĠSnow":13467,"urse":13468,"ĠBand":13469,"ĠBunny":13470,"ĠHospital":13471,"ĠHOME":13472,"ĠHuns":13473,"ilion":13474,"Ġcanvas":13475,"Ġshh":13476,"ryn":13477,"ĠDoug":13478,"ĠDimmock":13479,"Ġplacing":13480,"ĠGIRL":13481,"igi":13482,"ĠReb":13483,"Ġspider":13484,"apse":13485,"ĠEle":13486,"ĠOre":13487,"ĠOpen":13488,"Ġloaf":13489,"hoen":13490,"Ġunions":13491,"Ġmoist":13492,"ictures":13493,"Ġchorus":13494,"ogan":13495,"Ġcontem":13496,"ĠInf":13497,"Ġsurgeon":13498,"Ġstandards":13499,"Ġfridge":13500,"Ġtrips":13501,"Ġconsumption":13502,"Ġskirt":13503,"Ġunderstands":13504,"oubted":13505,"atio":13506,"Ġdefined":13507,"ĠAllah":13508,"Ġsniff":13509,"Ġfixing":13510,"Ġpotty":13511,"Ġknocks":13512,"Ġdescribes":13513,"moves":13514,"Ġverd":13515,"Ġcaptive":13516,"Ġtorch":13517,"ributed":13518,"Ġguarded":13519,"Speak":13520,"Ġstreams":13521,"ĠBertie":13522,"Ġbehavi":13523,"Ġsurvived":13524,"Ġprinciples":13525,"Ġprimarily":13526,"Ġspoiled":13527,"Ġprints":13528,"Ġinnoc":13529,"Ġelephants":13530,"ĠNEVER":13531,"ĠMoreover":13532,"Ġrarely":13533,"hibition":13534,"Ġbarking":13535,"Bobby":13536,"Joey":13537,"Ġconsultation":13538,"rigade":13539,"ĠEgyptian":13540,"rasher":13541,"ĠRodri":13542,"Ġcigarettes":13543,"Ġestimated":13544,"ĠRecords":13545,"Ġtoxic":13546,"Apparently":13547,"Ġinstitution":13548,"Ġquantity":13549,"Obviously":13550,"directed":13551,"ĠEthel":13552,"Ġhedge":13553,"escendune":13554,"Ġapproximately":13555,"Atlantique":13556,"Ġbomber":13557,"ALE":13558,"Ho":13559,"Lem":13560,"Name":13561,"Page":13562,"WHO":13563,"cups":13564,"dles":13565,"dey":13566,"mad":13567,"mun":13568,"oqu":13569,"person":13570,"such":13571,"Ġtaps":13572,"Ġauth":13573,"Ġaught":13574,"iner":13575,"Ġwww":13576,"Ġtheater":13577,"hara":13578,"Ġpuma":13579,"Ġnay":13580,"Ġhem":13581,"Ġholl":13582,"eting":13583,"idency":13584,"Ġec":13585,"sem":13586,"rift":13587,"Ġstatic":13588,"Ġdol":13589,"stri":13590,"ĠAma":13591,"ĠACC":13592,"ĠAescendune":13593,"Ġridge":13594,"Ġraspberry":13595,"ĠTalk":13596,"ĠTai":13597,"Ġshru":13598,"Ġbutcher":13599,"inkled":13600,"ĠDomin":13601,"Ġsund":13602,"ĠGaston":13603,"ĠFur":13604,"ĠFarm":13605,"ĠJudge":13606,"ĠRF":13607,"ĠRu":13608,"emet":13609,"Ġvoted":13610,"feel":13611,"Ġwilln":13612,"ĠOhio":13613,"agles":13614,"Ġtroop":13615,"Ġroses":13616,"udes":13617,"ĠKap":13618,"active":13619,"Ġhandful":13620,"ĠUNDER":13621,"Ġimple":13622,"ĠStory":13623,"Ġactors":13624,"ĠYan":13625,"Ġnewly":13626,"Ġslack":13627,"ossy":13628,"Ġcheat":13629,"Ġcheaper":13630,"Ġglove":13631,"Ġrecovery":13632,"Ġsituations":13633,"Ġreaders":13634,"Ġretorted":13635,"Ġtriump":13636,"Ġsecondary":13637,"Being":13638,"Ġinterven":13639,"Ġsleeps":13640,"tershire":13641,"ĠThrasher":13642,"Ġpromotion":13643,"ĠSofia":13644,"Ġquestioning":13645,"Ġadvis":13646,"Ġedition":13647,"itching":13648,"âĢĶâĢĿ":13649,"Ġfrost":13650,"Ġobjectives":13651,"ĠProbably":13652,"Ġappearances":13653,"Ġdoubtful":13654,"ETTER":13655,"Ġvari":13656,"ĠDrake":13657,"Ġstripes":13658,"Ġgrowled":13659,"Ġresulted":13660,"Ġbananas":13661,"Ġaccidentally":13662,"Ġtorment":13663,"Ġviolin":13664,"Ġcuriously":13665,"ĠREALLY":13666,"Maya":13667,"Ġcruelty":13668,"Ġgiraffe":13669,"ĠBernardo":13670,"ĠClaus":13671,"Ġreacting":13672,"Ġtearing":13673,"Ġfacilities":13674,"Ġrejoined":13675,"Ġaccomplish":13676,"ĠMaxwell":13677,"Ġcontribution":13678,"Ġspectators":13679,"Ġembarrassed":13680,"Ġconverted":13681,"ĠArizona":13682,"Ġpuppet":13683,"Ġestablishment":13684,"Ġvengeance":13685,"Ġsoutheast":13686,"LAUGHS":13687,"ondissement":13688,"Ġgrapes":13689,",,":13690,"Hear":13691,"Henry":13692,"IO":13693,"Lar":13694,"Laugh":13695,"Mamma":13696,"Part":13697,"Sy":13698,"Tommy":13699,"Victor":13700,"ao":13701,"burn":13702,"call":13703,"catch":13704,"later":13705,"lord":13706,"post":13707,"Ġwist":13708,"Ġopt":13709,"Ġfi":13710,"ĠIng":13711,"idable":13712,"Ġwelf":13713,"iman":13714,"acie":13715,"state":13716,"ĠMs":13717,"ĠSandy":13718,"ĠSeveral":13719,"ĠAv":13720,"ĠApple":13721,"celer":13722,"ctop":13723,"Ġsolo":13724,"ĠToy":13725,"Ġcans":13726,"Ġwhatsoever":13727,"ĠPH":13728,"qual":13729,"rague":13730,"ĠRect":13731,"ĠRES":13732,"Ġexert":13733,"Ġvine":13734,"ĠEVERY":13735,"ĠOwen":13736,"ickers":13737,"Ġoffence":13738,"wee":13739,"ĠKir":13740,"Ġcoke":13741,"Ġunw":13742,"Ġunkind":13743,"ĠStri":13744,"cling":13745,"ubl":13746,"onsieur":13747,"Ġheadhunters":13748,"ĠVo":13749,"ĠVill":13750,"Ġcrushed":13751,"Ġreserved":13752,"ĠInstead":13753,"ANE":13754,"Ġfathers":13755,"ĠAnderson":13756,"Ġtrifle":13757,"Station":13758,"proof":13759,"ĠTherefore":13760,"Ġadds":13761,"ierra":13762,"Ġsignals":13763,"eeds":13764,"Ġ46":13765,"ĠThink":13766,"Ġshorts":13767,"Ġ65":13768,"Almost":13769,"Ġ1983":13770,"Ġroller":13771,"cheon":13772,"Ġprofound":13773,"ĠLeg":13774,"Ġtrusting":13775,"Ġcostume":13776,"ADY":13777,"Ġtasty":13778,"Ġtort":13779,"speaking":13780,"Ġ1931":13781,"Ġremainder":13782,"ĠSeven":13783,"ĠWithout":13784,"ĠTHING":13785,"Ġfreight":13786,"Ġspreading":13787,"Ġalbums":13788,"Ġtrading":13789,"Ġmoonlight":13790,"vocalize":13791,"Ġfemales":13792,"turned":13793,"minist":13794,"Ġodds":13795,"Ġsurviv":13796,"Seven":13797,"Ġscrewed":13798,"ĠJoel":13799,"Ġshrine":13800,"Ġsquirrels":13801,"ĠPrize":13802,"Ġpolitely":13803,"Ġvicinity":13804,"ĠNetherlands":13805,"Ġmacaroni":13806,"ĠKyung":13807,"Ġluxury":13808,"Ġdarted":13809,"riggs":13810,"Ġdisguise":13811,"Ġstubborn":13812,"Chairman":13813,"ĠAGAIN":13814,"Ġconspiracy":13815,"cillor":13816,"oubtedly":13817,"Cho":13818,"Gerv":13819,"Lo":13820,"Light":13821,"Mic":13822,"Polly":13823,"Tri":13824,"Ugh":13825,"UARY":13826,"bian":13827,"dist":13828,"gard":13829,"moon":13830,"Ġtasks":13831,"Ġwob":13832,"half":13833,"erred":13834,"Ġba":13835,"Ġcore":13836,"Ġcudd":13837,"Ġdict":13838,"Ġdense":13839,"Ġfir":13840,"Ġfiled":13841,"Ġpav":13842,"Ġpunk":13843,"Ġgig":13844,"arter":13845,"asia":13846,"Ġinev":13847,"Ġng":13848,"atan":13849,"Ġheel":13850,"Ġwears":13851,"Ġreverse":13852,"ĠMU":13853,"ĠSil":13854,"ĠSwe":13855,"ĠCzech":13856,"ĠBC":13857,"ĠBack":13858,"ĠBog":13859,"ĠBush":13860,"ĠHAPP":13861,"Ġroo":13862,"...!":13863,"Ġcane":13864,"Ġdeeds":13865,"Ġdeleg":13866,"ĠWay":13867,"arten":13868,"ulars":13869,"ĠPy":13870,"ĠDin":13871,"ĠDer":13872,"ĠLyn":13873,"ĠLena":13874,"Ġworms":13875,"Ġspons":13876,"ĠNisha":13877,"apoosa":13878,"Ġvary":13879,"Ġnowadays":13880,"arer":13881,"Ġboards":13882,"uded":13883,"arker":13884,"Ġharass":13885,"ounge":13886,"Ġache":13887,"otto":13888,"Ġ34":13889,"Ġrestless":13890,"Ġripped":13891,"Ġsorted":13892,"Ġï¿½ï¿½":13893,"Ġhurled":13894,"Ġhighlight":13895,"appro":13896,"Ġsubsequ":13897,"Looking":13898,"ĠThom":13899,"Ġdealer":13900,"ĠBartow":13901,"formed":13902,"ĠIsabel":13903,"Ġlearnt":13904,"ĠChakswari":13905,"Ġstickers":13906,"ĠZen":13907,"ternal":13908,"Ġyelling":13909,"AMP":13910,"Ġclassic":13911,"Ġveter":13912,"itcher":13913,"ivering":13914,"Ġequation":13915,"Ġcreeping":13916,"Ġgodmother":13917,"Ġlifting":13918,"Ġradiation":13919,"ischer":13920,"Ġpalm":13921,"Ġslender":13922,"Ġobservation":13923,"ylvia":13924,"Ġspeedily":13925,"Ġthreats":13926,"kespea":13927,"Art":13928,"Ġcracker":13929,"ĠJulia":13930,"Ġconvoy":13931,"Ġsuspicions":13932,"Ġaimed":13933,"hangba":13934,"Ġmagazines":13935,"ĠHawai":13936,"Ġfacility":13937,"Ġtomatoes":13938,"Ġaffectionate":13939,"Ġcitizen":13940,"Ġreprodu":13941,"SCREAM":13942,"Ġenquired":13943,"ĠSharston":13944,"Ġhauled":13945,"Ġaxe":13946,"Ġlemonade":13947,"Ġpeanut":13948,"Detective":13949,"Ġprecisely":13950,"Ġmunicipalities":13951,"Katie":13952,"Ġcoincidence":13953,"Ġcinema":13954,"Ġopportunities":13955,"emetery":13956,"Ġwelfare":13957,"!_":13958,"Aah":13959,"AIL":13960,"CAN":13961,"FL":13962,"Jap":13963,"Lisa":13964,"Mur":13965,"Max":13966,"West":13967,"WAS":13968,"bad":13969,"bone":13970,"bra":13971,"iu":13972,"rome":13973,"rons":13974,"ĠâĢĶ":13975,"heim":13976,"Ġauction":13977,"Ġmajesty":13978,"Ġcot":13979,"Ġdub":13980,"enance":13981,"Ġpaw":13982,"Ġpork":13983,"Ġpige":13984,"omers":13985,"Ġreass":13986,"adise":13987,"ĠMove":13988,"ĠSIS":13989,"ĠAut":13990,"term":13991,"Ġrowed":13992,"Ġrays":13993,"Ġalligator":13994,"Ġsafer":13995,"Ġshorter":13996,"ĠWonder":13997,"uled":13998,"ĠPrem":13999,"quiet":14000,"Ġaltered":14001,"Ġorgas":14002,"ĠFall":14003,"ĠFree":14004,"ittens":14005,"oshi":14006,"ardi":14007,"ĠRail":14008,"Ġspotted":14009,"Ġintimate":14010,"agne":14011,"Ġlob":14012,"hies":14013,"Ġcoats":14014,"Ġunsu":14015,"Ġpoly":14016,"Ġpopped":14017,"Ġprow":14018,"Ġadapt":14019,"Ġshaken":14020,"ubby":14021,"ĠVienna":14022,"Ġslain":14023,"Ġresidence":14024,"ogers":14025,"Ġharvest":14026,"Ġchewing":14027,"Ġglow":14028,"iva":14029,"ATES":14030,"Ġpresum":14031,"Ġrip":14032,"Ġfollowers":14033,"iba":14034,"Ġintercept":14035,"Ġpayment":14036,"rics":14037,"ĠEngine":14038,"balls":14039,"ĠDeath":14040,"ajamas":14041,"197":14042,"Ġexamine":14043,"Ġdoubts":14044,"Ġwallet":14045,"engu":14046,"ALS":14047,"ĠFrankie":14048,"ighbor":14049,"scar":14050,"ĠDanish":14051,"Ġheroic":14052,"Ġpunish":14053,"ĠLemuel":14054,"Ġsailors":14055,"Ġtitles":14056,"Ġcultiv":14057,"Ġgrocer":14058,"Ġsources":14059,"Ġhesitation":14060,"Ġoxen":14061,"Ġautomatic":14062,"ĠFrosty":14063,"Ġconquer":14064,"Ġdumped":14065,"Ġexhaust":14066,"Ġtrembled":14067,"Ġï¿½ï¿½ï¿½ï¿½ï¿½ï¿½":14068,"Ġintelligent":14069,"ĠTerrit":14070,"rendan":14071,"Ġribbons":14072,"Police":14073,"broken":14074,"Ġobeyed":14075,"Ġmourn":14076,"ĠDenver":14077,"ĠTallapoosa":14078,"Ġevolution":14079,"Alfgar":14080,"Ġsouls":14081,"Ġeldest":14082,"Ġwharf":14083,"ĠAlibamu":14084,"220":14085,"Ce":14086,"GET":14087,"Jung":14088,"June":14089,"Mer":14090,"Men":14091,"MAY":14092,"Rachel":14093,"UH":14094,"WAY":14095,"Ye":14096,"dled":14097,"rich":14098,"says":14099,"tri":14100,"went":14101,"wall":14102,"Ġze":14103,"Ġwider":14104,"Ġsul":14105,"Ġbacon":14106,"Ġmatt":14107,"Ġcaval":14108,"Ġdive":14109,"Ġditch":14110,"Ġdances":14111,"llis":14112,"orig":14113,"enri":14114,"hattan":14115,"Ġthro":14116,"Ġthieves":14117,"icit":14118,"ication":14119,"utt":14120,"utches":14121,"adad":14122,"Ġstare":14123,"amo":14124,"amar":14125,"amoff":14126,"ĠMand":14127,"Ġselection":14128,"ĠBuck":14129,"ĠBalt":14130,"ifle":14131,"ifteen":14132,"ĠHu":14133,"ĠHorse":14134,"ĠHugo":14135,"Ġjokes":14136,"Ġsheer":14137,"Ġ\"'":14138,"abl":14139,"ĠPass":14140,"ĠPhoen":14141,"ĠPictures":14142,"Ġorchard":14143,"ĠGard":14144,"Ġconj":14145,"aku":14146,"Ġexit":14147,"Ġmans":14148,"ĠEmer":14149,"Ġintent":14150,"young":14151,"Ġbackward":14152,"Ġovertime":14153,"Ġgrain":14154,"Ġamuse":14155,"Ġambit":14156,"issy":14157,"ĠKatherine":14158,"ĠUt":14159,"Ġlonged":14160,"Ġmock":14161,"getting":14162,"Ġshaped":14163,"HEY":14164,"Ġleagues":14165,"oga":14166,"Ġharbour":14167,"Ġminimum":14168,"Ġcheers":14169,"Ġendure":14170,"Ġrecru":14171,"ĠMarine":14172,"Ġ39":14173,"uffer":14174,"Ġtriang":14175,"Ġskip":14176,"ĠEduc":14177,"Whoever":14178,"ussian":14179,"Ġtraitor":14180,"Ġconfeder":14181,"ricane":14182,"CHO":14183,"ĠThrough":14184,"ĠChristopher":14185,"Ġprominent":14186,"Ġcurse":14187,"Ġformat":14188,"Ġliking":14189,"Ġhumor":14190,"ĠAdvent":14191,"Ġcathedral":14192,"Ġapology":14193,"ippie":14194,"Ġ1965":14195,"Ġposted":14196,"Ġcomfortably":14197,"ĠConstitution":14198,"laf":14199,"Ġorganizations":14200,"Ġsuccessfully":14201,"Ġ1959":14202,"ĠAbino":14203,"ĠTechn":14204,"offs":14205,"office":14206,"Ġeducational":14207,"Ġmasses":14208,"Ġhideous":14209,"Ġapprehens":14210,"Ġregularly":14211,"handed":14212,"Ġdreaded":14213,"Ġchattering":14214,"Ġrobbed":14215,"Ġcustoms":14216,"ĠRandom":14217,"Ġcorrectly":14218,"OHN":14219,"Ġentertained":14220,"Ġsignificantly":14221,"Rosamund":14222,"Ġambition":14223,"ĠSelby":14224,"ĠFairview":14225,"Ġfeeble":14226,"ĠKnights":14227,"EXP":14228,"ĠJunior":14229,"Ġdeliberately":14230,"Ġcushion":14231,"ĠPearl":14232,"ĠChampionships":14233,"Ġscrambled":14234,"Ġrascal":14235,"Queen":14236,"Ġmushroom":14237,"34":14238,"?--":14239,"Im":14240,"Papa":14241,"VD":14242,"WHEN":14243,"WHERE":14244,"cal":14245,"cake":14246,"cular":14247,"eye":14248,"gotta":14249,"lasses":14250,"mus":14251,"sen":14252,"spr":14253,"uish":14254,"hend":14255,"Ġsultan":14256,"Ġsardines":14257,"hair":14258,"hales":14259,"onica":14260,"itus":14261,"Ġcope":14262,"Ġdangers":14263,"alion":14264,"amel":14265,"Ġmeek":14266,"Ġwithdraw":14267,"ĠBus":14268,"ellect":14269,"ĠHoney":14270,"ĠHaut":14271,"ĠHEL":14272,"Ġupward":14273,"thirty":14274,"ĠDIS":14275,"ĠDenton":14276,"quer":14277,"Ġplug":14278,"ĠGame":14279,"ĠFC":14280,"ĠLor":14281,"ista":14282,"ĠRaj":14283,"Ġspear":14284,"Ġspilled":14285,"ĠNone":14286,"ĠOBJECT":14287,"Ġclung":14288,"Ġroared":14289,"udent":14290,"Ġcoins":14291,"pling":14292,"plan":14293,"plain":14294,"beat":14295,"Ġunac":14296,"Ġpartial":14297,"Ġdislike":14298,"Ġremo":14299,"Ġshaft":14300,"Ġcheating":14301,"Ġpreserved":14302,"Ġacceler":14303,"ĠFritz":14304,"ORD":14305,"RET":14306,"Ġ42":14307,"ĠThousand":14308,"Ġbarr":14309,"Ġagenda":14310,"Ġdefensive":14311,"ĠAllen":14312,"Ange":14313,"Ġattacking":14314,"Ġchoke":14315,"Ġfearing":14316,"Ġsoftware":14317,"ĠProject":14318,"Ġsuggests":14319,"Ġdetailed":14320,"Ġbanquet":14321,"Ġprinting":14322,"ĠAmong":14323,"Ġjudged":14324,"Ġoccurs":14325,"Ġsouthwest":14326,"ographer":14327,"Ġpunished":14328,"ictionary":14329,"ĠRobinson":14330,"ĠLouisiana":14331,"Left":14332,"Ġmotorcycle":14333,"Ġpsychiat":14334,"Ġspoons":14335,"Ġ1870":14336,"Ġmissionary":14337,"Ġschemes":14338,"Ġfocused":14339,"Ġdwelling":14340,"Ġsternly":14341,"ĠArabic":14342,"ĠMountains":14343,"Ġhorns":14344,"ĠCONT":14345,"Ġcycle":14346,"Ġannoyed":14347,"birds":14348,"secution":14349,"Comte":14350,"Emily":14351,"ĠRichmond":14352,"Ġneighbourhood":14353,"Ġbolt":14354,"ĠLeslie":14355,"Ġsausage":14356,"Shoot":14357,"Ġimprison":14358,"Course":14359,"Ġcompensation":14360,"donalds":14361,"Ġchalk":14362,"Ġsympt":14363,"ĠBourg":14364,"Gervaise":14365,"://":14366,"Ber":14367,"Boss":14368,"IBLE":14369,"Jan":14370,"King":14371,"MO":14372,"Pass":14373,"RF":14374,"Sn":14375,"Tim":14376,"WN":14377,"bound":14378,"moo":14379,"nan":14380,"num":14381,"nings":14382,"said":14383,"sitting":14384,"vag":14385,"woo":14386,"wear":14387,"Ġtart":14388,"Ġtumble":14389,"Ġsne":14390,"haven":14391,"Ġbunk":14392,"Ġmi":14393,"ede":14394,"Ġlounge":14395,"omon":14396,"owa":14397,"adder":14398,"ĠMwww":14399,"ĠMiles":14400,"ĠMaud":14401,"Ġanaly":14402,"Ġsew":14403,"ĠAw":14404,"ĠCow":14405,"ĠCry":14406,"Ġknives":14407,"ĠBase":14408,"Ġrains":14409,"ĠTry":14410,"ĠTheod":14411,"ĠGary":14412,"ĠFO":14413,"ĠLow":14414,"Ġworries":14415,"ĠRas":14416,"ĠRain":14417,"ĠRick":14418,"nap":14419,"ĠNine":14420,"Ġvow":14421,"Ġmanagers":14422,"Ġbacked":14423,"Ġargu":14424,"Ġclan":14425,"Ġclar":14426,"Ġafore":14427,"Ġaffl":14428,"Ġroaring":14429,"Ġplayin":14430,"pled":14431,"Ġunwill":14432,"Ġflowing":14433,"ordin":14434,"Ġguilt":14435,"achment":14436,"Ġsmashed":14437,"Ġevenings":14438,"Ġchilly":14439,"ansy":14440,"Ġmining":14441,"Ġserves":14442,"Ġglances":14443,"Ġattending":14444,"Ġchains":14445,"ounce":14446,"ĠBrand":14447,"versed":14448,"Ġfella":14449,"Ġrestored":14450,"Ġcolony":14451,"Ġconsists":14452,"mpoo":14453,"Ġimpulse":14454,"Ġrefres":14455,"Ġreform":14456,"Ġsincere":14457,"Ġsignature":14458,"Ġ47":14459,"Ġsteering":14460,"Ġpromoted":14461,"Ġbaskets":14462,"Alan":14463,"Ġprovisions":14464,"Ġhoarse":14465,"Ġfreezing":14466,"Ġchoking":14467,"velopment":14468,"Ġ170":14469,"Ġdirectory":14470,"Ġ150":14471,"Ġzebra":14472,"holding":14473,"Franche":14474,"ĠPerry":14475,"monkey":14476,"ĠONLY":14477,"Ġclubs":14478,"Ġbreathless":14479,"Ġcourtesy":14480,"ĠMaryland":14481,"Spike":14482,"Ġidentical":14483,"phant":14484,"worthy":14485,"Ġremembr":14486,"Ġpinch":14487,"eremy":14488,"Among":14489,"Ġignored":14490,"Ġmumm":14491,"Ġvacant":14492,"Ġcelebration":14493,"Ġwhistling":14494,"Ġarguments":14495,"Ġpredict":14496,"Ġscientist":14497,"Rosy":14498,"Ġpumpkin":14499,"Ġbitterly":14500,
[...]
