{"<s>":0,"<pad>":1,"</s>":2,"<unk>":3,"<mask>":4,"!":5,"\"":6,"#":7,"$":8,"%":9,"&":10,"'":11,"(":12,")":13,"*":14,"+":15,",":16,"-":17,".":18,"/":19,"0":20,"1":21,"2":22,"3":23,"4":24,"5":25,"6":26,"7":27,"8":28,"9":29,":":30,";":31,"<":32,"=":33,">":34,"?":35,"@":36,"A":37,"B":38,"C":39,"D":40,"E":41,"F":42,"G":43,"H":44,"I":45,"J":46,"K":47,"L":48,"M":49,"N":50,"O":51,"P":52,"Q":53,"R":54,"S":55,"T":56,"U":57,"V":58,"W":59,"X":60,"Y":61,"Z":62,"[":63,"\\":64,"]":65,"^":66,"_":67,"`":68,"a":69,"b":70,"c":71,"d":72,"e":73,"f":74,"g":75,"h":76,"i":77,"j":78,"k":79,"l":80,"m":81,"n":82,"o":83,"p":84,"q":85,"r":86,"s":87,"t":88,"u":89,"v":90,"w":91,"x":92,"y":93,"z":94,"{":95,"|":96,"}":97,"~":98,"¡":99,"¢":100,"£":101,"¤":102,"¥":103,"¦":104,"§":105,"¨":106,"©":107,"ª":108,"«":109,"¬":110,"®":111,"¯":112,"°":113,"±":114,"²":115,"³":116,"´":117,"µ":118,"¶":119,"·":120,"¸":121,"¹":122,"º":123,"»":124,"¼":125,"½":126,"¾":127,"¿":128,"À":129,"Á":130,"Â":131,"Ã":132,"Ä":133,"Å":134,"Æ":135,"Ç":136,"È":137,"É":138,"Ê":139,"Ë":140,"Ì":141,"Í":142,"Î":143,"Ï":144,"Ð":145,"Ñ":146,"Ò":147,"Ó":148,"Ô":149,"Õ":150,"Ö":151,"×":152,"Ø":153,"Ù":154,"Ú":155,"Û":156,"Ü":157,"Ý":158,"Þ":159,"ß":160,"à":161,"á":162,"â":163,"ã":164,"ä":165,"å":166,"æ":167,"ç":168,"è":169,"é":170,"ê":171,"ë":172,"ì":173,"í":174,"î":175,"ï":176,"ð":177,"ñ":178,"ò":179,"ó":180,"ô":181,"õ":182,"ö":183,"÷":184,"ø":185,"ù":186,"ú":187,"û":188,"ü":189,"ý":190,"þ":191,"ÿ":192,"Ā":193,"ā":194,"Ă":195,"ă":196,"Ą":197,"ą":198,"Ć":199,"ć":200,"Ĉ":201,"ĉ":202,"Ċ":203,"ċ":204,"Č":205,"č":206,"Ď":207,"ď":208,"Đ":209,"đ":210,"Ē":211,"ē":212,"Ĕ":213,"ĕ":214,"Ė":215,"ė":216,"Ę":217,"ę":218,"Ě":219,"ě":220,"Ĝ":221,"ĝ":222,"Ğ":223,"ğ":224,"Ġ":225,"ġ":226,"Ģ":227,"ģ":228,"Ĥ":229,"ĥ":230,"Ħ":231,"ħ":232,"Ĩ":233,"ĩ":234,"Ī":235,"ī":236,"Ĭ":237,"ĭ":238,"Į":239,"į":240,"İ":241,"ı":242,"Ĳ":243,"ĳ":244,"Ĵ":245,"ĵ":246,"Ķ":247,"ķ":248,"ĸ":249,"Ĺ":250,"ĺ":251,"Ļ":252,"ļ":253,"Ľ":254,"ľ":255,"Ŀ":256,"ŀ":257,"Ł":258,"ł":259,"Ń":260,"Ġt":261,"he":262,"Ġa":263,"in":264,"ou":265,"Ġw":266,"Ġthe":267,"re":268,"Ġs":269,"ha":270,"on":271,"er":272,"nd":273,"Ġb":274,"it":275,"Ġm":276,"is":277,"Ġc":278,"Ġo":279,"Ġd":280,"Ġf":281,"ing":282,"Ġto":283,"ll":284,"Ġy":285,"ed":286,"or":287,"Ġyou":288,"an":289,"en":290,"es":291,"hat":292,"Ġp":293,"Ġg":294,"Ġl":295,"Ġand":296,"Ġof":297,"ar":298,"as":299,"Ġin":300,"Ġn":301,"ĠI":302,"om":303,"at":304,"Ġhe":305,"ow":306,"Ġh":307,"ot":308,"Ġha":309,"'s":310,"ve":311,"le":312,"Ġit":313,"Ġth":314,"ay":315,"et":316,"Ġthat":317,"Ġon":318,"ic":319,"us":320,"Ġbe":321,"gh":322,"id":323,"ld":324,"ut":325,"Ġe":326,"Ġwe":327,"Ġwas":328,"al":329,"Ġis":330,"oo":331,"im":332,"'t":333,"ke":334,"ac":335,"ver":336,"Ġre":337,"ght":338,"Ġfor":339,"ly":340,"..":341,"ad":342,"se":343,"ri":344,"ent":345,"ir":346,"Ġst":347,"ion":348,"Ġu":349,"Ġdo":350,"out":351,"am":352,"Ġk":353,"Ġme":354,"ith":355,"st":356,"The":357,"ro":358,"âĢ":359,"Ġwith":360,"ĠĊ":361,"ĠM":362,"her":363,"Ġan":364,"ĠS":365,"ome":366,"Ġas":367,"all":368,"ould":369,"Ġse":370,"Ġnot":371,"ea":372,"Ġwh":373,"Ġli":374,"ĠA":375,"ch":376,"Ġgo":377,"Ġhave":378,"ur":379,"ill":380,"Ġat":381,"and":382,"ter":383,"ĠC":384,"Ġkn":385,"ce":386,"ĠB":387,"Ġthis":388,"ust":389,"if":390,"ell":391,"Ġhis":392,"ĠH":393,"ant":394,"Ġher":395,"Ġknow":396,"Ġare":397,"ct":398,"ĠĠ":399,"Ġthey":400,"Ġhad":401,"il":402,"Ġj":403,"Ġr":404,"Ġso":405,"un":406,"ain":407,"Ġshe":408,"Ġyour":409,"Ġup":410,"Ġne":411,"Ġmy":412,"You":413,"Ġone":414,"ĠT":415,"...":416,"ore":417,"ook":418,"Ġdon":419,"Ġcan":420,"pp":421,"ie":422,"Ġall":423,"Ġthere":424,"Ġsa":425,"Ġwhat":426,"our":427,"th":428,"Ġ\"":429,"ight":430,"Ġhim":431,"eah":432,"Ġsh":433,"um":434,"ge":435,"rom":436,"Ġwhe":437,"Ġbut":438,"Ġde":439,"Ġab":440,"op":441,"ood":442,"ab":443,"Ġout":444,"ĠW":445,"Ġlike":446,"ry":447,"art":448,"ess":449,"ink":450,"ack":451,"ul":452,"ake":453,"ĠP":454,"very":455,"ĠD":456,"'re":457,"ck":458,"red":459,"el":460,"ol":461,"han":462,"Ġget":463,"Ġfrom":464,"Ġwere":465,"'m":466,"Ġsu":467,"qu":468,"Ġal":469,"ĠThe":470,"Ġsee":471,"Ġno":472,"Ġpl":473,"Ġdid":474,"est":475,"Ġor":476,"right":477,"ĠG":478,"one":479,"ation":480,"Ġthem":481,"ind":482,"ers":483,"ig":484,"ĠF":485,"itt":486,"ound":487,"ĠJ":488,"Ġabout":489,"os":490,"ĠL":491,"ame":492,"--":493,"Ġby":494,"Ġsaid":495,"xx":496,"ist":497,"ra":498,"Ġwould":499,"ong":500,"ally":501,"ard":502,"Ġjust":503,"Ġthink":504,"Ġwor":505,"Ġsome":506,"Ġcom":507,"res":508,"Ġus":509,"ĠR":510,"ive":511,"Ġ1":512,"ast":513,"Ġhere":514,"nt":515,"Ġgot":516,"Ġcon":517,"Ġwant":518,"Ġif":519,"own":520,"Ġsp":521,"ak":522,"'ll":523,"ate":524,"na":525,"Ġex":526,"ĠN":527,"oh":528,"Ġany":529,".\"":530,"It":531,"Ġlook":532,"Ġwho":533,"Ġv":534,"ap":535,"em":536,"ime":537,"ich":538,"ven":539,"ort":540,"fe":541,"Ġman":542,"ough":543,"Ġwill":544,"ĠE":545,"Ġer":546,"ep":547,"Ġwhen":548,"here":549,"ice":550,"âĢĻ":551,"od":552,"ous":553,"Ġsay":554,"hing":555,"ĠO":556,"ick":557,"Ġright":558,"âĢľ":559,"other":560,"Ġint":561,"you":562,"Ġthen":563,"Ġnow":564,"ear":565,"ittle":566,"Ġbeen":567,"Ġtw":568,"ag":569,"use":570,"Ġpro":571,"Ġcould":572,"ĠĠĠĠ":573,"ther":574,"ine":575,"lf":576,"way":577,"Ġtime":578,"He":579,"âĢĿ":580,"ide":581,",\"":582,"'ve":583,"are":584,"Ġag":585,"Ġlittle":586,"Ġlo":587,"no":588,"Ġbo":589,"ber":590,"What":591,"hi":592,"kay":593,"Ġback":594,"Ġtr":595,"Ġ2":596,"And":597,"Ġvery":598,"what":599,"Ġwhich":600,"Ġdown":601,"Ġgoing":602,"Ġgood":603,"Ġqu":604,"ies":605,"ace":606,"end":607,"Ġtoo":608,"ose":609,"Ġover":610,"ause":611,"Yeah":612,"Ġar":613,"Ġmore":614,"Ġoff":615,"Ġtheir":616,"Ġcl":617,"ite":618,"ree":619,"Oh":620,"ĠHe":621,"Ġhas":622,"Ġfe":623,"ity":624,"Ġthing":625,"au":626,"Ġother":627,"Ġaf":628,"ost":629,"].":630,"No":631,"reat":632,"ure":633,"Ġro":634,"we":635,"yeah":636,"Ġcome":637,"Ġtwo":638,"Ġput":639,"Ġbr":640,"ought":641,"Ġle":642,"ment":643,"cause":644,"Ġpe":645,"alk":646,"Ġgr":647,"Ġam":648,"omet":649,"ish":650,"Ġbl":651,"hed":652,"We":653,"ft":654,"xxx":655,"Ġinto":656,"ud":657,"ond":658,"urn":659,"Ġway":660,"iss":661,"Ġhow":662,"Ġthan":663,"ĠIt":664,"ect":665,"age":666,"ase":667,"hy":668,"ble":669,"ty":670,"Ġ[":671,"Ġ(":672,"uh":673,"the":674,"that":675,"Ġagain":676,"ĠK":677,"ving":678,"uck":679,"That":680,"Ġen":681,"ass":682,"uch":683,"Well":684,"ople":685,"ue":686,"self":687,"Ġtake":688,"so":689,"Ġmake":690,"Ġwell":691,"But":692,"onna":693,"Ġco":694,"ade":695,"Ġwork":696,"Ġsomet":697,"orn":698,"Ġday":699,"Ġwhere":700,"Ġmean":701,"ved":702,"Yes":703,"Ġshould":704,"Ġtell":705,"Ġour":706,"ire":707,"irst":708,"Ġplay":709,"ather":710,"act":711,"pt":712,"Ġgonna":713,"Ġ20":714,"ves":715,"ps":716,"pl":717,"ho":718,"my":719,"Ġpeople":720,"Ġmuch":721,"ian":722,"Ġlet":723,"ren":724,"fore":725,"ull":726,"be":727,"ount":728,"Ġneed":729,"his":730,"ĠMr":731,"Ġun":732,"Ġ'":733,"Ġafter":734,"Ġevery":735,"Ġcall":736,"Ġ19":737,"ress":738,"wn":739,"Ġhand":740,"ise":741,"nder":742,"Ġdoes":743,"Ġbet":744,"HI":745,"Ġonly":746,"ary":747,"Ġpart":748,"yes":749,"thing":750,"ci":751,"Ġfirst":752,"?\"":753,"per":754,"ile":755,"te":756,"har":757,"ff":758,"ady":759,"Ġpo":760,"ater":761,"Ġfl":762,"able":763,"ord":764,"Ġthr":765,"Ġpre":766,"Ġgu":767,"ang":768,"Ġreally":769,"Ġdidn":770,"ĠU":771,"Ġyear":772,"Ġsomething":773,"ach":774,"cc":775,"Ġpr":776,"Ġboy":777,"ting":778,"Ġsc":779,"ng":780,"So":781,"ance":782,"irl":783,"ark":784,"'d":785,"Ġmade":786,"Ġlong":787,"Ġmo":788,"ia":789,"Ġbefore":790,"Ġcar":791,"Ġhapp":792,"Ġdis":793,"ouse":794,"Ġxxx":795,"Ġad":796,"les":797,"Ġtalk":798,"Ġim":799,"Ġnever":800,"Ġask":801,"Ġke":802,"Ġunder":803,"int":804,"ru":805,"iz":806,"ne":807,"ool":808,"Ġthese":809,"Ġrem":810,"Ġthought":811,"Ġsm":812,"ĠSt":813,"Ġaway":814,"Ġsec":815,"Ġbecause":816,"ody":817,"Ġold":818,"Ġwent":819,"get":820,"mer":821,"Ġwr":822,"Ġper":823,"ew":824,"cl":825,"day":826,"Ġgirl":827,"Ġte":828,"ence":829,"Ġcame":830,"Ġfo":831,"ful":832,"Ġcomp":833,"ated":834,"Ġsha":835,"ory":836,"av":837,"Ġchi":838,"hen":839,"Ġmust":840,"ied":841,"HE":842,"gg":843,"Ġeven":844,"Ġgreat":845,"ions":846,"ward":847,"pe":848,"Ġapp":849,"ah":850,"Ġact":851,"Ġhel":852,"ried":853,"tain":854,"ict":855,"where":856,"¿½":857,"ï¿½":858,"Ġthree":859,"riend":860,"Ġthose":861,"Ġchild":862,"do":863,"Ġmay":864,"ĠShe":865,"âĻ":866,"atch":867,"ks":868,"Ġlove":869,"Ġturn":870,"Ġhome":871,"Ġdoing":872,"ious":873,"hes":874,"Ġthings":875,"ub":876,"âĻª":877,"Ġch":878,"ob":879,"ix":880,"ave":881,"okay":882,"Ġfind":883,"augh":884,"ĠY":885,"OT":886,"Ġthrough":887,"Ġnew":888,"oy":889,"ily":890,"Ġgive":891,"She":892,"ons":893,"ens":894,"They":895,"Ġhead":896,"ĠV":897,".âĢĿ":898,"ock":899,"Ġlast":900,"lease":901,"Ġstill":902,"ĠĠĠĠĠĠĠĠ":903,"ait":904,"anna":905,"Ġsl":906,"Ġcr":907,"Ġlea":908,"Ġres":909,"Ġhouse":910,"man":911,"Ġbig":912,"ors":913,"Ġhelp":914,"Ġstart":915,"ĠâĢľ":916,"Ġerm":917,"Ġmight":918,"Ġdone":919,"IN":920,"Ġtry":921,"ĠYou":922,"Ġbit":923,"ip":924,"Ġbel":925,"This":926,"med":927,"ings":928,"Ġnight":929,"ened":930,"Ġchan":931,"Ġfeel":932,"ign":933,"og":934,"und":935,"air":936,"ath":937,"ER":938,"aking":939,"hm":940,"Ġmother":941,"Ġanother":942,"ms":943,"but":944,"Ġcont":945,"There":946,"igh":947,"ny":948,"old":949,"Ġmany":950,"oss":951,"Ġalso":952,"Ġbu":953,"xt":954,"oney":955,"Ġcour":956,"Ġown":957,"Ġhar":958,"ail":959,"ans":960,"ild":961,"Ġfriend":962,"ling":963,"Ġkind":964,"body":965,"Ġmin":966,"ually":967,"Ġ.":968,"aw":969,"Ġwon":970,"Ġname":971,"Ġlife":972,"How":973,"ult":974,"Ġuh":975,"Ġsuch":976,"ever":977,"orry":978,"there":979,"Ġche":980,"Ġser":981,"ĠIn":982,"ars":983,"Ġstr":984,"Ġdif":985,"Ġgl":986,"Ġwhy":987,"Ġshow":988,"ways":989,"Ġplace":990,"Ġfound":991,"Ġlot":992,"Ġbetter":993,"up":994,"Ġsure":995,"If":996,"ĠCh":997,"CHI":998,"ee":999,"Ġbeing":1000,"Ġmom":1001,"Ġkeep":1002,"Ġatt":1003,"Ġop":1004,"aby":1005,"Ġwanna":1006,"Ġyears":1007,"Ġcare":1008,"Ġanything":1009,"dy":1010,"Ġmost":1011,"iv":1012,"Ġbook":1013,"Ġend":1014,"anc":1015,"port":1016,"Ġrec":1017,"Ġcha":1018,"00":1019,"led":1020,"Ġdes":1021,"ove":1022,"side":1023,"In":1024,"Ġsupp":1025,"Ġused":1026,"Ġtold":1027,"well":1028,"Do":1029,"li":1030,"akes":1031,"Ġcomm":1032,"oth":1033,"Ġcount":1034,"rest":1035,"Ġeat":1036,"ning":1037,"!\"":1038,"Ġwhile":1039,"come":1040,"Ġaround":1041,".]":1042,"chool":1043,"Ġel":1044,",âĢĿ":1045,"ys":1046,"Ġsame":1047,"----":1048,"imes":1049,"Ġcalled":1050,"let":1051,"Ġits":1052,"row":1053,"Why":1054,"ye":1055,"Ġalways":1056,"ember":1057,"als":1058,"not":1059,"AN":1060,"ank":1061,"rent":1062,"atter":1063,"ple":1064,"Ġfour":1065,"land":1066,"Ġokay":1067,"Ġfather":1068,"Ġroom":1069,"Ġquite":1070,"Ġleft":1071,"ute":1072,"Ġword":1073,"Ġrun":1074,"orm":1075,"can":1076,"OU":1077,"Ġfar":1078,"hank":1079,"ĠThey":1080,"Ġset":1081,"Ġyes":1082,"ness":1083,"pect":1084,"ates":1085,"ss":1086,"ations":1087,"Now":1088,"Ġyeah":1089,"Ġhard":1090,"Ġacc":1091,"Ġnext":1092,"Ġmen":1093,"Ġmoney":1094,"ition":1095,"ince":1096,"uc":1097,"Ġear":1098,"Ġsaw":1099,"Ġcourse":1100,"ident":1101,"Ġface":1102,"Ġcle":1103,"AT":1104,"Okay":1105,"aught":1106,"Ġtook":1107,"laugh":1108,"Ġnice":1109,"ical":1110,"Ġpres":1111,"Ġbre":1112,"Don":1113,"Ġwater":1114,"ner":1115,"ret":1116,"Ġbeg":1117,"Ġmon":1118,"Ġbus":1119,"Ġfin":1120,"Ġever":1121,"Ġisn":1122,"pped":1123,"ung":1124,"Ġschool":1125,"Ġ_":1126,"Ġdoesn":1127,"Ġsit":1128,"Ġbaby":1129,"Ġpol":1130,"huh":1131,"Ġ201":1132,"Ġwait":1133,"Ġelse":1134,"Ġsw":1135,"Ġenough":1136,"oun":1137,"ction":1138,"ream":1139,"Ġwee":1140,"ĠBut":1141,"Ġasked":1142,"Ġac":1143,"Ġob":1144,"Ġupon":1145,"bab":1146,"ĠBr":1147,"Ġpoint":1148,"Ġpret":1149,"ĠUn":1150,"Ġgi":1151,"look":1152,"oc":1153,"ĠAnd":1154,"ĠTHE":1155,"Ġthough":1156,"ph":1157,"Ġunt":1158,"Ġdist":1159,"der":1160,"Ġdiffe":1161,"ta":1162,"Ġyoung":1163,"Ġreal":1164,"Ġsur":1165,"Ġwar":1166,"now":1167,"orning":1168,"Ġread":1169,"Ġind":1170,"Ġwom":1171,"Ġfew":1172,"Ġpass":1173,"Ġbelie":1174,"Ġdr":1175,"Come":1176,"Ġcoming":1177,"ane":1178,"Ġeyes":1179,"Ġhear":1180,"ited":1181,"ĠFr":1182,"Ġfam":1183,"ope":1184,"vers":1185,"llow":1186,"Ġpers":1187,"ible":1188,"Ġmind":1189,"Ġnothing":1190,"Ġret":1191,"Ġsorry":1192,"Ġwalk":1193,"Er":1194,"ont":1195,"vel":1196,"ott":1197,"how":1198,"eak":1199,"Ġuse":1200,"Ġdoor":1201,"Ġside":1202,"ĠMrs":1203,"Ġstay":1204,"Let":1205,"Ġfun":1206,"Ġlooks":1207,"gether":1208,"Ġmorning":1209,"ĠWhat":1210,"MOT":1211,"Is":1212,"Ġplease":1213,"leep":1214,"ished":1215,"Ġfell":1216,"Ġgone":1217,"Ġbest":1218,"ON":1219,"Ġuntil":1220,"Ġfive":1221,"Ġbed":1222,"Ġstand":1223,"Mm":1224,"less":1225,"outh":1226,"me":1227,"Ġchildren":1228,"Ġyet":1229,"Ġseen":1230,"Ġent":1231,"Ġhimself":1232,"rew":1233,"ĠMiss":1234,"ĠMar":1235,"Ġter":1236,"Ġonce":1237,"Ġheart":1238,"az":1239,"Ġheard":1240,"ING":1241,"Ġkill":1242,"ired":1243,"amp":1244,"ross":1245,"vent":1246,"Ġsays":1247,"Ġ3":1248,"Ġrest":1249,"Ġreg":1250,"Uh":1251,"laughs":1252,"Ġnum":1253,"Ġopen":1254,"ins":1255,"Ġwithout":1256,"Ġmoment":1257,"stand":1258,"Ġknew":1259,"ject":1260,"ohn":1261,"Ġlooking":1262,"Ġdra":1263,"Ġnear":1264,"Ġdear":1265,"Ġfr":1266,"All":1267,"oll":1268,"My":1269,"ES":1270,"Ġlight":1271,"omb":1272,"ump":1273,"Ġlooked":1274,"fect":1275,"ww":1276,"mb":1277,"Ġri":1278,"OR":1279,"Ġleave":1280,"uff":1281,"Ġrel":1282,"Ġhold":1283,"Ġhalf":1284,"ows":1285,"Hey":1286,"Ġball":1287,"ower":1288,"Ġsix":1289,"Ġchar":1290,"addy":1291,"ec":1292,"gr":1293,"Not":1294,"most":1295,"Ġmeet":1296,"Ġtri":1297,"Ġsort":1298,"ered":1299,"Ġmar":1300,"Ġtogether":1301,"Ġsoon":1302,"Ġbad":1303,"St":1304,"ces":1305,"Ġcol":1306,"cle":1307,"ister":1308,"Ġround":1309,"ug":1310,"Ġgetting":1311,"meric":1312,"ĠAl":1313,"Ġlist":1314,"ummy":1315,"Ġremember":1316,"Ġans":1317,"Ġcons":1318,"Ġhands":1319,"she":1320,"AR":1321,"Ġsecond":1322,"ween":1323,"ertain":1324,"Ġmatter":1325,"Ġï¿½":1326,"Ġeach":1327,"unt":1328,"den":1329,"ush":1330,"Ġhur":1331,"Ġtoday":1332,"aster":1333,"Ġhaving":1334,"ared":1335,"Ġair":1336,"ash":1337,"ures":1338,"Ġhour":1339,"Ġdec":1340,"Ġfollow":1341,"leas":1342,"ener":1343,"mp":1344,"ason":1345,"Ġdri":1346,"Ġworld":1347,"Ġboth":1348,"ird":1349,"Ġwanted":1350,"Ġshall":1351,"its":1352,"Ġdifferent":1353,"oot":1354,"Ġass":1355,"Ġbetween":1356,"Ġeverything":1357,"Ġperson":1358,"ib":1359,"cept":1360,"Ġbelieve":1361,"Be":1362,"Ġinst":1363,"ma":1364,"Ġstop":1365,"Ġi":1366,"this":1367,"Right":1368,"ork":1369,"Ġsing":1370,"to":1371,"ĠNo":1372,"att":1373,"mber":1374,"Ġsound":1375,"any":1376,"Ġwind":1377,"ating":1378,"Ġgoes":1379,"ial":1380,"Ġsmall":1381,"Ġpick":1382,"Ġagainst":1383,"ĠAmeric":1384,"Ġquest":1385,"Ġpretty":1386,"Ġwond":1387,"Ġdays":1388,"Ġfall":1389,"ready":1390,"ife":1391,"ched":1392,"Ġcap":1393,"ange":1394,"Then":1395,"Ġinte":1396,"Just":1397,"osed":1398,"LL":1399,"Ġbro":1400,"sel":1401,"Ġmil":1402,"aut":1403,"Ġinter":1404,"pr":1405,"Ġpap":1406,"iness":1407,"Ġfact":1408,"ither":1409,"Ġgave":1410,"âĢĵ":1411,"ger":1412,"Ġwatch":1413,"Ġ,":1414,"Ġele":1415,"Ġtalking":1416,"ged":1417,"Ġhigh":1418,"uring":1419,"Ġhappened":1420,"ctor":1421,"ised":1422,"ular":1423,"they":1424,"ully":1425,"ĠGod":1426,"When":1427,"Ġboys":1428,"Ġsk":1429,"Ġunderstand":1430,"ĠWe":1431,"ĠEd":1432,"Ġlive":1433,"Ġactually":1434,"ĠThere":1435,"Ġwhole":1436,"ames":1437,"elt":1438,"Ġmiss":1439,"ets":1440,"ale":1441,"rist":1442,"Ġinterest":1443,"Ġred":1444,"Ġoh":1445,"Ġsleep":1446,"Ġfire":1447,"oke":1448,"orth":1449,"Ġadd":1450,"sh":1451,"Ġinv":1452,"ines":1453,"Ġlater":1454,"Ġhaven":1455,"Ġknown":1456,"bably":1457,"iet":1458,"âĢĺ":1459,"Ġid":1460,"Are":1461,"Ġdire":1462,"enty":1463,"ĠThis":1464,"ned":1465,"mm":1466,"Ġph":1467,"ĠJohn":1468,"Ġsil":1469,"br":1470,"Ġimp":1471,"Ġready":1472,"?âĢĿ":1473,"Ġkid":1474,"Ġalong":1475,"EN":1476,"Ġmaking":1477,"ĠInd":1478,"uth":1479,"Where":1480,"Who":1481,"ual":1482,"Ġfamily":1483,"Ġvo":1484,"Ġpie":1485,"Thank":1486,"Ġdep":1487,"app":1488,"aken":1489,"by":1490,"orrow":1491,"Ġbox":1492,"ĠAr":1493,"Ġspeak":1494,"Ġtown":1495,"Ġtrying":1496,"Ġbring":1497,"ton":1498,"Ġsub":1499,"Ġwouldn":1500,"Ġposs":1501,"ier":1502,"Ġalmost":1503,"Ġwoman":1504,"go":1505,"ents":1506,"\".":1507,"Ġmove":1508,"ced":1509,"Ġwasn":1510,"Ġmet":1511,"Ġeight":1512,"oor":1513,"Ġ18":1514,"ĠNew":1515,"Ġwonder":1516,"Ġexp":1517,"cial":1518,"uss":1519,"ts":1520,"IS":1521,"Ġreturn":1522,"ike":1523,"Ġfoot":1524,"lic":1525,"Look":1526,"Ġalready":1527,"Ġhope":1528,"Ġpay":1529,"Ġjob":1530,"Ġstory":1531,"oe":1532,"Ġtable":1533,"ined":1534,"Ġdog":1535,"wards":1536,"haps":1537,"Ġdisc":1538,"Did":1539,"Ġref":1540,"undred":1541,"Ġsaying":1542,"Ġmus":1543,"Ġhor":1544,"Ġtra":1545,"Ġnumber":1546,"ĠGer":1547,"Ġ200":1548,"Ġsince":1549,"ok":1550,"Ġtop":1551,"Ġguess":1552,"Ġcut":1553,"Ġseemed":1554,"ters":1555,"Ġbreak":1556,"Ġlar":1557,"Ġhat":1558,"ery":1559,"Ġsent":1560,"RE":1561,"ield":1562,"ational":1563,"who":1564,"ĠâĻª":1565,"ax":1566,"Ġconf":1567,"ex":1568,"Ġten":1569,"ĠAn":1570,"Ġsign":1571,"Ġsir":1572,"Ġhundred":1573,"eed":1574,"Ġrep":1575,"Ġum":1576,"Ġson":1577,"Ġplan":1578,"Good":1579,"ten":1580,"Ġfriends":1581,"une":1582,"Mr":1583,"Ġrather":1584,"ĠHar":1585,"Ġ202":1586,"Ġwrong":1587,"Ġblack":1588,"why":1589,"Ġeas":1590,"Ġproble":1591,"reen":1592,"Ġfull":1593,"mhm":1594,"Ġinf":1595,"aid":1596,"On":1597,"ĠCHI":1598,"Ġext":1599,"ric":1600,"ying":1601,"ense":1602,"ĠEng":1603,"Ġclose":1604,"Ġaw":1605,"Ġexc":1606,"Ġcertain":1607,"ony":1608,"Ġgirls":1609,"Ġdied":1610,"Ġbrought":1611,"don":1612,"ats":1613,"Ġstarted":1614,"Ġ4":1615,"ision":1616,"Ġcity":1617,"Ġturned":1618,"Ġbrother":1619,"Ġland":1620,"ĠAs":1621,"omba":1622,"ball":1623,"ries":1624,"Ġprobably":1625,"wer":1626,"Can":1627,"ently":1628,"Ġinc":1629,"Ġcomes":1630,"Ġcountry":1631,"ĠTh":1632,"eb":1633,"Ġmonth":1634,"CH":1635,"Ġste":1636,"Ġmyself":1637,"Ġdro":1638,"Th":1639,"Ġstate":1640,"ants":1641,"fta":1642,"ative":1643,"Ġswe":1644,"Ġbec":1645,"Ġtimes":1646,"Ġbeaut":1647,"hip":1648,"vie":1649,"Ġlost":1650,"Ġvoice":1651,"Ġgame":1652,"Ġ5":1653,"Ġfine":1654,"Ġtaken":1655,"ĠGr":1656,"Ġyourself":1657,"Ġwhite":1658,"Ġhafta":1659,"Ġsat":1660,"Ġfeet":1661,"Ġweek":1662,"selves":1663,"ĠChrist":1664,"Ġwords":1665,"Ġidea":1666,"Ġtrain":1667,"Ġdin":1668,"Ġanim":1669,"Ġmeans":1670,"Ġthank":1671,"ention":1672,"Ġminute":1673,"aj":1674,"Ġfelt":1675,"ize":1676,"ĠĠĠĠĠĠĠĠĠĠĠĠĠĠĠĠ":1677,"bo":1678,"Ġfood":1679,"Ġexpl":1680,"Ġchair":1681,"eter":1682,").":1683,"ĠOh":1684,"Ġprom":1685,"Ġpoor":1686,"IT":1687,"oub":1688,"oud":1689,"Ġnoise":1690,"Ġsim":1691,"ones":1692,"essie":1693,"ĠDe":1694,"fully":1695,"ted":1696,"Ġdead":1697,"ief":1698,"Ġpict":1699,"ments":1700,"Ġpur":1701,"Ġlad":1702,"ĠSo":1703,"Ġdeal":1704,"Ġhot":1705,"fter":1706,"Ġable":1707,"Ġlaugh":1708,"did":1709,"aybe":1710,"Ġstuff":1711,"cess":1712,"hind":1713,"Ġsy":1714,"Ġbas":1715,"ĠBen":1716,"wo":1717,"Ġdrink":1718,"Ġtre":1719,"ĠCl":1720,"wh":1721,"ouch":1722,"itting":1723,"Ġquick":1724,"ï¿½ï¿½":1725,"ĠBart":1726,"Ġbegan":1727,"Ġpop":1728,"Ġgener":1729,"ama":1730,"ĠAmerican":1731,"ouble":1732,"Ġdeath":1733,"Ġcoll":1734,"Ġcur":1735,"utes":1736,"Ġless":1737,"Ġgrand":1738,"Ġcra":1739,"ured":1740,"Ġcase":1741,"ided":1742,"du":1743,"Ġteam":1744,"Ġtill":1745,"Ġbusiness":1746,"Ġsqu":1747,"Ġshort":1748,"vern":1749,"iful":1750,"clud":1751,"aces":1752,"ĠTom":1753,"ches":1754,"ison":1755,"ene":1756,"Ġpleas":1757,"Ġquestion":1758,"Ġes":1759,"ities":1760,"--------":1761,"Ġpaper":1762,"Ġhappen":1763,"ĠFl":1764,"put":1765,"Ġwin":1766,"ford":1767,"Ġcontin":1768,"Ġform":1769,"ĠBe":1770,"ĠThen":1771,"For":1772,"ises":1773,"As":1774,"Ġdoll":1775,"ately":1776,"Ġpull":1777,"agg":1778,"for":1779,"ern":1780,"AS":1781,"Ġdress":1782,"ĠIs":1783,"io":1784,"Ġfight":1785,"Ġgiven":1786,"key":1787,"ĠYOU":1788,"Go":1789,"ues":1790,"Ġmaybe":1791,"fort":1792,"Ġtaking":1793,"Ġcent":1794,"eth":1795,"ander":1796,"Ġbehind":1797,"anger":1798,"TER":1799,"Ġhair":1800,"Ġclear":1801,"Ġhappy":1802,"Ġpain":1803,"Ġgotta":1804,"Ġwish":1805,"Ġones":1806,"Ġborn":1807,"ages":1808,"Ġleast":1809,"Ġserv":1810,"used":1811,"oup":1812,"Ġbuild":1813,"Ġocc":1814,"airs":1815,"Ġlear":1816,"Ġstra":1817,"Ġlead":1818,"Ġminutes":1819,"gs":1820,"room":1821,"Ġimport":1822,"ĠTO":1823,"head":1824,"Ġev":1825,"ific":1826,"ape":1827,"Ġfront":1828,"Ġduring":1829,"Ġago":1830,"irty":1831,"Ġcouldn":1832,"Ġins":1833,"Erm":1834,"cil":1835,"Ġplaying":1836,"ald":1837,"Ġstud":1838,"Ġparty":1839,"ote":1840,"Ġbar":1841,"Ġsomeone":1842,"ital":1843,"Ġalone":1844,"ring":1845,"),":1846,"Ġherself":1847,"Ġchange":1848,"Ġlady":1849,"ati":1850,"Ġpresent":1851,"oint":1852,"Ġfig":1853,"Ġtrue":1854,"Ġfuck":1855,"ĠHow":1856,"Ġguys":1857,"enn":1858,"Ġwants":1859,"aughter":1860,"Ġwife":1861,"ĠBessie":1862,"Ġreason":1863,"ley":1864,"Ġvis":1865,"\",":1866,"Ġtwenty":1867,"ina":1868,"Ġline":1869,"Ġothers":1870,"Ġfav":1871,"reet":1872,"Ġoffic":1873,"Ġcry":1874,"ĠJap":1875,"ider":1876,"ousand":1877,"Here":1878,"ics":1879,"ized":1880,"Your":1881,"Ġoften":1882,"ĠCha":1883,"ĠBomba":1884,"Ġeither":1885,"Get":1886,"Ġstick":1887,"Ġground":1888,"Ġ6":1889,"rence":1890,"ommy":1891,"light":1892,"like":1893,"iously":1894,"Ġglad":1895,"ĠZ":1896,"ert":1897,"ained":1898,"ĠThat":1899,"AP":1900,"lish":1901,"Ġrepl":1902,"unk":1903,"morrow":1904,"Ġadv":1905,"ED":1906,"arent":1907,"cy":1908,"Ġem":1909,"aim":1910,"Ġmakes":1911,"Ġroad":1912,"fic":1913,"tern":1914,"read":1915,"Ġpri":1916,"olog":1917,"hil":1918,"Ġsister":1919,"Ġmess":1920,"ards":1921,"Ġchance":1922,"ĠCar":1923,"Ġlik":1924,"Al":1925,"Ġdraw":1926,"Ġcir":1927,"Ġmusic":1928,"Ġbeautiful":1929,"Ġguy":1930,"Ġdar":1931,"ots":1932,"een":1933,"Ġfif":1934,"Ġfair":1935,"Ġed":1936,"cted":1937,"Ġstrong":1938,"olly":1939,"ĠUnited":1940,"Ġexpect":1941,"Ġgun":1942,"Ġlisten":1943,"At":1944,"ĠHis":1945,"son":1946,"Ġprov":1947,"ians":1948,"Ġage":1949,"Ġamong":1950,"ster":1951,"Ġ199":1952,"good":1953,"ĠĠĊ":1954,"LE":1955,"ead":1956,"Ġhum":1957,"ĠIf":1958,"Ġopp":1959,"Ġthousand":1960,"II":1961,"Ġdark":1962,"OM":1963,"ey":1964,"omm":1965,"raid":1966,"Ġ8":1967,"ĠYes":1968,"ety":1969,"rict":1970,"Ġoutside":1971,"Ġhon":1972,"Ġfloor":1973,"Ġorder":1974,"Ġbody":1975,"Ġmag":1976,"Ġarea":1977,"Ġfore":1978,"Ġlarge":1979,"aggie":1980,"lex":1981,"Ġplayed":1982,"Ġmouth":1983,"Ġlay":1984,"Ġbecame":1985,"Ġproblem":1986,"Ġpower":1987,"Ġcold":1988,"Ġimportant":1989,"Ġsum":1990,"Ġpar":1991,"Ġtried":1992,"Ġmine":1993,"dle":1994,"just":1995,"rie":1996,"Ã¡":1997,"Ġpast":1998,"see":1999,"ury":2000,"Ġsweet":2001,"atur":2002,"Ġmain":2003,"Ġlate":2004,"Ġworking":2005,"Ġseems":2006,"ides":2007,"Ġdef":2008,"ik":2009,"ese":2010,"ello":2011,"ĠOF":2012,"Ġmark":2013,"Ġriver":2014,"bed":2015,"Ġforg":2016,"ustr":2017,"Ġcheck":2018,"men":2019,"Re":2020,"Ġmid":2021,"ached":2022,"Ġpos":2023,"ĠAll":2024,"Ġsn":2025,"Ġthinking":2026,"Ġpartic":2027,"Because":2028,"Ġblue":2029,"Ġsometimes":2030,"Ah":2031,"www":2032,"HAT":2033,"pping":2034,"ND":2035,"itch":2036,"ĠMOT":2037,"Ġblood":2038,"Ġrecord":2039,"Ġran":2040,"Ġloc":2041,"Ġacross":2042,"One":2043,"iting":2044,"aced":2045,"Ġinclud":2046,"ĠChar":2047,"Ġpub":2048,"ffe":2049,"Ġbott":2050,"Ġappro":2051,"oes":2052,"Ġrece":2053,"Ġrock":2054,"ĠWill":2055,"hall":2056,"Ġhell":2057,"Ġinside":2058,"Ġpen":2059,"Ġafraid":2060,"Ġhorse":2061,"Ġaren":2062,"ĠAt":2063,"Ġboat":2064,"more":2065,"ĠYork":2066,"ming":2067,"ĠRe":2068,"Ġhuh":2069,"Ġbear":2070,"sing":2071,"ering":2072,"ĠYeah":2073,"ĠStates":2074,"Ġwrite":2075,"Ġtrans":2076,"Ġletter":2077,"Ġperhaps":2078,"Ġsurpr":2079,"de":2080,"hey":2081,"Ġsun":2082,"Ġsend":2083,"ze":2084,"Ġconc":2085,"owing":2086,"Ġseven":2087,"Ġnews":2088,"wered":2089,"Ġhurt":2090,"Ġdinner":2091,"Ġmill":2092,"Ġfunny":2093,"unch":2094,"Ġanswer":2095,"!âĢĿ":2096,".'":2097,"ĠQ":2098,"Ġstood":2099,"Ġgets":2100,"dden":2101,"Ġmed":2102,"Ġho":2103,"An":2104,"oon":2105,"Ġattack":2106,"19":2107,"Ġsong":2108,"Ġra":2109,"Ġfree":2110,"To":2111,"gin":2112,"Ġwear":2113,"zy":2114,"ĠWhen":2115,"Ġanswered":2116,"Ġkept":2117,"Ġpicture":2118,"ĠMay":2119,"Ġpiece":2120,"Ġ7":2121,"umb":2122,"cri":2123,"Ġkilled":2124,"Ġyell":2125,"Ġsudden":2126,"eared":2127,"THE":2128,"Ġcried":2129,"owed":2130,"Ġeng":2131,"Ġearly":2132,"Ġgreen":2133,"ution":2134,"ĠSp":2135,"Ġknows":2136,"Ġain":2137,"ĠJane":2138,"teen":2139,"ĠMaggie":2140,"ĠAd":2141,"illy":2142,"avid":2143,"though":2144,"Ġtrouble":2145,"Ã©":2146,"Ġwood":2147,"Ġhours":2148,"Ġexam":2149,"ices":2150,"gan":2151,"Ġ198":2152,"Ġdarling":2153,"pri":2154,"Ġfast":2155,"Please":2156,"RO":2157,"ober":2158,"ature":2159,"Ġquiet":2160,"Ġbuy":2161,"els":2162,"iding":2163,"Ġsuppose":2164,"AM":2165,"Ġcat":2166,"Ġdaughter":2167,"Ġart":2168,"ued":2169,"âĢĶ":2170,"ains":2171,"idge":2172,"Ġcompany":2173,"ically":2174,"Ġprot":2175,"Ġtele":2176,"Ġwhether":2177,"Ġdream":2178,"Ġcannot":2179,"ĠFor":2180,"irth":2181,"Ġgovern":2182,"Ġwithin":2183,"nce":2184,"Ġheld":2185,"Ġclass":2186,"Ġty":2187,"entle":2188,"Ġsto":2189,"Ġtomorrow":2190,"Ġthemselves":2191,"Ġsomebody":2192,"actly":2193,"acher":2194,"Ġdoub":2195,"aul":2196,"ham":2197,"Ġforward":2198,"Ġreport":2199,"Ġcarry":2200,"Ġresp":2201,"Ġap":2202,"Ġfro":2203,"Ġnin":2204,"Ġlived":2205,"ract":2206,"ality":2207,"Ġsitting":2208,"ility":2209,"rap":2210,"ĠJapan":2211,"Ġcou":2212,"Ġmovie":2213,"tle":2214,"Ġ9":2215,"Ġtree":2216,"Ġwall":2217,"ĠPhil":2218,"hanks":2219,"over":2220,"ounds":2221,"Ġjo":2222,"ĠEnglish":2223,"Ġphone":2224,"Ġlaw":2225,"ding":2226,"zz":2227,"Ġclean":2228,"Ġpassed":2229,"ken":2230,"Ġca":2231,"erv":2232,"amed":2233,"Ġliving":2234,"ara":2235,"alth":2236,"oof":2237,"Ġclot":2238,"ĠPe":2239,"Ġvill":2240,"col":2241,"eng":2242,"Ġcho":2243,"Have":2244,"Ġseem":2245,"Ġsold":2246,"Ġmonths":2247,"Ġarm":2248,"Ġspe":2249,"Ġfear":2250,"Ġfeeling":2251,"artment":2252,"Ġtouch":2253,",--":2254,"ivers":2255,"Ġhit":2256,"ĠDon":2257,"joy":2258,"Ġpossible":2259,"Ġ10":2260,"Ex":2261,"Ġcook":2262,"bit":2263,"ude":2264,"Ġeasy":2265,"Ġsever":2266,"Ġ-":2267,"Ġwat":2268,"Ġmod":2269,"ĠIN":2270,"ists":2271,"Ġton":2272,"Ġfish":2273,"ressed":2274,"Ġrunning":2275,"ĠBl":2276,"]?":2277,"Ġfa":2278,"Ġstraight":2279,"Ġadm":2280,"Ġdie":2281,"Ġfinished":2282,"ST":2283,"bye":2284,"ĠDo":2285,"VE":2286,"Sh":2287,"ator":2288,"ĠĠĠĠĠĠ":2289,"Ġ*":2290,"Ġfing":2291,"Ġheav":2292,"Ġabs":2293,"eor":2294,"night":2295,"Every":2296,"Maybe":2297,"ocal":2298,"Ġ?":2299,"ism":2300,"Ġconst":2301,"ĠâĢĵ":2302,"Ġcolor":2303,"uly":2304,"Ġill":2305,"Ġbegin":2306,"band":2307,"arch":2308,"AL":2309,"Ġnine":2310,"Ġstep":2311,"ĠHer":2312,"Ġdanger":2313,"aged":2314,"ived":2315,"thank":2316,"Ġterri":2317,"itc":2318,"child":2319,"Ġdiffic":2320,"Ġcorn":2321,"ouncil":2322,"ĠMummy":2323,"Ġworry":2324,"Ġ...":2325,"Ġcamp":2326,"Ġseveral":2327,"aser":2328,"Ġbecome":2329,"Ġve":2330,"Ġdem":2331,"Ġcross":2332,"Ġbooks":2333,"ges":2334,"lo":2335,"Ġobject":2336,"aur":2337,"ler":2338,"ement":2339,"gy":2340,"Ġwhom":2341,"noon":2342,"Ġgentle":2343,"Ġarri":2344,"ays":2345,"aptain":2346,"Of":2347,"osp":2348,"Ġwaiting":2349,"par":2350,"ipp":2351,"ession":2352,"ĠPr":2353,"Ġmur":2354,"Ġbirth":2355,"Ġlovely":2356,"Ġstar":2357,"With":2358,"Ġfield":2359,"oops":2360,"ls":2361,"Ġlow":2362,"Ġexcl":2363,"GH":2364,"Ġcor":2365,"Ġpolit":2366,"Ġcouple":2367,"Ġmot":2368,"Ġcos":2369,"Ġord":2370,"ggy":2371,"cha":2372,"iew":2373,"iam":2374,"Ġmist":2375,"ĠGu":2376,"empt":2377,"Ġgra":2378,"Ġexper":2379,"ĠEdna":2380,"Ġforget":2381,"Ġdoctor":2382,"Ġkiss":2383,"itten":2384,"Ġgroup":2385,"bles":2386,"Ġalright":2387,"che":2388,"ept":2389,"velop":2390,"cent":2391,"Ġwomen":2392,"Ġroll":2393,"Ġbreat":2394,"ney":2395,"Ġperfect":2396,"Ġda":2397,"urch":2398,"Ġproper":2399,"Ġce":2400,"OW":2401,"Ġsight":2402,"Ġlives":2403,"Ġtired":2404,"Ġhowever":2405,"Ġhus":2406,"oop":2407,"rench":2408,"Ġ197":2409,"Ġfavor":2410,"ĠCan":2411,"ajor":2412,"co":2413,"Ġdest":2414,"hard":2415,"ĠX":2416,"Ġmiles":2417,"Ġenjoy":2418,"Some":2419,"angu":2420,"Ġcreat":2421,"Ġfur":2422,"ĠBar":2423,"ories":2424,"ruary":2425,"Ġdad":2426,"stem":2427,"ceed":2428,"Ġsoft":2429,"ebruary":2430,"Ġtakes":2431,"alright":2432,"ilt":2433,"Ġtonight":2434,"ĠJack":2435,"Ġmer":2436,"ĠPro":2437,"ĠCount":2438,"Ġafternoon":2439,"Ġslow":2440,"ek":2441,"Ġpolic":2442,"Ġreplied":2443,"iver":2444,"ager":2445,"000":2446,"Ġtea":2447,"Ġought":2448,"Ġmis":2449,"Ġhung":2450,"Ġtoys":2451,"Ġmeant":2452,"Ġtelling":2453,"Any":2454,"Ġ17":2455,"ask":2456,"que":2457,"Ġview":2458,"Ġworked":2459,"Ġfellow":2460,"aint":2461,"Ġwhatever":2462,"Hello":2463,"duc":2464,"Ġdisapp":2465,"Ġcharac":2466,"Ġmarried":2467,"Ġbath":2468,"ended":2469,"Ġspecial":2470,"have":2471,"Ġhist":2472,"Ġesc":2473,"Ġyours":2474,"ĠOn":2475,"Ġbase":2476,"Ġluck":2477,"Ġanimals":2478,"bs":2479,"Ġfix":2480,"Ġparticular":2481,"Ġbur":2482,"Ġabove":2483,"Ġrequ":2484,"uro":2485,"Ġsal":2486,"Ġshot":2487,"Ġeverybody":2488,"Ġblock":2489,"Ġprof":2490,"Ġevening":2491,"asp":2492,"Ġfort":2493,"ggest":2494,"Ġwindow":2495,"Ġkids":2496,"aimed":2497,"IC":2498,"ĠCol":2499,"Ġcaught":2500,"amer":2501,"uri":2502,"Ġfly":2503,"Ġneeds":2504,"ID":2505,"iter":2506,"anu":2507,"lete":2508,"Wh":2509,"Ġsea":2510,"dd":2511,"Ġmad":2512,"Ġcatch":2513,"Ġsuggest":2514,"ĠFebruary":2515,"Ġoffice":2516,"See":2517,"Ġhang":2518,"Ġdeep":2519,"unity":2520,"va":2521,"Ġshar":2522,"ĠAunt":2523,"APTER":2524,"20":2525,"ĠDaddy":2526,"ĠLe":2527,"Ġsick":2528,"Ġclothes":2529,"ising":2530,"Ġdet":2531,"Ġworth":2532,"Ġ196":2533,"bl":2534,"because":2535,"Ġbird":2536,"Ġsecret":2537,"Ġappear":2538,"Ġcirc":2539,"reed":2540,"ances":2541,"Ġstru":2542,"Ġdistrict":2543,"Ġreturned":2544,"ĠNow":2545,"ĠOr":2546,"Ġdoubt":2547,"ffect":2548,"Ġring":2549,"ĠWhy":2550,"Ġanyway":2551,"Ġarms":2552,"ĠKing":2553,"Ġhusband":2554,"Ġking":2555,"Ġequ":2556,"ulation":2557,"Ġboard":2558,"irt":2559,"ored":2560,"Ġsucc":2561,"ray":2562,"Ġbag":2563,"Ġcal":2564,"ada":2565,"ĠSir":2566,"Ġsafe":2567,"Ġtrust":2568,"Ġ!":2569,"Ġexactly":2570,"note":2571,"Foot":2572,"Ġdat":2573,"Ġduck":2574,"Ġfill":2575,"Ġlangu":2576,"Ġstation":2577,"Ġmeeting":2578,"CHAPTER":2579,"Ġsystem":2580,"orence":2581,"Ġusually":2582,"Ġstanding":2583,"ET":2584,"Ġdaddy":2585,"Ġspend":2586,"Ġlonger":2587,"Ġpract":2588,"attle":2589,"Ġyellow":2590,"Ġeye":2591,"Ġvisit":2592,"hile":2593,"owers":2594,"Ġshoot":2595,"tered":2596,"AND":2597,"Ġseat":2598,"Ġfigure":2599,"olute":2600,"Ġpoints":2601,"AY":2602,"Ġtowards":2603,"Ġposition":2604,"Ġmilk":2605,"iled":2606,"itty":2607,"ondon":2608,"Ġjump":2609,"Ġmaster":2610,"Or":2611,"Ġcost":2612,"Ġsave":2613,"Ġsupport":2614,"Ġcertainly":2615,"Ġcup":2616,"Ġpolice":2617,"Ġsupposed":2618,"Ġcounty":2619,"isten":2620,"Ġanyone":2621,"Ġchanged":2622,"Ġindeed":2623,"net":2624,"ean":2625,"ÃŃ":2626,"Ġpost":2627,"Ġrain":2628,"uation":2629,"Ġpu":2630,"oose":2631,"ĠDavid":2632,"Ġwild":2633,"Ġnur":2634,"idence":2635,"unic":2636,"ĠBrit":2637,"Ġcontro":2638,"shall":2639,"Ġsus":2640,"ĠGood":2641,"Footnote":2642,"Mummy":2643,"Ġest":2644,"onel":2645,"Ġship":2646,"Ġdirect":2647,"Ġahead":2648,"Ġnorth":2649,"icha":2650,"eal":2651,"gar":2652,"Ġya":2653,"Ġthirty":2654,"Ġgold":2655,"Ġexcept":2656,"born":2657,"Ġdiv":2658,"ĠCharl":2659,"Ġdevelop":2660,"Ġnearly":2661,"OK":2662,"ris":2663,"Ġfit":2664,"ĠJoe":2665,"gram":2666,"Ġbes":2667,"UT":2668,"com":2669,"ights":2670,"Ġprop":2671,"Ġmillion":2672,"rat":2673,"Ġ15":2674,"Ġpot":2675,"Ġcomfort":2676,"Ġremark":2677,"AD":2678,"ĠGeor":2679,"Ġconsider":2680,"Ġeffect":2681,"ĠCon":2682,"fer":2683,"Ġsad":2684,"Ġru":2685,"rupt":2686,"ĠWell":2687,"Ġvar":2688,"then":2689,"Ġmoved":2690,"Ġtest":2691,"cially":2692,"Ġdecided":2693,"Ġsand":2694,"ĠSte":2695,"pril":2696,"ana":2697,"Ġshut":2698,"ĠâĢĺ":2699,"Ġhop":2700,"Ġfollowed":2701,"Ġfootball":2702,"ium":2703,"Ġaccount":2704,"ĠMin":2705,"la":2706,"ĠCaptain":2707,"iling":2708,"Ġleg":2709,"Ġsounds":2710,"ĠBrad":2711,"ĠCounty":2712,"Ġtoy":2713,"Ġsilver":2714,"terday":2715,"ĠAlex":2716,"ĠOne":2717,"Ġz":2718,"ushed":2719,"Ġknock":2720,"ĠGerman":2721,"anuary":2722,"ĠâĢĻ":2723,"ĠWar":2724,"Ġputting":2725,"ĠLondon":2726,"Ġcomplete":2727,"ichael":2728,"Ġwa":2729,"ĠAND":2730,"ror":2731,"ĠMc":2732,"Ġbroken":2733,"Ġreached":2734,"itted":2735,"Ġparent":2736,"form":2737,"mas":2738,"ĠDr":2739,"Sorry":2740,"Ġquickly":2741,"ior":2742,"uthor":2743,"Ġtoward":2744,"Ġla":2745,"reek":2746,"ĠIndian":2747,"king":2748,"....":2749,"Ġwhose":2750,"Ġtreat":2751,"Ġbab":2752,"Ġquar":2753,"ogn":2754,"ĠRos":2755,"Ġstrange":2756,"Ġgiving":2757,"Ġservice":2758,"Ġsuddenly":2759,"Ġgovernment":2760,"gas":2761,"uk":2762,"Ġspoke":2763,"Ġdrive":2764,"Ġsense":2765,"rigin":2766,"Ġlearn":2767,"cuse":2768,"_,":2769,"Ġav":2770,"Ġmount":2771,"iron":2772,"ĠFlorence":2773,"Ġpress":2774,"Ġ12":2775,"Ġclim":2776,"Ġclos":2777,"Ġleaving":2778,"when":2779,"ĠMy":2780,"Ġoper":2781,"stairs":2782,"hern":2783,"Ġspec":2784,"Ġval":2785,"Ġstri":2786,"Ġcover":2787,"ffic":2788,"Thanks":2789,"ĠFrank":2790,"emy":2791,"Ġwritten":2792,"Ġexpress":2793,"Ġband":2794,"ging":2795,"Ġprotect":2796,"itchen":2797,"Ġmention":2798,"Ġevent":2799,"Ġnose":2800,"Ġtot":2801,"Ġbroke":2802,"Ġdam":2803,"Ġpage":2804,"iff":2805,"Ġburn":2806,"ffee":2807,",'":2808,"Ġhors":2809,"Ġmember":2810,"Ġshout":2811,"hold":2812,"Ġdifficult":2813,"omp":2814,"Ġhappens":2815,"Ġinstead":2816,"vision":2817,"Ġlie":2818,"Ġcarried":2819,"ĠIT":2820,"ighb":2821,"Ġiss":2822,"Ġisland":2823,"Ġexclaimed":2824,"Ġorgan":2825,"lean":2826,"ĠTr":2827,"Ġopened":2828,"Ġaccept":2829,"ĠJanuary":2830,"Ġtruth":2831,"Ġheavy":2832,"Ġbirthday":2833,"Ġdecl":2834,"Ġinform":2835,"ichard":2836,"Ġnamed":2837,"ift":2838,"Ġsuper":2839,"arden":2840,"Ġfifty":2841,"Ġcool":2842,"Ġsuccess":2843,"sc":2844,"oul":2845,"Ġpack":2846,"rill":2847,"Ġkitchen":2848,"Ġrecogn":2849,"Ġweeks":2850,"Ġcharacter":2851,"Ġtick":2852,"ĠFrench":2853,"mbers":2854,"Ġcrazy":2855,"Ġride":2856,"Ġstopped":2857,"mother":2858,"Ġstreet":2859,"Wait":2860,"ounter":2861,"Ġice":2862,"ency":2863,"Hi":2864,"ĠPar":2865,"Ġ195":2866,"does":2867,"fast":2868,"Ġah":2869,"Ġimag":2870,"Ġeating":2871,"Ġgall":2872,"Ġnecess":2873,"Ġcompan":2874,"Ġseries":2875,"'.":2876,"EL":2877,"ient":2878,"ination":2879,"ĠNorth":2880,"Ġbelong":2881,"ience":2882,"ously":2883,"ancy":2884,"ospital":2885,"Ġbright":2886,"Ġcast":2887,"gue":2888,"Ġann":2889,"----------------":2890,"ti":2891,"rer":2892,"iles":2893,"Ġeveryone":2894,"con":2895,"Ġ]":2896,"Ġtem":2897,"Ġang":2898,"Ġplaces":2899,"Tell":2900,"Ste":2901,"two":2902,"Ġcop":2903,"Ġpig":2904,"Ġdelight":2905,"After":2906,"sy":2907,"time":2908,"Ġfail":2909,"Ġegg":2910,"acy":2911,"Ġut":2912,"ĠSc":2913,"Ġwhis":2914,"ĠTo":2915,"Ġvillage":2916,"ĠMan":2917,"Ġsomewhere":2918,"ips":2919,"bert":2920,"Ġgeneral":2921,"Ġgrow":2922,"Ġfollowing":2923,"Ġbuilding":2924,"Really":2925,"hell":2926,"Ġ194":2927,"Ġfucking":2928,"Ġfurther":2929,"ishing":2930,"ooh":2931,"Ġprison":2932,"Ġled":2933,"Ġstore":2934,"ified":2935,"Ġpublic":2936,"Take":2937,"Ġyesterday":2938,"Ġinterested":2939,"Ġbra":2940,"Ġorigin":2941,"Ġresult":2942,"Ġalthough":2943,"Ġbull":2944,"Ġ16":2945,"Ġanybody":2946,"IR":2947,"Ġlevel":2948,"Ġthrow":2949,"resent":2950,"Ġbow":2951,"ĠAb":2952,"Ġmiddle":2953,"Ġteacher":2954,"Ġcab":2955,"Ġnational":2956,"Ġju":2957,"ingly":2958,"Ġneck":2959,"Ġwarm":2960,"ĠFrance":2961,"which":2962,"singing":2963,"Ġspir":2964,"ya":2965,"amma":2966,"ears":2967,"Ġbank":2968,"amb":2969,"Ġshop":2970,"say":2971,"Ġlim":2972,"Ġreleas":2973,"rop":2974,"Ġcre":2975,"Ġcommon":2976,"Fr":2977,"ĠNove":2978,"iversity":2979,"CK":2980,"Ġlikes":2981,"icks":2982,".--":2983,"orld":2984,"ĠGo":2985,"nes":2986,"Ġslight":2987,"Ġcareful":2988,"Ġcurrent":2989,"Ġsnow":2990,"Ġmembers":2991,"Ġsingle":2992,"Ġlocal":2993,"ĠNot":2994,"Like":2995,"roy":2996,"ĠSouth":2997,"ĠNovember":2998,"Ġemp":2999,"Ġsilence":3000,"hel":3001,"ĠPer":3002,"Ġloved":3003,"Ġtur":3004,"Ġdev":3005,"His":3006,"yn":3007,"ills":3008,"Ġsituation":3009,"Ġdistance":3010,"Ch":3011,"work":3012,"iny":3013,"Ġban":3014,"ĠWest":3015,"Ġwrote":3016,"Ġdescri":3017,"Stop":3018,"Ġreceived":3019,"was":3020,"ĠBob":3021,"Ġmatch":3022,"Ġcond":3023,"Ġhuman":3024,"ply":3025,"ĠEuro":3026,"pecially":3027,"Ġbought":3028,"Ġitself":3029,"Ġthird":3030,"iday":3031,"Ġanx":3032,"ĠEngland":3033,"Ġhol":3034,"Ġbusy":3035,"Ġlanguage":3036,"Will":3037,"some":3038,"Ġfut":3039,"ĠSh":3040,"Ġmoving":3041,"Ġsummer":3042,"Ġauthor":3043,"ctober":3044,"ĠWh":3045,"cient":3046,"Ġquestions":3047,"arr":3048,"ĠJim":3049,"eptember":3050,"leanor":3051,"Ġneighb":3052,"olutely":3053,"Ġlab":3054,"phone":3055,"Ġwatching":3056,"Ġcoffee":3057,"Ġrespect":3058,"rief":3059,"Ġshouldn":3060,"Ġdepartment":3061,"Ġbud":3062,"uty":3063,"Ġdefe":3064,"ardon":3065,"Ġcompl":3066,"Ġattention":3067,"cket":3068,"aug":3069,"gged":3070,"mo":3071,"Ġvol":3072,"ĠCal":3073,"Ġ2020":3074,"ician":3075,"Ġcow":3076,"Ġself":3077,"ĠAfter":3078,"play":3079,"ege":3080,"Ġhospital":3081,"ALL":3082,"mon":3083,"Ġreach":3084,"Ġsell":3085,"Ġvict":3086,"ugust":3087,"SIS":3088,"resh":3089,"ĠUncle":3090,"ai":3091,"bing":3092,"Ġusing":3093,"Ġmajor":3094,"val":3095,"Ġnor":3096,"friend":3097,"Ġnone":3098,"Ġsubject":3099,"Ġcrow":3100,"Ġadded":3101,"Ġincre":3102,"Ġtape":3103,"Ġhealth":3104,"ament":3105,"Ġsol":3106,"asion":3107,"Ġprogram":3108,"Ġcontinued":3109,"makes":3110,"Ġfinish":3111,"yond":3112,"Ġcause":3113,"ĠCity":3114,"ĠDan":3115,"Ġmommy":3116,".âĢĻ":3117,"Ġformer":3118,"Ġ2021":3119,"Ġslowly":3120,"Gr":3121,"ral":3122,"Ġbene":3123,"ums":3124,"Ġlose":3125,"ĠApril":3126,"Ġseeing":3127,"Ġregion":3128,"sit":3129,"Ġdi":3130,"ĠComm":3131,"ĠLet":3132,"ission":3133,"Ġchief":3134,"Ġtrees":3135,"IGH":3136,"Ġrid":3137,"cious":3138,"Ġcommand":3139,"Ġearth":3140,"rit":3141,"ĠPaul":3142,"Ġprodu":3143,"Ġprin":3144,"Ġcharge":3145,"Ġbottom":3146,"Ġparents":3147,"Ġlots":3148,"rene":3149,"Ġreleased":3150,"Ġdry":3151,"Ġblow":3152,"ĠFraser":3153,"Ġallowed":3154,"ĠJuly":3155,"Ġwalked":3156,"Ġinvol":3157,"viously":3158,"Ġver":3159,"icken":3160,"Ġwonderful":3161,"Ġfuture":3162,"chan":3163,"Ġshit":3164,"Ġanymore":3165,"Ġappeared":3166,"Ġcorner":3167,"LD":3168,"lect":3169,"Ġlegs":3170,"uhhuh":3171,"Ġpieces":3172,"Ġexample":3173,"Ġhorses":3174,"ĠST":3175,"ĠWorld":3176,"Ġserious":3177,"Ġshowed":3178,"Ġpaid":3179,"Ġbeat":3180,"Ġleaves":3181,"Ġbuilt":3182,"bers":3183,"Ġspot":3184,"Ġdollars":3185,"ĠAdam":3186,"ased":3187,"ĠSeptember":3188,"Ġgod":3189,"ĠRichard":3190,"iod":3191,"ives":3192,"Ġhoney":3193,"Ġshoes":3194,"Ġscar":3195,"babbles":3196,"Ġtelevision":3197,"Listen":3198,"Ġfarm":3199,"Ġswim":3200,"Ġbreakfast":3201,"lay":3202,"ining":3203,"ĠSw":3204,"ĠON":3205,"Ġlock":3206,"Ġaccident":3207,"gasps":3208,"house":3209,"lu":3210,"vol":3211,"ĠAm":3212,"ĠOctober":3213,"Ġclub":3214,"Ġturns":3215,"Ġglass":3216,"aff":3217,"gu":3218,"isted":3219,"ĠChristmas":3220,"Un":3221,"ĠPol":3222,"ploy":3223,"hello":3224,"Ġsex":3225,"antly":3226,"Ġregard":3227,"Ġtruck":3228,"SE":3229,"Ġlift":3230,"Ġtast":3231,"iced":3232,"sp":3233,"Ġtor":3234,"Ġrad":3235,"Ġworks":3236,"Ġhate":3237,"Ġextra":3238,"with":3239,"athe":3240,"Ġletters":3241,"ron":3242,"ribut":3243,"ĠBE":3244,"Ġrub":3245,"Ġforce":3246,"ground":3247,"llustr":3248,"esus":3249,"Ġport":3250,"amund":3251,"ĠMe":3252,"Ġseason":3253,"ume":3254,"Ġattempt":3255,"hood":3256,"ĠAlexander":3257,"Ġnoises":3258,"Ġ11":3259,"ology":3260,"aching":3261,"Ġbreath":3262,"Ġeff":3263,"ĠDor":3264,"medi":3265,"Ġdirection":3266,"Ġpopulation":3267,"your":3268,"Ġnatur":3269,"Ġterrible":3270,"Ġkick":3271,"ĠBy":3272,"ĠTe":3273,"Ġhistory":3274,"Ġcas":3275,"Ġweren":3276,"Ġaff":3277,"Ġdropped":3278,"Ġbeginning":3279,"off":3280,"Ġstuck":3281,"Give":3282,"iol":3283,"Ġnorm":3284,"Ġmanner":3285,"Ġlunch":3286,"aret":3287,"Ġhasn":3288,"Ġlying":3289,"Ġcollect":3290,"Ġ$":3291,"isf":3292,"Ġcouncil":3293,"ille":3294,"Ġchurch":3295,"Ġentire":3296,"ĠBritish":3297,"Ġvocal":3298,"ĠAugust":3299,"Ġjud":3300,"ounded":3301,"Ġtype":3302,"Me":3303,"Ġpati":3304,"Ġhig":3305,"Ġhall":3306,"Ġarr":3307,"Ġbread":3308,"ENT":3309,"nect":3310,"isc":3311,"Ġnames":3312,"ĠChi":3313,"cember":3314,"Ġworse":3315,"Ġ193":3316,"Ġperiod":3317,"Ġterm":3318,"ĠEl":3319,"Ġpromise":3320,"Per":3321,"ires":3322,"Ġhast":3323,"ppy":3324,"ode":3325,"ĠGrand":3326,"._":3327,"lly":3328,"Ġhous":3329,"irm":3330,"Ġanimal":3331,"VER":3332,"ĠGreat":3333,"Ġmach":3334,"ĠAg":3335,"Ġpresident":3336,"ĠEurope":3337,"Ġputs":3338,"Ġprep":3339,"view":3340,"Ġinformation":3341,"Ġpal":3342,"anced":3343,"Ġliked":3344,"gest":3345,"estern":3346,"ĠSha":3347,"Ġpriv":3348,"riage":3349,"Ġsmile":3350,"Ġshare":3351,"Ġcontrol":3352,"ĠJune":3353,"Ġ14":3354,"Ġwalking":3355,"Ġinteresting":3356,"Um":3357,"ino":3358,"itive":3359,"Ġpark":3360,"Ġmem":3361,"ĠMal":3362,"Ġarmy":3363,"Ġcray":3364,"Ġpretend":3365,"Ġgarden":3366,"aven":3367,"isk":3368,"elve":3369,"uts":3370,"Ġwel":3371,"ĠTHAT":3372,"Ġeduc":3373,"rel":3374,"Ġhey":3375,"clock":3376,"Ġye":3377,"Ġcrying":3378,"ien":3379,"ĠSe":3380,"ĠSome":3381,"aker":3382,"ength":3383,"would":3384,"Ġtalked":3385,"Ġdiscuss":3386,"Ġcrowd":3387,"omes":3388,"Ġbeyond":3389,"ĠPat":3390,"Ġconvers":3391,"ization":3392,"Ġpounds":3393,"sey":3394,"Ġsmell":3395,"Does":3396,"Ġdrop":3397,"inite":3398,"ĠCo":3399,"Ġjack":3400,"ably":3401,"ĠLuc":3402,"vin":3403,"Ġcamer":3404,"duced":3405,"By":3406,"Ġdance":3407,"acing":3408,"ĠMark":3409,"erson":3410,"upid":3411,"ston":3412,"wood":3413,"omas":3414,"Ġsurprise":3415,"Ġremain":3416,"ELL":3417,"Ġsle":3418,"Ġalive":3419,"resident":3420,"Ġsettle":3421,"ĠGerva":3422,"UN":3423,"Nothing":3424,"Ġhungry":3425,"Ġeffort":3426,"Would":3427,"ĠLord":3428,"overed":3429,"Ġproblems":3430,"inary":3431,"erve":3432,"Ġfool":3433,"Ġjour":3434,"Ġholding":3435,"ĠGervaise":3436,"lt":3437,"ĠSund":3438,"Ġdifference":3439,"AK":3440,"Somet":3441,"eep":3442,"Ġtend":3443,"Ġneeded":3444,"ĠGeorge":3445,"Mar":3446,"Ġcand":3447,"Ġstren":3448,"astic":3449,"Ġasking":3450,"Ġbelow":3451,"Ġpleasure":3452,"ĠWho":3453,"ula":3454,"Ġfil":3455,"Ġbutter":3456,"unny":3457,"ustom":3458,"ĠPeter":3459,"Ġcove":3460,"ĠMarch":3461,"ĠPeggy":3462,"Ġtow":3463,"chn":3464,"ference":3465,"Ġwriting":3466,"Ġcompet":3467,"Ġcapt":3468,"Ġelect":3469,"lished":3470,"ica":3471,"Ġimmedi":3472,"ĠDecember":3473,"Even":3474,"Sure":3475,"cell":3476,"ument":3477,"]!":3478,"Ġpush":3479,"igg":3480,"ĠJust":3481,"Ġsatisf":3482,"of":3483,"oman":3484,"Ġlaughing":3485,"Ġpolicy":3486,"Which":3487,"unicip":3488,"counter":3489,"ĠCome":3490,"Ġagree":3491,"Ġobs":3492,"ĠRosamund":3493,"Mhm":3494,"mit":3495,"Ġfat":3496,"Ġthanks":3497,"Ġfinally":3498,"lden":3499,"arty":3500,"aper":3501,"Ġdrew":3502,"Ġlength":3503,"Ġjoy":3504,"unting":3505,"Ġcourt":3506,"CE":3507,"iers":3508,"set":3509,"Ġdeter":3510,"ĠMad":3511,"Ġpicked":3512,"Ġrespons":3513,"baby":3514,"Ġcru":3515,"Ġgen":3516,"Ġmanage":3517,"Ġreading":3518,"box":3519,"Ġgames":3520,"cture":3521,"azing":3522,"Ġinvest":3523,"Ġfavorite":3524,"Ġfresh":3525,"ashed":3526,"pper":3527,"Ġolder":3528,"bur":3529,"Ġmass":3530,"Ġfright":3531,"will":3532,"pose":3533,"uge":3534,"yl":3535,"zen":3536,"Ġrepe":3537,"Ġnobody":3538,"ĠRoy":3539,"Ġuncle":3540,"Ġjuice":3541,"Ġfle":3542,"ilar":3543,"Ġninet":3544,"bout":3545,"ashing":3546,"ĠMary":3547,"Ġspent":3548,"Ġbrown":3549,"RI":3550,"please":3551,"under":3552,"Ġviol":3553,"oseph":3554,"Ġamount":3555,"ĠIndians":3556,"has":3557,"Ġrul":3558,"Ġproject":3559,"Ġstreng":3560,"Ġwide":3561,"othy":3562,"illa":3563,"Ġpossib":3564,"ĠWith":3565,"Ġlikely":3566,"atives":3567,"su":3568,"board":3569,"ees":3570,"ĠRuss":3571,"pes":3572,"Ġturning":3573,"str":3574,"ancing":3575,"lin":3576,"take":3577,"Ġears":3578,"ades":3579,"ption":3580,"Ġespecially":3581,"Ġfrog":3582,"Ġtall":3583,"elen":3584,"Ġfinger":3585,"inct":3586,"Ġwag":3587,"Very":3588,"cer":3589,"vious":3590,"Ġsens":3591,"Ġgrew":3592,"Ġsepar":3593,"Ġrap":3594,"ĠUniversity":3595,"NG":3596,"Ġdate":3597,"Ġhero":3598,"ĠSec":3599,"Ġtrack":3600,"ashion":3601,"Ġloud":3602,"aded":3603,"ils":3604,"ĠFOR":3605,"Ġgives":3606,"Ġhole":3607,"nel":3608,"wow":3609,"wise":3610,"erved":3611,"Ġma":3612,"ĠIrene":3613,"ĠRep":3614,"Ġraised":3615,"Daddy":3616,"por":3617,"Ġcomb":3618,"Ġrose":3619,"Ġdesign":3620,"got":3621,"Ġtail":3622,"Ġemb":3623,"olf":3624,"ĠJames":3625,"ĠJones":3626,"Ġspring":3627,"Ġcareer":3628,"aturday":3629,"Ġforgot":3630,"oming":3631,"ĠMom":3632,"Ġspeed":3633,"Ġfeed":3634,"Ġexplain":3635,"ĠBradford":3636,"Ġlaid":3637,"ĠFather":3638,"ĠItal":3639,"Ġsky":3640,"Ġspeaking":3641,"iar":3642,"Ġmunicip":3643,"ala":3644,"ĠWhere":3645,"cks":3646,"pered":3647,"Ġhardly":3648,"Ġconcer":3649,"Ġcamera":3650,"Mom":3651,"Ġsilly":3652,"Ġsuff":3653,"Ġ13":3654,"ĠEx":3655,"Ġgrass":3656,"Ġhandle":3657,"CT":3658,"Ġlaug":3659,"Ġthinks":3660,"Ġrepresent":3661,"Ġsimply":3662,"ION":3663,"Ġaut":3664,"Ġrough":3665,"Ġoccasion":3666,"Excuse":3667,"Ġwet":3668,"Ġfol":3669,"These":3670,"ĠSu":3671,"Ġknights":3672,"Ġmonkey":3673,"ĠAmerica":3674,"Ġinterrupt":3675,"Ġarrived":3676,"ĠSunday":3677,"Ġlaughed":3678,"Ġwash":3679,"ales":3680,"ĠSm":3681,"ĠTHI":3682,"Ġspace":3683,"Ġflowers":3684,"Ġbound":3685,"atic":3686,"Ġtwelve":3687,"Illustr":3688,"cher":3689,"tr":3690,"erry":3691,"Ġcake":3692,"Ġhide":3693,"ĠAf":3694,"Ġengine":3695,"Ġdestroy":3696,"Pe":3697,"Ġbattle":3698,"Ġdue":3699,"Ġthreat":3700,"ĠMa":3701,"ĠHarry":3702,"UR":3703,"Ġstupid":3704,"aps":3705,"Ġintro":3706,"Ġoccur":3707,"nie":3708,"Ġsouth":3709,"Ġcream":3710,"Ġpray":3711,"lier":3712,"Ġcaptain":3713,"Ġdeterm":3714,"itions":3715,"Was":3716,"Ġteeth":3717,"Ġninety":3718,"Ġpuzz":3719,"omin":3720,"ĠCharlie":3721,"LY":3722,"Ġbrief":3723,"ora":3724,"Ġweap":3725,"ĠOK":3726,"OP":3727,"rem":3728,"rect":3729,"eder":3730,"Ġpause":3731,"ĠME":3732,"ĠAre":3733,"Ġcontain":3734,"Ġsett":3735,"ĠWilliam":3736,"Ġcovered":3737,"kin":3738,"Ġguard":3739,"Ġ30":3740,"iant":3741,"ĠMarie":3742,"Ġbottle":3743,"Cl":3744,"Two":3745,"ky":3746,"kes":3747,"whis":3748,"Ġhy":3749,"Ġasleep":3750,"Ġways":3751,"Our":3752,"bes":3753,"itude":3754,"ĠIS":3755,"Ġhost":3756,"elly":3757,"ĠLady":3758,"ĠEm":3759,"Ġarrest":3760,"Ġpocket":3761,"Ġentered":3762,"Ġbabies":3763,"cul":3764,"fl":3765,"Ġ2019":3766,"Ġhurry":3767,"Ġofficer":3768,"Ġgoin":3769,"Ġcalling":3770,"Ġhelped":3771,"Ġoppos":3772,"Ar":3773,"Sp":3774,"Ġfre":3775,"iment":3776,"...?":3777,"Ġ2018":3778,"Ġemploy":3779,"Ġsurprised":3780,"ox":3781,"Ġvide":3782,"Ġclosed":3783,"ĠIsland":3784,"Ġcard":3785,"ari":3786,"Ġforth":3787,"Ġladies":3788,"Ġopport":3789,"Ġfingers":3790,"From":3791,"Ã³":3792,"Ġmeat":3793,"ĠMichael":3794,"Ġrich":3795,"ording":3796,"Mrs":3797,"ners":3798,"Ġterms":3799,"ipe":3800,"Ġident":3801,"iforn":3802,"ĠLea":3803,"ĠOf":3804,"Ġstarts":3805,"ket":3806,"Ġnotice":3807,"Ġpeace":3808,"Illustration":3809,"maybe":3810,"raph":3811,"Ġbridge":3812,"Ġannoun":3813,"Ġstage":3814,"Ġprocess":3815,"ration":3816,"Ġconnect":3817,"Ġscared":3818,"Ġfellows":3819,"eneral":3820,"Ġcapital":3821,"Ġincluding":3822,"IGHT":3823,"phan":3824,"wait":3825,"Ġstream":3826,"ĠSam":3827,"chie":3828,"Ġsimple":3829,"Ġcabin":3830,"Ġduty":3831,"ĠHey":3832,"Ġpleased":3833,"Ġmistake":3834,"IM":3835,"ns":3836,"itary":3837,"eddy":3838,"Ġund":3839,"Ġtherefore":3840,"hire":3841,"Ġnineteen":3842,"din":3843,"ipped":3844,"Ġcuri":3845,"Ġeast":3846,"Ġeager":3847,"elest":3848,"Ġwelcome":3849,"gon":3850,"usion":3851,"ushing":3852,"Ġkey":3853,"ivid":3854,"Ġbuck":3855,"Ġthrew":3856,"Ġdriving":3857,"Ġbroad":3858,"Ġnecessary":3859,"ĠCaliforn":3860,"Miss":3861,"Ġgar":3862,"ico":3863,"Ġforty":3864,"roat":3865,"ĠMer":3866,"Ġjoin":3867,"Ġsusp":3868,"tell":3869,"Ġnote":3870,"Ġsinging":3871,"Ġescape":3872,"ĠHall":3873,"ression":3874,"Ġhonest":3875,"Pro":3876,"rs":3877,"Ġgate":3878,"ĠRE":3879,"Could":3880,"Ġtone":3881,"Ġdeli":3882,"reme":3883,"ĠMommy":3884,"ĠLou":3885,"Ġur":3886,"essor":3887,"aves":3888,"yer":3889,"Ġtax":3890,"Ġmamma":3891,"Ġplaced":3892,"ĠNational":3893,"Ġsimilar":3894,"ĠJapanese":3895,"initely":3896,"Ġpir":3897,"ĠPresident":3898,"Ġspell":3899,"ida":3900,"ograp":3901,"Ġholds":3902,"Bl":3903,"May":3904,"cour":3905,"sings":3906,"Ġbomb":3907,"ĠChe":3908,"ittee":3909,"Ġspread":3910,"Ġshows":3911,"Ġskin":3912,"Tr":3913,"down":3914,"Ġyouth":3915,"Ġgas":3916,"Ġnea":3917,"ables":3918,"Ġanywhere":3919,"John":3920,"Sir":3921,"ella":3922,"Ġunless":3923,"Ġpictures":3924,"Ġstrength":3925,"ĠCalifornia":3926,"Mommy":3927,"uce":3928,"ĠDad":3929,"Ġfamil":3930,"Ġtight":3931,"rey":3932,"itz":3933,"arth":3934,"Ġsearch":3935,"Ġtechn":3936,"Ġvarious":3937,"da":3938,"Ġsoul":3939,"ĠThese":3940,"Ġcaused":3941,"Ġpet":3942,"eless":3943,"Ġchap":3944,"Ġnumbers":3945,"Ġmarket":3946,"Ġstrugg":3947,"Ġcompletely":3948,"Ġdeclared":3949,"Ġmachine":3950,"YOU":3951,"ka":3952,"oved":3953,"Ġinqu":3954,"Ġenemy":3955,"ungle":3956,"Ġnatural":3957,"line":3958,"Ġlines":3959,"ads":3960,"Ġstories":3961,"ĠSaturday":3962,"Ġparts":3963,"Ġlaughs":3964,"Ġdressed":3965,"Ġfaith":3966,"ki":3967,"Ġsize":3968,"oring":3969,"ĠMon":3970,"Ġproud":3971,"Ġappre":3972,"Ġcommune":3973,"Ġrelations":3974,"Ġconversation":3975,"ites":3976,"cely":3977,"hys":3978,"uckles":3979,"Ġscene":3980,"Ġbased":3981,"Ġfilled":3982,"eleste":3983,"vey":3984,"aches":3985,"Ġhappening":3986,"Ġexpected":3987,"ville":3988,"Ġsevent":3989,"Ġimm":3990,"De":3991,"arm":3992,"Ġweather":3993,"Ġimmediately":3994,"AVE":3995,"Ġshore":3996,"Ġ24":3997,"Ġcoat":3998,"Ġcrack":3999,"Ġcheer":4000,"exas":4001,"Ġcollege":4002,"Ġsharp":4003,"God":4004,"Ġwit":4005,"Ġdru":4006,"ests":4007,"Ġspr":4008,"ublic":4009,"Ġ2022":4010,"Ġsteps":4011,"Ġnature":4012,"Ġdeb":4013,"Ġtwice":4014,"Ġourselves":4015,"ails":4016,"Ġregular":4017,"Ġdrawing":4018,"Ġwoods":4019,"Ġremarked":4020,"Ġangry":4021,"Ġspirit":4022,"Celeste":4023,"field":4024,"Ġhadn":4025,"Ġchicken":4026,"Ġeasily":4027,"Ġawful":4028,"Ġpromised":4029,"Ġvocalises":4030,"iving":4031,"Ġwest":4032,"Ġoffe":4033,"ĠCent":4034,"ĠHouse":4035,"ĠGO":4036,"Ġearn":4037,"Ġphot":4038,"Ġsquare":4039,"Ġinvolved":4040,"IL":4041,"boy":4042,"worth":4043,"Ġwand":4044,"Ġ25":4045,"ension":4046,"colm":4047,"Ġfault":4048,"Ġrole":4049,"Never":4050,"ini":4051,"Ġpat":4052,"Ġsaved":4053,"Ġoffer":4054,"Ġrefer":4055,"Ġgentleman":4056,"ĠFred":4057,"Ġconside":4058,"ucker":4059,"ĠChair":4060,"Ġconsidered":4061,"ato":4062,"Ġflat":4063,"Ġactiv":4064,"give":4065,"Ġcrew":4066,"Ġpun":4067,"rian":4068,"Ġlips":4069,"ĠBill":4070,"ively":4071,"Ġpersonal":4072,"ĠChristian":4073,"Ġmessage":4074,"Ġtour":4075,"ening":4076,"Ġallow":4077,"elp":4078,"Ġsuit":4079,"Ġplain":4080,"Ġpercent":4081,"Ġkeeping":4082,"ĠAlbert":4083,"Ġmentioned":4084,"AU":4085,"haha":4086,"Ġpan":4087,"otion":4088,"iance":4089,"Ġcircle":4090,"hand":4091,"Ġmm":4092,"Ġmat":4093,"arry":4094,"ĠTur":4095,"ems":4096,"ousin":4097,"ggie":4098,"Aye":4099,"father":4100,"anny":4101,"Ġpath":4102,"Ġstro":4103,"Ġusual":4104,"Ġcars":4105,"Ġcomput":4106,"Ġcrit":4107,"Ġsupper":4108,"Ġaddress":4109,"Ġfighting":4110,"Ġlearned":4111,"Ġbeside":4112,"Ġrate":4113,"ĠDO":4114,"Ġenv":4115,"Ġplays":4116,"Ġperform":4117,"Ġstruck":4118,"ĠQue":4119,"Ġabsolutely":4120,"pret":4121,"Ġet":4122,"Ġide":4123,"ences":4124,"Ġblank":4125,"Ġdisp":4126,"Ġaction":4127,"ighs":4128,"otten":4129,"Ġthou":4130,"antic":4131,"Ġmissed":4132,"Ġfigures":4133,"10":4134,"Ġalb":4135,"Ġsport":4136,"ĠIndia":4137,"Ġeggs":4138,"uel":4139,"ural":4140,"Ġearlier":4141,"Ġfallen":4142,"ustral":4143,"Ġ&":4144,"Ġcell":4145,"Ġdread":4146,"ĠMex":4147,"iger":4148,"raft":4149,"Ġapart":4150,"conom":4151,"Che":4152,"dom":4153,"Ġjungle":4154,"Ġplane":4155,"ĠJesus":4156,"Ġdangerous":4157,"ĠDorothy":4158,"Got":4159,"OL":4160,"face":4161,"yle":4162,"Ġden":4163,"ĠCreek":4164,"Ġquarter":4165,"ify":4166,"Ġadvent":4167,"Ġjoined":4168,"Ġwatches":4169,"Ġblocks":4170,"Ġempty":4171,"Ġcrayon":4172,"back":4173,"Ġ=":4174,"Ġbother":4175,"Ġthick":4176,"ĠMatt":4177,"ĠPl":4178,"ĠJenn":4179,"oken":4180,"Ġpolitician":4181,"rim":4182,"Ġtou":4183,"ĠRam":4184,"ĠKitty":4185,"Ġunc":4186,"Ġpulled":4187,"ointed":4188,"Rem":4189,"mommy":4190,"want":4191,"Ġmix":4192,"cience":4193,"ossible":4194,"Bye":4195,"gress":4196,"wr":4197,"Ġhi":4198,"ĠLem":4199,"Ġlucky":4200,"Steven":4201,"Ġmunicipality":4202,"\")":4203,"Ġbang":4204,"ita":4205,"asure":4206,"alt":4207,"ĠWAS":4208,"Ġmissing":4209,"!'":4210,".,":4211,"Ġble":4212,"ĠOkay":4213,"ensus":4214,"Ġbigger":4215,"Ġcheese":4216,"Ġacqu":4217,"Ġstudy":4218,"Ġgrave":4219,"oom":4220,"Ġtears":4221,"orough":4222,"Ġspl":4223,"Ġbless":4224,"Ġcoach":4225,"Ġshoulder":4226,"ĠThomas":4227,"Ġperfectly":4228,"IE":4229,"Ġbell":4230,"ids":4231,"three":4232,"Ġcalm":4233,"ique":4234,"Ġagreed":4235,"Ġwatched":4236,"Ġmotion":4237,"ĠAfric":4238,"Ġvideo":4239,"Ne":4240,"af":4241,"ja":4242,"Ġdare":4243,"Ġfashion":4244,"anch":4245,"anton":4246,"Ġorange":4247,"Ġgrown":4248,"bered":4249,"Ġexperience":4250,"Ġtotal":4251,"Ġbrave":4252,"five":4253,"ett":4254,"ĠSchool":4255,"Ġplenty":4256,"Ġproceed":4257,"Ġgrad":4258,"Ġcentury":4259,"vies":4260,"cend":4261,"Ġ21":4262,"aud":4263,"Ġdesp":4264,"Her":4265,"_.":4266,"orks":4267,"Ġpink":4268,"arily":4269,"Ġended":4270,"Ġcommunity":4271,"Ġoccup":4272,"eer":4273,"four":4274,"Ġrisk":4275,"soci":4276,"ensive":4277,"Ġstarting":4278,"Only":4279,"Ġpurpose":4280,"Ġhotel":4281,"ï¿½ï¿½ï¿½ï¿½":4282,"Ġwinter":4283,"Ġmurder":4284,"Ġpractice":4285,"Ġimagine":4286,"Gu":4287,"ruction":4288,"Ġanxious":4289,"Cos":4290,"Ġstat":4291,"Ġsail":4292,"Ġexcited":4293,"Eleanor":4294,"Ġep":4295,"outhern":4296,"action":4297,"Ġsmoke":4298,"ivil":4299,"asons":4300,"Ġhiding":4301,"Ġthroat":4302,"Ġrese":4303,"Ġguns":4304,"Ġchoice":4305,"Ġbirds":4306,"Ġdirty":4307,"enry":4308,"Ġstone":4309,"ĠCouncil":4310,"ĠLo":4311,"ĠRiver":4312,"Ġtrick":4313,"Ġblind":4314,"Ag":4315,"Wow":4316,"uke":4317,"inal":4318,"itor":4319,"ĠFort":4320,"Ġloves":4321,"Ġfavour":4322,"Ġsandw":4323,"ran":4324,"vell":4325,"Ġdelic":4326,"Ġplans":4327,"ĠEve":4328,"Ġopportunity":4329,"Ġrace":4330,"Ġfifteen":4331,"18":4332,"Keep":4333,"bell":4334,"cue":4335,"Ġvers":4336,"Ġpleasant":4337,"OME":4338,"ially":4339,"road":4340,"ĠDid":4341,"ĠQu":4342,"Qu":4343,"lor":4344,"ped":4345,"yep":4346,"Ġfirm":4347,"oos":4348,"Ġstorm":4349,"ĠMother":4350,"urs":4351,"ĠJoseph":4352,"Ġ(\"":4353,"Ġprice":4354,"ĠStreet":4355,"ilda":4356,"ledge":4357,"Ġissue":4358,"Perhaps":4359,"Ooh":4360,"za":4361,"Ġ)":4362,"Ġbill":4363,"ĠAustral":4364,"Ġheads":4365,"mpions":4366,"IF":4367,"Ġloss":4368,"Ġrevol":4369,"ĠTexas":4370,"Ġsake":4371,"ĠFrom":4372,"ĠUS":4373,"Ġremem":4374,"Ġinflu":4375,"Ġexcuse":4376,"Ġbasket":4377,"Ġevidence":4378,"Ġweak":4379,"Ġreck":4380,"eech":4381,"Ġsoldiers":4382,"ĠMalcolm":4383,"ĠMart":4384,"uhoh":4385,"astern":4386,"Ġevident":4387,"Ġworried":4388,"Ġfamous":4389,"Ġclearly":4390,"Ġflying":4391,"Ġhigher":4392,"wing":4393,"Ġhuge":4394,"anda":4395,"iction":4396,"US":4397,"ugg":4398,"Ġmud":4399,"Ġnoticed":4400,"Ġplayer":4401,"ĠState":4402,"Bomba":4403,"OD":4404,"icro":4405,"ĠSer":4406,"ĠSch":4407,"Ġtrad":4408,"Ġener":4409,"Ġassist":4410,"Ġdemand":4411,"Ġcircum":4412,"Ġnurse":4413,"Ġtemper":4414,"Br":4415,"Dad":4416,"Ġtong":4417,"Ġdig":4418,"Ġpa":4419,"osing":4420,"ĠNe":4421,"ĠHere":4422,"Ġcarefully":4423,"obert":4424,",âĢĻ":4425,"hal":4426,"Ġupstairs":4427,"Ġremained":4428,"Ġharm":4429,"LES":4430,"cries":4431,"watch":4432,"oted":4433,"ĠThank":4434,"ĠPark":4435,"Ġperm":4436,"ĠMarg":4437,"Ġimpro":4438,"Ġhouses":4439,"TH":4440,"west":4441,"Ġheat":4442,"otte":4443,"Ġformed":4444,"Ġsocial":4445,"Ġneither":4446,"Ġafterwards":4447,"Ġfinal":4448,"Ġdecision":4449,"Ġfalling":4450,"Ġdogs":4451,"Ġofficers":4452,"**":4453,"Ġwake":4454,"lected":4455,"ĠBur":4456,"ĠHigh":4457,"Ġeighty":4458,"Ġprepared":4459,"GE":4460,"rain":4461,"Ġchat":4462,"Ġvan":4463,"Ġscr":4464,"Ġmoon":4465,"Ġpopular":4466,"Ġjourney":4467,"Ġstock":4468,"ĠMac":4469,"ĠMama":4470,"ĠGeneral":4471,"Ġattract":4472,"ere":4473,"kiss":4474,"Ġpin":4475,"lem":4476,"icle":4477,"Ġstret":4478,"ĠBert":4479,"ola":4480,"--\"":4481,"Ġfairly":4482,"Ġoriginal":4483,"Ġbudget":4484,"BRO":4485,"RA":4486,"idden":4487,"Ġstars":4488,"ĠAlf":4489,"istic":4490,"Ġrob":4491,"Ġfund":4492,"Ġnet":4493,"lebr":4494,"Ġ23":4495,"ending":4496,"Ġshad":4497,"uses":4498,"Ġdeg":4499,"Ġwilling":4500,"Ġbackground":4501,"Ġimpossible":4502,"wanna":4503,"erm":4504,"urity":4505,"ĠRob":4506,"Ġscream":4507,"Ġmovies":4508,"Ġsmart":4509,"Ġclever":4510,"Ġgenerally":4511,"arently":4512,"orter":4513,"arah":4514,"Ġexist":4515,"Ġcloud":4516,"INV":4517,"Ġindivid":4518,"Ġwearing":4519,"Ġconcerned":4520,"ctions":4521,"Ġsomewhat":4522,"asy":4523,"ciety":4524,"17":4525,"Great":4526,"vocal":4527,"Ġtiny":4528,"Ġcustom":4529,"aries":4530,"arrow":4531,"Ġinj":4532,"Ġrab":4533,"Ġserved":4534,"Ġobviously":4535,"Ġcolonel":4536,"ba":4537,"ux":4538,"ĠYour":4539,"Ġyounger":4540,"Ġsleeping":4541,"Ġutter":4542,"Ġtit":4543,"Ġfaces":4544,"Ġlatter":4545,"stop":4546,"Ġareas":4547,"ĠTed":4548,"ĠRed":4549,"noise":4550,"ĠKe":4551,"Ġlistening":4552,"Ġdevelopment":4553,"Ġavail":4554,"Ġnormal":4555,"Car":4556,"First":4557,"FAT":4558,"Ġphys":4559,"urry":4560,"Ġknowing":4561,"ĠEast":4562,"ITH":4563,"Ġfixed":4564,"bly":4565,"Ġiron":4566,"Ġfem":4567,"lder":4568,"Ġweight":4569,"oph":4570,"orthern":4571,"Ġcreated":4572,"Ġprofession":4573,"Ġnaught":4574,"iring":4575,"Ġ192":4576,"Ġ50":4577,"Ġedge":4578,"Ġestab":4579,"Say":4580,"Ġign":4581,"Ġaud":4582,"Ġmut":4583,"ĠJul":4584,"Ġteach":4585,"Ġdirected":4586,"Ġtravel":4587,"aura":4588,"Ġcomfortable":4589,"Ġspecies":4590,"Hold":4591,"Poss":4592,"asc":4593,"ĠSid":4594,"ĠHelen":4595,"Ġroof":4596,"âĢľâĢĺ":4597,"Ġtrip":4598,"non":4599,"yal":4600,"reg":4601,"Ġmir":4602,"ĠCass":4603,"Ġneg":4604,"Ġwheel":4605,"Ġenter":4606,"Ġmarry":4607,"Ġtaste":4608,"Ġbeha":4609,"Ġships":4610,"oday":4611,"Ġmedic":4612,"Ġscarcely":4613,"Ġcircumst":4614,"Ġpound":4615,"Ġonto":4616,"Ġeconom":4617,"aked":4618,"Ġairport":4619,"Ġpurple":4620,"Ġhonor":4621,"Ġprivate":4622,"ĠChairman":4623,"Ha":4624,"heart":4625,"ĠLittle":4626,"Ġdefend":4627,"Fuck":4628,"spect":4629,"het":4630,"Ġhill":4631,"Ġhunting":4632,"Ġwaste":4633,"Ġopin":4634,"Ġbloody":4635,"ography":4636,"Am":4637,"TO":4638,"ses":4639,"Ġir":4640,"Ġmater":4641,"Ġtower":4642,"Ġthus":4643,"Ġspoken":4644,"ANT":4645,"Ġtowns":4646,"Ad":4647,"jo":4648,"ishes":4649,"Ġdouble":4650,"ĠTucker":4651,"Ġcomment":4652,"ĠChic":4653,"Ġlights":4654,"Ġdefinitely":4655,"WE":4656,"craft":4657,"rees":4658,"Ġemer":4659,"ented":4660,"istory":4661,"Ġworst":4662,"Ġmeaning":4663,"Ġsettled":4664,"50":4665,"Ġbite":4666,"Ġlap":4667,"amn":4668,"ĠHi":4669,"ĠRand":4670,"ples":4671,"Ġmostly":4672,"Ġmilitary":4673,"ĠJennie":4674,"turn":4675,"ĠMY":4676,"ĠEll":4677,"Ġeleven":4678,"ĠHowever":4679,"Ġvictim":4680,"ishment":4681,"ival":4682,"Ġsurr":4683,"Ġindic":4684,"Ġparticularly":4685,"Ġrule":4686,"vo":4687,"Ġteddy":4688,"Ġate":4689,"umber":4690,"abr":4691,"Ġpencil":4692,"Ġappreci":4693,"min":4694,"using":4695,"Ġplant":4696,"Ġplate":4697,"Ġquality":4698,"Ġbrain":4699,"ked":4700,"erc":4701,"Ġrelig":4702,"Ġexcit":4703,"Huh":4704,"Mum":4705,"eh":4706,"fit":4707,"gen":4708,"nal":4709,"chi":4710,"ĠWE":4711,"Ġarrow":4712,"Ġdriver":4713,"Ġstatement":4714,"ĠBobby":4715,"anning":4716,"vere":4717,"ĠAN":4718,"ĠAlden":4719,"Ġbringing":4720,"Ġdiscovered":4721,"Ġeducation":4722,"Ġalbum":4723,"essel":4724,"ooper":4725,"allas":4726,"Ġcalls":4727,"Ġactor":4728,"Ġresol":4729,"Ed":4730,"Ġpony":4731,"stit":4732,"ĠBoy":4733,"Ġafford":4734,"Ġcondition":4735,"cellent":4736,"Ġboss":4737,"Ġmum":4738,"ators":4739,"Ġdoc":4740,"Ġ100":4741,"Ġgrowing":4742,"Ġremind":4743,"Ġcontact":4744,"Ġswing":4745,"Ġwalls":4746,"ĠGuy":4747,"Ġrapid":4748,"pen":4749,"Ġtaught":4750,"Ġwed":4751,"Ġthee":4752,"Ġspeech":4753,"Ġsuspect":4754,"UST":4755,"dra":4756,"oured":4757,"Ġfond":4758,"Ġheaven":4759,"stood":4760,"ĠAh":4761,"ĠHE":4762,"ours":4763,"Ġvac":4764,"ĠSpan":4765,"ĠDonald":4766,"Ġwagon":4767,"Jack":4768,"Ġcart":4769,"uten":4770,"Ġstaff":4771,"Ġrail":4772,"ago":4773,"ĠIntern":4774,"Ġsilent":4775,"Ġcontinue":4776,"ds":4777,"iot":4778,"isy":4779,"Ġodd":4780,"Ġnon":4781,"Ġstairs":4782,"Ġsuc":4783,"berry":4784,"Ġgoodness":4785,"Man":4786,"paper":4787,"Ġtask":4788,"Ġsides":4789,"Ġvessel":4790,"Ġbedroom":4791,"Ġtries":4792,"Ġpicks":4793,"Ġbrothers":4794,"Ġcelebr":4795,"Ġburst":4796,"Ġstructure":4797,"Ġmountain":4798,"Ġtongue":4799,"Ġsucceed":4800,"host":4801,"kins":4802,"Ġfru":4803,"sequ":4804,"Ġdozen":4805,"urt":4806,"ESS":4807,"Ġopposite":4808,"Ġcomputer":4809,"hin":4810,"ups":4811,"Ġ#":4812,"Ġbeach":4813,"ĠTwo":4814,"ĠFenn":4815,"Ġclock":4816,"Ġcoast":4817,"Ġseconds":4818,"Ġpapers":4819,"ajest":4820,"ification":4821,"car":4822,"pa":4823,"Ġcong":4824,"Ġcult":4825,"ĠDist":4826,"epend":4827,"Ġservices":4828,"Ġrange":4829,"Ġtells":4830,"Ġfinding":4831,"Ġfeelings":4832,"Ġsurv":4833,"fortun":4834,"ĠGovern":4835,"Gl":4836,"Ġ..":4837,"Ġfancy":4838,"Ġpill":4839,"Ġgro":4840,"ache":4841,"ĠHenry":4842,"onday":4843,"Ġstranger":4844,"Ġobl":4845,"Ġlawyer":4846,"Ġinvestig":4847,"Ġpossibly":4848,"About":4849,"Ġtap":4850,"utch":4851,"Ġrow":4852,"Ġtroops":4853,"Ġshape":4854,"Ġchoose":4855,"ONE":4856,"ĠAnge":4857,"gl":4858,"Ġlower":4859,"Ġknife":4860,"Ġcondu":4861,"Ġsixty":4862,"ĠColonel":4863,"ĠLouis":4864,"fall":4865,"ius":4866,"Ġwrest":4867,"icked":4868,"ĠStone":4869,"Ġtext":4870,"ĠGerald":4871,"Ġprovince":4872,"ĠLucy":4873,"Ġdetermined":4874,"ILL":4875,"outs":4876,"Ġmeal":4877,"fection":4878,"izes":4879,"Ġcontract":4880,"Ġpresence":4881,"Ġcraw":4882,"Ġorders":4883,"Ġsuggested":4884,"Ġradio":4885,"Ġexcitement":4886,"'?":4887,"Chi":4888,"Se":4889,"cast":4890,"hod":4891,"lend":4892,"abri":4893,"Ġfeels":4894,"Ġwaited":4895,"Ġindust":4896,"Ġhello":4897,"Ġprinci":4898,"Ġcensus":4899,"Ġeh":4900,"aled":4901,"Ġstre":4902,"ĠLaw":4903,"Ġ27":4904,"Ġthoughts":4905,"Ġrealize":4906,"Ġaddition":4907,"Ġinclude":4908,"Ġcases":4909,"ĠAir":4910,"tering":4911,"Ġvote":4912,"order":4913,"Ġprefer":4914,"oups":4915,"Ġpair":4916,"Ġham":4917,"Ġtroub":4918,"Ġbelieved":4919,"Ġlargest":4920,"Ġcentre":4921,"15":4922,"Ġtar":4923,"Ġcred":4924,"Ġknowledge":4925,"Ġdesk":4926,"Isn":4927,"Ġmatters":4928,"Ġenergy":4929,"isa":4930,"ĠKore":4931,"Ġcourage":4932,"ultan":4933,"Ġaware":4934,"Ġsteal":4935,"Ġforgotten":4936,"Ġmodel":4937,"Ġordered":4938,"People":4939,"Con":4940,"Mama":4941,"aign":4942,"kn":4943,"vi":4944,"Ġbal":4945,"imate":4946,"Ġmere":4947,"Ġant":4948,"Ġbutton":4949,"ulous":4950,"eman":4951,"ĠEvery":4952,"Ġ26":4953,"Ġapple":4954,"Ġcorrect":4955,"ĠSteven":4956,"Ġpatient":4957,"Ġrepeated":4958,"Ġoffered":4959,"Char":4960,"NOW":4961,"Put":4962,"ĠWind":4963,"Ġconv":4964,"Ġthrown":4965,"HER":4966,"Ġcrime":4967,"Alright":4968,"Ġpolitical":4969,"oid":4970,"sn":4971,"Ġmanaged":4972,"Ġclaim":4973,"ĠIts":4974,"Ġmagnet":4975,"Ġprevent":4976,"Ġopening":4977,"Ġextreme":4978,"Ãº":4979,"ĠCup":4980,"izing":4981,"Ġdecide":4982,"Ġcarrying":4983,"Ġfrightened":4984,"Ġnaughty":4985,"Dr":4986,"HO":4987,"Ġdancing":4988,"aning":4989,"ĠDem":4990,"Ġ28":4991,"Ġgrab":4992,"Ġstayed":4993,"Ġinstant":4994,"Ġwindows":4995,"Ġappearance":4996,"ĠLeague":4997,"lie":4998,"Ġhm":4999,"Ġforces":5000,"ĠNor":5001,"Ġaffect":5002,"Ġstaying":5003,"Ġreply":5004,"Tw":5005,"Ġthin":5006,"icy":5007,"ictor":5008,"ĠĠĠĠĠĠĠĠĠĠĠĠĠĠĠĠĠĠĠĠĠĠĠĠ":5009,"rilliant":5010,"Ġarrange":5011,"Ġtowel":5012,"Possum":5013,"Ġ--":5014,"Ġdying":5015,"Ġfurn":5016,"keep":5017,"lymp":5018,"ĠSE":5019,"looking":5020,"Ġcompanion":5021,"cut":5022,"die":5023,"Ġpool":5024,"Ġpsy":5025,"Ġforced":5026,"ĠTheir":5027,"Ġ22":5028,"oking":5029,"Ġleader":5030,"Le":5031,"book":5032,"van":5033,"Ġshirt":5034,"Ġdeck":5035,"osh":5036,"bey":5037,"HING":5038,"Ġprevious":5039,"Ġ2010":5040,"ĠRepublic":5041,"Ġreckon":5042,"?'":5043,"pro":5044,"sha":5045,"Ġsna":5046,"ero":5047,"Ġbare":5048,"Ġmor":5049,"atoes":5050,"Ġhomes":5051,"Ġdoors":5052,"atherine":5053,"Ġhelping":5054,"Ġexplained":5055,"burg":5056,"12":5057,"rin":5058,"ĠSan":5059,"chief":5060,"Ġeasier":5061,"Ġrocks":5062,"AMY":5063,"Ġproperly":5064,"ironment":5065,"ompany":5066,"Ġsuspic":5067,"rid":5068,"isher":5069,"ĠRo":5070,"Ġmotor":5071,"ĠCharlotte":5072,"Ġrules":5073,"Ġfully":5074,"Ġnarrow":5075,"Ġknees":5076,"Ġshown":5077,"Ġ29":5078,"ords":5079,"Ġ2012":5080,"Ġpassing":5081,"ĠFriday":5082,"Fraser":5083,"Ġmemory":5084,"ĠQueen":5085,"Ġetc":5086,"Bart":5087,"fle":5088,"oly":5089,"Ġcivil":5090,"Ġlake":5091,"Ġwhist":5092,"ĠAmy":5093,"ĠTV":5094,"Ġshook":5095,"Ġamazing":5096,"Ġmoves":5097,"tained":5098,"oger":5099,"Ġpublished":5100,"Ġhistor":5101,"Ġpalace":5102,"Ġwitness":5103,"bre":5104,"sed":5105,"amm":5106,"Ġpartner":5107,"Ġprepar":5108,"Ġprim":5109,"Ġsmiling":5110,"PE":5111,"Ġliter":5112,"ademy":5113,"ĠAT":5114,"ura":5115,"ĠHAVE":5116,"Ġsheep":5117,"ĠPort":5118,"Ġsplend":5119,"Ġqueer":5120,"Ġgroups":5121,"Ġshoulders":5122,"Ġslaves":5123,"Before":5124,"Ġplanning":5125,"Ġmodern":5126,"ĠSmith":5127,"Ġopinion":5128,"aed":5129,"pardon":5130,"usic":5131,"ĠGl":5132,"Ġrights":5133,"Ġproduced":5134,"Ġsurface":5135,"Ġforest":5136,"Ġannounced":5137,"Ġcro":5138,"Ġrout":5139,"Ġshock":5140,"ĠJean":5141,"Ġspoon":5142,"Ġexec":5143,"Ġprogress":5144,"Ġtrunk":5145,"Ġdesper":5146,"Ġrequire":5147,"30":5148,"Tilda":5149,"bits":5150,"could":5151,"every":5152,"sm":5153,"ĠColl":5154,"ĠRobert":5155,"ucky":5156,"Ġflag":5157,"Ġelection":5158,"Ġadvant":5159,"ĠTHIS":5160,"Ġcircumstances":5161,"roll":5162,"cho":5163,"ĠĠĠ":5164,"Ġsaf":5165,"Ġbye":5166,"Ġshake":5167,"Ġstands":5168,"Ġpapa":5169,"ker":5170,"point":5171,"Ġmate":5172,"ĠHER":5173,"ĠDick":5174,"Ġhurried":5175,"Ġsinger":5176,"Ġleading":5177,"ĠOrder":5178,"ĠSteve":5179,"Ġcloser":5180,"Ġexpression":5181,"Ġcopy":5182,"Ma":5183,"ault":5184,"lear":5185,"olars":5186,"Ġtrade":5187,"ective":5188,"pering":5189,"azed":5190,"Ġshouted":5191,"Ġpuzzle":5192,"Tom":5193,"Ġcott":5194,"Ġexerc":5195,"ĠOlymp":5196,"udd":5197,"Ġgreatest":5198,"Those":5199,"Ġquietly":5200,"Act":5201,"Ġgift":5202,"rible":5203,"Ġupset":5204,"Didn":5205,"Ġescap":5206,"Ġhanging":5207,"BE":5208,"OH":5209,"mund":5210,"ram":5211,"Ġwished":5212,"Ġthy":5213,"place":5214,"Ġflo":5215,"gging":5216,"appy":5217,"ĠGermany":5218,"Ġslightly":5219,"Ġswimming":5220,"DS":5221,"gn":5222,"ooth":5223,"ĠSing":5224,"Ġsho":5225,"ends":5226,"Ġgreater":5227,"Ġremembered":5228,"bon":5229,"low":5230,"Ġsac":5231,"urance":5232,"ulf":5233,"ĠLO":5234,"these":5235,"Ġschools":5236,"Ġ2011":5237,"Ġdirector":5238,"Ġrespond":5239,"ĠBarry":5240,"Something":5241,"Ġpad":5242,"Ġaside":5243,"ĠCor":5244,"ĠParty":5245,"ĠLaura":5246,"Ġspo":5247,"Ġprove":5248,"ĠChurch":5249,"brother":5250,"Ġadvice":5251,"Ġvalue":5252,"Ġtotally":5253,"fa":5254,"while":5255,"iti":5256,"Ġfought":5257,"ĠDallas":5258,"osaur":5259,"Ġscrew":5260,"ibility":5261,"Ġwondering":5262,"Ġbathroom":5263,"Ġwhispered":5264,"Ġjudge":5265,"Ġrelationship":5266,"Ġcad":5267,"ĠDE":5268,"Ġprint":5269,"Ġsmiled":5270,"Ġballs":5271,"\"?":5272,"ae":5273,"ko":5274,"Ġfra":5275,"Ġple":5276,"Ġinno":5277,"ĠRem":5278,"Ġruns":5279,"199":5280,"ĠSecret":5281,"ajesty":5282,"David":5283,"happy":5284,"itation":5285,"ĠProf":5286,"Since":5287,"Ġweird":5288,"Ġshel":5289,"Ġclown":5290,"Ġdism":5291,"Ġfox":5292,"Ġglance":5293,"Ġ2016":5294,"Three":5295,"Ġcampaign":5296,"Ġfortune":5297,"Ġdamn":5298,"Ġavailable":5299,"aeddin":5300,"ij":5301,"Ġbod":5302,"Ġfile":5303,"Ġyards":5304,"Ġnap":5305,"enth":5306,"ĠOld":5307,"Ġdreams":5308,"Everything":5309,"Ġneighbor":5310,"Ġwestern":5311,"etch":5312,"ĠCH":5313,"Ġjoke":5314,"ĠTH":5315,"Ġsomehow":5316,"Ġscore":5317,"Ġelephan":5318,"Ġbeauty":5319,"Ġdisappeared":5320,"ĠMinister":5321,"athered":5322,"Â¶":5323,"Ġtie":5324,"Ġachie":5325,"Ġsour":5326,"Ġcards":5327,"Ġstyle":5328,"eaks":5329,"urb":5330,"ilver":5331,"Ġrom":5332,"Ġdel":5333,"Ġflight":5334,"Ġcontr":5335,"Ġshowing":5336,"laughing":5337,"iety":5338,"Ġstraw":5339,"Ġcruel":5340,"Ġcousin":5341,"ĠSea":5342,"Ġperfor":5343,"Ġacting":5344,"ocrat":5345,"Ġtribe":5346,"Ġgentlemen":5347,"Ġknocked":5348,"rick":5349,"Ġwid":5350,"Ġmult":5351,"Ġdun":5352,"Ġhesit":5353,"Ġhunt":5354,"ĠMid":5355,"ĠWil":5356,"ĠGra":5357,"Ġsentence":5358,"asped":5359,"Ġevents":5360,"Call":5361,"ares":5362,"Ġwine":5363,"ĠHay":5364,"ĠDolly":5365,"Ġdownstairs":5366,"Ġchanges":5367,"Ġchem":5368,"EST":5369,"Ġ187":5370,"III":5371,"Ġreceive":5372,"Ġfolks":5373,"Ġsandwich":5374,"UCK":5375,"pers":5376,"rate":5377,"Ġgir":5378,"ĠMor":5379,"ĠSus":5380,"Ġshoe":5381,"ĠPolly":5382,"olan":5383,"ĠJo":5384,"Ġaged":5385,"Ġmission":5386,"Ġfilm":5387,"Ġprofessional":5388,"IV":5389,"Nice":5390,"ĠMat":5391,"ilian":5392,"Ġeverywhere":5393,"Ġunderstood":5394,"Ġdesire":5395,"Ġentertain":5396,"ĠAlaeddin":5397,"Ġsongs":5398,"Ben":5399,"Lea":5400,"Mother":5401,"inting":5402,"ental":5403,"rost":5404,"ĠMo":5405,"chuckles":5406,"ulty":5407,"oughs":5408,"Ġfeat":5409,"aws":5410,"azy":5411,"Ġcolors":5412,"utenant":5413,"MAN":5414,"Michael":5415,"],":5416,"cing":5417,"Ġta":5418,"Ġmort":5419,"ican":5420,"ĠMonday":5421,"elle":5422,"ĠTy":5423,"ulations":5424,"apa":5425,"Ġkeeps":5426,"ĠMarilla":5427,"Ġdepart":5428,"Ġdrinking":5429,"whoops":5430,"Ġprize":5431,"Ġdirectly":5432,"Ġholiday":5433,"Ġnearer":5434,"Ġmedicine":5435,"Sc":5436,"Ġess":5437,"Ġow":5438,"eds":5439,"Ġpale":5440,"Ġlion":5441,"ĠMaster":5442,"Ġmanager":5443,"hips":5444,"OULD":5445,"Ġeighteen":5446,"ĠFlor":5447,"Ġevil":5448,"Ġbarn":5449,"Ġchocol":5450,"Ġenvironment":5451,"ĠSpanish":5452,"Ġoblig":5453,"Ġtim":5454,"hest":5455,"Ġboo":5456,"Ġfal":5457,"Ġpra":5458,"ĠAc":5459,"ĠBO":5460,"ĠHy":5461,"ilities":5462,"geant":5463,"ĠRy":5464,"ĠNOT":5465,"ĠEven":5466,"aren":5467,"Ġarg":5468,"thew":5469,"Ġcountries":5470,"Ġbeneath":5471,"Ġsafety":5472,"Ġpushed":5473,"Ġstir":5474,"Ġknee":5475,"ĠBro":5476,"Ġcarriage":5477,"Ġpowerful":5478,"ĠCharles":5479,"Ġengaged":5480,"ĠBlack":5481,"ĠRamsey":5482,"Cause":5483,"Mad":5484,"isions":5485,"ooke":5486,"entworth":5487,"Ġstates":5488,"essed":5489,"ĠEn":5490,"ĠKen":5491,"Ġfold":5492,"Ġbitch":5493,"Ġrecently":5494,"Ġdistribut":5495,"Ġpaying":5496,"ĠItalian":5497,"Ġepis":5498,"water":5499,"ingu":5500,"uments":5501,"Ġburied":5502,"Ġmovement":5503,"ĠBarty":5504,"Ġcontinues":5505,"ĠYOUR":5506,"--------------------------------":5507,"rant":5508,"atory":5509,"Ġreasons":5510,"ulated":5511,"Ġsche":5512,"Ġ2017":5513,"Ġsmaller":5514,"Ġ186":5515,"Ġproperty":5516,"Ġearnest":5517,"Fine":5518,"ĠBat":5519,"Ġneat":5520,"Ġsugar":5521,"ĠLook":5522,"Ġaccording":5523,"Ġtraining":5524,"Ġforgive":5525,"Ġrequest":5526,"ĠMargaret":5527,"pal":5528,"uns":5529,"ocks":5530,"Ġmonster":5531,"Grand":5532,"ĠDistrict":5533,"AIN":5534,"Ġcute":5535,"Ġoil":5536,"Ġfishing":5537,"ĠCat":5538,"ĠLab":5539,"ĠNed":5540,"Ġcommittee":5541,"Ġdrawn":5542,"Ġtrail":5543,"Ġmagic":5544,"Ġsuccessful":5545,"Ġgalley":5546,"Ġfailed":5547,"Ġproduct":5548,"Ġwedding":5549,"AB":5550,"make":5551,"Ġaver":5552,"ĠTony":5553,"ĠLa":5554,"Ġgrate":5555,"ograph":5556,"Ġcheek":5557,"Ġjobs":5558,"Ġinspect":5559,"Ġcastle":5560,"Ġauthority":5561,"ole":5562,"ship":5563,"Ġwha":5564,"Ġbatter":5565,"Ġfier":5566,"Ġtoast":5567,"ading":5568,"usted":5569,"aboo":5570,"inese":5571,"Shut":5572,"ĠParis":5573,"Ġentirely":5574,"Ġtouched":5575,"ĠLoire":5576,"pet":5577,"try":5578,"uous":5579,"kend":5580,"ĠBel":5581,"ĠBra":5582,"ĠHal":5583,"ĠEleanor":5584,"annah":5585,"Ġmagn":5586,"Ġwound":5587,"ĠCour":5588,"Ġjail":5589,"ĠWentworth":5590,"eping":5591,"Ġthrowing":5592,"Ġactress":5593,"Ġdarkness":5594,"eg":5595,"sorry":5596,"Ġaim":5597,"Ġgang":5598,"ĠII":5599,"ĠFanning":5600,"ĠRuth":5601,"actually":5602,"Ġapparently":5603,"Ġserve":5604,"ĠChris":5605,"Ġ2014":5606,"Ġdrunk":5607,"Ġterror":5608,"apping":5609,"Ġ2008":5610,"Ġcenter":5611,"Ġpropos":5612,"Ã¤":5613,"Ġmicro":5614,"Ġox":5615,"Ġfaint":5616,"Ġghost":5617,"etter":5618,"ima":5619,"anta":5620,"those":5621,"ĠGold":5622,"Ġbrush":5623,"ishop":5624,"ERS":5625,"known":5626,"bow":5627,"Ġgathered":5628,"ching":5629,"Ġrushed":5630,"Ġcancer":5631,"ĠPet":5632,"hang":5633,"Ġmarriage":5634,"Ġmagaz":5635,"Again":5636,"Ġsplendid":5637,"big":5638,"Ġpred":5639,"aining":5640,".\"]":5641,"aging":5642,"Ġfoc":5643,"Ġpaint":5644,"Ġhonour":5645,"Ġforever":5646,"Ġsoftly":5647,"Ġclimb":5648,"rot":5649,"ĠMum":5650,"ĠMany":5651,"ĠBern":5652,"Ġshell":5653,"inking":5654,"ĠGet":5655,"ĠRoman":5656,"Ġboats":5657,"Ġplayers":5658,"Ġneedta":5659,"Ġbits":5660,"Ġwarri":5661,"Ġordinary":5662,"Ġtarget":5663,"Actually":5664,"',":5665,"KE":5666,"Ġlone":5667,"Ġforms":5668,"ĠHave":5669,"ĠWin":5670,"ĠPal":5671,"Ġotherwise":5672,"Ġ2013":5673,"Ġfart":5674,"ĠSultan":5675,"ĠAward":5676,"liament":5677,"together":5678,"Ġstepped":5679,"Ġdrove":5680,"Ġsoldier":5681,"Ġpressure":5682,"History":5683,"ym":5684,"asing":5685,"omen":5686,"Ġhook":5687,"ĠHaw":5688,"ĠTown":5689,"cky":5690,"oles":5691,"igs":5692,"Ġproced":5693,"Ġshower":5694,"ĠCla":5695,"Ġenjoyed":5696,"Ġobserved":5697,"Ġfruit":5698,"Alex":5699,"IA":5700,"NO":5701,"ule":5702,"Ġnative":5703,"Ġbeast":5704,"Ġsection":5705,"andy":5706,"ĠHam":5707,"ĠOk":5708,"ĠOx":5709,"Ġpoet":5710,"Ġshame":5711,"ansas":5712,"Ġindepend":5713,"Ġrelated":5714,"Ġofficial":5715,"Ġapproach":5716,"ĠDoctor":5717,"ĠPatty":5718,"Ġweapon":5719,"Ġsprang":5720,"zes":5721,"semb":5722,"Ġdoin":5723,"aming":5724,"ammy":5725,"ĠALL":5726,"open":5727,"ĠWITH":5728,"ĠDav":5729,"Ġfriendly":5730,"ĠUnion":5731,"Ġentr":5732,"ĠMission":5733,"Ġaircraft":5734,"ĠCasson":5735,"Paul":5736,"oned":5737,"ushes":5738,"ential":5739,"Ġassoci":5740,"ila":5741,"ilty":5742,"umn":5743,"anged":5744,"Ġattend":5745,"Ġwalks":5746,"Ġfalls":5747,"ointment":5748,"ĠWhite":5749,"Ġincrease":5750,"Cha":5751,"Ġsch":5752,"Ġdise":5753,"Ġpant":5754,"vert":5755,"Ġstones":5756,"ĠAB":5757,"ĠCamp":5758,"Ġdere":5759,"ols":5760,"Ġproduc":5761,"Ġtruly":5762,"Ġweekend":5763,"Ġhearing":5764,"Ġdragon":5765,"Once":5766,"Ġincluded":5767,"Ġcurious":5768,"Ġresearch":5769,"Ġindividual":5770,"win":5771,"Ġsoup":5772,"Ġmail":5773,"Ġdim":5774,"Ġfan":5775,"Ġrelease":5776,"ĠHad":5777,"apt":5778,"onder":5779,"Ġencour":5780,"Ġsits":5781,"ARD":5782,"Ġchocolate":5783,"yo":5784,"ona":5785,"Ġpit":5786,"Ġlord":5787,"Ġloose":5788,"asm":5789,"ĠMed":5790,"Ġrush":5791,"Ġriding":5792,"ateg":5793,"ĠNE":5794,"Ġvent":5795,"Ġuseful":5796,"ĠĠĠĠĠĠĠĠĠĠĠĠĠĠĠĠĠĠĠĠĠĠĠĠĠĠĠĠĠĠĠĠ":5797,"Ġcraft":5798,"Ġadvantage":5799,"sure":5800,"onse":5801,"Ġmile":5802,"esides":5803,"ĠBull":5804,"iel":5805,"Ġchest":5806,"Ġretired":5807,"ĠEdmund":5808,"Ġincred":5809,"Ġbecoming":5810,"Ġdifficulty":5811,"Ġlifted":5812,"200":5813,"eff":5814,"show":5815,"Ã¼":5816,"erable":5817,"Ġnerv":5818,"ĠMore":5819,"ĠMost":5820,"herry":5821,"Ġliber":5822,"Ġsaving":5823,"ĠFa":5824,"osen":5825,"Ġcomed":5826,"ĠRush":5827,"Nobody":5828,"Ġflower":5829,"ĠStan":5830,"Ġsecurity":5831,"----\"":5832,"should":5833,"Ġkidding":5834,"Ġconcern":5835,"16":5836,"gency":5837,"somet":5838,"Ġfired":5839,"Ġgather":5840,"irgin":5841,"ĠEli":5842,"Ġsurely":5843,"ĠZeal":5844,"Ġtelephone":5845,"chair":5846,"Ġinfluence":5847,"Ind":5848,"hew":5849,"Ġwore":5850,"Ġbunny":5851,"Ġlack":5852,"oto":5853,"cean":5854,"ĠBer":5855,"Ġplat":5856,"ĠLee":5857,"Ġconce":5858,"Ġbranch":5859,"otted":5860,"Ġinstru":5861,"Ġexciting":5862,"Ġsnake":5863,"Ġintrodu":5864,"Pl":5865,"Ġsore":5866,"Ġsav":5867,"cked":5868,"emies":5869,"Ġ()":5870,"uchi":5871,"Ġhearts":5872,"Ġbadly":5873,"Ġlistened":5874,"Ġsignific":5875,"ĠHarold":5876,"Ġfairy":5877,"Ġmedical":5878,"ĠBradley":5879,"ĠAgnes":5880,"Ġresponsible":5881,"Ġoccurred":5882,"Ġcredit":5883,"fish":5884,"only":5885,"Ġcities":5886,"ĠMel":5887,"ĠSarah":5888,"abeth":5889,"ĠWolf":5890,"Ġagent":5891,"Ġcoal":5892,"ĠVictor":5893,"Ġsignal":5894,"Ġgovernor":5895,"Ġburning":5896,"Ġideas":5897,"ĠAlfgar":5898,"Su":5899,"daddy":5900,"yell":5901,"Ġaunt":5902,"inc":5903,"Ġpants":5904,"Ġelder":5905,"Ġreact":5906,"ĠBo":5907,"Ġbutt":5908,"ĠRight":5909,"Ġkindly":5910,"Ġlads":5911,"Should":5912,"Sometimes":5913,"Ġfrequ":5914,"Ġfemale":5915,"ĠFlorida":5916,"En":5917,"Ġscient":5918,"Ġbat":5919,"achel":5920,"Ġancient":5921,"ctors":5922,"ĠDep":5923,"ĠJwww":5924,"uhuh":5925,"angle":5926,"Ġadop":5927,"Ġslave":5928,"Ġkinds":5929,"Ġpresently":5930,"Ġtransfer":5931,"Ġraise":5932,"Other":5933,"UL":5934,"Ġaston":5935,"Ġcash":5936,"ĠIr":5937,"aly":5938,"ĠMos":5939,"ĠSen":5940,"Ġplants":5941,"Ġqual":5942,"Ġremoved":5943,"Ġowner":5944,"Ġseriously":5945,"Ġregret":5946,"Ġgrandma":5947,"Ġapolog":5948,"ĠGreater":5949,"ĠProfessor":5950,"iest":5951,"lock":5952,"uf":5953,"vis":5954,"Ġtough":5955,"Ġdwell":5956,"ano":5957,"another":5958,"ĠCr":5959,"Ġjeal":5960,"Ġinvited":5961,"Ġdinosaur":5962,"ĠCarl":5963,"Ġveh":5964,"Ġissues":5965,"Ġrecognized":5966,"Ġelectric":5967,"itzer":5968,"abriella":5969,"13":5970,"bu":5971,"Ġwave":5972,"Ġsite":5973,"Ġbrilliant":5974,"inger":5975,"rol":5976,"iffe":5977,"Ġexcellent":5978,"wey":5979,"Ġfourth":5980,"Ġinterview":5981,"Ġadmin":5982,"Ġversion":5983,"Help":5984,"IG":5985,"RY":5986,"ials":5987,"ĠMike":5988,"cel":5989,"ummer":5990,"ĠKNOW":5991,"Ġprecious":5992,"Stay":5993,"Ġsigned":5994,"Ġdata":5995,"Ġdeveloped":5996,"Ġresults":5997,"Ġfamiliar":5998,"ĠAustralia":5999,"Ġwounded":6000,"Ġgently":6001,"ĠHim":6002,"Ġrings":6003,"Ġsuffe":6004,"Ġconsequ":6005,"ĠNat":6006,"Ġquit":6007,"Ġguilty":6008,"Ġcrim":6009,"OUT":6010,"Whoa":6011,"Ġcrossed":6012,"ĠGeorg":6013,"mpionship":6014,"ĠMartin":6015,"Ġrabbit":6016,"Love":6017,"Try":6018,"ĠSy":6019,"elcome":6020,"ĠJew":6021,"Ġcompar":6022,"hmm":6023,"Ġrealized":6024,"Ġhorrible":6025,"Ġsymp":6026,"Ġmadam":6027,"Ġcompanions":6028,"Ġseparate":6029,"Ġweapons":6030,"Ġappreciate":6031,"14":6032,"Åį":6033,"Ġtun":6034,"Ġaid":6035,"Ġcave":6036,"Ġfuss":6037,"Ġinn":6038,"Ġstern":6039,"ands":6040,"ĠTri":6041,"ĠLat":6042,"Ġresponse":6043,"Ġstrike":6044,"Ġdescribed":6045,"Ġlonely":6046,"dat":6047,"law":6048,"ught":6049,"Ġwan":6050,"Ġfant":6051,"Ġfreed":6052,"lla":6053,"Ġpension":6054,"Ġlin":6055,"Ġstol":6056,"alled":6057,"ĠCO":6058,"ĠBig":6059,"ellig":6060,"iece":6061,"ĠLake":6062,"eps":6063,"Ġintended":6064,"ockey":6065,"Ġhandsome":6066,"Ġstops":6067,"going":6068,"Ġ2006":6069,"Ġlarger":6070,"Ġmountains":6071,"LO":6072,"gate":6073,"pos":6074,"Ġtid":6075,"Ġtied":6076,"Ġpatter":6077,"Ġreve":6078,"riff":6079,"umed":6080,"umble":6081,"ops":6082,"ĠRoger":6083,"Ġenemies":6084,"Ġprovide":6085,"Ġpositive":6086,"ĠCourt":6087,"fers":6088,"pir":6089,"sighs":6090,"Ġbi":6091,"Ġyo":6092,"Ġvoices":6093,"Ġprovided":6094,"Ġartist":6095,"Hmm":6096,"Ġdust":6097,"Ġpity":6098,"ette":6099,"Ġknight":6100,"ĠDar":6101,"ĠDay":6102,"ĠDutch":6103,"Ġsuffic":6104,"Ġspare":6105,"Ġlog":6106,"Ġappl":6107,"obile":6108,"Ġkinda":6109,"aze":6110,"Ġtribes":6111,"Everyone":6112,"Ġsettlement":6113,"iggles":6114,"ĠRussian":6115,"Leave":6116,"itzerland":6117,"Sit":6118,"ga":6119,"Ġcit":6120,"Ġlid":6121,"oma":6122,"Ġthorough":6123,"Ġbee":6124,"Ġaltogether":6125,"agu":6126,"Ġgreatly":6127,"ĠChina":6128,"Ġ40":6129,"Ġincident":6130,"ĠDewey":6131,"Ġlearning":6132,"Steve":6133,"ĠSwitzerland":6134,"Ġslept":6135,"Ġautom":6136,"Ġinquired":6137,"ĠMexico":6138,"Ġevidently":6139,"ĠInternational":6140,"Ġjealous":6141,"dis":6142,"gi":6143,"Ġtear":6144,"hee":6145,"llen":6146,"enny":6147,"ases":6148,"Ġlies":6149,"Ġrise":6150,"ĠNight":6151,"aval":6152,"Ġactive":6153,"Ġcrash":6154,"Ġdeser":6155,"Ġdrown":6156,"Ġteams":6157,"Ġaccepted":6158,"ĠJimmy":6159,"ĠRoyal":6160,"Ġstreets":6161,"Ġbodies":6162,"Ros":6163,"Ġpour":6164,"ĠMic":6165,"Ġmyster":6166,"...\"":6167,"izabeth":6168,"Ġslipped":6169,"ĠChinese":6170,"Ġwondered":6171,"ĠArab":6172,"Ġ2009":6173,"Ġconstit":6174,"Ġexperien":6175,"Ġjumped":6176,"Ġprisoner":6177,"ĠPerhaps":6178,"Ġprogramme":6179,"Ġaffair":6180,"Move":6181,"[.":6182,"orse":6183,"Ġpile":6184,"Ġpump":6185,"Ġgained":6186,"ompl":6187,"Ġmel":6188,"ĠSim":6189,"ĠBible":6190,"Ġrare":6191,"Ġsociety":6192,"ĠTra":6193,"ĠFrost":6194,"Ġconfidence":6195,"Ġsending":6196,"Ġhoping":6197,"Ġspecific":6198,"ĠEuropean":6199,"ĠTurk":6200,"Ġdegree":6201,"fly":6202,"ridge":6203,"tin":6204,"eral":6205,"Ġmap":6206,"ĠMajesty":6207,"eable":6208,"Ġbitter":6209,"anches":6210,"Ġeaten":6211,"IST":6212,"Ġ2007":6213,"ĠReg":6214,"ĠBlue":6215,"Ġdelicious":6216,"eat":6217,"year":6218,"Ġtent":6219,"Ġsorrow":6220,"Ġpup":6221,"Ġhabit":6222,"Ġseek":6223,"reeks":6224,"Ġblame":6225,"Ġbetray":6226,"ileen":6227,"ocr":6228,"Ġrifle":6229,"ART":6230,"Ġsquee":6231,"ĠCarol":6232,"Anyway":6233,"Ġnurs":6234,"Ġtitle":6235,"Ġrapidly":6236,"Glory":6237,"ĠZealand":6238,"Ġscience":6239,"hab":6240,"Ġbike":6241,"Ġbend":6242,"ria":6243,"Ġnovel":6244,"ĠRel":6245,"ĠKat":6246,"Ġresour":6247,"Ġ2015":6248,"Ġrelax":6249,"Ġsigns":6250,"Ġpursu":6251,"Ġobjects":6252,"ĠCanada":6253,"Ġbesides":6254,"Ġdelighted":6255,"Ġsatisfied":6256,"ashington":6257,"olarship":6258,"ocratic":6259,"Ġaverage":6260,"long":6261,"Ġtv":6262,"Ġtiger":6263,"Ġboun":6264,"Ġfac":6265,"Ġhidden":6266,"ĠBu":6267,"acks":6268,"ĠDel":6269,"Ġspite":6270,"hib":6271,"Ġsmooth":6272,"Ġactual":6273,"Ġends":6274,"Ġmoments":6275,"ception":6276,"Ġcreature":6277,"Ġrecognize":6278,"Ġshopping":6279,"mes":6280,"nic":6281,"Ġhaha":6282,"icles":6283,"Ġrejo":6284,"Ġange":6285,"berg":6286,"Ġchosen":6287,"ailed":6288,"awa":6289,"ATION":6290,"Ġbreaking":6291,"Ġswitch":6292,"Ġrestaur":6293,"Ġtransport":6294,"Ġkissed":6295,"Ġtender":6296,"THAT":6297,"lim":6298,"Ġwra":6299,"Ġyard":6300,"Ġpil":6301,"omach":6302,"Ġsevere":6303,"ĠChan":6304,"Ġrising":6305,"Ġuses":6306,"asty":6307,"Ġamb":6308,"Ġunfortun":6309,"Ġbegins":6310,"Ġtrial":6311,"Ġstudents":6312,"Ġcooking":6313,"AKE":6314,"Ġarrested":6315,"Remember":6316,"Make":6317,"While":6318,"bel":6319,"dad":6320,"mom":6321,"making":6322,"Ġsin":6323,"Ġbark":6324,"Ġdea":6325,"ena":6326,"alent":6327,"ado":6328,"ĠSee":6329,"Ġgoal":6330,"inda":6331,"ĠEX":6332,"Ġclient":6333,"Ġgrace":6334,"Ġcommunic":6335,"Ġhighly":6336,"Ġextent":6337,"Ġdolls":6338,"Ġapartment":6339,"Ġmurd":6340,"Ġdamage":6341,"Ġturtle":6342,"Ġperformance":6343,"Ġmirror":6344,"OF":6345,"Te":6346,"Watch":6347,"cr":6348,"iation":6349,"Ġwise":6350,"Ġfate":6351,"Ġnic":6352,"gend":6353,"Ġours":6354,"Ġresist":6355,"Ġrooms":6356,"Ġswift":6357,"Still":6358,"Looks":6359,"Ġdestroyed":6360,"ederal":6361,"ĠAfrica":6362,"Ġestablished":6363,"Ġnervous":6364,"Fl":6365,"Hurry":6366,"gly":6367,"know":6368,"omed":6369,"ĠMot":6370,"ĠMont":6371,"ĠMajor":6372,"alley":6373,"illed":6374,"ĠLi":6375,"Ġvain":6376,"icking":6377,"ĠĠĠĠĠ":6378,"Ġbreast":6379,"Ġsooner":6380,"ISS":6381,"Ġshooting":6382,"Ġnormally":6383,"Ġpirates":6384,"Ġelephant":6385,"Ġsuffered":6386,"\"'":6387,"Sm":6388,"eks":6389,"gues":6390,"hah":6391,"enger":6392,"Ġgay":6393,"Ġnation":6394,"Ġnorthern":6395,"rier":6396,"ĠMount":6397,"ĠSel":6398,"Ġshr":6399,"Ġloving":6400,"Ġscreen":6401,"Ġpointed":6402,"Ġpicking":6403,"Ġformula":6404,"Ġseventy":6405,"Ġdrugs":6406,"Ġsports":6407,"Ġnursery":6408,"11":6409,"__":6410,"hus":6411,"lings":6412,"real":6413,"really":6414,"Ġbent":6415,"Ġborrow":6416,"Ġowe":6417,"alph":6418,"stead":6419,"ĠHello":6420,"Ġrang":6421,"uman":6422,"Ġguest":6423,"Ġbiggest":6424,"Ġnorthwest":6425,"Ġpaused":6426,"NA":6427,"UM":6428,"bark":6429,"hun":6430,"arly":6431,"Ġinvent":6432,"Ġhorn":6433,"Ġdoggie":6434,"ams":6435,"ĠAct":6436,"ĠThanks":6437,"ĠPak":6438,"Ġboot":6439,"Ġboots":6440,"Ġchanging":6441,"ĠFranc":6442,"ĠHarris":6443,"Ġrecords":6444,"Ġveget":6445,"Ġequal":6446,"Ġtreated":6447,"Ġavoid":6448,"Ġflew":6449,"Ġeagerly":6450,"Ġdeliver":6451,"Bob":6452,"IES":6453,"Yep":6454,"after":6455,"mark":6456,"ugh":6457,"Ġcaut":6458,"Ġpow":6459,"ĠCross":6460,"ĠGreen":6461,"iano":6462,"Ġchums":6463,"Ġopens":6464,"Ġpassion":6465,"Ġmethod":6466,"Ġcutting":6467,"ological":6468,"Ġdivor":6469,"Ġmajority":6470,"Ġblanket":6471,"Next":6472,"Ġmaterial":6473,"Today":6474,"nine":6475,"enced":6476,"ĠCON":6477,"Ġdelay":6478,"ability":6479,"Ġcomr":6480,"Ġproved":6481,"Ġpoison":6482,"Ġfounded":6483,"Ġsorts":6484,"Ġstudied":6485,"Ġlocated":6486,"umbled":6487,"ĠFaith":6488,"Ġsouthern":6489,"Ġpor":6490,"stery":6491,"ĠARE":6492,"elled":6493,"ores":6494,"ĠFin":6495,"izza":6496,"Ġstring":6497,"Ġrecomm":6498,"Ġaccompl":6499,"Ġrelief":6500,"Ġclosely":6501,"orkshire":6502,"Ġexercise":6503,"Ġgrateful":6504,",]":6505,"Aha":6506,"WHAT":6507,"lers":6508,"Ġsen":6509,"hamed":6510,"irteen":6511,"Ġunus":6512,"Ġpregn":6513,"Ġwriter":6514,"ĠBrown":6515,"Ġpainting":6516,"Ġparticip":6517,"Ġrolling":6518,"Ġproposed":6519,"Ġresponsibility":6520,"ĠAcademy":6521,"ĠOxford":6522,"Father":6523,"Joe":6524,"mat":6525,"Ġbast":6526,"Ġmig":6527,"Ġmale":6528,"ste":6529,"ĠMi":6530,"Ġgodd":6531,"ĠCong":6532,"umps":6533,"lfriend":6534,"Ġbranches":6535,"Ġadult":6536,"igned":6537,"ĠAnn":6538,"Ġplanned":6539,"Ġadvance":6540,"Ġadvanced":6541,"priate":6542,"Everybody":6543,"Ġfamilies":6544,"Ġescaped":6545,"care":6546,"little":6547,"six":6548,"aned":6549,"Ġkitty":6550,"Ġcannon":6551,"Ġvot":6552,"osta":6553,"oston":6554,"uced":6555,"Think":6556,"Ġcentral":6557,"Ġnewspaper":6558,"ĠXX":6559,"Ġlocked":6560,"Ġefforts":6561,"Ġmatches":6562,"Ġtradition":6563,"Ġshadow":6564,"Ġfarther":6565,"AH":6566,"Ġcig":6567,"Ġsees":6568,"ĠBay":6569,"Ġupper":6570,"about":6571,"ĠLong":6572,"istan":6573,"agn":6574,"Ġtalks":6575,"Ġcomplet":6576,"ĠYorkshire":6577,"ivity":6578,"Ġdesert":6579,"Ġharder":6580,"Ġelected":6581,"Ġtrem":6582,"Ġconcent":6583,"ipper":6584,"iamond":6585,"Ġhoped":6586,"Ġadventure":6587,"isn":6588,"Ġhut":6589,"ĠMill":6590,"ĠMil":6591,"Ġminor":6592,"Ġfarmer":6593,"Ġcolour":6594,"Ġinstance":6595,"Ġchecked":6596,"ĠRussia":6597,"FOR":6598,"Over":6599,"gent":6600,"press":6601,"wyn":6602,"Ġwire":6603,"Ġstomach":6604,"amin":6605,"ĠAyl":6606,"ĠPorter":6607,"ĠFre":6608,"ĠRock":6609,"Ġconclud":6610,"Ġvast":6611,"osely":6612,"weet":6613,"Ġunf":6614,"Ġpron":6615,"ĠStanton":6616,"onsense":6617,"Ġhousehold":6618,"Ġdistinct":6619,"Ġpersons":6620,"Ġconsult":6621,"Ġpulling":6622,"Ġmurm":6623,"Ġbowl":6624,"Ġjacket":6625,"Ġsuffer":6626,"Ġdreadful":6627,"ĠAylmer":6628,"AC":6629,"ACK":6630,"More":6631,"ige":6632,"Ġbump":6633,"aring":6634,"ĠOUT":6635,"Whatever":6636,"Ġbrings":6637,"plane":6638,"Ġfields":6639,"Ġfortun":6640,"Ġpirate":6641,"ĠChicago":6642,"Ġsurround":6643,"ĠRoad":6644,"zing":6645,"Ġsang":6646,"Ġcy":6647,"lection":6648,"uma":6649,"Ġalarm":6650,"ĠJer":6651,"Ġgrant":6652,"Ġdeserve":6653,"Ġpersu":6654,"Ġterrit":6655,"Ġkilling":6656,"Ġintern":6657,"ĠPeople":6658,"ĠPrince":6659,"Ġequip":6660,"Ġinnocent":6661,"Ġdunno":6662,"ĠBatala":6663,"New":6664,"dro":6665,"nament":6666,"po":6667,"rough":6668,"Ġtom":6669,"Ġge":6670,"Ġugly":6671,"ĠCOM":6672,"ĠTim":6673,"olic":6674,"soft":6675,"Ġprem":6676,"ahul":6677,"Ġamongst":6678,"Ġburned":6679,"Ġvictory":6680,"Ġcompetition":6681,"Ġmanagement":6682,"Ġobliged":6683,"Ġadminist":6684,"overy":6685,"Ġcents":6686,"Ġdish":6687,"icated":6688,"ĠCAN":6689,"thur":6690,"umm":6691,"ĠWashington":6692,"ĠLos":6693,"Ġworn":6694,"ĠRalph":6695,"Ġcloth":6696,"Ġrope":6697,"ĠKim":6698,"Ġprec":6699,"ĠStep":6700,"Ġfourteen":6701,"ĠAnne":6702,"Ġgrandfather":6703,"ethro":6704,"blue":6705,"Ġfleet":6706,"Ġexecut":6707,"BUT":6708,"Ġaward":6709,"ota":6710,"imit":6711,"Ġconqu":6712,"Ġagre":6713,"Ġarmed":6714,"Ġaffection":6715,"Ġpartly":6716,"Ġmarked":6717,"Ġadmit":6718,"Ġspirits":6719,"Ġstruggle":6720,"Ġbalance":6721,"Ġstolen":6722,"Luc":6723,"sa":6724,"silver":6725,"ware":6726,"Ġbone":6727,"Ġbones":6728,"Ġooh":6729,"ĠMax":6730,"Ġsheet":6731,"ĠPo":6732,"ĠLike":6733,"Ġwhenever":6734,"Ġguide":6735,"eaking":6736,"Ġstandard":6737,"Ġrefused":6738,"atively":6739,"Ġattacked":6740,"ĠAdams":6741,"Ġhighest":6742,"ĠItaly":6743,"Ġemergency":6744,"Ġdisease":6745,"AG":6746,"ni":6747,"Ġtheory":6748,"Ġbon":6749,"Ġdiss":6750,"Ġfaster":6751,"Ġpure":6752,"Ġeastern":6753,"sters":6754,"ĠMur":6755,"Ġshed":6756,"olph":6757,"ĠJerry":6758,"osity":6759,"actor":6760,"Ġpride":6761,"Ġcontribut":6762,"Ġ2005":6763,"Ġservants":6764,"Ġsisters":6765,"Ġheavily":6766,"Ġrequired":6767,"arrass":6768,"Ġdrug":6769,"Ġcitiz":6770,"hta":6771,"Ġwow":6772,"Ġbot":6773,"Ġoo":6774,"Ġdump":6775,"Ġtoss":6776,"Ġlately":6777,"ĠSH":6778,"Ġashamed":6779,"ĠAny":6780,"Ġdescend":6781,"Ġexpensive":6782,"Although":6783,"Ġsuffering":6784,"ĠSecretary":6785,"Poor":6786,"bie":6787,"tw":6788,"Ġbunch":6789,"iture":6790,"ancial":6791,"icing":6792,"amie":6793,"Ġselected":6794,"ĠCast":6795,"ĠHa":6796,"ĠPays":6797,"Ġspeaks":6798,"Ġexha":6799,"venue":6800,"ĠEarth":6801,"Ġhanded":6802,"Ġhelps":6803,"Ġcheap":6804,"Ġchain":6805,"ĠBecause":6806,"Ġmainly":6807,"Ġprotest":6808,"Someone":6809,"Ġsplit":6810,"Ġperformed":6811,"ĠHayden":6812,"Ġscheme":6813,"Ġmagazine":6814,"pot":6815,"vest":6816,"isha":6817,"ormed":6818,"rose":6819,"ĠPL":6820,"ĠPlay":6821,"Ġbold":6822,"Ġdishes":6823,"door":6824,"Ġthroughout":6825,"Ġcheeks":6826,"reams":6827,"ontin":6828,"Ġinstr":6829,"Ġawake":6830,"Ġprior":6831,"Ġoperation":6832,"Ġcreate":6833,"Ġcaptured":6834,"ophie":6835,"ĠRemi":6836,"Turn":6837,"from":6838,"rels":6839,"Ġfed":6840,"Ġlosing":6841,"ĠSomet":6842,"ĠAust":6843,"Ġrhy":6844,"Ġsocks":6845,"unning":6846,"ĠWHAT":6847,"ĠEr":6848,"angers":6849,"Ġkeen":6850,"Ġcontent":6851,"ĠChief":6852,"Ġdrama":6853,"standing":6854,"Ġdriven":6855,"Ġ188":6856,"Ġcircus":6857,"Ġcurrently":6858,"Ġvolume":6859,"Ġintroduced":6860,"Ġpermission":6861,"Ġdocument":6862,"Ġgirlfriend":6863,"Ġentrance":6864,"EP":6865,"aa":6866,"dr":6867,"uction":6868,"Ġben":6869,"Ġtoile":6870,"oms":6871,"athy":6872,"icide":6873,"lyn":6874,"Ġanno":6875,"ĠAileen":6876,"elia":6877,"ĠGames":6878,"Ġspin":6879,"Ġspect":6880,"cca":6881,"Ġcrown":6882,"Ġrescue":6883,"Ġminister":6884,"Ġmarks":6885,"Anything":6886,"bsolutely":6887,"ĠMcGlory":6888,"ĠKorea":6889,"Ġdesperate":6890,"ĠDavis":6891,"war":6892,"orge":6893,"Ġpardon":6894,"rig":6895,"amps":6896,"ĠBoston":6897,"Ġjew":6898,"Ġplus":6899,"ĠFR":6900,"lands":6901,"Ġballoon":6902,"Ġsixteen":6903,"Ġidiot":6904,"Ġsubst":6905,"ĠThree":6906,"Ġdrops":6907,"Ġgrandmother":6908,"Ġstole":6909,"Ġspending":6910,"ĠBritain":6911,"Ġneighborhood":6912,"bird":6913,"met":6914,"uated":6915,"Ġbub":6916,"Ġtoes":6917,"Ġincl":6918,"etty":6919,"amily":6920,"ĠMosely":6921,"ĠSara":6922,"Ġseats":6923,"Ġnotes":6924,"Ġsofa":6925,"think":6926,"romer":6927,"ĠLI":6928,"ĠRes":6929,"udge":6930,"ĠVan":6931,"However":6932,"Ġsetting":6933,"pected":6934,"Ġbasically":6935,"Ġpulls":6936,"Another":6937,"ĠSpain":6938,"Ġdemon":6939,"ĠCanad":6940,"Ġdisappear":6941,"ratulations":6942,"Ġscratch":6943,"Up":6944,"coughs":6945,"ollow":6946,"zed":6947,"heast":6948,"Ġpages":6949,"Ġlit":6950,"ĠAS":6951,"ĠDON":6952,"ĠLilian":6953,"Ġgotten":6954,"Ġqueen":6955,"Ġletting":6956,"Ġguests":6957,"Ġshaking":6958,"ĠYoung":6959,"Ġsword":6960,"Ġlessons":6961,"ekaboo":6962,"Ġpoliceman":6963,"Ġepisode":6964,"Boy":6965,"bb":6966,"ev":6967,"mond":6968,"ture":6969,"Ġtu":6970,"had":6971,"Ġfence":6972,"Ġpushing":6973,"rif":6974,"ĠSure":6975,"ĠAnt":6976,"ĠLie":6977,"ousers":6978,"Ġarch":6979,"Ġflung":6980,"Ġflash":6981,"ĠUN":6982,"Ġgiant":6983,"ibi":6984,"Ġboxes":6985,"Ġtravell":6986,"Ġpurcha":6987,"Ġwinning":6988,"Ġadmir":6989,"Ġdisappointed":6990,"ĠGeorgia":6991,"Ġequipment":6992,"Americ":6993,"gment":6994,"giggles":6995,"ĠÃ":6996,"Ġbay":6997,"Ġpowers":6998,"iculous":6999,"ĠSa":7000,"ĠSqu":7001,"ĠBest":7002,"ĠHill":7003,"Ġsale":7004,"acker":7005,"hole":7006,"Ġthrows":7007,"Ġremains":7008,"ĠVirgin":7009,"Ġswall":7010,"Ġ1990":7011,"Ġ1980":7012,"Ġfailure":7013,"Ġregarded":7014,"Ġembarrass":7015,"Ġactivity":7016,"ĠCollege":7017,"Has":7018,"Last":7019,"Out":7020,"eding":7021,"Ġgle":7022,"keys":7023,"ĠSoo":7024,"Ġsem":7025,"Ġseized":7026,"ĠBilly":7027,"ĠWal":7028,"ĠLE":7029,"Ġ2000":7030,"Ġcountryside":7031,"Ġexplan":7032,"Ġtremb":7033,"Ġpresented":7034,"Ġtyp":7035,"Ġmiserable":7036,"Ġticket":7037,"Ġincreased":7038,"Ġbriefly":7039,"Ġimprove":7040,"bar":7041,"Ã¨":7042,"oug":7043,"Ġmouse":7044,"ingle":7045,"acle":7046,"lying":7047,"ĠBed":7048,"ĠBrian":7049,"ĠHome":7050,"ĠHolly":7051,"ĠWOR":7052,"Ġplastic":7053,"ĠGreek":7054,"ĠLight":7055,"raw":7056,"Ġune":7057,"Ġboyfriend":7058,"Ġappointed":7059,"Ġbelt":7060,"Ġowned":7061,"Ġaccess":7062,"ĠArmy":7063,"Ġchairs":7064,"Ġprompt":7065,"Ġreported":7066,"Ġvillages":7067,"Ġmicrophone":7068,"Four":7069,"Most":7070,"ata":7071,"Ġwealth":7072,"sell":7073,"ĠPre":7074,"ĠPir":7075,"ĠDiv":7076,"ĠDada":7077,"orted":7078,"odd":7079,"ialect":7080,"âĻ«":7081,"Ġwarning":7082,"Ġrelie":7083,"Ġhurts":7084,"Ġdecor":7085,"Ġsubm":7086,"Ġsweetheart":7087,"Ġprotection":7088,"Ġholes":7089,"Ġarranged":7090,"Ġsucceeded":7091,"El":7092,"eys":7093,"tic":7094,"ua":7095,"itar":7096,"Ġmood":7097,"Ġcats":7098,"Ġdoo":7099,"Ġgreet":7100,"Ġwashed":7101,"ĠBon":7102,"ĠTw":7103,"Ġaband":7104,"ĠFirst":7105,"Ġsecure":7106,"Ġglanced":7107,"Ġdistant":7108,"Ġpossession":7109,"Ġlesson":7110,"Ġbullet":7111,"Ġproduce":7112,"Ġhousing":7113,"Ġcandy":7114,"Adam":7115,"IAN":7116,"Ġbore":7117,"Ġwashing":7118,"ĠMus":7119,"Ġash":7120,"umph":7121,"ĠFar":7122,"Ġgrat":7123,"ĠKelly":7124,"pless":7125,"Ġunable":7126,"Ġuncom":7127,"ĠUP":7128,"ccording":7129,"intend":7130,"ĠYe":7131,"Ġnights":7132,"Ġbushes":7133,"Ġï¿½ï¿½ï¿½ï¿½ï¿½":7134,"Ġmusical":7135,"Ġlanded":7136,"Ġbecomes":7137,"Ġemotion":7138,"Ġreports":7139,"Ġbaseball":7140,"Ġpillow":7141,"Ġfalse":7142,"22":7143,"Fin":7144,"Ser":7145,"cies":7146,"ipping":7147,"zo":7148,"ĠMia":7149,"ĠSC":7150,"inky":7151,"ĠJake":7152,"ĠLove":7153,"Ġparties":7154,"ĠUh":7155,"Ġscare":7156,"neath":7157,"ĠBefore":7158,"ĠĠĠĠĠĠĠ":7159,"Ġconstruction":7160,"gypt":7161,"Ġarrival":7162,"Ġcompanies":7163,"Ġdelightful":7164,"culiar":7165,"Ġconnection":7166,"corn":7167,"Ġmaid":7168,"orious":7169,"Ġpitch":7170,"Ġgri":7171,"Ġthirteen":7172,"idays":7173,"Ġrear":7174,"Ġanger":7175,"ĠSav":7176,"eav":7177,"ĠCatherine":7178,"ĠWood":7179,"Ġgray":7180,"inton":7181,"ĠYear":7182,"Ġmighty":7183,"Ġminds":7184,"ertainly":7185,"Ġapproached":7186,"Ġfrogs":7187,"Ġrolled":7188,"Ġcharacters":7189,"Ġwaves":7190,"Ġpigs":7191,"Christ":7192,"Ġprincess":7193,"Ġextremely":7194,"Sha":7195,"case":7196,"Ġtip":7197,"Ġwipe":7198,"rek":7199,"oni":7200,"Ġborder":7201,"Ġdialect":7202,"Ġlt":7203,"imp":7204,"Ġrent":7205,"Ġmeas":7206,"Ġanti":7207,"Ġjoint":7208,"Ġcommer":7209,"issa":7210,"Ġguid":7211,"rub":7212,"Ġcompos":7213,"Ġchoo":7214,"Ġcontest":7215,"Ġcommun":7216,"Ġenthus":7217,"oki":7218,"ĠWillie":7219,"AME":7220,"Ġbenefit":7221,"Ġglasses":7222,"ĠBertha":7223,"ĠTurkish":7224,"Ġenthusi":7225,"belt":7226,"uit":7227,"Ġsigh":7228,"Ġder":7229,"Ġfest":7230,"esh":7231,"Ġlibr":7232,"Ġdebut":7233,"ulate":7234,"ĠDuring":7235,"Ġconcl":7236,"Ġexceed":7237,"ĠEgypt":7238,"Ġpeculiar":7239,"Ġhappiness":7240,"Ġimpl":7241,"Donald":7242,"Ġconscious":7243,"ĠAmericans":7244,"Ġbasis":7245,"Exactly":7246,"Ġdaily":7247,"Ġconsiderable":7248,"ĠScott":7249,"Ġselling":7250,"ĠRichards":7251,"ĠChild":7252,"Ġfolk":7253,"Ġadventures":7254,"Ġmixed":7255,"Jesus":7256,"Shall":7257,"bury":7258,"cod":7259,"phew":7260,"rison":7261,"Ġbeer":7262,"ilight":7263,"Ġrank":7264,"Ġamend":7265,"new":7266,"Mmm":7267,"lessly":7268,"Ġexception":7269,"ALLY":7270,"Ġcollection":7271,"ĠScholarship":7272,"ĠMatthew":7273,"ĠLabour":7274,"Ġfreedom":7275,"Ġtoilet":7276,"Dear":7277,"Ġwicked":7278,"Ġfacing":7279,"eness":7280,"Ġincome":7281,"imme":7282,"ĠHart":7283,"Ġwheels":7284,"ĠLola":7285,"ivered":7286,"emon":7287,"Ġprospect":7288,"Ġunit":7289,"Ġchose":7290,"Ġcommitted":7291,"nothing":7292,"Ġmetal":7293,"Ġtreasure":7294,"Ġsticks":7295,"Ġwaters":7296,"Ġ1960":7297,"Ġinterrupts":7298,"ĠBurton":7299,"Captain":7300,"Har":7301,"Little":7302,"Ġtale":7303,"Ġwishes":7304,"Ġcoun":7305,"lled":7306,"Ġpressed":7307,"Ġpiano":7308,"Ġnomin":7309,"acious":7310,"sec":7311,"umes":7312,"ĠPan":7313,"ĠLin":7314,"ibly":7315,"Ġsounded":7316,"âĢĺ_":7317,"Ġphr":7318,"Ġphil":7319,"ĠArt":7320,"Ġtraffic":7321,"Ġ2004":7322,"whoa":7323,"Ġpurs":7324,"Ġreplaced":7325,"Ġstronger":7326,"Ġbearing":7327,"ĠElizabeth":7328,"ĠAfrican":7329,"ursday":7330,"Ġclouds":7331,"Ġunusual":7332,"Aren":7333,"Back":7334,"Damn":7335,"aft":7336,"uries":7337,"Ġtempt":7338,"Ġnuts":7339,"rial":7340,"Ġseated":7341,"Ġshy":7342,"ĠPh":7343,"ĠDet":7344,"ĠNick":7345,"ĠEmp":7346,"ĠOther":7347,"ague":7348,"Ġload":7349,"Ġbegun":7350,"Ġswept":7351,"ĠBecky":7352,"Ġthousands":7353,"Ġincludes":7354,"engers":7355,"Ġdetails":7356,"Ġpotatoes":7357,"Ġoriginally":7358,"Ġconditions":7359,"Com":7360,"EM":7361,"ras":7362,"Ġcounter":7363,"Ġduh":7364,"anks":7365,"Ġnest":7366,"Ġhills":7367,"ĠSA":7368,"ĠCom":7369,"Ġhers":7370,"cking":7371,"Ġtrousers":7372,"were":7373,"Ġappeal":7374,"Ġslip":7375,"Ġ31":7376,"boat":7377,"ĠAtl":7378,"Ġlanguages":7379,"lemn":7380,"ĠAngeles":7381,"Ġconduct":7382,"Ġindustry":7383,"$=":7384,"lict":7385,"oons":7386,"Ġwre":7387,"Ġwings":7388,"onies":7389,"Ġthrill":7390,"Ġreview":7391,"Ġforb":7392,"stone":7393,"ros":7394,"ĠSun":7395,"ĠSanta":7396,"Ġsolemn":7397,"ĠPers":7398,"Ġjustice":7399,"resp":7400,"Ġuseless":7401,"Ġspark":7402,"Ġrode":7403,"Ġblowing":7404,"Ġchick":7405,"anche":7406,"ANK":7407,"Ġpassage":7408,"Ġsteel":7409,"Ġstudent":7410,"Ġtypes":7411,"Ġarrive":7412,"Ġdebate":7413,"Ġrevolution":7414,"Ġachieve":7415,"Ġincredible":7416,"wa":7417,"yard":7418,"Ġaye":7419,"Ġdull":7420,"ira":7421,"ĠBord":7422,"ĠGirl":7423,"useum":7424,"Ġunex":7425,"Ġkeys":7426,"Ġoldest":7427,"Ġrecent":7428,"OUR":7429,"Ġacid":7430,"Ġrepro":7431,"ITT":7432,"Ġsquir":7433,"Ġtransl":7434,"Ġsalt":7435,"Ġgolden":7436,"iffs":7437,"nesday":7438,"Ġnearest":7439,"Ġtroubles":7440,"Ġshelter":7441,"Ġfeatures":7442,"Ġmysterious":7443,"Ġpregnant":7444,"Big":7445,"Em":7446,"Open":7447,"bour":7448,"Ġfetch":7449,"inging":7450,"Ġreaches":7451,"ĠBaker":7452,"ili":7453,"ĠPlease":7454,"Ġloft":7455,"Ġbrace":7456,"Ġlegend":7457,"Ġdisplay":7458,"Ġslide":7459,"IND":7460,"Ġswear":7461,"Ġframe":7462,"Ġimpression":7463,"okes":7464,"Ġsteady":7465,"umbling":7466,"Ġsatisfaction":7467,"Ġpsych":7468,"Ġromantic":7469,"ĠCampbell":7470,"\"]":7471,"Mark":7472,"ROU":7473,"Welcome":7474,"gt":7475,"gabr":7476,"Ġx":7477,"Ġdiamond":7478,"Ġpizza":7479,"Ġinha":7480,"Ġitems":7481,"vering":7482,"Ġstout":7483,"ĠMu":7484,"ĠSU":7485,"Ġliqu":7486,"ĠCons":7487,"ĠHannah":7488,"Ġrat":7489,"Ġability":7490,"Ġaltern":7491,"Ġintense":7492,"Ġhelpless":7493,"INE":7494,"Ġsuppl":7495,"gery":7496,"goes":7497,"ĠGran":7498,"Ġdivision":7499,"Ġlegal":7500,"ĠScot":7501,"Ġaffairs":7502,"UNT":7503,"Ġreferred":7504,"Ġoccupied":7505,"Ġwhistle":7506,"Ġrestaurant":7507,"40":7508,"Five":7509,"SO":7510,"TON":7511,"san":7512,"ties":7513,"uy":7514,"Ġbatt":7515,"iser":7516,"Ġpipe":7517,"ayne":7518,"ĠBa":7519,"ĠNO":7520,"venge":7521,"âĢĿ.":7522,"Ġunion":7523,"Ġdisag":7524,"Ġchase":7525,"Ġladder":7526,"Ġdollar":7527,"Ġcookies":7528,"Ġillness":7529,"Ġdawn":7530,"Ġcalcul":7531,"Ġzoo":7532,"Ġbelongs":7533,"Ġbanks":7534,"Ġsource":7535,"Ġresources":7536,"April":7537,"dale":7538,"ients":7539,"mine":7540,"Ġsam":7541,"erk":7542,"Ġbisc":7543,"Ġcanton":7544,"enne":7545,"Ġlamp":7546,"ali":7547,"Ġkm":7548,"Ġnephew":7549,"ĠWas":7550,"Ġconvin":7551,"udden":7552,"ptions":7553,"hess":7554,"Ġ2002":7555,"Ġdetect":7556,"Ġnecessarily":7557,"Ġridiculous":7558,"Ġinterrupted":7559,"Probably":7560,"Ġmurdered":7561,"Ġinternational":7562,"Absolutely":7563,"ov":7564,"Ã±":7565,"hered":7566,"Ġarose":7567,"Ġsink":7568,"Ġgain":7569,"iches":7570,"Ġreward":7571,"Ġstiff":7572,"Their":7573,"ĠSal":7574,"ĠServ":7575,"ĠAwards":7576,"ĠCreeks":7577,"aine":7578,"Ġmystery":7579,"ĠPri":7580,"ĠGil":7581,"ĠGabriella":7582,"ĠRod":7583,"Ġfever":7584,"rences":7585,"ĠClar":7586,"Ġapproaching":7587,"Ġappropriate":7588,"ippi":7589,"ĠMexican":7590,"Ġmuttered":7591,"Ġreligion":7592,"BY":7593,"Eh":7594,"oves":7595,"push":7596,"walk":7597,"Ġtrop":7598,"Ġbid":7599,"asa":7600,"ĠSouthern":7601,"Ġassemb":7602,"Ġris":7603,"Ġrag":7604,"Ġrude":7605,"ĠFire":7606,"ĠFair":7607,"Ġsposta":7608,"becca":7609,"nee":7610,"Ġfinds":7611,"Ġattitude":7612,"Ġsupply":7613,"Ġthankful":7614,"Ġexplos":7615,"Ġcrap":7616,"Ġdressing":7617,"Ġleaders":7618,"Ġexpecting":7619,"Ġforeign":7620,"Ġrecording":7621,"ĠKingdom":7622,"Ġclimbing":7623,"Ġlimited":7624,"Ġplatform":7625,"ĠIrish":7626,"25":7627,"GO":7628,"Pre":7629,"foot":7630,"sque":7631,"talk":7632,"Ġtack":7633,"erous":7634,"aling":7635,"ĠCompany":7636,"Ġroles":7637,"Ġroyal":7638,"Ġunderneath":7639,"HEN":7640,"Ġcris":7641,"Ġchamp":7642,"Ġnicely":7643,"Ġfinancial":7644,"unts":7645,"Ġ2003":7646,"Ġbuildings":7647,"Ġsales":7648,"eanwhile":7649,"Ġproceeded":7650,"Ġmerely":7651,"Alexander":7652,"Ġbastard":7653,"Ġlibrary":7654,"SC":7655,"bling":7656,"rated":7657,"Ġward":7658,"Ġbin":7659,"arl":7660,"rog":7661,"ĠSummer":7662,"ĠWed":7663,"quar":7664,"Ġnoble":7665,"theless":7666,"Ġworkers":7667,"Ġsomethin":7668,"Ġproof":7669,"Ġassured":7670,"Ġlanding":7671,"Ġvisited":7672,"Ġdivided":7673,"Ġdesigned":7674,"Ġblew":7675,"ĠGovernor":7676,"Ġpowder":7677,"ĠVirginia":7678,"ban":7679,"cream":7680,"nice":7681,"Ġtummy":7682,"Ġlamb":7683,"ĠSand":7684,"ĠSpr":7685,"Ġjun":7686,"pple":7687,"igan":7688,"ĠOur":7689,"ĠOak":7690,"Ġintellig":7691,"issippi":7692,"Ġkindness":7693,"Ġdrag":7694,"Ġcharges":7695,"Ġimpati":7696,"Ġexped":7697,"fortable":7698,"Ġlaws":7699,"Shit":7700,"ompan":7701,"Ġbelonged":7702,"Ġviolence":7703,"Ġcheerful":7704,"ĠEliot":7705,"ĠFrancis":7706,"Ġunexpected":7707,"ca":7708,"gbark":7709,"nor":7710,"wan":7711,"zer":7712,"Ġwitch":7713,"uties":7714,"ĠMall":7715,"ĠTer":7716,"Ġplot":7717,"ĠJess":7718,"Ġvig":7719,"Ġleather":7720,"Ġ(;":7721,"Ġunif":7722,"Ġunhappy":7723,"ruct":7724,"pecial":7725,"Ġapples":7726,"Ġchuck":7727,"Ġfollows":7728,"Ġdrift":7729,"Ġconfident":7730,"Ġcurtain":7731,"Ġauthorities":7732,"Ġverb":7733,"ĠWilliams":7734,"Ġdemanded":7735,"Ġphysical":7736,"ĠGovernment":7737,"Ġfocus":7738,"Ġpronoun":7739,"During":7740,"Jim":7741,"Want":7742,"eight":7743,"ping":7744,"uct":7745,"Ġtank":7746,"Ġast":7747,"Ġsought":7748,"hers":7749,"ĠAsh":7750,"ĠWould":7751,"ardo":7752,"Ġconference":7753,"Ġenc":7754,"Ġsched":7755,"ipina":7756,"Ġpolite":7757,"Ġelev":7758,"Ġexchan":7759,"Ġtrains":7760,"ikander":7761,"Ġshouting":7762,"Ġremaining":7763,"ĠBraz":7764,"ĠReliance":7765,"Ġcigaret":7766,"green":7767,"uable":7768,"itable":7769,"Ġmama":7770,"escue":7771,"add":7772,"Ġstove":7773,"Ġmeasure":7774,"throw":7775,"ĠRay":7776,"aka":7777,"Ġvic":7778,"Ġguards":7779,"Ġaccord":7780,"Ġfuneral":7781,"Ġreturning":7782,"Ġtrave":7783,"Ġimportance":7784,"Ġcleaning":7785,"Ġappears":7786,"Ġcosts":7787,"Ġprisoners":7788,"Ġteachers":7789,"Ġproduction":7790,"Ġdiscussion":7791,"Ġintroduce":7792,"60":7793,"nam":7794,"pull":7795,"too":7796,"toy":7797,"rend":7798,"Ġbul":7799,"Ġtooth":7800,"Ġpic":7801,"Ġlat":7802,"Ġhug":7803,"ĠMass":7804,"Ġsequ":7805,"ĠHon":7806,"Ġrust":7807,"Ġrider":7808,"Ġdeer":7809,"rying":7810,"hia":7811,"never":7812,"gger":7813,"arson":7814,"leton":7815,"uesday":7816,"Ġ60":7817,"Anne":7818,"Ġcreatures":7819,"Ġmerry":7820,"Ġviolent":7821,"Ġgarage":7822,"ĠMerrim":7823,"ĠWindows":7824,"Ġroute":7825,"Ġargument":7826,"ĠCongress":7827,"Ġcompleted":7828,"Life":7829,"cles":7830,"squ":7831,"Ġtin":7832,"Ġcouch":7833,"Ġdug":7834,"Ġbelly":7835,"Ġere":7836,"eau":7837,"ĠCromer":7838,"Ġrage":7839,"ĠWestern":7840,"ĠDis":7841,"igger":7842,"Ġenqu":7843,"Ġunknown":7844,"Ġdisg":7845,"Ġfacts":7846,"ĠArthur":7847,"Ġwinner":7848,"Ġsweetie":7849,"ĠReally":7850,"ĠProv":7851,"Ġburden":7852,"ĠCommittee":7853,"Ġextraord":7854,"ĠGrandma":7855,"points":7856,"Ġchemical":7857,"ĠSusan":7858,"ĠLatin":7859,",...":7860,"[$=":7861,"Ġwret":7862,"refers":7863,"Ġcord":7864,"hati":7865,"Ġgrey":7866,"Ġstared":7867,"Ġmechan":7868,"ĠGar":7869,"ĠFoot":7870,"Ġintention":7871,"Ġcock":7872,"Ġ190":7873,"Ġpointing":7874,"Ġmob":7875,"Ġmustn":7876,"Ġeats":7877,"ĠMississippi":7878,"ï¿½ï¿½ï¿½":7879,"Ġmidst":7880,"Ġconstant":7881,"Ġmercy":7882,"ĠOnly":7883,"ICE":7884,"dded":7885,"Ġringing":7886,"Ġorganization":7887,"Ġcandid":7888,"Ġwarriors":7889,"Ġindependent":7890,"boo":7891,"wick":7892,"Ġpond":7893,"ĠIm":7894,"atre":7895,"Ġheight":7896,"Ġdoctors":7897,"âĢķ":7898,"ĠTan":7899,"ĠWacker":7900,"ĠDa":7901,"ĠJUST":7902,"ĠJethro":7903,"ĠEric":7904,"Ġlover":7905,"Ġclap":7906,"Ġreality":7907,"Ġdrank":7908,"Ġconfusion":7909,"Ġservant":7910,"Ġmistaken":7911,"Ġdistricts":7912,"Ġcomplain":7913,"Uncle":7914,"Ġportion":7915,"Ġpossibility":7916,"hetti":7917,"Ġreligious":7918,"Edna":7919,"ĠMickey":7920,"Ġconcluded":7921,"ĠCanadian":7922,"BC":7923,"IX":7924,"LING":7925,"bi":7926,"cow":7927,"Ġnonsense":7928,"Ġanal":7929,"ĠSob":7930,"ĠTell":7931,"ĠFe":7932,"ĠNet":7933,"ĠOnce":7934,"agle":7935,"Were":7936,"issed":7937,"Ġcovers":7938,"Ġheaded":7939,"rett":7940,"Ġobtained":7941,"Ġbelief":7942,"Ġretire":7943,"Ġdecent":7944,"shine":7945,"Ġimpress":7946,"Ġextended":7947,"ĠGrace":7948,"ervation":7949,"Ġabsence":7950,"Ġvisitors":7951,"Ġlimit":7952,"Ġcowboy":7953,"Ġcrayons":7954,"ĠSuper":7955,"Ġcritic":7956,"Ġuncomfortable":7957,"Hang":7958,"Time":7959,"fin":7960,"Ġpace":7961,"Ġlink":7962,"Ġthief":7963,"alls":7964,"ĠCho":7965,"ĠWhile":7966,"ĠDun":7967,"ĠDever":7968,"inder":7969,"ĠStand":7970,"avy":7971,"Ġapplic":7972,"Ġendeav":7973,"Ġcommander":7974,"Ġdraft":7975,"puts":7976,"ĠJapazy":7977,"coming":7978,"Ġpacked":7979,"Ġfoolish":7980,"mitage":7981,"Ġthreatened":7982,"remember":7983,"whispering":7984,"ĠCentral":7985,"Ġpunishment":7986,"igsaw":7987,"Ġpattern":7988,"Ġinhabit":7989,"sar":7990,"wen":7991,"wers":7992,"Ġdom":7993,"ĠIll":7994,"utation":7995,"Ġrev":7996,"aki":7997,"ĠNas":7998,"ĠNever":7999,"Ġnowhere":8000,"Ġsmiles":8001,"Ġteaching":8002,"Ġacted":8003,"Ġleaf":8004,"Ġbuying":8005,"ATE":8006,"Ġairplane":8007,"Ġjumping":8008,"Ġclimbed":8009,"Ġtorn":8010,"AUGH":8011,"Ġresolution":8012,"ĠLawrence":8013,"Ġvehicle":8014,"CC":8015,"DO":8016,"HOR":8017,"Many":8018,"Ġwoke":8019,"Ġbishop":8020,"Ġcode":8021,"Ġocean":8022,"seven":8023,"ĠAli":8024,"ilst":8025,"Ġrac":8026,"ĠPac":8027,"Ġwanting":8028,"ĠEv":8029,"Ġuniversity":8030,"Ġthrust":8031,"Ġstrict":8032,"ĠArmitage":8033,"Ġsubs":8034,"Ġattacks":8035,"urious":8036,"Ġtracks":8037,"Check":8038,"ĠABOUT":8039,"Col":8040,"Sec":8041,"XX":8042,"nge":8043,"ois":8044,"uate":8045,"Ġdumb":8046,"Ġlou":8047,"Ġbegged":8048,"acity":8049,"Ġstable":8050,"Ġnoted":8051,"ĠAD":8052,"Ġerr":8053,"Ġflu":8054,"Ġchips":8055,"Ġchildhood":8056,"Ġchum":8057,"Ġdragged":8058,"Ġconfir":8059,"Ġhundreds":8060,"Ġfriendship":8061,"Ġpainted":8062,"Ġinsisted":8063,"Ġstudio":8064,"Ġrecorded":8065,"Ġestim":8066,"ĠWarren":8067,"uki":8068,"kisses":8069,"vocalizes":8070,"uddenly":8071,"BER":8072,"Bring":8073,"Co":8074,"Tony":8075,"bud":8076,"bage":8077,"giving":8078,"lam":8079,"nis":8080,"Ġwip":8081,"Ġmast":8082,"Ġcreek":8083,"Ġdies":8084,"adies":8085,"ĠShow":8086,"Ġlif":8087,"Ġshining":8088,"ĠPen":8089,"ĠLit":8090,"odes":8091,"endous":8092,"Ġprince":8093,"Ġchamber":8094,"Ġindign":8095,"ĠEdward":8096,"Ġsleepy":8097,"Ġaddressed":8098,"Ġconfused":8099,"CHAR":8100,"ĠClub":8101,"ĠCarter":8102,"Ġmidnight":8103,"Ġbreathing":8104,"Ġ1970":8105,"ĠSwed":8106,"Ġhammer":8107,"ĠDemocratic":8108,"Ġcottage":8109,"Ġcomrades":8110,"24":8111,"Both":8112,"Early":8113,"Such":8114,"away":8115,"Ġsank":8116,"Ġfeared":8117,"asant":8118,"Ġhal":8119,"leg":8120,"Ġitem":8121,"ĠHend":8122,"ainted":8123,"Ġnodded":8124,"ĠGarth":8125,"ĠRose":8126,"eme":8127,"Ġroast":8128,"Ġattached":8129,"lets":8130,"Ġobst":8131,"ORT":8132,"ARY":8133,"ĠAsia":8134,"Ġstopping":8135,"aspberry":8136,"Ġeffects":8137,"Ġtreatment":8138,"Ġtickle":8139,"ĠNothing":8140,"Ġholidays":8141,"playing":8142,"Ġnaturally":8143,"Ġfaithful":8144,"Ġamendment":8145,"ĠDevering":8146,"23":8147,"Happy":8148,"Maggie":8149,"NE":8150,"UE":8151,"hum":8152,"eram":8153,"Ġmac":8154,"Ġcam":8155,"Ġyer":8156,"Ġyum":8157,"Ġthirst":8158,"aman":8159,"ĠHol":8160,"osop":8161,"ĠLower":8162,"ĠKy":8163,"Ġremove":8164,"Ġcapable":8165,"Ġkidna":8166,"Ġawait":8167,"Ġdining":8168,"ASE":8169,"Ġengines":8170,"ĠParliament":8171,"ĠAbout":8172,"Ġanxiety":8173,"Ġconnected":8174,"Ġgradually":8175,"Ġinjured":8176,"Ġculture":8177,"Charlie":8178,"Ġfurniture":8179,"ĠRuthven":8180,"Ġapologize":8181,"American":8182,"21":8183,";\"":8184,"BR":8185,"Jane":8186,"Run":8187,"Under":8188,"War":8189,"fire":8190,"sw":8191,"ouri":8192,"Ġfare":8193,"Ġheap":8194,"Ġhay":8195,"acon":8196,"ĠMet":8197,"ĠMars":8198,"ĠSince":8199,"urbed":8200,"ĠBaby":8201,"ighed":8202,"iana":8203,"Ġpole":8204,"Ġpassengers":8205,"Ġdiscover":8206,"Ġhorror":8207,"Ġsymb":8208,"ĠPrime":8209,"Ġdeeply":8210,"Ġsafely":8211,"Ġprepare":8212,"Ġcapture":8213,"oosa":8214,"Ġassistant":8215,"Ġinvestigation":8216,"break":8217,"krain":8218,"nut":8219,"part":8220,"sk":8221,"Å«":8222,"Ġtables":8223,"eaut":8224,"Ġwhilst":8225,"ĠAbe":8226,"ĠRec":8227,"ĠRolan":8228,"Ġconver":8229,"Ġspots":8230,"Ġanyhow":8231,"aph":8232,"agement":8233,"asses":8234,"hart":8235,"enses":8236,"Ġobvious":8237,"Ġsumm":8238,"Ġadmitted":8239,"Ġceased":8240,"Ġpolicies":8241,"ICK":8242,"Ġkingdom":8243,"Ġwhisper":8244,"Ġbuddy":8245,"pretend":8246,"Ġresponded":8247,"ĠGolden":8248,"yellow":8249,"Ġthoroughly":8250,"Ġmigration":8251,"Ġterritory":8252,"Comm":8253,"Honey":8254,"OS":8255,"Phil":8256,"WELL":8257,"_;":8258,"picks":8259,"rul":8260,"sl":8261,"sho":8262,"Ġwolf":8263,"Ġcows":8264,"Ġtox":8265,"eta":8266,"Ġbears":8267,"alm":8268,"ĠCL":8269,"ĠCath":8270,"ĠBook":8271,"Ġjolly":8272,"Ġyourselves":8273,"Ġupside":8274,"Ġdece":8275,"ĠLang":8276,"ĠRich":8277,"canora":8278,"Ġpresents":8279,"Ġfrank":8280,"Ġassume":8281,"Ġfactory":8282,"Ġplanet":8283,"ĠAsian":8284,"ĠTommy":8285,"ĠIsa":8286,"Ġshark":8287,"Ġlevels":8288,"ĠDanny":8289,"ĠONE":8290,"stitute":8291,"Ġextraordinary":8292,"Pol":8293,"Sam":8294,"VI":8295,"top":8296,"vant":8297,"yy":8298,"yay":8299,"Ġsings":8300,"Ġcakes":8301,"Ġdu":8302,"Ġpud":8303,"Ġgazed":8304,"Ġlic":8305,"Ġhun":8306,"ettle":8307,"Ġreference":8308,"irts":8309,"ĠAL":8310,"ĠGET":8311,"Ġtrace":8312,"Ġunits":8313,"HIS":8314,"Ġflood":8315,"Ġscen":8316,"ĠStill":8317,"icture":8318,"umpy":8319,"Ġmarch":8320,"ĠArm":8321,"Ġexpressed":8322,"Ġrefers":8323,"Ġdefence":8324,"Ġprofessor":8325,"Ġworthy":8326,"ĠDaniel":8327,"Ġkicked":8328,"Ġmemories":8329,"Ġbucks":8330,"Ġstroke":8331,"ĠFortescue":8332,"Ġstretched":8333,"Bessie":8334,"Care":8335,"even":8336,"iries":8337,"Ġ0":8338,"Ġsons":8339,"Ġswell":8340,"onia":8341,"Ġmal":8342,"Ġgrief":8343,"Ġgabr":8344,"ifts":8345,"ĠDes":8346,"ĠFox":8347,"Ġvoy":8348,"hings":8349,"text":8350,"ĠUp":8351,"Ġimit":8352,"Ġcommit":8353,"Ġaccompan":8354,"Ġobtain":8355,"Ġdistingu":8356,"Ġretreat":8357,"Ġwooden":8358,"Ġstaring":8359,"Ġquarters":8360,"Ġpackage":8361,"Ġlabour":8362,"Ġhealthy":8363,"Ġrepresented":8364,"Ġignor":8365,"Ġaffected":8366,"Ġwrapped":8367,"Ġphrase":8368,"ĠBorden":8369,":--":8370,"AF":8371,"Bill":8372,"GR":8373,"PL":8374,"Pardon":8375,"first":8376,"girl":8377,"tes":8378,"Ġbord":8379,"Ġpist":8380,"omi":8381,"Ġthunder":8382,"Ġbeating":8383,"acco":8384,"urd":8385,"olk":8386,"Ġenorm":8387,"ints":8388,"Ġsmoking":8389,"Ġcomplex":8390,"Ġattended":8391,"Ġconsist":8392,"Ġreduced":8393,"Ġinsist":8394,"iverse":8395,"Ġdescribe":8396,"Ġhasta":8397,"inois":8398,"ustomed":8399,"Ġphoto":8400,"Ġarrows":8401,"keeper":8402,"Ġsignificant":8403,"Ġpilot":8404,"ĠPakistan":8405,"ĠWednesday":8406,"bro":8407,"gie":8408,"master":8409,"viet":8410,"Ġwars":8411,"Ġsession":8412,"Ġmental":8413,"Ġdirt":8414,"Ġgym":8415,"Ġlaughter":8416,"ĠAri":8417,"unte":8418,"ĠLu":8419,"ĠRome":8420,"ĠNancy":8421,"oused":8422,"Ġbackwards":8423,"ĠUrs":8424,"Ġchim":8425,"Ġleague":8426,"Ġbush":8427,"Ġwarn":8428,"Ġassault":8429,"Ġdepends":8430,"ĠAssoci":8431,"Ġsteam":8432,"Ġroads":8433,"Ġprovision":8434,"Ġ1997":8435,"Ġrolls":8436,"Ġruined":8437,"Ġpiggy":8438,"Frank":8439,"Ġneighbour":8440,"ĠCenter":8441,"spector":8442,"draw":8443,"ĠOlympics":8444,"ĠWilson":8445,"eautiful":8446,"26":8447,"BLE":8448,"Cong":8449,"ECT":8450,"Int":8451,"cat":8452,"mate":8453,"hether":8454,"Ġdared":8455,"Ġfires":8456,"arant":8457,"Ġrend":8458,"ĠMag":8459,"ĠMolly":8460,"ĠSO":8461,"ĠSax":8462,"ĠCam":8463,"ĠPipina":8464,"oli":8465,"oland":8466,"rah":8467,"ntil":8468,"Ġblows":8469,"ĠBrooke":8470,"Ġbeds":8471,"Ġcharged":8472,"Ġgenerous":8473,"Ġleads":8474,"Ġpenny":8475,"Ġterribly":8476,"Ġtempor":8477,"Ġannounce":8478,"Ġtechnology":8479,"ĠSergeant":8480,"Brother":8481,"Ġaudience":8482,"rinini":8483,"Ġproducer":8484,"Ġcomedy":8485,"Ġsufficient":8486,"ĠSobrinini":8487,"ĠHenderson":8488,"!âĢĻ":8489,"App":8490,"bor":8491,"Ġbond":8492,"itched":8493,"Ġcries":8494,"Ġlux":8495,"Ġnatives":8496,"omer":8497,"icop":8498,"Ġkil":8499,"ĠShar":8500,"akin":8501,"Ġscri":8502,"Ġmole":8503,"Ġcompared":8504,"onscious":8505,"Ġchannel":8506,"Ġchew":8507,"Ġearned":8508,"Ġinsurance":8509,"Ġfifth":8510,"Ġlocation":8511,"Ġarticle":8512,"Ġconsideration":8513,"Ġgrowth":8514,"ĠCoch":8515,"Ġseparated":8516,"Ġfierce":8517,"ĠPacific":8518,"Joseph":8519,"MY":8520,"ez":8521,"kind":8522,"lah":8523,"tt":8524,"inity":8525,"nded":8526,"Ġobey":8527,"ooja":8528,"ĠHond":8529,"Ġrice":8530,"Ġrug":8531,"abel":8532,"inkie":8533,"ĠPost":8534,"ĠPoint":8535,"Ġpros":8536,"ĠVis":8537,"rows":8538,"Stand":8539,"Ġ184":8540,"ĠSociety":8541,"Ġ1999":8542,"Ġclasses":8543,"Ġillustr":8544,"Ġexperiment":8545,"Ġraining":8546,"Ġwaist":8547,"Ġcoward":8548,"Ġsolid":8549,"Ġbenef":8550,"arius":8551,"Ġdespair":8552,"Ġrecommend":8553,"Ġsenior":8554,"ĠCastle":8555,"Ġashore":8556,"VEN":8557,"round":8558,"Ã¶":8559,"Ġtide":8560,"Ġmour":8561,"Ġdough":8562,"Ġpier":8563,"armed":8564,"usie":8565,"ĠAng":8566,"urg":8567,"Ġath":8568,"ĠCy":8569,"ĠĠĠĊ":8570,"ilton":8571,"ĠTake":8572,"Ġnoisy":8573,"estion":8574,"ĠField":8575,"Ġexact":8576,"Ġages":8577,"Ġloyal":8578,"Ġtractor":8579,"Ġgoodbye":8580,"Ġfee":8581,"Ġgrim":8582,"Ġblast":8583,"Ġpartners":8584,"Ġscale":8585,"people":8586,"Ġsla":8587,"retty":8588,"Ġsites":8589,"azz":8590,"unted":8591,"ĠJohnson":8592,"Ġ2001":8593,"Ġshortly":8594,"Ġreasonable":8595,"Ġstrongly":8596,"Ġrecorder":8597,"derer":8598,"Ġbags":8599,"AYS":8600,"Ġpuppy":8601,"ĠLucas":8602,"Ġloudly":8603,"Ġcontains":8604,"Ġseventeen":8605,"Remi":8606,"Ġtemperature":8607,"ĠDepartment":8608,"Ġconvinced":8609,"Ġinhabitants":8610,"Ok":8611,"Six":8612,"bin":8613,"iven":8614,"uals":8615,"ĠCooper":8616,"ĠBY":8617,"Ġrushing":8618,"ĠDu":8619,"ĠDen":8620,"Ġcomments":8621,"Ġvirt":8622,"ĠElo":8623,"ĠOver":8624,"again":8625,"Ġ[?":8626,"ĠKnight":8627,"Ġwherever":8628,"uclear":8629,"Ġcleared":8630,"Ġinstit":8631,"Ġinstinct":8632,"Ġimpressed":8633,"Ġspeaker":8634,"Ġ1994":8635,"coln":8636,"Ġtouching":8637,"Ġsuggestion":8638,"Ġlaun":8639,"screams":8640,"Ġuttered":8641,"ĠShagbark":8642,"ĠEllie":8643,"Ġcadets":8644,"Ġenvironmental":8645,"Indeed":8646,"ufact":8647,"35":8648,"Ge":8649,"IVE":8650,"oard":8651,"pur":8652,"rd":8653,"rots":8654,"Ġlos":8655,"adal":8656,"ĠMaybe":8657,"ĠTall":8658,"Ġcanoe":8659,"ckets":8660,"ĠGun":8661,"istics":8662,"ĠNorthern":8663,"Ġmanufact":8664,"peror":8665,"Ġrecall":8666,"aughters":8667,"Ġfunction":8668,"Ġrivers":8669,"Ġunderstanding":8670,"Thomas":8671,"Ġbasic":8672,"AST":8673,"Ġfigured":8674,"Ġ1995":8675,"ĠMayenne":8676,"Ġcrossing":8677,"Ġjournal":8678,"Ġprayer":8679,"Ġacquaint":8680,"Ġdegrees":8681,"Ġsurrounded":8682,"Ġhesitated":8683,"ĠEmpire":8684,"ĠIllinois":8685,"27":8686,"99":8687,"Dada":8688,"EX":8689,"Hal":8690,"Rel":8691,"jac":8692,"last":8693,"Ġtiss":8694,"Ġwoof":8695,"Ġcage":8696,"Ġdude":8697,"arse":8698,"attered":8699,"Ġhee":8700,"Ġheels":8701,"imately":8702,"ĠSl":8703,"Ġsauce":8704,"ulse":8705,"ĠPenn":8706,"ĠDire":8707,"ĠRus":8708,"agger":8709,"cipl":8710,"ĠUkrain":8711,"ĠMissouri":8712,"amped":8713,"ORY":8714,"Ġdepend":8715,"REAM":8716,"Ġsunshine":8717,"ĠPhilip":8718,"Ġtickets":8719,"Ġstores":8720,"ĠPatrick":8721,"Ġfirmly":8722,"ĠAustralian":8723,"icycle":8724,"ocracy":8725,"Ġcitizens":8726,"Ġuniform":8727,"ĠNascanora":8728,"EF":8729,"Peter":8730,"cest":8731,"dri":8732,"name":8733,"vy":8734,"yed":8735,"Ġtha":8736,"inated":8737,"Ġwing":8738,"itan":8739,"itors":8740,"Ġfaced":8741,"Ġgest":8742,"Ġhom":8743,"Ġgosh":8744,"ĠCT":8745,"ĠChat":8746,"Ġmyth":8747,"ĠTuesday":8748,"ppose":8749,"ĠWomen":8750,"Ġplung":8751,"ĠFil":8752,"aghetti":8753,"Ġfeather":8754,"ĠKansas":8755,"hens":8756,"Ġmothers":8757,"Ġglorious":8758,"fecture":8759,"ORE":8760,"Ġpersonally":8761,"Ġpossess":8762,"cript":8763,"Ġgreenbelt":8764,"Ġabsolute":8765,"Ġmischief":8766,"Ġsharply":8767,"ĠJoey":8768,"Ġimagined":8769,"Ġsolution":8770,"ĠRandolph":8771,"Ġinstructions":8772,"Ġcriminal":8773,"ĠLIKE":8774,"ĠLieutenant":8775,"Ġexplanation":8776,"Ġbracelet":8777,"ĠEloise":8778,"Certainly":8779,"Too":8780,"gun":8781,"tom":8782,"Ġbored":8783,"Ġgrie":8784,"imum":8785,"riger":8786,"Ġsoap":8787,"osition":8788,"ĠOff":8789,"Ġquant":8790,"reeze":8791,"Ġpeep":8792,"ucking":8793,"Ġdaylight":8794,"Ġscrap":8795,"Ġcarpet":8796,"Ġdisaster":8797,"OUS":8798,"Ġdoorway":8799,"Ġelement":8800,"ĠEdric":8801,"END":8802,"Ġcuts":8803,"Ġtrained":8804,"ĠSoviet":8805,"Ġstudies":8806,"Ġholy":8807,"Ġclothing":8808,"Without":8809,"Ġsupported":8810,"Ġhopes":8811,"Ġvaluable":8812,"Ġeventually":8813,"help":8814,"Ġdescription":8815,"Ġvolunte":8816,"Ġrubber":8817,"whispers":8818,"Ġcadet":8819,"Ġsympathy":8820,"Ġtremendous":8821,"500":8822,"CI":8823,"Mart":8824,"UP":8825,"jack":8826,"ront":8827,"Ã¦":8828,"inate":8829,"Ġbund":8830,"Ġduties":8831,"Ġyield":8832,"Ġnut":8833,"rily":8834,"amas":8835,"still":8836,"stick":8837,"ĠBear":8838,"ilk":8839,"Ġjigsaw":8840,"ques":8841,"ĠOut":8842,"Ġbricks":8843,"Ġ[_":8844,"ewis":8845,"Ġteen":8846,"icted":8847,"Ġchin":8848,"Ġchances":8849,"Ġsurgery":8850,"Ġdecisions":8851,"Ġinstantly":8852,"didn":8853,"Ġconstantly":8854,"Ġmistress":8855,"Ġsalary":8856,"Ġpupp":8857,"athetic":8858,"Ġhastily":8859,"Doesn":8860,"Ġbutterfly":8861,"Ġdelicate":8862,"Ġscreaming":8863,"Ġexistence":8864,"Ġadditional":8865,"Ġdistributed":8866,"Ġbattery":8867,"Ġadopted":8868,"Ġangel":8869,"codile":8870,"ngeun":8871,"Hy":8872,"Show":8873,"uj":8874,"uits":8875,"Ġwander":8876,"rec":8877,"Ġbust":8878,"llie":8879,"Ġped":8880,"Ġhaul":8881,"Ġecho":8882,"imm":8883,"ĠMAN":8884,"ĠMobile":8885,"ĠSP":8886,"ĠHIM":8887,"umption":8888,"ĠDave":8889,"ĠLisa":8890,"high":8891,"HERE":8892,"Ġchallen":8893,"ĠBrid":8894,"Ġentering":8895,"Ġanswers":8896,"ARS":8897,"Ġinterests":8898,"Ġ185":8899,"Ġdiscovery":8900,"Ġhated":8901,"ĠHarrison":8902,"ĠThursday":8903,"Ġstead":8904,"APP":8905,"Ġsnakes":8906,"Ġcookie":8907,"Ġenjoying":8908,"Ġestate":8909,"Ġgods":8910,"._]":8911,"Ġphotograph":8912,"Ġvessels":8913,"Ġprincipal":8914,"Ġsavage":8915,"Ġfantastic":8916,"Ġconfirmed":8917,")}":8918,"Aunt":8919,"CL":8920,"YS":8921,"bal":8922,"bag":8923,"jamin":8924,"love":8925,"works":8926,"Ġcors":8927,"Ġfasc":8928,"ori":8929,"Ġhen":8930,"Ġbew":8931,"ador":8932,"ĠTIM":8933,"ppers":8934,"eling":8935,"ĠRad":8936,"Ġfeast":8937,"Ġroar":8938,"Ġgrin":8939,"pton":8940,"Ġunlike":8941,"cia":8942,"Ġflesh":8943,"ĠUnder":8944,"Ġresident":8945,"Ġbeloved":8946,"ogue":8947,"ERE":8948,"Ġcounting":8949,"ysis":8950,"ĠTHERE":8951,"Ġcolored":8952,"Ġreflect":8953,"ĠHarwood":8954,"Ġsticking":8955,"OMAN":8956,"Ġchecking":8957,"Ġmedia":8958,"Ġ90":8959,"Ġterrif":8960,"Ġsecretary":8961,"Ġclosing":8962,"Ġbanana":8963,"ĠPolice":8964,"Ġoccasionally":8965,"ettie":8966,"Ġestablish":8967,"ĠAirport":8968,"Ġmurmured":8969,"ĠStephen":8970,"Ġguidance":8971,"Ġdisgust":8972,"'...":8973,"Had":8974,"Mon":8975,"UD":8976,"di":8977,"duck":8978,"hem":8979,"inem":8980,"Ġlan":8981,"iry":8982,"ĠSol":8983,"ĠCad":8984,"ĠHIS":8985,"oren":8986,"Ġshift":8987,"umper":8988,"ĠWall":8989,"ĠWANT":8990,"hane":8991,"ĠLife":8992,"apers":8993,"ĠEaster":8994,"Ġleaning":8995,"uddle":8996,"Ġpockets":8997,"Ġcrick":8998,"Ġstartled":8999,"ailing":9000,"Ġcounties":9001,"Ġswung":9002,"vention":9003,"REE":9004,"Ġdolly":9005,"Ġmurderer":9006,"ĠGuadal":9007,"Somebody":9008,"Ġcatching":9009,"Ġpotato":9010,"Ġrepeat":9011,"Ġwagons":9012,"Ġnetwork":9013,"Ġarrangements":9014,"Ġbarely":9015,"ĠHERE":9016,"Ġmagnific":9017,"Ġnominated":9018,"ĠFootball":9019,"90":9020,"Better":9021,"RS":9022,"find":9023,"nope":9024,"pick":9025,"wind":9026,"{\\":9027,"Ġ:":9028,"Ġeth":9029,"erg":9030,"isl":9031,"Ġcough":9032,"esome":9033,"Ġga":9034,"Ġhid":9035,"Ġhired":9036,"icip":9037,"ĠHot":9038,"Ġraid":9039,"ĠTW":9040,"ĠPapa":9041,"ĠGe":9042,"ĠGall":9043,"Ġconven":9044,"Ġven":9045,"ĠKang":9046,"Ġlets":9047,"Ġhelicop":9048,"Ġslipp":9049,"Ġrecovered":9050,"Ġwarrant":9051,"ĠAlice":9052,"ĠAnother":9053,"Ġsweat":9054,"Ġmaintain":9055,"ĠINV":9056,"Ġbreathe":9057,"Ġburnt":9058,"Ġsystems":9059,"syl":9060,"ĠRepresent":9061,"Ġblessed":9062,"Ġfunds":9063,"Ġtroubled":9064,"Ġearnestly":9065,"Ġdemonstr":9066,"ĠCatholic":9067,"Jul":9068,"Ten":9069,"sung":9070,"uing":9071,"Ġtub":9072,"ougl":9073,"Ġbars":9074,"Ġdaughters":9075,"Ġfake":9076,"Ġfederal":9077,"Ġrein":9078,"Ġaspect":9079,"ĠBye":9080,"ĠBesides":9081,"ĠDuke":9082,"cker":9083,"ĠFore":9084,"istry":9085,"ĠNa":9086,"Ġwhoa":9087,"Ġbrand":9088,"Ġgrasp":9089,"Ġamus":9090,"ĠKas":9091,"teacher":9092,"Ġguarant":9093,"close":9094,"Ġappointment":9095,"ANG":9096,"canal":9097,"Ġnumerous":9098,"Ġalongside":9099,"Ġtrap":9100,"Ġstuffed":9101,"Ġpainful":9102,"Ġislands":9103,"Ġincreasing":9104,"Ġbells":9105,"Ġvanished":9106,"Ġprocedure":9107,"stein":9108,"Ġexpedition":9109,"ĠCochran":9110,"Nor":9111,"Nat":9112,"mar":9113,"wart":9114,"Ġdign":9115,"Ġtoe":9116,"Ġthumb":9117,"also":9118,"ĠAle":9119,"ĠHoll":9120,"eline":9121,"ĠGord":9122,"ĠLar":9123,"ĠRoss":9124,"ĠRIGHT":9125,"Ġgoods":9126,"Ġbrick":9127,"Ġunple":9128,"ĠStr":9129,"dog":9130,"ĠVer":9131,"Ġgloom":9132,"Ġskill":9133,"Ġrefuse":9134,"Ġdealing":9135,"Ġ1996":9136,"Ġopposed":9137,"ĠJackson":9138,"Ġbullets":9139,"Ġdefeat":9140,"moans":9141,"ĠTeam":9142,"Ġcontained":9143,"Ġdebt":9144,"Ġeconomy":9145,"Ġpreparing":9146,"kerchief":9147,"aguar":9148,"ĠLiber":9149,"ĠGuadalcanal":9150,"ouglas":9151,".=":9152,"AGE":9153,"None":9154,"Ro":9155,"ipt":9156,"Ġax":9157,"ito":9158,"Ġpoo":9159,"Ġpushes":9160,"Ġhits":9161,"Ġstor":9162,"Ġstated":9163,"Ġseas":9164,"ĠTa":9165,"quick":9166,"ĠJan":9167,"Ġneedn":9168,"ĠUpper":9169,"Ġundert":9170,"Ġresc":9171,"Ġbug":9172,"upon":9173,"Ġ35":9174,"inson":9175,"mbre":9176,"Ġrelation":9177,"ĠAlan":9178,"ĠAlthough":9179,"Ġinformed":9180,"ĠChristians":9181,"Ġ1992":9182,"ommod":9183,"Ġhollow":9184,"Ġequally":9185,"Ġpractically":9186,"Ġcovering":9187,"ĠDanes":9188,"AKING":9189,"Madam":9190,"Ġexperienced":9191,"belie":9192,"Ġdivorced":9193,"ĠFreud":9194,"Ġconclusion":9195,"FO":9196,"bang":9197,"gone":9198,"hu":9199,"kward":9200,"move":9201,"eno":9202,"Ġgard":9203,"Ġnations":9204,"iments":9205,"verse":9206,"Ġreaching":9207,"Ġfork":9208,"sex":9209,"Ġjoking":9210,"Ġrum":9211,"Ġsob":9212,"uls":9213,"ĠPRO":9214,"ĠJung":9215,"ĠLane":9216,"ĠRom":9217,"udy":9218,"ĠKi":9219,"izz":9220,"Ġcomposed":9221,"Ġactions":9222,"ĠEddie":9223,"Ġguessed":9224,"Ġdefense":9225,"aska":9226,"ĠColin":9227,"ĠConf":9228,"Ġpuzzled":9229,"Ġactivities":9230,"Ġtournament":9231,"Ġfavourite":9232,"Ġeconomic":9233,"Ġdelivered":9234,"Ġinnit":9235,"Ġrelieved":9236,"Ġaccompanied":9237,"Besides":9238,"CON":9239,"Pr":9240,"coh":9241,"mates":9242,"erves":9243,"Ġbol":9244,"Ġmummy":9245,"Ġcups":9246,"Ġoption":9247,"Ġdart":9248,"oral":9249,"Ġpoured":9250,"Ġanch":9251,"eaven":9252,"illing":9253,"Ġracing":9254,"Ġaboard":9255,"abs":9256,"Ġplates":9257,"ĠLara":9258,"ĠEst":9259,"Ġadvert":9260,"ĠStar":9261,"everal":9262,"OUN":9263,"Ġaccommod":9264,"Ġdistress":9265,"Ġlighted":9266,"Ġinterfe":9267,"shit":9268,"brush":9269,"ĠNewman":9270,"Ġhorrid":9271,"Ġconflict":9272,"Ġawkward":9273,"ĠGroup":9274,"Ġpoorly":9275,"force":9276,"Ġvisible":9277,"ologist":9278,"Ġ1998":9279,"Ġforehead":9280,"THER":9281,"Ġcoloring":9282,"ĠDrusie":9283,"Ġshops":9284,"IGHS":9285,"chers":9286,"Ġidentified":9287,"Ġpursuit":9288,"respond":9289,"Ġpicnic":9290,"Bel":9291,"Hon":9292,"PH":9293,"Talk":9294,"nat":9295,"tick":9296,"ĠÂ":9297,"Ġsack":9298,"Ġgasped":9299,"Ġinner":9300,"Ġbeard":9301,"irk":9302,"ĠMoon":9303,"quet":9304,"ĠGive":9305,"Ġvision":9306,"agraph":9307,"ĠHee":9308,"Ġscary":9309,"irling":9310,"Ġasks":9311,"Ġwrites":9312,"Ġheading":9313,"Ġlasted":9314,"Ġbuff":9315,"Ġglory":9316,"Ġgloves":9317,"Ġkiller":9318,"Ġrelative":9319,"Ġimpact":9320,"Ġawfully":9321,"Ġcollea":9322,"ĠChampionship":9323,"Ġ1985":9324,"Ġ1988":9325,"Ġkissing":9326,"Ġmerchan":9327,"IDS":9328,"Ġdirections":9329,"Ġneighbors":9330,"Ġlabel":9331,"Ġkicking":9332,"VERY":9333,"Ġsettlements":9334,"Ġsensible":9335,"Ġstretch":9336,"ĠRandall":9337,"ĠRepublican":9338,"Ġsuspicion":9339,"ĠTyler":9340,"Ġprocedures":9341,"Ġbench":9342,"ĠBedrul":9343,"squeals":9344,"ĠAssociation":9345,"NK":9346,"Play":9347,"bara":9348,"count":9349,"gro":9350,"hot":9351,"ios":9352,"might":9353,"wha":9354,"western":9355,"Ġcooper":9356,"Ġbeans":9357,"irs":9358,"ĠMich":9359,"Ġancest":9360,"Ġgover":9361,"ĠCont":9362,"ĠBang":9363,"ĠHind":9364,"ĠTor":9365,"Ġsuicide":9366,"Ġaloud":9367,"aste":9368,"ĠOR":9369,"Ġpeas":9370,"cip":9371,"ĠYet":9372,"ĠVic":9373,"Ġcharming":9374,"excuse":9375,"Ġtennis":9376,"Ġ1986":9377,"Ġdetective":9378,"Ġducks":9379,"Ġvisitor":9380,"Ġcloses":9381,"ĠEmily":9382,"Ġcuriosity":9383,"Ġplainly":9384,"writer":9385,"Ġstatus":9386,"Quick":9387,"Ġanticip":9388,"Ġfrequently":9389,"ifferent":9390,"ĠMerriman":9391,"budour":9392,"lahoma":9393,"ĠBedrulbudour":9394,"28":9395,"Jean":9396,"PS":9397,"cur":9398,"Ġtires":9399,"Ġmars":9400,"Ġcateg":9401,"orous":9402,"ani":9403,"Ġgre":9404,"Ġgal":9405,"Ġkings":9406,"ĠMau":9407,"Ġashes":9408,"ĠTib":9409,"oody":9410,"ĠDID":9411,"Ġgettin":9412,"ĠGot":9413,"ĠFour":9414,"ĠFel":9415,"ĠFord":9416,"ĠJenny":9417,"ĠLes":9418,"ĠLand":9419,"Ġintr":9420,"Ġleans":9421,"hedral":9422,"Ġuns":9423,"Ġrecon":9424,"Ġrecover":9425,"Ġaccustomed":9426,"Ġmonkeys":9427,"ĠArk":9428,"Ġreputation":9429,"Ġsteamer":9430,"ĠBenjamin":9431,"Ġdrinks":9432,"Ġsneak":9433,"cription":9434,"Ġviews":9435,"Ġcloset":9436,"Ġorganis":9437,"Ġgalleys":9438,"Ġslightest":9439,"volution":9440,"Ġcrowded":9441,"Ġbroadcast":9442,"Ġrevolver":9443,"Ġhistorical":9444,"Ġwidow":9445,"Ġmultip":9446,"something":9447,"Ġinstrument":9448,"Ġsubstant":9449,"\").":9450,"45":9451,"La":9452,"Old":9453,"Richard":9454,"poor":9455,"reland":9456,"Ġmorn":9457,"Ġcri":9458,"Ġcared":9459,"Ġult":9460,"ĠMm":9461,"ĠCelia":9462,"ĠBroad":9463,"ĠPa":9464,"Ġintend":9465,"Ġloads":9466,"Ġdisgr":9467,"Ġshared":9468,"Ġapply":9469,"Ġwarned":9470,"Ġlightning":9471,"Ġrib":9472,"nedy":9473,"Ġsilk":9474,"Ġsquad":9475,"Ġparrot":9476,"Ġmedal":9477,"Ġcauses":9478,"Ġpolitics":9479,"Ġpotential":9480,"Ġhopeless":9481,"Ġzero":9482,"Ġcops":9483,"Ġcrept":9484,"Ġmassive":9485,"Ġstruggling":9486,"Ġgravely":9487,"Ġattractive":9488,"lemme":9489,"Ġutterly":9490,"Ġsurvive":9491,"Ġstealing":9492,"careful":9493,"Ġtrembling":9494,"Ġcommercial":9495,"ITTLE":9496,"ĠMallory":9497,"Ġvoyage":9498,"Bro":9499,"URE":9500,"VID":9501,"vior":9502,"hamm":9503,"Ġpoop":9504,"Ġlemon":9505,"Ġiniti":9506,"Ġnasty":9507,"ĠIreland":9508,"ldom":9509,"Ġweary":9510,"alo":9511,"rigg":9512,"Ġumbre":9513,"iller":9514,"ĠCur":9515,"ĠCap":9516,"inkle":9517,"Ġnoon":9518,"ĠRahul":9519,"ĠNich":9520,"Ġlob":9521,"ĠStop":9522,"Ġwrit":9523,"Ġinvite":9524,"Ġhumans":9525,"Ġdisappointment":9526,"ĠLeon":9527,"black":9528,"Ġlieutenant":9529,"Ġsuperior":9530,"doesn":9531,"Ġlabor":9532,"Ġregarding":9533,"Ġhaste":9534,"Ġslee":9535,"whispered":9536,"Ġcabinet":9537,"Ġvictims":9538,"ĠOklahoma":9539,"ĠMissionary":9540,"Ġunfortunate":9541,"ĠSelwyn":9542,"ĠIsaac":9543,"Ken":9544,"Meanwhile":9545,"bish":9546,"gain":9547,"hous":9548,"ii":9549,"iography":9550,"pre":9551,"pired":9552,"Ġtools":9553,"Ġnom":9554,"ĠMO":9555,"ĠSem":9556,"Ġjar":9557,"ookie":9558,"ĠDod":9559,"Ġseeking":9560,"ĠJeff":9561,"ĠRachel":9562,"ĠNettie":9563,"Ġpean":9564,"Ġfled":9565,"Ġflow":9566,"Ġflour":9567,"Ġresign":9568,"ĠAndy":9569,"ĠTHEY":9570,"Ġdepth":9571,"Ġdepression":9572,"Though":9573,"ĠClara":9574,"Ġevol":9575,"Ġraising":9576,"ĠMayor":9577,"Ġ1979":9578,"Ġremarkable":9579,"Ġtesting":9580,"Ġshouts":9581,"Ġ1950":9582,"Ġdevoted":9583,"Ġpatients":9584,"Ġeducated":9585,"Ġemployed":9586,"ĠSEE":9587,"Ġcotton":9588,"ĠOlympic":9589,"1999":9590,"ĠStanley":9591,"Ġbuttons":9592,"Ġtransferred":9593,"ĠRegion":9594,"Ġexhausted":9595,"ĠSometimes":9596,"Ġabandoned":9597,"Ġunpleasant":9598,"Ow":9599,"ele":9600,"nin":9601,"pent":9602,"race":9603,"Ġcure":9604,"Ġded":9605,"Ġtops":9606,"Ġgorge":9607,"Ġhockey":9608,"oting":9609,"etime":9610,"acement":9611,"Ġstack":9612,"Ġdoggy":9613,"Ġshove":9614,"geon":9615,"ĠDarius":9616,"cknow":9617,"Ġalcoh":9618,"rael":9619,"emic":9620,"teenth":9621,"Ġpoll":9622,"achus":9623,"Ġimper":9624,"Ġstrateg":9625,"Ġaccused":9626,"Ġaccompany":9627,"Ġ33":9628,"ARE":9629,"shh":9630,"Ġconfess":9631,"ĠAnna":9632,"Ġcryst":9633,"Also":9634,"Ġlaying":9635,"Ġcares":9636,"Ġsexual":9637,"Ġideal":9638,"vocalization":9639,"Ġcrawl":9640,"ĠLOOK":9641,"Ġfortunate":9642,"rifice":9643,"ĠBonnet":9644,"quarters":9645,".[":9646,"Aw":9647,"Mat":9648,"iable":9649,"made":9650,"named":9651,"pack":9652,"Ġtune":9653,"once":9654,"Ġoven":9655,"Ġfits":9656,"Ġnick":9657,"Ġnails":9658,"imer":9659,"Ġstair":9660,"Ġstoop":9661,"stan":9662,"âĢ²":9663,"ĠSikander":9664,"ifully":9665,"ĠHAD":9666,"oline":9667,"ĠNob":9668,"Ġbru":9669,"bee":9670,"Ġscrub":9671,"Ġdiscipl":9672,"OTH":9673,"Ġhelpful":9674,"Ġchampionship":9675,"Ġsets":9676,"Ġaccur":9677,"Ġdrill":9678,"shouts":9679,"Ġofficially":9680,"Ġprizes":9681,"OMET":9682,"ROW":9683,"Ġdestruction":9684,"Ġmounted":9685,"remony":9686,"Ġchapter":9687,"Ġrailway":9688,"Ġmagnetic":9689,"Ġliterally":9690,"Ġcontrast":9691,"ĠKennedy":9692,"ĠClavering":9693,"sometimes":9694,"ĠBrazil":9695,"Ġlaunched":9696,"hammad":9697,"Bar":9698,"Person":9699,"Same":9700,"cos":9701,"mind":9702,"Ġcert":9703,"Ġfitted":9704,"ĠIII":9705,"lement":9706,"alie":9707,"Ġseldom":9708,"Ġsoil":9709,"romise":9710,"inks":9711,"ulu":9712,"ĠFle":9713,"ĠLewis":9714,"Ġaft":9715,"Ġbride":9716,"Ġscattered":9717,"need":9718,"Doctor":9719,"Start":9720,"clears":9721,"Ġelements":9722,"Ġpossessed":9723,"Ġdropping":9724,"Ġstudying":9725,"Ġpropose":9726,"fficer":9727,"vania":9728,"Ġmoral":9729,"Â¶Â¶":9730,"Ġpraise":9731,"Ġproducts":9732,"Ġporch":9733,"Ġphilosop":9734,"ĠProvince":9735,"Congratulations":9736,"ĠHondura":9737,"100":9738,"Cor":9739,"End":9740,"Ke":9741,"Mia":9742,"Ob":9743,"Pretty":9744,"comm":9745,"lots":9746,"Ġsout":9747,"ann":9748,"Ġna":9749,"ĠMamie":9750,"Young":9751,"ĠWes":9752,"ĠPR":9753,"ĠDear":9754,"ĠDog":9755,"ĠDouglas":9756,"ĠFamily":9757,"ĠRh":9758,"Ġcontext":9759,"ĠNOW":9760,"Ġvalley":9761,"Ġclients":9762,"Ġpreviously":9763,"Ġcompound":9764,"ĠViz":9765,"ancer":9766,"liest":9767,"Ġconscience":9768,"Ġinterpret":9769,"ĠEdith":9770,"Ġhoriz":9771,"Ġhath":9772,"Goodbye":9773,"Ġawhile":9774,"Ġilleg":9775,"Ġcorrespond":9776,"Ġceremony":9777,"Ġmeantime":9778,"Ġremarks":9779,"Ġruin":9780,"ĠAbbey":9781,"Ġbeaten":9782,"ĠMeg":9783,"Ġprojects":9784,"Ġhonestly":9785,"Ġdeliber":9786,"Ġsandwiches":9787,"ĠKeith":9788,"Ġprimary":9789,"ĠSenate":9790,"Ġtunnel":9791,"Ġbeef":9792,"Ġagreement":9793,"ĠLincoln":9794,"ĠPersian":9795,"Ġenormous":9796,"sylvania":9797,"29":9798,"Alf":9799,"Cut":9800,"mosp":9801,"Ġsou":9802,"onge":9803,"Ġcattle":9804,"Ġcherry":9805,"Ġgates":9806,"ĠIV":9807,"etts":9808,"Ġeld":9809,"Ġrevenge":9810,"rific":9811,"enton":9812,"Ġstress":9813,"Ġstations":9814,"ĠWILL":9815,"ĠDown":9816,"igator":9817,"ĠLuke":9818,"ĠRoll":9819,"ĠEach":9820,"Ġtramp":9821,"Ġamused":9822,"Ġprime":9823,"Ġdrawer":9824,"Ġmarched":9825,"Ġcapacity":9826,"Ġexpand":9827,"ĠClinton":9828,"Forget":9829,"Ġgrounds":9830,"Ġ1989":9831,"Ġexclam":9832,"OWN":9833,"Ġdetail":9834,"Ġpractical":9835,"Ġsaddle":9836,"ĠTrump":9837,"Ġpatience":9838,"ĠSecond":9839,"ĠIslands":9840,"Ġidentify":9841,"ĠGOING":9842,"Ġcritical":9843,"ĠRobin":9844,"Ġcustomer":9845,"ĠKorean":9846,"Ġwhale":9847,"ĠVictoria":9848,"Ġnicer":9849,"Ġarchite":9850,"CHARLES":9851,"ĠCTX":9852,"ĠMichigan":9853,"Geor":9854,"Jo":9855,"Lara":9856,"YES":9857,"gonna":9858,"uan":9859,"Ġdomin":9860,"arian":9861,"leave":9862,"Ġrefe":9863,"Ġreaction":9864,"adi":9865,"ĠSub":9866,"ĠSorry":9867,"ĠCind":9868,"ĠBoth":9869,"ĠHugh":9870,"ĠWait":9871,"ĠDeb":9872,"ĠJr":9873,"agers":9874,"ection":9875,"before":9876,"gets":9877,"Ġappet":9878,"Ġleaped":9879,"Ġending":9880,"Ġindul":9881,"ugs":9882,"Ġwinds":9883,"ĠArchie":9884,"ĠNews":9885,"ennes":9886,"Ġtelegram":9887,"byebye":9888,"Ġterrific":9889,"Ġclimate":9890,"Ġoperations":9891,"Unless":9892,"Ġfeeding":9893,"Ġdespite":9894,"Carl":9895,"Ġdocuments":9896,"Ġwrestler":9897,"ĠPortug":9898,"Ġdeaf":9899,"Ġinclined":9900,"Ġtissue":9901,"ĠTIME":9902,"Amy":9903,"According":9904,"Jwww":9905,"Jeff":9906,"Must":9907,"des":9908,"great":9909,"mag":9910,"via":9911,"Ġoars":9912,"Ġdashed":9913,"Ġgit":9914,"Ġlun":9915,"..\"":9916,"Ġmeals":9917,"steps":9918,"tery":9919,"ĠCall":9920,"uno":9921,"Ġdonkey":9922,"ĠWick":9923,"ĠFA":9924,"ĠLITTLE":9925,"ĠNeram":9926,"Ġbob":9927,"ava":9928,"looks":9929,"Ġmeetings":9930,"Ġskull":9931,"Ġreduce":9932,"Ġlands":9933,"Ġquestioned":9934,"Ġ80":9935,"198":9936,"Ġsecrets":9937,"Ġsadly":9938,"Ġaccounts":9939,"Ġorganized":9940,"Ġannual":9941,"Ġutmost":9942,"Ġcommonly":9943,"Ġgenius":9944,"Ġcombat":9945,"idae":9946,"elphia":9947,"Ġsailor":9948,"Ġbillion":9949,"Ġassistance":9950,"Ġvacation":9951,"ĠBuild":9952,"Ġvegetables":9953,"Ġsurrounding":9954,"rigerator":9955,"38":9956,"Things":9957,"rants":9958,"Ġtalent":9959,"Ġmath":9960,"Ġgap":9961,"Ġnail":9962,"Ġrehe":9963,"Ġrept":9964,"adium":9965,"entions":9966,"ĠSay":9967,"ĠSally":9968,"chin":9969,"ĠCould":9970,"ĠWater":9971,"ĠPope":9972,"Ġsuck":9973,"ĠJun":9974,"Ġcomin":9975,"Ġwhoever":9976,"Ġvague":9977,"ucks":9978,"Ġprey":9979,"Ġcontents":9980,"Ġowners":9981,"Ġserving":9982,"ATIA":9983,"ONG":9984,"Ġcharity":9985,"Step":9986,"ugo":9987,"Ġassurance":9988,"ENCE":9989,"ĠHoward":9990,"ĠCarr":9991,"Ġ1991":9992,"ĠRebecca":9993,"Ġmillions":9994,"Ġ1987":9995,"Ġexpert":9996,"blows":9997,"Ġnursing":9998,"ĠEmma":9999,"Ġunconscious":10000,"Ġutterance":10001,"Ġbehalf":10002,"ĠANY":10003,"Ġspoil":10004,"Grandma":10005,"Against":10006,"Ġastonishment":10007,"Ġvotes":10008,"ĠJersey":10009,"ĠAtlantic":10010,"ĠDisney":10011,"Ġamusement":10012,"Ġumbrella":10013,"70":10014,"CO":10015,"Ellie":10016,"Mc":10017,"tree":10018,"vable":10019,"Ġbills":10020,"Ġcush":10021,"Ġfiring":10022,"anim":10023,"Ġpatch":10024,"Ġinch":10025,"Ġnuclear":10026,"ĠIllustr":10027,"Ġease":10028,"Ġeffic":10029,"Ġreign":10030,"adelphia":10031,"ĠSOME":10032,"Ġwhip":10033,"ĠAggie":10034,"ĠBos":10035,"Ġsheets":10036,"Ġsaus":10037,"ĠDal":10038,"Ġalter":10039,"ĠJoy":10040,"ĠLater":10041,"resently":10042,"ĠRhod":10043,"ender":10044,"Ġoffering":10045,"actory":10046,"Ġhandkerchief":10047,"Ġstrain":10048,"ancies":10049,"Ġdisturb":10050,"INGS":10051,"Ġnearby":10052,"grand":10053,"gedy":10054,"bridge":10055,"Ġdepos":10056,"Ġreturns":10057,"ĠAnnie":10058,"Ġsteep":10059,"Ġfoods":10060,"Ġtreas":10061,"Ġprovin":10062,"Ġ1982":10063,"Ġruins":10064,"Ġprotected":10065,"Ġangle":10066,"Ġjudgment":10067,"OPLE":10068,"Ġresolved":10069,"Twenty":10070,"Tomorrow":10071,"Ġsacrifice":10072,"Ġdwellings":10073,"Ġwreck":10074,"ĠLangridge":10075,"Des":10076,"Sounds":10077,"hh":10078,"picture":10079,"wide":10080,"Ġtal":10081,"inn":10082,"Ġske":10083,"oning":10084,"Ġboring":10085,"Ġfiles":10086,"Ġfiction":10087,"edge":10088,"anas":10089,"enra":10090,"Ġpeak":10091,"Ġginger":10092,"ĠMaced":10093,"ĠBell":10094,"ifying":10095,"ĠHor":10096,"cts":10097,"Ġjam":10098,"unks":10099,"ĠTRI":10100,"Ġsailing":10101,"abor":10102,"ĠGR":10103,"ĠFanny":10104,"ĠJon":10105,"ĠJob":10106,"ategy":10107,"ĠOVER":10108,"Ġagony":10109,"Ġboom":10110,"bery":10111,"uddy":10112,"Ġunivers":10113,"Ġuniverse":10114,"perhaps":10115,"Ġflashed":10116,"mann":10117,"Ġstrategy":10118,"Ġdistract":10119,"Ġrelatives":10120,"Ġassure":10121,"ISH":10122,"ĠAshati":10123,"Ġevac":10124,"Ġobjection":10125,"ĠPrin":10126,"Ġdifficulties":10127,"IRST":10128,"Ġselfish":10129,"Ġimmediate":10130,"ĠTHINK":10131,"Ġdelivery":10132,"Ġpanel":10133,"stitution":10134,"ĠGraham":10135,"ĠHawkins":10136,"Ġpoetry":10137,"Ġconcealed":10138,"Ġscientific":10139,"Ġtidy":10140,"Ġsqueeze":10141,"ĠService":10142,"Ġexchange":10143,"ĠPennsylvania":10144,"ĠNichol":10145,"BO":10146,"BS":10147,"CDS":10148,"Down":10149,"Ger":10150,"Girl":10151,"MP":10152,"Music":10153,"Sho":10154,"Suddenly":10155,"eenth":10156,"pop":10157,"tit":10158,"tles":10159,"Ġwounds":10160,"Ġshan":10161,"onent":10162,"Ġfuel":10163,"orus":10164,"ashes":10165,"Ġbehave":10166,"Ġejac":10167,"Ġreject":10168,"ĠMask":10169,"ĠSi":10170,"ĠSHE":10171,"Ġlip":10172,"ifted":10173,"ĠHun":10174,"ĠWERE":10175,"Ġspy":10176,"Ġclaimed":10177,"Ġfeature":10178,"ĠKo":10179,"orney":10180,"angled":10181,"next":10182,"Ġfoe":10183,"ĠBrother":10184,"ĠAndre":10185,"Ġ36":10186,"shot":10187,"brooke":10188,"ĠHarvey":10189,"Ġ500":10190,"ĠDev":10191,"Ġdresses":10192,"Ġdraws":10193,"ĠAuntie":10194,"Ġdoubtless":10195,"ĠConway":10196,"Ġlawn":10197,"ĠFranklin":10198,"Ġhorsie":10199,"Ġcreep":10200,"Ġanxiously":10201,"Ġattempts":10202,"ĠAgain":10203,"Ġprivile":10204,"Ġdiscussed":10205,"Ġimmense":10206,"Ġpermitted":10207,"Ġimproved":10208,"Ġexisting":10209,"Ġnegative":10210,"Twilight":10211,"Ġprinted":10212,"Ġproposal":10213,"ĠPeters":10214,"Ġassociated":10215,"Ġsavings":10216,"Ġresistance":10217,"____":10218,"Ġadmiration":10219,"ĠSquare":10220,"James":10221,"SH":10222,"SIGHS":10223,"fat":10224,"pher":10225,"||":10226,"Äģ":10227,"Ġing":10228,"Ġapt":10229,"inating":10230,"nda":10231,"Ġber":10232,"Ġmister":10233,"Ġdating":10234,"Ġdanced":10235,"Ġfab":10236,"Ġfurious":10237,"asions":10238,"ĠIran":10239,"atched":10240,"Ġhitting":10241,"utter":10242,"ĠAF":10243,"Ġnegot":10244,"gee":10245,"Ġdey":10246,"Ġabroad":10247,"abama":10248,"ĠPoor":10249,"ĠLoren":10250,"Ġmanners":10251,"agon":10252,"Ġclip":10253,"Ġamaz":10254,"iah":10255,"Ġcarrots":10256,"Ġchip":10257,"oby":10258,"ultural":10259,"Ġcommission":10260,"Ġdisturbed":10261,"Ġhurting":10262,"ITY":10263,"Ġclearing":10264,"Ġparagraph":10265,"Ã¡n":10266,"ĠOFF":10267,"Ġapproved":10268,"Ġfreely":10269,"THERE":10270,"Ġdevil":10271,"ĠWestenra":10272,"Ġsensitive":10273,"Ġroughly":10274,"write":10275,"Ġexecutive":10276,"Ġfestival":10277,"ĠHartley":10278,"Ġtropical":10279,"Ġplunged":10280,"Gra":10281,"Won":10282,"gal":10283,"song":10284,"isse":10285,"Ġlung":10286,"aro":10287,"Ġhoo":10288,"utions":10289,"Ġuna":10290,"ĠMusic":10291,"ĠBank":10292,"Ġjus":10293,"Ġrates":10294,"Ġdeed":10295,"Ġabund":10296,"ĠWork":10297,"ĠPE":10298,"ĠDream":10299,"elf":10300,"Ġconcept":10301,"them":10302,"ressing":10303,"Ġflames":10304,"Ġtalkin":10305,"âĻªâĻª":10306,"Ġrestrict":10307,"Ġtriumph":10308,"ĠGerhart":10309,"ĠThose":10310,"Ġmessages":10311,"Always":10312,"ĠBlake":10313,"Ġabsor":10314,"Ġdemocracy":10315,"ÃŃa":10316,"Ġbelonging":10317,"Ġdefeated":10318,"Ġpresidential":10319,"Ġbucket":10320,"course":10321,"Ġpanic":10322,"Ġbleeding":10323,"Ġshadows":10324,"ĠJuliet":10325,"Ġbehavior":10326,"ĠHadley":10327,"ĠCOMP":10328,"ĠPrefecture":10329,"ĠPirate":10330,"ĠDivision":10331,"ĠFrancisco":10332,"Ġpudding":10333,"Geography":10334,"32":10335,"Eng":10336,"Mike":10337,"Sarah":10338,"YE":10339,"rits":10340,"shar":10341,"uzz":10342,"vals":10343,"yum":10344,"Ġsunk":10345,"Ġcust":10346,"Ġcuddle":10347,"Ġly":10348,"arin":10349,"otions":10350,"vet":10351,"iders":10352,"ĠSaint":10353,"Ġgoat":10354,"Ġgoals":10355,"ĠHan":10356,"Ġplains":10357,"ortheast":10358,"Ġloaded":10359,"Ġflame":10360,"Ġlongest":10361,"ĠStud":10362,"Ġstrangers":10363,"Ġcounted":10364,"oca":10365,"Ġpasses":10366,"velope":10367,"Ġstays":10368,"Ġinvitation":10369,"Ġpurse":10370,"Ġpains":10371,"Ġreplace":10372,"Ġreceiving":10373,"Ġanswering":10374,"Ġtrusted":10375,"Ġstrip":10376,"IRL":10377,"Ġcommanded":10378,"athemat":10379,"Ġinvestment":10380,"strong":10381,"ĠTurks":10382,"Ġcelebrate":10383,"UCKLES":10384,"ĠHyun":10385,"Ġliberal":10386,"Ġelderly":10387,"ĠCarolina":10388,"Ġgoddamn":10389,"Ġexceedingly":10390,"Ġliquid":10391,"Ġbiscuits":10392,"Half":10393,"ĠDirector":10394,"Ġterrified":10395,"ĠArkansas":10396,"achusetts":10397,"ĠRhodes":10398,"Baby":10399,"TAIN":10400,"dire":10401,"Ġacknow":10402,"inent":10403,"Ġtheatre":10404,"render":10405,"Ġsung":10406,"ishi":10407,"ington":10408,"Ġtomb":10409,"Ġyummy":10410,"Ġinse":10411,"Ġhamb":10412,"uster":10413,"Ġstake":10414,"Ġseasons":10415,"ĠAR":10416,"Ġatmosp":10417,"ĠCousin":10418,"ĠBattle":10419,"ĠHard":10420,"ĠTem":10421,"ĠWHO":10422,"Ġalike":10423,"osis":10424,"employ":10425,"ĠEthe":10426,"ĠHead":10427,"Ġpeekaboo":10428,"Ġafterward":10429,"ahhah":10430,"ensions":10431,"Ġcontempt":10432,"Ġdrum":10433,"okyo":10434,"Ġhats":10435,"Ġinches":10436,"ĠGrant":10437,"ĠBeach":10438,"Ġfuckin":10439,"Ġsticky":10440,"Ġartists":10441,"ĠProt":10442,"Ġ1969":10443,"Ġbandage":10444,"ĠAgent":10445,"Ġmemor":10446,"Ġpretending":10447,"ĠExpress":10448,"Ġurged":10449,"Ġsuitable":10450,"Ġtouches":10451,"Ġinjury":10452,"hearted":10453,"Ġprinciple":10454,"Ġwarrior":10455,"Ġpupil":10456,"Ġswiftly":10457,"Ġgranted":10458,"ĠDetective":10459,"ĠScotland":10460,"Ġdisagre":10461,"Ġsample":10462,"Ġlouder":10463,"Ġbenefits":10464,"ĠRepresentatives":10465,"ritsar":10466,"MENT":10467,"Red":10468,"Son":10469,"ef":10470,"nuts":10471,"pan":10472,"tis":10473,"vous":10474,"onation":10475,"Ġdick":10476,"Ġfulf":10477,"Ġlend":10478,"uted":10479,"kel":10480,"ĠMir":10481,"ĠSophie":10482,"Ġknot":10483,"ĠHank":10484,"ĠHoly":10485,"ĠPie":10486,"ĠGOT":10487,"ĠLine":10488,"ĠNan":10489,"Ġvoc":10490,"ousins":10491,"early":10492,"Ġclay":10493,"reece":10494,"Ġpoem":10495,"Ġadjust":10496,"Ġperil":10497,"Ġshade":10498,"ĠInter":10499,"ĠChin":10500,"ĠAndrew":10501,"Ġlightly":10502,"umpty":10503,"Ġcolumn":10504,"ĠIsrael":10505,"Ġpriest":10506,"Ready":10507,"NDER":10508,"Ġstarred":10509,"Ġmistakes":10510,"Ġkisses":10511,"Ġceiling":10512,"Ġcontrolled":10513,"Ġeffective":10514,"Ġtests":10515,"Ġopera":10516,"Ġoperating":10517,"ĠTrans":10518,"William":10519,"Ġhym":10520,"Ġimmig":10521,"Ġsuspected":10522,"Ġfolded":10523,"Ã¤s":10524,"Ġdrowned":10525,"twenty":10526,"ĠFROM":10527,"ĠMuhammad":10528,"ĠMassachusetts":10529,"Ġlantern":10530,"crow":10531,"hoo":10532,"ju":10533,"lar":10534,"life":10535,"tch":10536,"Ġwins":10537,"Ġbade":10538,"Ġok":10539,"Ġdried":10540,"Ġfres":10541,"otic":10542,"Ġank":10543,"urger":10544,"ĠBry":10545,"Ġsole":10546,"Ġshelf":10547,"Ġshrie":10548,"Ġabrupt":10549,"ĠWOULD":10550,"ĠPooja":10551,"ĠGreece":10552,"ĠLast":10553,"ĠLaugh":10554,"ĠEnd":10555,"Ġtwist":10556,"berries":10557,"Ġroots":10558,"ordan":10559,"ccer":10560,"Ġimage":10561,"ĠChick":10562,"OUGH":10563,"Ġyoungest":10564,"Ġsurf":10565,"Ġballoons":10566,"Ġmarvell":10567,"Ġintegr":10568,"Ġskills":10569,"Ġmovements":10570,"oked":10571,"Ġ45":10572,"Ask":10573,"Ġmessenger":10574,"Ġsummon":10575,"Ġdreamed":10576,"ervative":10577,"Ġcorpor":10578,"Ġfilling":10579,"Ġvariety":10580,"Ġdevice":10581,"Ġcomplicated":10582,"Ġsolve":10583,"Ġrubbish":10584,"Ġattempted":10585,"Ã³n":10586,"Ġreferring":10587,"Ġrabbits":10588,"ĠChicasa":10589,"probably":10590,"Ġentertainment":10591,"Ġconsequence":10592,"Ġconstitution":10593,"Ġcautiously":10594,"Ġaccomplished":10595,"Ġtraditional":10596,"Ġexplosion":10597,"ĠDuncan":10598,"?âĢĻ":10599,"Ab":10600,"Det":10601,"Eight":10602,"HL":10603,"Hard":10604,"IRE":10605,"Rob":10606,"bear":10607,"woman":10608,"Ġ/":10609,"Ġsed":10610,"Ġbows":10611,"Ġfid":10612,"ingo":10613,"orpor":10614,"Ġgum":10615,"Ġlick":10616,"aylor":10617,"acles":10618,"start":10619,"ĠMen":10620,"ĠAss":10621,"ĠCherry":10622,"ĠBor":10623,"Ġrot":10624,"Ġsock":10625,"ĠTime":10626,"ĠWalk":10627,"ĠWales":10628,"ested":10629,"ĠGi":10630,"Ġuseta":10631,"ĠRO":10632,"Ġspaghetti":10633,"Ġexisted":10634,"ureau":10635,"Ġlecture":10636,"Ġscored":10637,"izations":10638,"Ġchrist":10639,"Ġglimp":10640,"ports":10641,"ĠAlabama":10642,"Ġconfirm":10643,"Ġsweep":10644,"Ġanimated":10645,"Ġdeadly":10646,"Ġinsult":10647,"Ġeditor":10648,"Ġ1993":10649,"Ġparliament":10650,"iki":10651,"ĠPhilipp":10652,"Ġlaunch":10653,"ĠAmritsar":10654,"ĠMadam":10655,"Ġcombined":10656,"Ġindividuals":10657,"Child":10658,"Ġcontrary":10659,"Ġcheeky":10660,"Ġshells":10661,"ĠMoscow":10662,"ĠSimon":10663,"Ġpupils":10664,"Ġunfortunately":10665,"Ġjewels":10666,"Ġpromptly":10667,"intendent":10668,"HORATIA":10669,"Ġglimpse":10670,"37":10671,"Billy":10672,"Biography":10673,"Follow":10674,"KING":10675,"PER":10676,"Sim":10677,"Sea":10678,"listen":10679,"mouth":10680,"school":10681,"wl":10682,"Ġsust":10683,"Ġpine":10684,"Ġnaked":10685,"Ġhed":10686,"adu":10687,"star":10688,"ĠSix":10689,"ĠCOULD":10690,"ĠHockey":10691,"ctures":10692,"Ġsoda":10693,"ĠPun":10694,"ĠPear":10695,"ĠOs":10696,"Ġbacks":10697,"Ġtray":10698,"Ġovercome":10699,"Ġbrid":10700,"beep":10701,"ĠUK":10702,"Ġleap":10703,"Ġbuzz":10704,"Ġentry":10705,"Ġresting":10706,"Ġlighter":10707,"ĠJohnny":10708,"Ġhopefully":10709,"Ġmuscles":10710,"Ġdaring":10711,"Ġsurprising":10712,"Ġexamination":10713,"itcase":10714,"ĠGuard":10715,"Ġ1976":10716,"Ġwildly":10717,"Ġturtles":10718,"ĠCommission":10719,"Ġtastes":10720,"Ġdiscussing":10721,"Ġelectron":10722,"Ġcombination":10723,"Ġtechnical":10724,"Ġsuspicious":10725,"everybody":10726,"Ġprecise":10727,"Ġgratitude":10728,"Ġenthusiasm":10729,"Ġwretched":10730,"Ġbewild":10731,"Ġhelicopter":10732,"Ġalcohol":10733,",.":10734,"BL":10735,"Clear":10736,"DE":10737,"Dan":10738,"Fire":10739,"Par":10740,"Work":10741,"]...":10742,"fight":10743,"Â°":10744,"Ġtuck":10745,"Ġwool":10746,"owl":10747,"Ġstares":10748,"ĠMISS":10749,"ĠSur":10750,"ĠBACK":10751,"ellow":10752,"Ġratt":10753,"una":10754,"abbit":10755,"ĠPot":10756,"Ġalp":10757,"ĠEastern":10758,"aund":10759,"Ġleaned":10760,"iley":10761,"Ġdisgu":10762,"ĠValley":10763,"unde":10764,"Ġheartily":10765,"Ġsixth":10766,"Ġcolon":10767,"ĠArch":10768,"Ġbreaks":10769,"Ġexplore":10770,"ĠBecket":10771,"ĠChampions":10772,"Except":10773,"Ġstarring":10774,"Ġdestiny":10775,"asket":10776,"Whoo":10777,"Ġdirectors":10778,"Ġstriking":10779,"Ġissued":10780,"Ġrepresentative":10781,"Ġhydro":10782,"Ġtaxes":10783,"Ġscramb":10784,"Ġnegro":10785,"fortunately":10786,"Ġinspector":10787,"Ġbetrayed":10788,"Ġcommunication":10789,"softly":10790,"Ġgrip":10791,"Ġschedule":10792,"Ġfarewell":10793,"Ġsymbol":10794,"Ġinterfere":10795,"Ġmerchant":10796,"Ġdisgrace":10797,"OMETHING":10798,".)":10799,"36":10800,"47":10801,"48":10802,"FF":10803,"Harry":10804,"Mary":10805,"NING":10806,"Until":10807,"breat":10808,"cray":10809,"gimme":10810,"may":10811,"pill":10812,"run":10813,"sound":10814,"specially":10815,"Ġtum":10816,"Ġsway":10817,"Ġbum":10818,"Ġpiss":10819,"Ġgaze":10820,"Ġlest":10821,"athan":10822,"etween":10823,"kee":10824,"Ġselect":10825,"Ġgolf":10826,"ĠCas":10827,"Ġrural":10828,"Ġsailed":10829,"aba":10830,"abin":10831,"ĠWHI":10832,"ĠLy":10833,"Ġerror":10834,"Ġprob":10835,"Ġtrash":10836,"Ġenvelope":10837,"Ġunique":10838,"Ġimpr":10839,"ogne":10840,"Ġpassenger":10841,"Ġpersonality":10842,"Ġadding":10843,"Ġrepair":10844,"Ġexcess":10845,"Ġgeneration":10846,"Ġgraph":10847,"IDE":10848,"Ġdeclare":10849,"Ġturb":10850,"Ġfarmers":10851,"Ġsmells":10852,"Ġcompeted":10853,"ĠChero":10854,"Ġsearching":10855,"AUSE":10856,"Ġcrocodile":10857,"Ġnapkin":10858,"Ġastonished":10859,"ĠJewish":10860,"Ġrevealed":10861,"Ġpouring":10862,"ĠKatie":10863,"ĠAustria":10864,"Ġbubbles":10865,"Ġalternative":10866,"Ġcrisis":10867,"Ġchampion":10868,"Ġlatest":10869,"Ġmobile":10870,"Ġmagnificent":10871,"ĠIllustrated":10872,"CHE":10873,"Sophie":10874,"folk":10875,"miss":10876,"wash":10877,"Ġsan":10878,"Ġbos":10879,"Ġdial":10880,"Ġfer":10881,"Ġpuss":10882,"Ġgon":10883,"arms":10884,"asks":10885,"Ġbeings":10886,"ami":10887,"ĠBre":10888,"ĠBir":10889,"ĠHitch":10890,"Ġshield":10891,"estic":10892,"ĠFive":10893,"Ġproport":10894,"Ġtricks":10895,"Ġquack":10896,"Ġoverboard":10897,"Ġclin":10898,"Ġbrook":10899,"ĠKhan":10900,"Ġsometime":10901,"hoe":10902,"Ġguitar":10903,"into":10904,"Ġperman":10905,"class":10906,"Ġapparent":10907,"Ġchop":10908,"Ġcrab":10909,"Ġtryin":10910,"Ġsergeant":10911,"Ġchasing":10912,"Ġelbow":10913,"ANS":10914,"phones":10915,"ĠMarion":10916,"Ġ32":10917,"Ġreluct":10918,"apple":10919,"Ġreflected":10920,"Thirty":10921,"Ġoccasions":10922,"Ġofficials":10923,"Ġfastened":10924,"Ġmodest":10925,"Ġgrape":10926,"Ġregional":10927,"ĠAmanda":10928,"ĠPoland":10929,"ĠTele":10930,"Ġ1930":10931,"Ġmachines":10932,"trunk":10933,"Black":10934,"Ġblessing":10935,"Ġindustrial":10936,"Ġliterature":10937,"Ġrequirements":10938,"Ġmortg":10939,"ĠClarice":10940,"Ġcigarette":10941,"Ġpistol":10942,"Ġscript":10943,"Ġcricket":10944,"ĠGordon":10945,"Ġanchor":10946,"ennessee":10947,"Ġatmosphere":10948,"Ay":10949,"Find":10950,"LAUGH":10951,"VII":10952,"Yo":10953,"chard":10954,"him":10955,"jump":10956,"music":10957,"Ġwrap":10958,"Ġmax":10959,"Ġcub":10960,"ario":10961,"rive":10962,"Ġstab":10963,"ĠBL":10964,"ĠBas":10965,"ĠHas":10966,"ĠHorn":10967,"ĠTennessee":10968,"Ġouter":10969,"ĠPop":10970,"ĠDaw":10971,"ĠDuc":10972,"Ġalert":10973,"Ġnod":10974,"rage":10975,"places":10976,"Ġperce":10977,"Ġmayor":10978,"ĠViet":10979,"Ġdesired":10980,"Ġbreach":10981,"Ġpolar":10982,"Ġelsewhere":10983,"Ġacademy":10984,"Ġregister":10985,"Ġtrigger":10986,"Ġskipper":10987,"Ġ189":10988,"REAT":10989,"Ġsimpl":10990,"whose":10991,"ASS":10992,"Ġdefin":10993,"Ġpubl":10994,"ĠConst":10995,"somebody":10996,"Ġprograms":10997,"Ġmunicipal":10998,"Trust":10999,"Ġbanging":11000,"Guess":11001,"Ġswinging":11002,"Ġpreparations":11003,"Ġdeparture":11004,"build":11005,"Ġapplied":11006,"Ġchickens":11007,"Ġsupplies":11008,"Ġimpatient":11009,"Ġthirsty":11010,"ĠUrsula":11011,"ĠUkraine":11012,"ĠBridget":11013,"houses":11014,"Matthew":11015,"ĠMacedon":11016,"39":11017,"Cr":11018,"HY":11019,"Jess":11020,"MM":11021,"QU":11022,"bot":11023,"gasp":11024,"iently":11025,"piece":11026,"takes":11027,"ube":11028,"Ġvel":11029,"Ġtones":11030,"Ġwis":11031,"Ġwives":11032,"itter":11033,"orange":11034,"anz":11035,"Ġstub":11036,"Ġdod":11037,"ĠSon":11038,"ĠSAY":11039,"choo":11040,"ĠCivil":11041,"ĠBR":11042,"ĠBax":11043,"ifty":11044,"Ġsoot":11045,"ĠTurn":11046,"ĠJac":11047,"ĠLau":11048,"aks":11049,"Ġtwisted":11050,"Ġagency":11051,"Ġroot":11052,"ĠKaren":11053,"ĠĠĠĠĠĠĠĠĠ":11054,"ĠInspector":11055,"Ġfract":11056,"Ġlisted":11057,"CHUCKLES":11058,"Ġparlor":11059,"THEY":11060,"Ġescort":11061,"Ġprofit":11062,"Ġsharing":11063,"Ġsleigh":11064,"Ġcandle":11065,"Peggy":11066,"Ġdigging":11067,"ĠCorpor":11068,"Ġessay":11069,"Ġventure":11070,"Ġgathering":11071,"Ġadopt":11072,"Ġassembled":11073,"Ġacquaintance":11074,"Ġchallenge":11075,"Ġgardens":11076,"Ġgoverness":11077,"ĠVizier":11078,"DON":11079,"Yet":11080,"grow":11081,"pha":11082,"pol":11083,"pass":11084,"Ġtire":11085,"Ġtales":11086,"inea":11087,"Ġbail":11088,"Ġbreeze":11089,"Ġding":11090,"Ġfury":11091,"Ġink":11092,"Ġnerve":11093,"Ġrenew":11094,"Ġmend":11095,"ĠSar":11096,"ĠSuch":11097,"Ġascend":11098,"Ġseed":11099,"ĠCare":11100,"ĠHeaven":11101,"umbo":11102,"ulting":11103,"ĠPil":11104,"ela":11105,"Ġorphan":11106,"Ġconvey":11107,"Ġspray":11108,"ĠNap":11109,"icky":11110,"Ġtwins":11111,"ĠKeep":11112,"Ġprices":11113,"doll":11114,"ĠVER":11115,"Ġcheering":11116,"INGING":11117,"Ġregist":11118,"Ġrig":11119,"Ġtribut":11120,"ĠAlb":11121,"Ġ2023":11122,"Ġ48":11123,"ĠThus":11124,"whines":11125,"Ġvisiting":11126,"ĠChap":11127,"Ġbottles":11128,"Ġapproval":11129,"196":11130,"Ġ1981":11131,"ĠForce":11132,"Ġ99":11133,"Ġgrav":11134,"check":11135,"Ġmerged":11136,"Ġfortnight":11137,"ICT":11138,"Ġwaving":11139,"Ġimagination":11140,"ĠMadge":11141,"Ġengineer":11142,"ĠGOOD":11143,"Quite":11144,"IFA":11145,"Ġmaterials":11146,"urtis":11147,"ĠMiddle":11148,"Ġliberty":11149,"Ġadults":11150,"Ġcycl":11151,"Ġtomato":11152,"ĠMuslim":11153,"ĠYeon":11154,"Ġtackle":11155,"Ġannouncement":11156,"Ġrehears":11157,"pherd":11158,"\"--":11159,"75":11160,"AV":11161,"AW":11162,"BI":11163,"Home":11164,"Hall":11165,"Molly":11166,"lace":11167,"lady":11168,"pic":11169,"til":11170,"whe":11171,"Ġcousins":11172,"Ġtool":11173,"lling":11174,"Ġpuff":11175,"Ġgazing":11176,"asha":11177,"Ġinit":11178,"Ġsty":11179,"Ġstim":11180,"âĢİ":11181,"ĠSER":11182,"ĠAIR":11183,"ĠHappy":11184,"Ġjury":11185,"Ġcanal":11186,"ĠDOWN":11187,"Ġsup":11188,"Ġsuitcase":11189,"ĠFriend":11190,"nah":11191,"ements":11192,"Ġrod":11193,"issors":11194,"Ġflies":11195,"ruce":11196,"ĠStation":11197,"Ġpermit":11198,"Ġcompre":11199,"Ġcompelled":11200,"ensity":11201,"ĠVery":11202,"ĠVaug":11203,"ultane":11204,"babbling":11205,"Ġsurvey":11206,"Ġmissus":11207,"Ġdischar":11208,"etera":11209,"Ġpops":11210,"Ġemotions":11211,"Ġ85":11212,"Ġsummit":11213,"ĠWillis":11214,"Ġpenet":11215,"ĠPhiladelphia":11216,"Ġfearful":11217,"Ġabsent":11218,"Ġ1975":11219,"Ġmerc":11220,"Ġ1968":11221,"Ġboarding":11222,"Ġknocking":11223,"Ġemphas":11224,"Ġsubjects":11225,"Ġcasual":11226,"Ġdisposed":11227,"writing":11228,"Ġcalmly":11229,"Ġirrit":11230,"Ġindicate":11231,"Ġpreferred":11232,"Ġtimid":11233,"Enough":11234,"Ġconsequences":11235,"Ġdeserted":11236,"Florence":11237,"Ġawarded":11238,"Ġtravelling":11239,"Ġwiped":11240,"Ġkilomet":11241,"Ġmultiple":11242,"Ġstrategic":11243,".!":11244,"Eat":11245,"Ever":11246,"Kat":11247,"Later":11248,"Morning":11249,"Pat":11250,"President":11251,"Sw":11252,"Send":11253,"THIS":11254,"aunt":11255,"ech":11256,"hur":11257,"mot":11258,"tur":11259,"thanks":11260,"Ġtag":11261,"era":11262,"Ġbri":11263,"Ġmammy":11264,"Ġmathemat":11265,"Ġgifts":11266,"Ġlod":11267,"Ġlazy":11268,"arched":11269,"Ġinher":11270,"Ġnarr":11271,"Ġweb":11272,"ĠAz":11273,"ifies":11274,"ppa":11275,"Ġallows":11276,"Ġshots":11277,"Ġworship":11278,"ĠNavy":11279,"Ġagric":11280,"Ġlogs":11281,"Ġque":11282,"Ġamid":11283,"Ġamazed":11284,"Ġ(,":11285,"uckle":11286,"Ġwhereas":11287,"cied":11288,"Soon":11289,"Ġcarrier":11290,"Ġsecured":11291,"Ġshakes":11292,"peekaboo":11293,"ĠVaud":11294,"Ġmines":11295,"Ġchart":11296,"Ġreduction":11297,"bring":11298,"ĠArgent":11299,"Ġrefuge":11300,"Ġinfl":11301,"ĠClark":11302,"Going":11303,"reading":11304,"Ġ1984":11305,"Ġspecially":11306,"Ġdeeper":11307,"Ġ1966":11308,"ĠMcDonald":11309,"Ġdamaged":11310,"Ġ1943":11311,"ĠPercy":11312,"Ġturkey":11313,"Ġruled":11314,"Ġopposition":11315,"Ġidentity":11316,"Ġstatue":11317,"Ġbasketball":11318,"Ġconductor":11319,"sniffs":11320,"iji":11321,"Ġproposals":11322,"Ġdearest":11323,"ĠSAID":11324,"Ġbattles":11325,"Ġintelligence":11326,"ĠOffice":11327,"Ġsteadily":11328,"natured":11329,"Ġribbon":11330,"Ġgorgeous":11331,"George":11332,"BOTH":11333,"Fort":11334,"GAS":11335,"Roy":11336,"town":11337,"ĠÃŃ":11338,"Ġcoo":11339,"Ġfret":11340,"Ġfert":11341,"Ġtoler":11342,"Ġgent":11343,"Ġlane":11344,"omy":11345,"atically":11346,"usive":11347,"Ġkettle":11348,"stra":11349,"ĠMuseum":11350,"ĠSk":11351,"ĠSPE":11352,"ĠAM":11353,"ĠAvenue":11354,"ĠBird":11355,"ĠHistory":11356,"ĠTre":11357,"ieve":11358,"ĠWalt":11359,"quis":11360,"ĠGreg":11361,"ĠGulf":11362,"istling":11363,"ohoh":11364,"Ġclo":11365,"Ġbrisk":11366,"Ġpee":11367,"Ġensure":11368,"Ġflushed":11369,"angs":11370,"Ġremote":11371,"Ġfog":11372,"obb":11373,"ĠYoungeun":11374,"Ġminus":11375,"Ġaccent":11376,"reaming":11377,"Str":11378,"Ġdeaths":11379,"Ġbarrel":11380,"rington":11381,"Ġforgiven":11382,"Ġ70":11383,"Ġyelled":11384,"ĠEnglishman":11385,"Ġcleaned":11386,"Ġfears":11387,"Ġ1977":11388,"Ġmisunder":11389,"ĠColor":11390,"Ġconsidering":11391,"Ġpressing":11392,"Ġlimbs":11393,"Ġformerly":11394,"Ġcollected":11395,"Ġfatal":11396,"Ġgenu":11397,"Ġautumn":11398,"Ġbombs":11399,"Ġcrawling":11400,"Ġclaims":11401,"Ġsnap":11402,"Ġhistoric":11403,"Ġfloating":11404,"Ġfraud":11405,"ĠBOY":11406,"ĠWinter":11407,"habet":11408,"alentine":11409,"Ġdistinctly":11410,"Ġdescended":11411,"ĠSpring":11412,"Ġcolleagues":11413,"44":11414,"Bern":11415,"Cour":11416,"Chan":11417,"Fe":11418,"Long":11419,"Matt":11420,"Sa":11421,"erest":11422,"fare":11423,"mill":11424,"sor":11425,"silly":11426,"Ġay":11427,"Ġaer":11428,"inter":11429,"Ġwo":11430,"Ġsighed":11431,"isure":11432,"orters":11433,"Ġponies":11434,"Ġofthe":11435,"arling":11436,"ownt":11437,"owary":11438,"aya":11439,"Ġeagle":11440,"Ġnotion":11441,"ĠBox":11442,"ilence":11443,"Ġjelly":11444,"Ġrack":11445,"thm":11446,"ĠParson":11447,"ĠFer":11448,"ĠRon":11449,"ĠRoland":11450,"akers":11451,"ĠErin":11452,"nock":11453,"ĠUs":11454,"Ġscan":11455,"Ġscold":11456,"Ġthoughtful":11457,"Ġchill":11458,"Ġheadquarters":11459,"Ġcrimes":11460,"Ġleak":11461,"OUND":11462,"Ġsurrender":11463,"Ġreadily":11464,"Ġregions":11465,"ecil":11466,"Ġtriangle":11467,"Ġlively":11468,"ĠIndeed":11469,"Ġspeakers":11470,"Ġexposed":11471,"ebra":11472,"Ġthanked":11473,"Ġvisits":11474,"atural":11475,"Ġreceipt":11476,"Ġraft":11477,"Ġ1973":11478,"Ġwaved":11479,"Ġbabe":11480,"ropol":11481,"nesota":11482,"Ġtorture":11483,"Ġgenus":11484,"Ġspelling":11485,"Ġdeny":11486,"Ġuncertain":11487,"ĠSeries":11488,"THANK":11489,"Ġattracted":11490,"Ġdismay":11491,"Ġdistribution":11492,"Ġinspection":11493,"Chair":11494,"Ġfancied":11495,"Ġfrequent":11496,"Ġgoddess":11497,"Seriously":11498,"Ġjunior":11499,"ĠWickham":11500,"ĠLorenzo":11501,"ĠDuchess":11502,"ĠVaughan":11503,"AX":11504,"DER":11505,"Ladies":11506,"PP":11507,"TE":11508,"VIII":11509,"aah":11510,"cool":11511,"crying":11512,"fix":11513,"fashion":11514,"hor":11515,"ias":11516,"lines":11517,"mare":11518,"nels":11519,"rad":11520,"rane":11521,"ugged":11522,"won":11523,"wari":11524,"itals":11525,"Ġcher":11526,"Ġtore":11527,"escend":11528,"Ġhears":11529,"ims":11530,"rod":11531,"ĠSn":11532,"Ġnothin":11533,"thony":11534,"umi":11535,"Ġdee":11536,"opher":11537,"ĠFisher":11538,"ĠFederal":11539,"itts":11540,"ĠNice":11541,"Ġwholly":11542,"emen":11543,"Ġintake":11544,"Ġcla":11545,"ĠKent":11546,"Ġflav":11547,"Ġcrashed":11548,"Ġdram":11549,"aza":11550,"Ġcharm":11551,"ĠAlso":11552,"prise":11553,"mmm":11554,"Ġexpenses":11555,"Ġrefrigerator":11556,"Ġcollar":11557,"Ġinsane":11558,"Ġpositions":11559,"Ã©e":11560,"Ġcereal":11561,"Anyone":11562,"Ġlegisl":11563,"Ġ1957":11564,"Ġgallop":11565,"ĠPolish":11566,"burgh":11567,"Ġsensation":11568,"ressional":11569,"Trans":11570,"Ġtightly":11571,"Ġbothering":11572,"ĠEllen":11573,"ĠBoys":11574,"sname":11575,"Ġmulti":11576,"ĠChannel":11577,"Ġdivorce":11578,"Lucy":11579,"ĠGranby":11580,"ĠOakdale":11581,"âĢķâĢķ":11582,"Ġlifetime":11583,"Ġhalted":11584,"Ġignorant":11585,"Ġbundle":11586,"ĠTibbits":11587,"ĠMaskoki":11588,"Ġnegoti":11589,"General":11590,"Haven":11591,"Mind":11592,"MAR":11593,"Na":11594,"Rahul":11595,"borough":11596,"cup":11597,"fs":11598,"jab":11599,"milk":11600,"pool":11601,"tape":11602,"whel":11603,"whee":11604,"haw":11605,"Ġcrest":11606,"Ġdess":11607,"Ġdates":11608,"Ġfug":11609,"Ġgens":11610,"Ġwebs":11611,"Ġreci":11612,"Ġreception":11613,"stay":11614,"step":11615,"ĠMouse":11616,"Ġseal":11617,"ĠAG":11618,"ĠCray":11619,"ĠBUT":11620,"ĠHills":11621,"Ġje":11622,"Ġsober":11623,"Ġsheriff":11624,"abe":11625,"ĠPleas":11626,"Ġtheme":11627,"iga":11628,"ĠFIFA":11629,"ĠJO":11630,"ĠEN":11631,"ĠOcean":11632,"Ġgrade":11633,"ondisse":11634,"ĠKong":11635,"iren":11636,"hoibi":11637,"Ġunemploy":11638,"Ġperpet":11639,"Ġcompens":11640,"Ġhomework":11641,"ĠVal":11642,"Ġresumed":11643,"Ġ300":11644,"pron":11645,"Ġtrapped":11646,"donald":11647,"ĠMaya":11648,"Ġconstru":11649,"Ġcorners":11650,"Ġsalad":11651,"Ġ1964":11652,"ĠConference":11653,"Ġavo":11654,"Ġempire":11655,"ĠWhich":11656,"Ġthreatening":11657,"pretty":11658,"Ġplanted":11659,"Ġvehicles":11660,"hunters":11661,"Ġconcentrate":11662,"Ġtypical":11663,"anchester":11664,"Ġborders":11665,"Ġchimney":11666,"Ġprosper":11667,"Ġgesture":11668,"ĠTWO":11669,"Ġhorizon":11670,"Ġamazement":11671,"Ġgenuine":11672,"COME":11673,"Each":11674,"JECT":11675,"NY":11676,"SOP":11677,"SPE":11678,"dam":11679,"equ":11680,"faced":11681,"mamma":11682,"pat":11683,"pie":11684,"ui":11685,"wah":11686,"xed":11687,"Ġawards":11688,"ouched":11689,"itage":11690,"Ġpy":11691,"Ġgrap":11692,"arc":11693,"Ġnit":11694,"ĠIF":11695,"Ġhire":11696,"icians":11697,"Ġbeam":11698,"Ġstool":11699,"amen":11700,"ĠApp":11701,"ĠAcc":11702,"ĠCape":11703,"ĠBol":11704,"ifford":11705,"ĠHap":11706,"Ġjingle":11707,"ĠTokyo":11708,"umin":11709,"abled":11710,"ĠFE":11711,"istor":11712,"aston":11713,"ĠNative":11714,"Ġdisple":11715,"clap":11716,"OTHER":11717,"ĠVin":11718,"Ġresent":11719,"ignment":11720,"Ġcontented":11721,"Ġharsh":11722,"Instead":11723,"Ġswam":11724,"Ġdifferences":11725,"Ġrealise":11726,"Ġ38":11727,"Ġconspir":11728,"maid":11729,"Ġ180":11730,"ĠHarrington":11731,"Ġbeautifully":11732,"Ġpopcorn":11733,"ĠZoe":11734,"Ġsunset":11735,"Ġconcert":11736,"Ġabsurd":11737,"Ġ1972":11738,"Ġsupporting":11739,"ĠMinnesota":11740,"Ġbands":11741,"tives":11742,"Ġverse":11743,"iggle":11744,"ĠJustus":11745,"Ġgarbage":11746,"Ġurban":11747,"Ġdenied":11748,"ĠKevin":11749,"ĠJulie":11750,"Ġstrawberry":11751,"ĠSeabrooke":11752,"Ġinvented":11753,"Ġadministration":11754,"Ġdissol":11755,"Ġpursue":11756,"Ġtraveling":11757,"ĠHonor":11758,"Ġretirement":11759,"Ġscenes":11760,"Ġathlet":11761,"Ġprovinces":11762,");":11763,"Calm":11764,"Dis":11765,"Easy":11766,"Pinkie":11767,"Sub":11768,"Saint":11769,"Sweet":11770,"iper":11771,"ji":11772,"must":11773,"parent":11774,"vation":11775,"woof":11776,"Ġwages":11777,"Ġtherap":11778,"rep":11779,"Ġmic":11780,"Ġmuff":11781,"Ġdiver":11782,"Ġtob":11783,"Ġpha":11784,"Ġpanc":11785,"ĠInt":11786,"levant":11787,"ido":11788,"uttering":11789,"Ġee":11790,"Ġwasted":11791,"Ġwhirl":11792,"Ġlied":11793,"andal":11794,"ĠCub":11795,"ĠHye":11796,"ĠHAM":11797,"Ġruff":11798,"Ġrasc":11799,"Ġsoph":11800,"ĠTimes":11801,"Ġcann":11802,"uming":11803,"ĠWel":11804,"ĠWild":11805,"ĠDie":11806,"olar":11807,"ĠGU":11808,"ĠLim":11809,"resents":11810,"Ġspan":11811,"ĠNic":11812,"ĠNord":11813,"Ġloan":11814,"Ġargue":11815,"ĠHealth":11816,"Ġlean":11817,"Ġcoinc":11818,"Ġscra":11819,"Ġscissors":11820,"Ġhappily":11821,"Ġwrist":11822,"Ġslim":11823,"Ġslate":11824,"Ġcareless":11825,"ĠBrook":11826,"Ġinval":11827,"Ġcurly":11828,"ifications":11829,"Ġmusician":11830,"Ġproviding":11831,"Ġhumble":11832,"def":11833,"Ġarticles":11834,"Ġfrozen":11835,"Ġcausing":11836,"Ġcreating":11837,"ekle":11838,"ĠOrton":11839,"Ġrecognise":11840,"Ġgallant":11841,"ELY":11842,"aretto":11843,"ederation":11844,"Ġindicated":11845,"Ġrailroad":11846,"ĠRyder":11847,"----------------------------------------":11848,"------------------------------------------------------------------------":11849,"ĠPete":11850,"Ġbeasts":11851,"Ġexperiences":11852,"Ġtossed":11853,"Finally":11854,"Ġslavery":11855,"Ġejaculated":11856,"ĠHitchiti":11857,"CLE":11858,"Kim":11859,"Lou":11860,"Rep":11861,"Robert":11862,"bam":11863,"ded":11864,"found":11865,"zie":11866,"Ã¢":11867,"Ġeter":11868,"hero":11869,"Ġmild":11870,"Ġcunning":11871,"Ġdash":11872,"edale":11873,"annet":11874,"ĠIce":11875,"Ġhither":11876,"usa":11877,"aco":11878,"acter":11879,"Ġstamp":11880,"ĠApal":11881,"Ġraw":11882,"ooked":11883,"ĠWals":11884,"ĠPayne":11885,"Ġalt":11886,"ĠFIRST":11887,"ĠJud":11888,"ĠLion":11889,"Ġtwin":11890,"Ġquid":11891,"Ġclam":11892,"Ġbrains":11893,"ĠKaw":11894,"pson":11895,"angar":11896,"Ġunderground":11897,"rund":11898,"Ġshapes":11899,"peed":11900,"Ġheadache":11901,"Ġrunway":11902,"Ġentit":11903,"Ġhearty":11904,"Ġrested":11905,"Ġdifferently":11906,"Ġasshole":11907,"Ġfireplace":11908,"Ġdepressed":11909,"Ġtragedy":11910,"Ġconfront":11911,"Ġplanes":11912,"Ġextract":11913,"Ġborne":11914,"Ġsnack":11915,"Ġexamined":11916,"Ġarmour":11917,"Ġcooked":11918,"Ġmode":11919,"Ġcorrupt":11920,"asping":11921,"ĠColumb":11922,"ĠLeices":11923,"Ġcompliment":11924,"Ġrubbing":11925,"Ġoccasional":11926,"Ġprayers":11927,"Ġacquainted":11928,"Ġheathen":11929,"Ġcustomers":11930,"voice":11931,"Ġshocked":11932,"Ġplebe":11933,"ĠRyedale":11934,"Ġbatteries":11935,"Otherwise":11936,"Ġbending":11937,"Ġpurchase":11938,"Ġuneasy":11939,"Ġguarantee":11940,"Ġdiscipline":11941,"Ġtobacco":11942,"LAND":11943,"Rolan":11944,"bott":11945,"better":11946,"cill":11947,"date":11948,"irie":11949,"kers":11950,"liness":11951,"mont":11952,"mission":11953,"tan":11954,"vas":11955,"ĠâĻ«":11956,"oust":11957,"Ġmos":11958,"Ġmask":11959,"Ġmuseum":11960,"Ġfisher":11961,"Ġpets":11962,"Ġpunch":11963,"Ġhoof":11964,"achi":11965,"ader":11966,"Ġstew":11967,"ĠSher":11968,"ĠAbr":11969,"ĠCorn":11970,"elling":11971,"Ġjaguar":11972,"Ġrattle":11973,"ĠTaylor":11974,"ieves":11975,"Ġ\"\"":11976,"Ġshone":11977,"abouts":11978,"ulance":11979,"ĠPooh":11980,"ĠDale":11981,"ĠDoub":11982,"Ġseeming":11983,"Ġspared":11984,"Ġvice":11985,"oded":11986,"Ġboast":11987,"Ġoverwhel":11988,"Ġclasped":11989,"ĠKar":11990,"Ġcoff":11991,"Ġwhereupon":11992,"harm":11993,"ĠUFO":11994,"necess":11995,"Ġsmugg":11996,"closed":11997,"claps":11998,"Ġacts":11999,"ĠYang":12000,"ĠVI":12001,"Ġmonarch":12002,"Ġfrown":12003,"mbass":12004,"Ġcaptives":12005,"ĠNewton":12006,"Ġawesome":12007,"Ġexplains":12008,"teddy":12009,"Atl":12010,"ĠRev":12011,"Ġlowered":12012,"ĠFranky":12013,"Ġbullshit":12014,"ĠCommander":12015,"ĠPauline":12016,"chants":12017,"ĠDora":12018,"ĠExcuse":12019,"Ġtaxi":12020,"Neither":12021,"Having":12022,"Ġcongrat":12023,"Ġwitnesses":12024,"ĠGraeme":12025,"Ġepisodes":12026,"ĠHamilton":12027,"Ġdomestic":12028,"Second":12029,"GRUNT":12030,"Ġmanufacture":12031,"ĠÂ£":12032,"Ġappetite":12033,"Ġalphabet":12034,"fashioned":12035,";âĢĿ":12036,"Aub":12037,"Bra":12038,"Coming":12039,"Might":12040,"both":12041,"contin":12042,"funny":12043,"path":12044,"rical":12045,"raspberry":12046,"table":12047,"uations":12048,"zona":12049,"Ġtact":12050,"Ġtroll":12051,"Ġbowed":12052,"Ġming":12053,"Ġdiet":12054,"Ġgoose":12055,"Ġhipp":12056,"otty":12057,"usk":12058,"Ġkit":12059,"ĠMull":12060,"ĠMAKE":12061,"ĠMORE":12062,"ĠSant":12063,"ĠSOMETHING":12064,"andom":12065,"ĠCle":12066,"ĠBEL":12067,"ĠBetty":12068,"eller":12069,"ĠHAS":12070,"Ġjerk":12071,"ĠTELL":12072,"ĠTigger":12073,"ĠWitch":12074,"ĠPur":12075,"ĠPart":12076,"ĠPony":12077,"ĠDra":12078,"ĠJen":12079,"osure":12080,"ĠLwww":12081,"ĠRim":12082,"earch":12083,"Ġoverall":12084,"ĠKath":12085,"resses":12086,"Ġparted":12087,"Ġscal":12088,"Ġscrat":12089,"Ġfoes":12090,"Ġcompass":12091,"Ġhelmet":12092,"Ġelim":12093,"plete":12094,"ĠBridge":12095,"Ġassess":12096,"Ġhighway":12097,"ĠFlo":12098,"headed":12099,"Ġinspired":12100,"Ġsticker":12101,"Ġemig":12102,"ĠRevolution":12103,".'\"":12104,"192":12105,"iversary":12106,"Ġnecessity":12107,"Ġcopies":12108,"ĠGrandpa":12109,"Ġwidely":12110,"Ġconcerning":12111,"Ġwandered":12112,"Ġenvy":12113,"achete":12114,"ĠWindsor":12115,"ammar":12116,"Ġrequirement":12117,"Ġsacred":12118,"Ġghosts":12119,"Ġpitched":12120,"Ġpersuaded":12121,"Ġpursued":12122,"Ġelevator":12123,"Ġcandidate":12124,"DOOR":12125,"Warren":12126,"Ġrescued":12127,"ĠColorado":12128,"\";":12129,"Lee":12130,"Tis":12131,"Whether":12132,"affe":12133,"papers":12134,"rating":12135,"tub":12136,"uz":12137,"Ġ`":12138,"Ġtut":12139,"inals":12140,"Ġsinking":12141,"onight":12142,"erving":12143,"Ġmant":12144,"Ġmachete":12145,"Ġcul":12146,"Ġod":12147,"Ġol":12148,"Ġdyn":12149,"Ġfist":12150,"anoke":12151,"Ġpip":12152,"Ġpenn":12153,"Ġgreed":12154,"Ġlaund":12155,"Ġhint":12156,"usions":12157,"idre":12158,"ĠSky":12159,"ĠCf":12160,"ĠCru":12161,"ĠCHE":12162,"ĠCurtis":12163,"ĠBishop":12164,"ĠHold":12165,"ĠHung":12166,"Ġsoccer":12167,"Ġ\"_":12168,"ĠWy":12169,"hant":12170,"ĠFat":12171,"ĠLib":12172,"ĠEver":12173,"ods":12174,"aga":12175,"Ġquote":12176,"Ġoffers":12177,"Ġclue":12178,"Ġbron":12179,"Ġbrute":12180,"Ġblown":12181,"Ġbloke":12182,"Ġenable":12183,"Ġencounter":12184,"Ġpreced":12185,"onson":12186,"onsider":12187,"Ġmotherf":12188,"Ġwont":12189,"Ġattic":12190,"Ġcommenced":12191,"Ġunto":12192,"Ġconsent":12193,"Ġawoke":12194,"ĠThough":12195,"Ġstatements":12196,"Ġchairman":12197,"agging":12198,"ĠIslam":12199,"ĠZekle":12200,"Ġmessed":12201,"Ã¡t":12202,"Ġchecks":12203,"ĠAllyn":12204,"Ġapprox":12205,"Ġpengu":12206,"Ġjoining":12207,"Ġ1940":12208,"Ġneighbours":12209,"ĠPolicy":12210,"True":12211,"Guys":12212,"Ġstockings":12213,"Ġmiracle":12214,"Ġcommented":12215,"Ġreminds":12216,"ĠInternet":12217,"Ġcongressional":12218,"Ġtapes":12219,"ONEY":12220,"Ġromance":12221,"Suppose":12222,"Ġechoed":12223,"Ġdignity":12224,"Ġsubstantial":12225,"Ġillegal":12226,"ĠCheroki":12227,"Ain":12228,"Deb":12229,"Eve":12230,"Gee":12231,"July":12232,"Know":12233,"Kitty":12234,"Lady":12235,"bread":12236,"lk":12237,"sur":12238,"yama":12239,"Ġtons":12240,"Ġtatt":12241,"Ġcinem":12242,"Ġoak":12243,"Ġfitting":12244,"Ġles":12245,"Ġlump":12246,"Ġhood":12247,"Ġhind":12248,"Ġonline":12249,"imet":12250,"Ġretain":12251,"adays":12252,"Ġkite":12253,"Ġmead":12254,"ĠSong":12255,"ĠBoss":12256,"ĠBudd":12257,"anthoibi":12258,"Ġoutfit":12259,"olate":12260,"ĠGre":12261,"ĠGal":12262,"ĠFame":12263,"ĠLind":12264,"ĠRen":12265,"Ġintim":12266,"Ġquot":12267,"Ġclick":12268,"Ġcob":12269,"Ġcoax":12270,"ĠUr":12271,"rup":12272,"ERING":12273,"Ġattorney":12274,"Ġaccus":12275,"Ġfinest":12276,"Ġbelieves":12277,"Ġrival":12278,"ugar":12279,"Ġfactors":12280,"Ġeleg":12281,"Ġtopic":12282,"onym":12283,"ĠSocial":12284,"Ġdealt":12285,"enez":12286,"putting":12287,"iolet":12288,"Anybody":12289,"Ġbaba":12290,"Ġicecream":12291,"Ġ1946":12292,"Ġnecklace":12293,"Chief":12294,"ĠSecurity":12295,"Ġcontaining":12296,"Ġhostile":12297,"ĠSamuel":12298,"court":12299,"Ġblankets":12300,"Ġsplash":12301,"IFE":12302,"ODY":12303,"Ġcelebrated":12304,"Ġconviction":12305,"Ġsacrific":12306,"ĠLOVE":12307,"Ġfrag":12308,"Ġdismissed":12309,"ĠMelissa":12310,"ĠCOVID":12311,"Ġautomobile":12312,"ĠThanksgiving":12313,"Ġcaution":12314,"Ġunfair":12315,"Ġswallowed":12316,"ĠSaxony":12317,"ĠChatah":12318,"Roanoke":12319,"Ġexclamation":12320,"33":12321,"76":12322,"80":12323,"Gold":12324,"Number":12325,"Ph":12326,"Que":12327,"Rec":12328,"Ty":12329,"done":12330,"dig":12331,"gers":12332,"iac":12333,"refe":12334,"Ġshat":12335,"Ġdip":12336,"Ġlame":12337,"aroni":12338,"asper":12339,"Ġhabits":12340,"Ġthread":12341,"uscript":12342,"Ġbeads":12343,"entially":12344,"ĠMoo":12345,"ĠMem":12346,"ĠSean":12347,"Ġsearched":12348,"illes":12349,"ĠCoosa":12350,"ĠCaretto":12351,"ĠBea":12352,"ĠBBC":12353,"antry":12354,"Ġhadta":12355,"aints":12356,"ĠTR":12357,"ulating":12358,"ĠPower":12359,"ĠDoes":12360,"ĠGro":12361,"ĠJos":12362,"ĠJason":12363,"ĠJordan":12364,"Ġworm":12365,"ichi":12366,"Ġmanif":12367,"odo":12368,"ĠOUR":12369,"Ġboiling":12370,"Ġoverhead":12371,"Ġbrass":12372,"Ġunnecess":12373,"wns":12374,"Ġhandy":12375,"Ġlonging":12376,"ĠStirling":12377,"obal":12378,"ogy":12379,"Ġbuggy":12380,"Ġglue":12381,"ĠChuck":12382,"ANCE":12383,"ATH":12384,"Ġsurve":12385,"ĠMaria":12386,"Ġï¿½ï¿½ï¿½":12387,"Ġdrives":12388,"ĠNoel":12389,"ENS":12390,"ĠBelden":12391,"ennis":12392,"cycle":12393,"Ġmessy":12394,"ĠQU":12395,"ĠForrest":12396,"Ġ1971":12397,"Ġ1967":12398,"ĠGermans":12399,"scape":12400,"Ġlimits":12401,"someone":12402,"Ġrubbed":12403,"Ġcandles":12404,"Ġcompete":12405,"whisper":12406,"Ġcellar":12407,"Cheers":12408,"ugging":12409,"Ġreminded":12410,"Connor":12411,"Ġarrangement":12412,"Ġpreparation":12413,"ĠEnter":12414,"Ġcomparatively":12415,"Ġpersuade":12416,"Ġpremium":12417,"Ġbothered":12418,"ĠArmstrong":12419,"Career":12420,"Ġjournalist":12421,"ĠFilm":12422,"ĠHolland":12423,"ĠEsther":12424,"Personal":12425,"Ġhamburger":12426,"Ġabruptly":12427,"AII":12428,"Bre":12429,"CAUSE":12430,"FT":12431,"GHING":12432,"HOW":12433,"Pull":12434,"Res":12435,"dling":12436,"hr":12437,"och":12438,"rous":12439,"uer":12440,"uating":12441,"uously":12442,"heastern":12443,"Ġwoo":12444,"Ġcater":12445,"Ġdot":12446,"Ġdorm":12447,"Ġdancer":12448,"organ":12449,"encies":12450,"Ġpear":12451,"Ġgear":12452,"arn":12453,"aye":12454,"Ġbeats":12455,"Ġreb":12456,"secut":12457,"allel":12458,"Ġseeds":12459,"Ġwhipped":12460,"ĠAms":12461,"chicken":12462,"Ġsails":12463,"gered":12464,"Ġoutta":12465,"inkling":12466,"ĠDNA":12467,"question":12468,"ĠGeno":12469,"ĠFL":12470,"ĠLily":12471,"ĠNak":12472,"Ġvest":12473,"ĠEp":12474,"Ġera":12475,"Ġarts":12476,"Ġpepper":12477,"Ġgrasped":12478,"Ġcopper":12479,"izzy":12480,"Ġthoughtfully":12481,"Ġcrush":12482,"Ġreserve":12483,"ulture":12484,"ĠInc":12485,"ĠBruno":12486,"ampa":12487,"Ġfrustr":12488,"Star":12489,"Ġrounds":12490,"Ġsmallest":12491,"Ġfactor":12492,"ISE":12493,"Ġ44":12494,"Ġexplo":12495,"ĠDerek":12496,"Ġgrandpa":12497,"Ġsqueal":12498,"ĠIsn":12499,"Ġoffices":12500,"Ġadvised":12501,"Ġ75":12502,"Ġcatches":12503,"entlemen":12504,"Ġ1978":12505,"Ġdestination":12506,"ĠJackie":12507,"White":12508,"Ġcupboard":12509,"Ġzone":12510,"Ġstrangely":12511,"Ġvalues":12512,"Ġbowling":12513,"Ġdiagn":12514,"Ġinvolve":12515,"Ġtrucks":12516,"Ġparking":12517,"Ġwelcom":12518,"Ġfilms":12519,"Ġunclear":12520,"Death":12521,"chiat":12522,"Ġexecution":12523,"ĠNEW":12524,"ĠBerlin":12525,"Ġelectricity":12526,"ĠCaroline":12527,"Ġinstruments":12528,"Ġsquirrel":12529,"Ġrisen":12530,"ĠJessica":12531,"Ġcurtains":12532,"Ġpronounced":12533,"Ġtraveled":12534,"Ġapplication":12535,"Ġfrankly":12536,"ĠDodds":12537,"Ġtreasures":12538,"Ġmarvellous":12539,"?]":12540,"Ant":12541,"AIR":12542,"ACE":12543,"Fred":12544,"IZ":12545,"Mal":12546,"Win":12547,"WOMAN":12548,"aise":12549,"cont":12550,"gian":12551,"home":12552,"iary":12553,"iency":12554,"jud":12555,"mir":12556,"rors":12557,"rained":12558,"wich":12559,"Ġtch":12560,"Ġwhar":12561,"Ġwishing":12562,"Ġbun":12563,"Ġoath":12564,"Ġoptions":12565,"Ġpathetic":12566,"Ġlur":12567,"Ġniece":12568,"Ġweigh":12569,"Ġrebell":12570,"ĠMRS":12571,"Ġliar":12572,"ĠAld":12573,"ĠHong":12574,"Ġrans":12575,"Ġsoci":12576,"ĠTour":12577,"ĠTAL":12578,"ĠListen":12579,"Ġbyeb":12580,"arded":12581,"Its":12582,"Ġmanuscript":12583,"ĠOfficer":12584,"Ġagents":12585,"Ġeveryday":12586,"Ġflats":12587,"Ġthrone":12588,"Ġchlor":12589,"ixon":12590,"oyo":12591,"ĠValentine":12592,"ĠVenez":12593,"Ġslope":12594,"Ġnightmare":12595,"Ġdeserved":12596,"letta":12597,"yeh":12598,"ATHER":12599,"Ġswords":12600,"uffy":12601,"Ġmarbles":12602,"Ġconsisted":12603,"Ġdrivers":12604,"Ġsilently":12605,"Ġsqueak":12606,"Ġformal":12607,"Ġadvise":12608,"Ġdreaming":12609,"Ġadmire":12610,"Ġcorre":12611,"Ġ1974":12612,"ĠBarbara":12613,"Ġmisery":12614,"Ġ179":12615,"Ġsickness":12616,"Ġnurses":12617,"Ġdivide":12618,"Ġtested":12619,"ĠMcC":12620,"Ġpacking":12621,"Ġpacket":12622,"Ġcondem":12623,"ĠSTORY":12624,"Ġsexy":12625,"relative":12626,"Wouldn":12627,"Marilla":12628,"Ġheroes":12629,"Ġdetermination":12630,"flies":12631,"Ġprocession":12632,"Ġpetition":12633,"Ġcracked":12634,"ĠAngel":12635,"Ġmortal":12636,"Ġstirred":12637,"Ġrequested":12638,"Ġcomedian":12639,"Ġpurchased":12640,"ĠWalter":12641,"Ġconsciousness":12642,"ĠChildren":12643,"Ġforbidden":12644,"Ġstrictly":12645,"Colonel":12646,"ĠPenelly":12647,"ĠRussell":12648,"Martin":12649,"believable":12650,"Ġlaundry":12651,"ĠAmsden":12652,"AIT":12653,"Beautiful":12654,"Especially":12655,"Hope":12656,"Mo":12657,"Slow":12658,"]:":12659,"dear":12660,"dies":12661,"pink":12662,"today":12663,"Ġbury":12664,"Ġbapt":12665,"Ġmike":12666,"Ġling":12667,"Ġloop":12668,"Ġbegging":12669,"Ġstadium":12670,"amil":12671,"roar":12672,"ĠSM":12673,"ĠAuthor":12674,"ĠAccording":12675,"ando":12676,"ĠCa":12677,"ĠComp":12678,"ĠBRO":12679,"Ġjer":12680,"Ġjunk":12681,"Ġjumper":12682,"ĠToby":12683,"Ġalloc":12684,"abby":12685,"ĠDoto":12686,"Ġalarmed":12687,"ĠGang":12688,"igo":12689,"ĠJe":12690,"ĠJin":12691,"Ġvib":12692,"ĠOP":12693,"itei":12694,"udder":12695,"Ġflock":12696,"ccess":12697,"Ġnevertheless":12698,"Ġcompare":12699,"Ġfinishing":12700,"Ġobsc":12701,"untary":12702,"prints":12703,"Ġphones":12704,"Ġmeth":12705,"Ġexpense":12706,"usson":12707,"Ġsentences":12708,"Thought":12709,"Through":12710,"Ġsym":12711,"Ġtreacher":12712,"Ġgrandson":12713,"Ġfights":12714,"Ġrocking":12715,"Ġengagement":12716,"Ġmodels":12717,"ĠHero":12718,"Ġcamping":12719,"Ġoperate":12720,"Ġanniversary":12721,"Ġ1945":12722,"Ġrespected":12723,"ĠCommun":12724,"Ġlocks":12725,"Unfortunately":12726,"withstanding":12727,"Ġcollecting":12728,"elena":12729,"Ġguardian":12730,"Ġemployee":12731,"Ġpeaceful":12732,"Ġchapel":12733,"Ġcomputers":12734,"Ġinvestigate":12735,"Seems":12736,"Ġachieved":12737,"Ġscientists":12738,"ĠNatalie":12739,"Ġfantasy":12740,"poses":12741,"Ġdelayed":12742,"Ġvoting":12743,"Ġadministr":12744,"ĠPLAY":12745,"ĠSomething":12746,"Ġcounsel":12747,"ĠEvans":12748,"ĠSweden":12749,"Ġdistinguished":12750,"Ġtemporary":12751,"sharp":12752,"Ġproportion":12753,"Ġdefinition":12754,"Ġentitled":12755,"Aubusson":12756,"'!":12757,"):":12758,"31":12759,"Alden":12760,"BJECT":12761,"Dave":12762,"Nope":12763,"Rest":12764,"Tra":12765,"WHI":12766,"eem":12767,"je":12768,"lon":12769,"mummy":12770,"pow":12771,"ygen":12772,"Ġau":12773,"Ġawe":12774,"inction":12775,"rete":12776,"refer":12777,"onet":12778,"Ġmales":12779,"Ġfame":12780,"Ġfans":12781,"ĠCro":12782,"ĠBour":12783,"ifer":12784,"opy":12785,"ĠForm":12786,"ĠJill":12787,"akened":12788,"ĠNorm":12789,"orts":12790,"odern":12791,"ĠOb":12792,"agi":12793,"Ġagg":12794,"Ġboil":12795,"Ġtrump":12796,"Ġleisure":12797,"Ġgracious":12798,"Ġbloss":12799,"Ġblazing":12800,"Ġthrong":12801,"anging":12802,"Ġchildish":12803,"kswari":12804,"Ġmini":12805,"ĠInstitute":12806,"Ġcounts":12807,"Ġobed":12808,"ĠTHEM":12809,"meal":12810,"Ġenters":12811,"Ġassumed":12812,"anything":12813,"Ġdeputy":12814,"Ġhates":12815,"Ġconfession":12816,"Ġ49":12817,"Ġpromises":12818,"ĠSof":12819,"Ġlargely":12820,"Ġparcel":12821,"iko":12822,"ĠPrice":12823,"Ġforgetting":12824,"Ġsecretly":12825,"Ġeyeb":12826,"ĠMinchin":12827,"Ġprotecting":12828,"Ġ1948":12829,"Ġtasted":12830,"ĠCoast":12831,"Ġviolently":12832,"Ġsenses":12833,"Close":12834,"ĠEmperor":12835,"Ġopportun":12836,"Ġurgent":12837,"Ġstruggled":12838,"Ġcheerfully":12839,"boys":12840,"AUGHING":12841,"Ġdisposition":12842,"Ġinjuries":12843,"ĠCassowary":12844,"Ġencourage":12845,"ĠTripp":12846,"ĠZealanders":12847,"Ġseverely":12848,"omeday":12849,"ĠMountain":12850,"Ġannoying":12851,"Ġdialects":12852,"Ġaccordingly":12853,"ĠSwedish":12854,"Ġrendered":12855,"Ġslippers":12856,"Ġaccurate":12857,"YEAH":12858,"ĠVietnam":12859,"ĠVERY":12860,"rundy":12861,"Atlant":12862,"Ġbyebye":12863,"ĠVenezuel":12864,"Bad":12865,"Best":12866,"Dun":12867,"Dude":12868,"Gannet":12869,"KS":12870,"Roger":12871,"Ter":12872,"Use":12873,"fold":12874,"gic":12875,"graph":12876,"pea":12877,"tÃ©":12878,"uis":12879,"Ġbass":12880,"Ġbait":12881,"Ġmart":12882,"Ġmush":12883,"Ġdum":12884,"Ġdamp":12885,"Ġpills":12886,"Ġgb":12887,"Ġlace":12888,"Ġinfect":12889,"verty":12890,"stream":12891,"ĠShi":12892,"ĠAC":12893,"ĠCOME":12894,"ĠHOW":12895,"Ġjest":12896,"Ġrats":12897,"Ġraces":12898,"Ġupright":12899,"ĠTop":12900,"ĠTower":12901,"umer":12902,"geance":12903,"Ġabuse":12904,"ĠPut":12905,"ĠDoc":12906,"rait":12907,"ohra":12908,"emois":12909,"âĢĿ!":12910,"Ġaggress":12911,"hio":12912,"ĠKal":12913,"Ġcoco":12914,"Ġneedle":12915,"Ġpoverty":12916,"Ġflows":12917,"Ġprev":12918,"Ġhappier":12919,"Ġslap":12920,"Ġrestrain":12921,"Ġrelatively":12922,"Ġsingular":12923,"Ġinterior":12924,"Ġinvasion":12925,"appie":12926,"oker":12927,"Ġcutie":12928,"ĠAssemb":12929,"Throw":12930,"Ġsweeping":12931,"Ġbargain":12932,"Att":12933,"Ġsends":12934,"children":12935,"Ġarriving":12936,"Ġmotive":12937,"chee":12938,"Ġdestro":12939,"ĠBarletta":12940,"Ġsuggesting":12941,"Ġ1962":12942,"Ġcircles":12943,"ĠMinnie":12944,"Ġspecim":12945,"Ġsuperintendent":12946,"Ġwhispering":12947,"ĠManip":12948,"Ġ1942":12949,"ĠShut":12950,"ĠWhit":12951,"Ġvolcan":12952,"Grady":12953,"Ġscarce":12954,"ĠBEEN":12955,"Ġhurrying":12956,"ILTON":12957,"Ġaddressing":12958,"ĠQueens":12959,"ĠEvelyn":12960,"Ġweakness":12961,"ĠJeannine":12962,"ĠMurray":12963,"ĠHollywood":12964,"intendo":12965,"Ġemotional":12966,"Ġsupplied":12967,"Ġragged":12968,"Ġerrand":12969,"Relax":12970,"Ġwandering":12971,"Ġdisagreeable":12972,"Ġdessert":12973,"SOPHI":12974,"ĠHAMILTON":12975,"emoiselle":12976,"46":12977,"AA":12978,"Bless":12979,"BAR":12980,"Gabriella":12981,"LF":12982,"buh":12983,"cro":12984,"hol":12985,"jan":12986,"kets":12987,"si":12988,"shi":12989,"spl":12990,"tuce":12991,"yummy":12992,"zburg":12993,"Ã§":12994,"Ġsor":12995,"Ġbom":12996,"Ġbib":12997,"Ġbicycle":12998,"Ġmarty":12999,"Ġnerves":13000,"Ġnortheast":13001,"Ġbees":13002,"utive":13003,"Ġkitten":13004,"ante":13005,"Ġsod":13006,"ĠTes":13007,"iege":13008,"Ġallowing":13009,"opard":13010,"ĠWars":13011,"ules":13012,"ĠDam":13013,"ĠDart":13014,"ĠGus":13015,"osa":13016,"ĠLead":13017,"ĠLarry":13018,"Ġspill":13019,"ĠNations":13020,"ĠElf":13021,"Ġtrot":13022,"Ġaroused":13023,"ĠUm":13024,"Ġshallow":13025,"tainment":13026,"doing":13027,"ĠYE":13028,"airy":13029,"ĠInf":13030,"Ġrecess":13031,"liver":13032,"Ġearliest":13033,"Ġ400":13034,"Ġquicker":13035,"Ġforming":13036,"Ġnewspapers":13037,"Ġmedium":13038,"Ã©sar":13039,"Shh":13040,"Ġcere":13041,"ĠColomb":13042,"ameron":13043,"Ġmasters":13044,"Ġrainbow":13045,"Ġestimate":13046,"ADE":13047,"Ġquarrel":13048,"ĠRosa":13049,"Ġ1952":13050,"Ġ1954":13051,"Ġ1955":13052,"Ġ1956":13053,"rers":13054,"Ġtemple":13055,"Ġcreation":13056,"ENTS":13057,"._--":13058,"Ġphotos":13059,"Ġcells":13060,"Ġgraduated":13061,"Guy":13062,"Ġgrabs":13063,"Ġfurnished":13064,"Ġforests":13065,"Ġprairie":13066,"Ġscholars":13067,"Ġintroduction":13068,"ĠJews":13069,"ughty":13070,"Ġmethods":13071,"Ġsurroundings":13072,"ĠRaymond":13073,"ĠHotel":13074,"Ġconvenient":13075,"Ġphilosophy":13076,"Ġpermanent":13077,"Ġwelcomed":13078,"56":13079,"Add":13080,"COL":13081,"Ev":13082,"Mel":13083,"NESS":13084,"Off":13085,"PORT":13086,"SHE":13087,"Us":13088,"Wonder":13089,"cross":13090,"called":13091,"eating":13092,"food":13093,"fles":13094,"gies":13095,"lap":13096,"mail":13097,"nity":13098,"occ":13099,"rr":13100,"tra":13101,"vard":13102,"yup":13103,"Äĩ":13104,"erted":13105,"Ġmoo":13106,"inge":13107,"esy":13108,"Ġlions":13109,"Ġnaval":13110,"atures":13111,"Ġhaw":13112,"oog":13113,"imal":13114,"Ġreli":13115,"rived":13116,"Ġstall":13117,"stri":13118,"robe":13119,"ĠSilver":13120,"ĠAy":13121,"illo":13122,"ĠBid":13123,"ĠBall":13124,"Ġrandom":13125,"ainty":13126,"ĠTeddy":13127,"ĠToday":13128,"ulgar":13129,"hanie":13130,"Ġsuits":13131,"inding":13132,"igen":13133,"igers":13134,"ĠRub":13135,"Ġexists":13136,"ĠNHL":13137,"Ġtraces":13138,"Ġoverse":13139,"Ġcler":13140,"Ġclapping":13141,"Ġunlock":13142,"Ġflashing":13143,"Ġcargo":13144,"Ġcarbon":13145,"ubb":13146,"ĠYuchi":13147,"ĠVol":13148,"Ġowns":13149,"Ġrecoll":13150,"Ġpretended":13151,"ĠAlaska":13152,"Ġmeters":13153,"Ġreflection":13154,"Ġrepresents":13155,"Ġpurposes":13156,"white":13157,"Ġbusinessman":13158,"uese":13159,"Ġeval":13160,"Ġopponent":13161,"Ġmagician":13162,"Ġparallel":13163,"Ġrocket":13164,"Ġhorseman":13165,"ĠAtt":13166,"zech":13167,"cribed":13168,"load":13169,"coat":13170,"holds":13171,"ĠPolulu":13172,"ĠMeitei":13173,"ĠRussians":13174,"Ġengineering":13175,"Ġemployment":13176,"ĠMonster":13177,"Fucking":13178,"Ġdesperately":13179,"Ġdeparted":13180,"Ġessential":13181,"ĠClaire":13182,"Ġconcerns":13183,"Ġsavages":13184,"Ġqualified":13185,"Ġliner":13186,"Ġswallow":13187,"Ġsemi":13188,"Ġsubmission":13189,"Ġmeasures":13190,"Ġanalysis":13191,"Ġhunter":13192,"ĠRadio":13193,"Ġdisgusting":13194,"current":13195,"ĠBroadway":13196,"titles":13197,"ĠPEOPLE":13198,"ĠWalsall":13199,"ĠChatahuchi":13200,"ĠAssembly":13201,"\"..":13202,"//":13203,"Bu":13204,"Cool":13205,"Din":13206,"Dick":13207,"FR":13208,"Far":13209,"Hit":13210,"Po":13211,"Post":13212,"Sur":13213,"Tur":13214,"lÃ¡":13215,"Ġ{":13216,"Ġ----":13217,"Ġwi":13218,"haired":13219,"Ġcf":13220,"Ġdated":13221,"Ġfaded":13222,"oration":13223,"orial":13224,"Ġpul":13225,"ashi":13226,"Ġhence":13227,"Ġhosp":13228,"imming":13229,"ĠMAR":13230,"ĠMicro":13231,"herlands":13232,"ĠSno":13233,"Ġsector":13234,"ĠAst":13235,"ĠHur":13236,"Ġjaw":13237,"Ġram":13238,"ĠTiger":13239,"ouring":13240,"thy":13241,"Ġspit":13242,"ĠName":13243,"ĠNumber":13244,"ĠNintendo":13245,"Ġvivid":13246,"Ġvault":13247,"orting":13248,"Ġropes":13249,"Ġpeac":13250,"soever":13251,"Ġpoems":13252,"Ġflights":13253,"Ġprecip":13254,"acht":13255,"ĠStu":13256,"Ġwrath":13257,"Ġperf":13258,"doors":13259,"onsie":13260,"ĠVen":13261,"ĠChow":13262,"eek":13263,"Ġpreserve":13264,"Ġbedtime":13265,"Ġ37":13266,"grunts":13267,"Ġmarble":13268,"Ġmarvel":13269,"clever":13270,"ĠAnthony":13271,"Ġincorpor":13272,"Ġsweater":13273,"Ġcenturies":13274,"eyed":13275,"Ġparade":13276,"ikes":13277,"Ġsunny":13278,"Ġexamples":13279,"Ġmoder":13280,"chester":13281,"Ġenjoyment":13282,"Ġsuccession":13283,"Ġdevotion":13284,"Ġ1939":13285,"ienna":13286,"Ġflee":13287,"truck":13288,"Ġdetermine":13289,"flower":13290,"Ġsuspended":13291,"Blue":13292,"Bloody":13293,"Ġactivist":13294,"Ġperforming":13295,"Ġresemb":13296,"Ġwrestling":13297,"ĠEverything":13298,"Ġetcetera":13299,"Ġfloat":13300,"Ġowl":13301,"Ġfaintly":13302,"Ġpanting":13303,"Ġsufficiently":13304,"Ġdeserves":13305,"Ġambulance":13306,"Ġexecuted":13307,"Ġpriority":13308,"Ġrhythm":13309,"bbons":13310,"Ġtube":13311,"Ġgreeted":13312,"Ġcommunities":13313,"ROUND":13314,"driver":13315,"immock":13316,"Ġcorsairs":13317,"ĠPortuguese":13318,"angaroo":13319,"Ġcoffin":13320,").]":13321,"ACT":13322,"ICH":13323,"Lord":13324,"March":13325,"Nick":13326,"iques":13327,"oft":13328,"pig":13329,"such":13330,"skin":13331,"held":13332,"rell":13333,"onom":13334,"Ġdainty":13335,"orms":13336,"icate":13337,"icals":13338,"idy":13339,"Ġwasting":13340,"imb":13341,"acha":13342,"Ġrender":13343,"irit":13344,"Ġkin":13345,"roit":13346,"ĠMess":13347,"ĠMamma":13348,"ĠManchester":13349,"ĠSAME":13350,"ĠSpecial":13351,"ĠCensus":13352,"ĠCLO":13353,"ifting":13354,"Ġric":13355,"unty":13356,"ĠTen":13357,"ĠTerry":13358,"ĠWon":13359,"ĠPatt":13360,"ĠPier":13361,"ĠPART":13362,"quack":13363,"ĠGina":13364,"ittin":13365,"ĠJosh":13366,"ardines":13367,"Ġconvention":13368,"Ġlookin":13369,"Ġrightly":13370,"Ġovert":13371,"Ġtheirs":13372,"Ġcliff":13373,"Ġbrut":13374,"Ġgrows":13375,"pert":13376,"Ġshawl":13377,"ĠĠĠĠĠĠĠĠĠĠ":13378,"Ġglancing":13379,"Ġdescent":13380,"ANY":13381,"Ġswamp":13382,"Ġretrie":13383,"Eric":13384,"onto":13385,"ottie":13386,"Ġdearly":13387,"Ġconsol":13388,"Ġassass":13389,"Ġinternal":13390,"alem":13391,"Ġfootsteps":13392,"Ġpays":13393,"Ġdiscount":13394,"Ġmuscle":13395,"Ġstepping":13396,"Ġfucked":13397,"ĠAllied":13398,"Ġapprove":13399,"Ġpenal":13400,"Ġfrock":13401,"Ġvillain":13402,"Ġ1961":13403,"Ġconsiderably":13404,"Ġeffectively":13405,"Ġquarry":13406,"Ġ1951":13407,"Ġ1958":13408,"Ġangrily":13409,"Ġ1947":13410,"ĠSeoul":13411,"Ġfatig":13412,"apsed":13413,"Wasn":13414,"Speaking":13415,"Couldn":13416,"Ġdreadfully":13417,"USIC":13418,"****":13419,"Ġchatter":13420,"erella":13421,"Ġignore":13422,"Ġwrestlers":13423,"Ġconvince":13424,"Ġroutine":13425,"everything":13426,"Ġhunted":13427,"Ġoxygen":13428,"Ġindependence":13429,"Ġencouraged":13430,"Ġventured":13431,"Rosa":13432,"pointing":13433,"Ġwealthy":13434,"Jimmy":13435,"Ġimpressive":13436,"ĠAlibam":13437,"purple":13438,"Ġfeathers":13439,"ĠConfeder":13440,"ĠNobody":13441,"ĠPrincess":13442,"Ġankle":13443,"ĠLaughs":13444,"crayon":13445,"Ġpussy":13446,"Ġmortgage":13447,"ĠMcDonalds":13448,"ropolitan":13449,"ĠMoore":13450,"ĠGenoa":13451,"referring":13452,"!--":13453,"\"),":13454,"55":13455,"Amen":13456,"Ho":13457,"NOT":13458,"TV":13459,"bus":13460,"bble":13461,"cus":13462,"gins":13463,"hors":13464,"swer":13465,"sounds":13466,"uv":13467,"Ġwires":13468,"itated":13469,"Ġmakin":13470,"Ġcel":13471,"Ġcable":13472,"Ġdummy":13473,"esc":13474,"Ġlorry":13475,"aria":13476,"Ġhens":13477,"Ġhip":13478,"Ġhan":13479,"Ġhaz":13480,"ications":13481,"Ġey":13482,"almost":13483,"Ġreins":13484,"seen":13485,"ircle":13486,"ĠMUST":13487,"ĠSnow":13488,"urse":13489,"ĠBand":13490,"ĠBab":13491,"ĠBunny":13492,"ĠHospital":13493,"ĠHOME":13494,"ĠHuns":13495,"ilion":13496,"Ġcanvas":13497,"Ġshh":13498,"ryn":13499,"ĠDoug":13500,"ĠDimmock":13501,"Ġplacing":13502,"ĠGIRL":13503,"ĠReb":13504,"Ġspider":13505,"apse":13506,"ĠEle":13507,"ĠOre":13508,"ĠOpen":13509,"Ġloaf":13510,"hoen":13511,"Ġunions":13512,"Ġmoist":13513,"ictures":13514,"Ġchorus":13515,"Ġcontem":13516,"Ġsurgeon":13517,"Ġstandards":13518,"Ġfridge":13519,"Ġtrips":13520,"Ġconsumption":13521,"Ġskirt":13522,"Ġunderstands":13523,"oubted":13524,"Ġdefined":13525,"ĠAllah":13526,"Ġsniff":13527,"Ġfixing":13528,"Ġpotty":13529,"Ġknocks":13530,"Ġdescribes":13531,"moves":13532,"Ġverd":13533,"Ġtorch":13534,"ributed":13535,"Ġcaptive":13536,"Ġguarded":13537,"Speak":13538,"Ġstreams":13539,"ĠBertie":13540,"Ġbehavi":13541,"Ġsurvived":13542,"Ġprinciples":13543,"Ġprimarily":13544,"Ġspoiled":13545,"Ġprints":13546,"Ġinnoc":13547,"Ġelephants":13548,"ĠNEVER":13549,"ĠMoreover":13550,"Ġrarely":13551,"hibition":13552,"Ġbarking":13553,"Bobby":13554,"Joey":13555,"Ġconsultation":13556,"rigade":13557,"ĠEgyptian":13558,"rasher":13559,"Ġcigarettes":13560,"Ġestimated":13561,"ĠRecords":13562,"Ġtoxic":13563,"Apparently":13564,"Ġinstitution":13565,"Ġquantity":13566,"Obviously":13567,"directed":13568,"ĠEthel":13569,"Ġhedge":13570,"escendune":13571,"Ġapproximately":13572,"Atlantique":13573,"Ġbomber":13574,"ALE":13575,"Name":13576,"Page":13577,"WHO":13578,"aire":13579,"cups":13580,"dles":13581,"dey":13582,"mad":13583,"mun":13584,"oqu":13585,"person":13586,"Ġtaps":13587,"Ġauth":13588,"Ġaught":13589,"iner":13590,"Ġwww":13591,"Ġtheater":13592,"ĠmÃŃ":13593,"Ġpuma":13594,"Ġgig":13595,"Ġnay":13596,"Ġhem":13597,"Ġholl":13598,"eting":13599,"idency":13600,"Ġec":13601,"sem":13602,"rift":13603,"Ġstatic":13604,"Ġdol":13605,"ĠAv":13606,"ĠAma":13607,"ĠACC":13608,"ĠAescendune":13609,"Ġridge":13610,"Ġraspberry":13611,"ĠTalk":13612,"ĠTai":13613,"Ġshru":13614,"Ġbutcher":13615,"inkled":13616,"ĠDomin":13617,"Ġsund":13618,"ĠGaston":13619,"ĠFarm":13620,"ĠJudge":13621,"ĠRF":13622,"ĠRu":13623,"Ġvoted":13624,"emet":13625,"feel":13626,"Ġwilln":13627,"ĠOhio":13628,"agles":13629,"Ġtroop":13630,"Ġroses":13631,"udes":13632,"ĠKap":13633,"active":13634,"Ġhandful":13635,"ĠUNDER":13636,"Ġimple":13637,"ĠStory":13638,"Ġactors":13639,"ĠYan":13640,"Ġnewly":13641,"Ġslack":13642,"ossy":13643,"Ġcheat":13644,"Ġcheaper":13645,"Ġglove":13646,"Ġrecovery":13647,"Ġsituations":13648,"Ġreaders":13649,"Ġretorted":13650,"Ġtriump":13651,"Ġsecondary":13652,"Being":13653,"Ġinterven":13654,"Ġsleeps":13655,"tershire":13656,"ĠThrasher":13657,"Ġpromotion":13658,"Ġquestioning":13659,"Ġadvis":13660,"Ġedition":13661,"itching":13662,"âĢĶâĢĿ":13663,"Ġfrost":13664,"Ġobjectives":13665,"ĠProbably":13666,"Ġappearances":13667,"Ġdoubtful":13668,"ETTER":13669,"Ġvari":13670,"ĠDrake":13671,"Ġstripes":13672,"Ġgrowled":13673,"Ġresulted":13674,"Ġbananas":13675,"Ġaccidentally":13676,"Ġtorment":13677,"Ġviolin":13678,"Ġcuriously":13679,"ĠREALLY":13680,"Maya":13681,"Ġcruelty":13682,"Ġgiraffe":13683,"ĠBernardo":13684,"ĠClaus":13685,"Ġreacting":13686,"Ġtearing":13687,"Ġfacilities":13688,"Ġrejoined":13689,"Ġaccomplish":13690,"ĠMaxwell":13691,"Ġcontribution":13692,"Ġspectators":13693,"Ġembarrassed":13694,"Ġconverted":13695,"ĠArizona":13696,"Ġpuppet":13697,"Ġestablishment":13698,"Ġvengeance":13699,"Ġsoutheast":13700,"LAUGHS":13701,"ondissement":13702,"Ġgrapes":13703,",,":13704,"Hear":13705,"Henry":13706,"Lar":13707,"Lem":13708,"Laugh":13709,"Mamma":13710,"Part":13711,"Sy":13712,"Tommy":13713,"Victor":13714,"burn":13715,"call":13716,"catch":13717,"fine":13718,"later":13719,"lord":13720,"mie":13721,"post":13722,"Ġwist":13723,"Ġopt":13724,"Ġfet":13725,"anes":13726,"ĠIng":13727,"idable":13728,"Ġwelf":13729,"acie":13730,"state":13731,"ĠMs":13732,"ĠSandy":13733,"ĠSeveral":13734,"ĠApple":13735,"celer":13736,"ĠBog":13737,"ctop":13738,"Ġsolo":13739,"ĠToy":13740,"Ġcans":13741,"Ġwhatsoever":13742,"ĠPH":13743,"ĠPra":13744,"ĠDer":13745,"qual":13746,"ĠRect":13747,"ĠRES":13748,"Ġexert":13749,"ĠNi":13750,"Ġvine":13751,"ĠEVERY":13752,"ĠOwen":13753,"ickers":13754,"Ġoffence":13755,"wee":13756,"ĠKir":13757,"Ġcoke":13758,"Ġunw":13759,"Ġunkind":13760,"ĠStri":13761,"cling":13762,"Ġheadhunters":13763,"ĠVe":13764,"ĠVo":13765,"ĠVill":13766,"Ġcrushed":13767,"Ġreserved":13768,"ĠInstead":13769,"ANE":13770,"Ġfathers":13771,"ĠAnderson":13772,"Ġtrifle":13773,"Station":13774,"proof":13775,"ĠTherefore":13776,"Ġadds":13777,"ierra":13778,"Ġsignals":13779,"eeds":13780,"Ġ46":13781,"ĠThink":13782,"ĠDef":13783,"Ġshorts":13784,"Ġ65":13785,"Almost":13786,"Ã¡w":13787,"Ġ1983":13788,"cheon":13789,"Ġroller":13790,"Ġprofound":13791,"Ġtrusting":13792,"Ġcostume":13793,"ADY":13794,"Ġtasty":13795,"speaking":13796,"Ġtort":13797,"Ġ1931":13798,"ĠSeven":13799,"Ġremainder":13800,"ĠWithout":13801,"ĠTHING":13802,"Art":13803,"Ġfreight":13804,"Ġspreading":13805,"Ġalbums":13806,"Ġtrading":13807,"Ġmoonlight":13808,"vocalize":13809,"Ġfemales":13810,"turned":13811,"minist":13812,"Ġodds":13813,"Ġsurviv":13814,"Seven":13815,"Ġscrewed":13816,"Ġconstitu":13817,"Ġshrine":13818,"Ġsquirrels":13819,"ĠPrize":13820,"Ġpolitely":13821,"Ġvicinity":13822,"ĠNetherlands":13823,"Ġmacaroni":13824,"ĠKyung":13825,"Ġluxury":13826,"Ġdarted":13827,"riggs":13828,"Ġdisguise":13829,"Ġstubborn":13830,"Chairman":13831,"ĠAGAIN":13832,"Ġconspiracy":13833,"cillor":13834,"onsieur":13835,"oubtedly":13836,"Gerv":13837,"IO":13838,"Lo":13839,"Light":13840,"Mic":13841,"Polly":13842,"Tri":13843,"Ugh":13844,"UARY":13845,"dist":13846,"gard":13847,"moon":13848,"rich":13849,"Ġtasks":13850,"Ġwob":13851,"hara":13852,"half":13853,"erred":13854,"Ġcore":13855,"Ġcudd":13856,"Ġdict":13857,"Ġdense":13858,"Ġfir":13859,"Ġfiled":13860,"Ġpav":13861,"Ġpunk":13862,"arter":13863,"asia":13864,"Ġinev":13865,"Ġng":13866,"Ġheel":13867,"Ġwears":13868,"iman":13869,"Ġreverse":13870,"ĠMas":13871,"ĠSil":13872,"ĠSwe":13873,"ĠCzech":13874,"ĠBC":13875,"ĠBush":13876,"ĠHAPP":13877,"Ġroo":13878,"...!":13879,"Ġcane":13880,"Ġdeeds":13881,"Ġdeleg":13882,"ĠWay":13883,"arten":13884,"ulars":13885,"ĠPy":13886,"ĠDin":13887,"ĠFur":13888,"ĠLyn":13889,"ĠLena":13890,"Ġworms":13891,"ĠRa":13892,"Ġspons":13893,"ĠNisha":13894,"Ġvary":13895,"apoosa":13896,"Ġnowadays":13897,"arer":13898,"Ġboards":13899,"uded":13900,"arker":13901,"ubl":13902,"Ġharass":13903,"ounge":13904,"Ġache":13905,"otto":13906,"Ġ34":13907,"Ġrestless":13908,"Ġripped":13909,"Ġsorted":13910,"Ġï¿½ï¿½":13911,"Ġhurled":13912,"iba":13913,"Ġhighlight":13914,"appro":13915,"Ġsubsequ":13916,"Looking":13917,"ĠThom":13918,"Ġdealer":13919,"ĠBartow":13920,"formed":13921,"ĠIsabel":13922,"Ġlearnt":13923,"ĠChakswari":13924,"Ġstickers":13925,"ĠZen":13926,"ternal":13927,"Ġyelling":13928,"AMP":13929,"Ġclassic":13930,"itcher":13931,"Ġveter":13932,"ivering":13933,"ĠLeg":13934,"Ġequation":13935,"Ġcreeping":13936,"Ġgodmother":13937,"Ġlifting":13938,"Ġradiation":13939,"ischer":13940,"Ġpalm":13941,"Ġslender":13942,"Ġobservation":13943,"ylvia":13944,"Ġspeedily":13945,"Ġthreats":13946,"kespea":13947,"Ġcracker":13948,"ĠJulia":13949,"Ġconvoy":13950,"Ġpsycho":13951,"Ġsuspicions":13952,"ĠJoel":13953,"Ġaimed":13954,"hangba":13955,"Ġmagazines":13956,"ĠHawai":13957,"Ġfacility":13958,"Ġtomatoes":13959,"Ġaffectionate":13960,"Ġcitizen":13961,"Ġreprodu":13962,"SCREAM":13963,"Ġenquired":13964,"ĠSharston":13965,"Ġhauled":13966,"Ġaxe":13967,"Ġlemonade":13968,"Ġpeanut":13969,"Detective":13970,"Ġprecisely":13971,"ĠTelevision":13972,"Ġmunicipalities":13973,"Katie":13974,"Ġcoincidence":13975,"Ġcinema":13976,"Ġopportunities":13977,"emetery":13978,"Ġwelfare":13979,"!_":13980,"Aah":13981,"AIL":13982,"CAN":13983,"FL":13984,"Jap":13985,"Lisa":13986,"Mur":13987,"Max":13988,"UH":13989,"West":13990,"WAS":13991,"bad":13992,"bone":13993,"bian":13994,"lis":13995,"rome":13996,"tri":13997,"ĠâĢĶ":13998,"heim":13999,"Ġauction":14000,"Ġba":14001,"Ġmajesty":14002,"Ġcot":14003,"Ġdub":14004,"llis":14005,"enance":14006,"Ġpaw":14007,"Ġpork":14008,"Ġpige":14009,"omers":14010,"Ġreass":14011,"adise":14012,"ĠMove":14013,"ĠSIS":14014,"ĠAut":14015,"term":14016,"ĠBack":14017,"Ġrowed":14018,"Ġrays":14019,"Ġalligator":14020,"Ġsafer":14021,"Ġshorter":14022,"ĠWonder":14023,"uled":14024,"ĠPrem":14025,"Ġaltered":14026,"Ġorgas":14027,"ĠFall":14028,"ĠFree":14029,"ittens":14030,"ardi":14031,"ĠRail":14032,"Ġspotted":14033,"ĠOt":14034,"Ġintimate":14035,"agne":14036,"hies":14037,"Ġcoats":14038,"Ġunsu":14039,"Ġpoly":14040,"Ġpopped":14041,"Ġprow":14042,"Ġadapt":14043,"Ġshaken":14044,"ubby":14045,"ĠVienna":14046,"Ġslain":14047,"Ġresidence":14048,"ogers":14049,"Ġharvest":14050,"Ġchewing":14051,"Ġglow":14052,"ATES":14053,"Ġpresum":14054,"Ġrip":14055,"Ġribbons":14056,"Ġfollowers":14057,"Ġintercept":14058,"Ġpayment":14059,"rics":14060,"ĠEngine":14061,"balls":14062,"ajamas":14063,"ĠDeath":14064,"ika":14065,"197":14066,"Ġexamine":14067,"Ġdoubts":14068,"Ġwallet":14069,"engu":14070,"ALS":14071,"ĠFrankie":14072,"ighbor":14073,"scar":14074,"ĠDanish":14075,"Ġheroic":14076,"Ġpunish":14077,"ĠLemuel":14078,"Ġsailors":14079,"Ġtitles":14080,"Ġcultiv":14081,"Ġgrocer":14082,"Ġsources":14083,"Ġhesitation":14084,"Ġoxen":14085,"Ġautomatic":14086,"ĠFrosty":14087,"Ġconquer":14088,"Ġdumped":14089,"Ġexhaust":14090,"Ġtrembled":14091,"Ġï¿½ï¿½ï¿½ï¿½ï¿½ï¿½":14092,"Ġintelligent":14093,"ĠTerrit":14094,"rendan":14095,"Police":14096,"broken":14097,"Ġobeyed":14098,"Ġmourn":14099,"ĠDenver":14100,"ĠTallapoosa":14101,"Ġevolution":14102,"Alfgar":14103,"Ġsouls":14104,"Ġeldest":14105,"Ġwharf":14106,"ĠAlibamu":14107,"220":14108,"Cho":14109,"GET":14110,"Jung":14111,"June":14112,"Mer":14113,"MAY":14114,"Rachel":14115,"WAY":14116,"Ye":14117,"dled":14118,"num":14119,"says":14120,"went":14121,"wall":14122,"Ġwider":14123,"Ġbacon":14124,"Ġmatt":14125,"Ġcaval":14126,"Ġdive":14127,"Ġditch":14128,"Ġdances":14129,"Ġfi":14130,"enri":14131,"hattan":14132,"lee":14133,"Ġthro":14134,"Ġthieves":14135,"icit":14136,"ication":14137,"utches":14138,"adad":14139,"Ġstare":14140,"amar":14141,"amoff":14142,"ĠMand":14143,"Ġselection":14144,"ĠBuck":14145,"ĠBalt":14146,"ifle":14147,"ifteen":14148,"ĠHorse":14149,"ĠHugo":14150,"Ġjokes":14151,"Ġsheer":14152,"Ġ\"'":14153,"ĠPass":14154,"ĠPhoen":14155,"ĠPictures":14156,"quiet":14157,"Ġorchard":14158,"oshi":14159,"Ġconj":14160,"Ġexit":14161,"Ġmans":14162,"ĠEmer":14163,"Ġintent":14164,"young":14165,"Ġbackward":14166,"Ġovertime":14167,"Ġgrain":14168,"Ġamuse":14169,"Ġambit":14170,"issy":14171,"ĠKatherine":14172,"ĠUt":14173,"Ġlonged":14174,"Ġmock":14175,"getting":14176,"Ġshaped":14177,"HEY":14178,"Ġleagues":14179,"Ġharbour":14180,"Ġminimum":14181,"Ġcheers":14182,"iva":14183,"Ġendure":14184,"Ġrecru":14185,"ĠMarine":14186,"Ġ39":14187,"uffer":14188,"Ġtriang":14189,"Ġskip":14190,"ĠEduc":14191,"Whoever":14192,"ussian":14193,"Ġtraitor":14194,"Ġconfeder":14195,"ricane":14196,"ĠThrough":14197,"CHO":14198,"ĠChristopher":14199,"Ġprominent":14200,"Ġcurse":14201,"Ġformat":14202,"Ġliking":14203,"Ġhumor":14204,"ĠAdvent":14205,"Ġcathedral":14206,"Ġapology":14207,"ippie":14208,"Ġ1965":14209,"Ġposted":14210,"Ġcomfortably":14211,"ĠConstitution":14212,"laf":14213,"Ġorganizations":14214,"Ġsuccessfully":14215,"Ġ1959":14216,"ĠAbino":14217,"ĠTechn":14218,"offs":14219,"office":14220,"Ġeducational":14221,"Ġmasses":14222,"Ġhideous":14223,"Ġapprehens":14224,"Ġregularly":14225,"handed":14226,"Ġdreaded":14227,"Ġchattering":14228,"Ġrobbed":14229,"Ġcustoms":14230,"ĠRandom":14231,"Ġcorrectly":14232,"OHN":14233,"Ġentertained":14234,"Ġsignificantly":14235,"Rosamund":14236,"Ġambition":14237,"ĠSelby":14238,"ĠFairview":14239,"Ġfeeble":14240,"ĠKnights":14241,"EXP":14242,"Ġdeliberately":14243,"Ġcushion":14244,"ĠPearl":14245,"ĠChampionships":14246,"Ġscrambled":14247,"Ġrascal":14248,"Queen":14249,"Ġmushroom":14250,"34":14251,"?--":14252,"Im":14253,"Papa":14254,"UCH":14255,"VD":14256,"WHEN":14257,"WHERE":14258,"cal":14259,"cake":14260,"cular":14261,"eye":14262,"lasses":14263,"mus":14264,"nan":14265,"spr":14266,"uish":14267,"Ġze":14268,"hend":14269,"Ġsi":14270,"Ġsul":14271,"Ġsultan":14272,"Ġsardines":14273,"hair":14274,"hales":14275,"itus":14276,"Ġmi":14277,"Ġcope":14278,"Ġdangers":14279,"orig":14280,"atan":14281,"alion":14282,"amel":14283,"Ġmeek":14284,"Ġwithdraw":14285,"ellect":14286,"ĠHoney":14287,"ĠHaut":14288,"ĠHEL":14289,"Ġupward":14290,"thirty":14291,"ĠDIS":14292,"ĠDenton":14293,"quer":14294,"Ġplug":14295,"ĠGame":14296,"ĠGard":14297,"ĠFC":14298,"ĠRaj":14299,"Ġspear":14300,"Ġspilled":14301,"nap":14302,"ĠNone":14303,"ĠOBJECT":14304,"Ġclung":14305,"Ġroared":14306,"udent":14307,"ĠKa":14308,"Ġcoins":14309,"pling":14310,"plain":14311,"beat":14312,"Ġunac":14313,"Ġpartial":14314,"Ġdislike":14315,"Ġremo":14316,"Ġshaft":14317,"ĠYam":14318,"ogan":14319,"Ġcheating":14320,"Ġchalk":14321,"Ġpreserved":14322,"Ġacceler":14323,"ĠFritz":14324,"ORD":14325,"RET":14326,"Ġ42":14327,"ĠThousand":14328,"Ġbarr":14329,"Ġagenda":14330,"Ġdefensive":14331,"Ġattacking":14332,"Ġchoke":14333,"Ġfearing":14334,"Ġsoftware":14335,"ĠProject":14336,"Ġsuggests":14337,"Ġdetailed":14338,"Ġbanquet":14339,"Ġprinting":14340,"ĠAmong":14341,"Ġjudged":14342,"gotta":14343,"Ġoccurs":14344,"Ġsouthwest":14345,"ographer":14346,"Ġpunished":14347,"ictionary":14348,"ĠRobinson":14349,"ĠLouisiana":14350,"Ġpsychiat":14351,"Left":14352,"Ġmotorcycle":14353,"Ġspoons":14354,"Ġ1870":14355,"Ġmissionary":14356,"Ġschemes":14357,"Ġfocused":14358,"Ġdwelling":14359,"Ġsternly":14360,"ĠArabic":14361,"ĠMountains":14362,"Ġhorns":14363,"ĠCONT":14364,"Ġcycle":14365,"Ġannoyed":14366,"birds":14367,"secution":14368,"Emily":14369,"ĠRichmond":14370,"Ġneighbourhood":14371,"Ġbolt":14372,"ĠLeslie":14373,"Ġsausage":14374,"Shoot":14375,"Ġimprison":14376,"Course":14377,"Ġcompensation":14378,"donalds":14379,"Ġsympt":14380,"ĠBourg":14381,"Gervaise":14382,"://":14383,"Ber":14384,"Boss":14385,"Ce":14386,"IBLE":14387,"King":14388,"MO":14389,"Pass":14390,"RF":14391,"Tim":14392,"WN":14393,"bound":14394,"chat":14395,"moo":14396,"nings":14397,"rons":14398,"said":14399,"sitting":14400,"woo":14401,"wear":14402,"Ġtart":14403,"Ġtumble":14404,"Ġsne":14405,"haven":14406,"Ġbunk":14407,"ede":14408,"Ġlounge":14409,"omon":14410,"adder":14411,"amo":14412,"ĠMwww":14413,"ĠMiles":14414,"ĠMaud":14415,"Ġanaly":14416,"Ġsew":14417,"ĠAw":14418,"ĠCow":14419,"ĠCry":14420,"Ġknives":14421,"ĠBus":14422,"ĠBase":14423,"Ġrains":14424,"ĠTry":14425,"abl":14426,"ĠTheod":14427,"ĠGary":14428,"ĠFO":14429,"ĠLor":14430,"ĠLow":14431,"ista":14432,"Ġworries":14433,"ĠRain":14434,"ĠRick":14435,"ĠNine":14436,"Ġvow":14437,"Ġmanagers":14438,"Ġbacked":14439,"Ġargu":14440,"Ġclan":14441,"Ġclar":14442,"Ġafore":14443,"Ġroaring":14444,"Ġplayin":14445,"pled":14446,"Ġunwill":14447,"Ġflowing":14448,"ordin":14449,"Ġguilt":14450,"achment":14451,"Ġsmashed":14452,"Ġevenings":14453,"Ġchilly":14454,"ansy":14455,"Ġmining":14456,"Ġserves":14457,"Ġglances":14458,"Ġattending":14459,"Ġchains":14460,"ounce":14461,"ĠBrand":14462,"versed":14463,"Ġfella":14464,"Ġrestored":14465,"Ġcolony":14466,"Ġconsists":14467,"mpoo":14468,"Ġimpulse":14469,"Ġrefres":14470,"Ġreform":14471,"Ġsincere":14472,"Ġsignature":14473,"Ġ47":14474,"Ġsteering":14475,"Ġpromoted":14476,"Ġbaskets":14477,"Alan":14478,"Ġprovisions":14479,"Ġhoarse":14480,"Ġfreezing":14481,"Ġchoking":14482,"velopment":14483,"Ġ170":14484,"Ġdirectory":14485,"Ġ150":14486,"Ġzebra":14487,"Ġvalent":14488,"holding":14489,"Franche":14490,"ĠPerry":14491,"monkey":14492,"ĠONLY":14493,"Ġclubs":14494,"Ġbreathless":14495,"Ġcourtesy":14496,"ĠMaryland":14497,"Spike":14498,"Ġidentical":14499,"phant":14500,"worthy":14501,"Ġremembr":14502,"eremy":14503,"Ġpinch":14504,"Ġignored":14505,"Among":14506,"Ġvacant":14507,
[...]
