#version: 0.2
Ġ t
h e
Ġ a
i n
o u
Ġ w
Ġt he
r e
Ġ s
h a
o n
e r
n d
Ġ b
i t
Ġ m
i s
Ġ c
Ġ o
Ġ d
Ġ f
in g
Ġt o
l l
Ġ y
e d
o r
Ġy ou
a n
e n
e s
ha t
Ġ p
Ġ g
Ġ l
Ġa nd
Ġo f
a r
a s
Ġ in
Ġ n
Ġ I
o m
a t
Ġ he
o w
Ġ h
o t
Ġ ha
' s
v e
l e
Ġ it
Ġt h
a y
e t
Ġt hat
Ġ on
i c
u s
Ġb e
g h
i d
l d
u t
Ġ e
Ġw e
Ġw as
a l
Ġ is
o o
i m
' t
k e
a c
v er
Ġ re
gh t
Ġf or
l y
. .
a d
s e
r i
en t
i r
Ġs t
i on
Ġ u
Ġd o
ou t
a m
Ġ k
Ġm e
it h
s t
T he
r o
â Ģ
Ġw ith
Ġ Ċ
Ġ M
he r
Ġa n
Ġ S
om e
Ġa s
a ll
ou ld
Ġs e
Ġn ot
e a
Ġw h
Ġl i
Ġ A
c h
Ġg o
Ġha ve
u r
i ll
Ġa t
a nd
t er
Ġ C
Ġk n
c e
Ġ B
Ġth is
us t
i f
e ll
Ġh is
Ġ H
an t
Ġhe r
Ġkn ow
Ġa re
c t
Ġ Ġ
Ġthe y
Ġha d
i l
Ġ j
Ġ r
Ġs o
u n
a in
Ġs he
Ġyou r
Ġu p
Ġn e
Ġm y
Y ou
Ġon e
Ġ T
.. .
o re
oo k
Ġd on
Ġc an
i e
p p
Ġa ll
Ġthe re
Ġs a
Ġw hat
ou r
t h
Ġ "
i ght
Ġh im
ea h
Ġs h
u m
g e
r om
Ġw he
Ġb ut
Ġd e
Ġa b
o p
oo d
a b
Ġ out
Ġ W
Ġli ke
r y
ar t
es s
in k
u l
ac k
a ke
Ġ P
ver y
Ġ D
' re
c k
re d
e l
o l
ha n
Ġg et
Ġf rom
Ġwe re
' m
Ġs u
q u
Ġa l
Ġ The
Ġse e
Ġn o
Ġp l
Ġd id
es t
Ġo r
ri ght
Ġ G
on e
at ion
Ġthe m
in d
er s
i g
Ġ F
it t
ou nd
Ġ J
Ġab out
o s
Ġ L
am e
- -
Ġb y
Ġsa id
x x
is t
r a
Ġw ould
on g
all y
ar d
Ġj ust
Ġth ink
Ġw or
Ġs ome
Ġc om
re s
Ġ us
Ġ R
i ve
Ġ 1
as t
Ġhe re
n t
Ġg ot
Ġc on
Ġw ant
Ġ if
ow n
a k
Ġs p
' ll
at e
n a
Ġe x
Ġ N
o h
Ġan y
. "
I t
Ġl ook
Ġwh o
a p
e m
Ġ v
im e
ic h
v en
or t
f e
Ġm an
ou gh
Ġw ill
Ġ E
e p
Ġ er
Ġwhe n
he re
ic e
âĢ Ļ
o d
ou s
Ġ O
Ġs ay
h ing
ic k
Ġ right
âĢ ľ
ot her
Ġin t
y ou
Ġthe n
Ġn ow
e ar
itt le
Ġbe en
Ġt w
a g
us e
Ġp ro
Ġc ould
ĠĠ ĠĠ
t her
in e
l f
w ay
Ġt ime
H e
âĢ Ŀ
id e
, "
a re
' ve
Ġa g
Ġl ittle
Ġl o
n o
Ġb o
b er
W hat
h i
k ay
Ġb ack
Ġt r
Ġ 2
A nd
Ġ very
w hat
Ġwh ich
Ġd own
Ġgo ing
Ġg ood
Ġ qu
i es
ac e
e nd
o se
Ġto o
Ġo ver
a use
Y eah
Ġa r
Ġm ore
Ġof f
Ġthe ir
it e
Ġc l
re e
O h
ĠH e
Ġha s
Ġf e
it y
Ġth ing
a u
Ġo ther
Ġa f
o st
] .
u re
N o
re at
Ġ ro
w e
y eah
Ġc ome
Ġtw o
Ġp ut
Ġb r
ou ght
Ġl e
m ent
c ause
Ġp e
al k
Ġg r
Ġa m
om et
is h
Ġb l
he d
W e
f t
xx x
u d
Ġint o
ur n
on d
Ġw ay
is s
Ġh ow
Ġt han
ĠI t
e ct
a ge
as e
h y
b le
t y
Ġ [
u h
Ġ (
t he
t hat
Ġag ain
Ġ K
v ing
u ck
Ġ en
T hat
as s
u ch
W ell
op le
u e
se lf
Ġt ake
Ġm ake
s o
Ġwe ll
B ut
on na
Ġc o
ad e
Ġwor k
Ġs omet
or n
Ġd ay
Ġwhe re
Ġme an
v ed
Y es
Ġsh ould
Ġt ell
Ġ our
i re
ir st
Ġpl ay
at her
ac t
p t
Ġg onna
Ġ2 0
h o
v es
p s
p l
m y
Ġpe ople
i an
Ġm uch
Ġl et
u ll
f ore
re n
b e
ou nt
Ġne ed
h is
ĠM r
Ġu n
Ġ '
Ġaf ter
Ġe very
Ġc all
Ġ1 9
res s
w n
Ġha nd
is e
nd er
Ġdo es
Ġb et
H I
Ġon ly
ar y
Ġp art
y es
c i
th ing
Ġf irst
? "
t e
p er
i le
ha r
f f
ad y
Ġp o
at er
Ġf l
ab le
or d
Ġth r
Ġp re
Ġg u
an g
Ġre ally
Ġdid n
Ġ U
Ġy ear
Ġsomet hing
c c
ac h
Ġp r
Ġbo y
t ing
Ġs c
an ce
S o
n g
ir l
ar k
i a
' d
Ġm ade
Ġl ong
Ġm o
Ġbe fore
Ġc ar
Ġha pp
Ġd is
ou se
Ġ xxx
Ġa d
l es
Ġt alk
Ġ im
Ġne ver
Ġas k
Ġ ke
Ġu nder
in t
r u
i z
n e
oo l
Ġthe se
Ġre m
Ġth ought
Ġs m
ĠS t
Ġa way
Ġse c
Ġbe cause
od y
Ġo ld
Ġw ent
g et
m er
Ġw r
Ġp er
e w
c l
d ay
Ġg irl
Ġt e
en ce
Ġc ame
Ġf o
f ul
Ġcom p
Ġs ha
at ed
or y
a v
Ġc hi
he n
Ġm ust
i ed
H E
g g
Ġe ven
Ġg reat
ion s
w ard
p e
Ġa pp
a h
Ġa ct
Ġhe l
ri ed
t ain
ic t
w here
¿ ½
ï ¿½
Ġth ree
ri end
Ġth ose
Ġchi ld
Ġm ay
d o
ĠS he
â Ļ
at ch
k s
Ġlo ve
Ġt urn
Ġh ome
Ġdo ing
i ous
he s
Ġthing s
u b
âĻ ª
o b
Ġc h
a ve
i x
o kay
Ġf ind
au gh
Ġ Y
O T
Ġthr ough
o y
Ġne w
i ly
Ġg ive
en s
S he
on s
The y
Ġhe ad
Ġ V
. âĢĿ
o ck
Ġl ast
le ase
Ġst ill
a it
ĠĠĠĠ ĠĠĠĠ
an na
Ġs l
Ġc r
Ġl ea
Ġre s
Ġh ouse
Ġb ig
m an
or s
Ġhel p
Ġst art
Ġ âĢľ
Ġer m
Ġm ight
Ġdon e
I N
Ġt ry
Ġ You
Ġb it
i p
Ġbe l
o g
T his
m ed
ing s
Ġn ight
en ed
Ġc han
Ġfe el
u nd
ig n
a ir
at h
E R
ak ing
h m
Ġm other
Ġan other
b ut
m s
Ġcon t
The re
i gh
o ld
n y
Ġman y
os s
Ġal so
Ġb u
x t
one y
Ġc our
Ġo wn
an s
a il
Ġha r
i ld
Ġf riend
l ing
Ġk ind
b ody
Ġm in
u ally
a w
Ġ .
Ġw on
Ġn ame
Ġli fe
H ow
ul t
Ġu h
Ġsu ch
e ver
or ry
t here
Ġc he
Ġs er
ĠI n
ar s
Ġst r
Ġd if
Ġg l
Ġwh y
Ġsh ow
way s
Ġpl ace
Ġf ound
Ġl ot
Ġbet ter
u p
Ġsu re
e e
I f
C HI
Ġm om
Ġbe ing
Ġke ep
ĠC h
Ġat t
Ġo p
ab y
Ġw anna
Ġyear s
Ġc are
Ġany thing
d y
an c
i v
Ġm ost
Ġb ook
Ġe nd
p ort
Ġre c
Ġc ha
0 0
l ed
Ġd es
o ve
s ide
I n
Ġsu pp
Ġus ed
Ġto ld
w ell
D o
l i
ak es
Ġcom m
ot h
Ġc ount
re st
Ġe at
n ing
! "
Ġwh ile
c ome
Ġar ound
. ]
ch ool
Ġe l
, âĢĿ
y s
Ġs ame
-- --
im es
Ġcall ed
le t
Ġit s
r ow
W hy
y e
Ġal ways
em ber
al s
an k
A N
n ot
re nt
at ter
p le
Ġf our
l and
Ġo kay
Ġf ather
Ġro om
Ġqu ite
Ġle ft
ut e
Ġwor d
Ġr un
or m
c an
O U
Ġf ar
han k
ĠThe y
Ġs et
Ġy es
n ess
p ect
at es
ation s
N ow
Ġy eah
Ġhar d
Ġa cc
s s
Ġne xt
Ġm en
Ġm oney
it ion
in ce
u c
Ġsa w
Ġe ar
Ġcour se
id ent
Ġf ace
Ġc le
A T
O kay
au ght
Ġtoo k
l augh
Ġn ice
ic al
Ġp res
Ġb re
D on
Ġw ater
re t
Ġbe g
n er
Ġm on
Ġb us
Ġf in
Ġe ver
un g
Ġis n
pp ed
Ġs chool
Ġ _
Ġdoes n
Ġs it
Ġb aby
Ġp ol
Ġw ait
h uh
Ġ20 1
Ġel se
Ġs w
Ġen ough
ou n
ct ion
re am
Ġwe e
ĠB ut
Ġask ed
Ġa c
Ġo b
Ġup on
b ab
ĠB r
Ġpo int
Ġpre t
Ġg i
ĠU n
l ook
o c
ĠA nd
ĠT HE
Ġth ough
p h
Ġu nt
Ġd ist
Ġdif fe
d er
Ġyou ng
Ġre al
Ġs ur
Ġw ar
n ow
orn ing
Ġre ad
ot t
Ġin d
Ġw om
Ġfe w
Ġp ass
Ġbel ie
Ġd r
an e
C ome
Ġcom ing
Ġe yes
Ġhe ar
it ed
Ġf am
op e
ĠF r
ver s
ll ow
Ġp ers
i ble
Ġm ind
Ġnot hing
Ġre t
Ġs orry
Ġw alk
E r
on t
h ow
ve l
ea k
t a
Ġus e
Ġdo or
Ġs ide
ĠMr s
Ġst ay
L et
Ġf un
Ġlook s
get her
Ġm orning
ĠW hat
M OT
I s
Ġp lease
le ep
is hed
Ġf ell
Ġg one
Ġb est
O N
Ġunt il
Ġb ed
Ġf ive
Ġst and
M m
l ess
out h
Ġchild ren
Ġy et
Ġse en
m e
Ġ ent
Ġhim self
re w
ĠM iss
ĠM ar
Ġt er
Ġon ce
Ġhe art
a z
Ġhe ard
IN G
Ġk ill
i red
am p
ro ss
v ent
Ġsay s
Ġ 3
Ġre st
Ġre g
U h
laugh s
in s
Ġn um
Ġop en
Ġwith out
Ġmom ent
st and
Ġkn ew
j ect
oh n
Ġlook ing
Ġd ra
Ġne ar
Ġde ar
o ll
Ġf r
A ll
M y
E S
Ġli ght
om b
um p
Ġlook ed
fe ct
w w
Ġ ri
m b
O R
Ġlea ve
u ff
Ġre l
e c
Ġh old
Ġha lf
ow s
He y
Ġb all
ow er
Ġs ix
Ġc har
ad dy
g r
N ot
m ost
Ġme et
Ġt ri
Ġs ort
e red
Ġm ar
Ġto gether
Ġso on
Ġb ad
S t
u g
c es
Ġc ol
c le
is ter
Ġr ound
Ġget ting
ĠA l
mer ic
Ġl ist
um my
Ġrem ember
Ġan s
Ġcon s
Ġhand s
s he
A R
Ġsec ond
we en
us h
er tain
Ġm atter
Ġ ï¿½
Ġe ach
un t
d en
Ġh ur
Ġto day
as ter
Ġha ving
a red
Ġa ir
u res
le as
Ġh our
Ġde c
Ġfo llow
en er
as h
as on
Ġd ri
Ġwor ld
Ġb oth
ir d
Ġwant ed
it s
Ġsha ll
Ġdiffe rent
m p
o ot
Ġas s
Ġbet ween
Ġevery thing
Ġ i
Ġpers on
ce pt
Ġbelie ve
B e
i b
Ġin st
m a
Ġst op
or k
th is
R ight
Ġs ing
at t
ĠN o
t o
m ber
Ġs ound
an y
Ġw ind
i al
at ing
Ġgo es
Ġsm all
Ġp ick
Ġagain st
ĠA meric
Ġqu est
Ġpret ty
Ġw ond
Ġday s
Ġf all
re ady
if e
c hed
Ġc ap
an ge
The n
Ġint e
J ust
os ed
L L
Ġb ro
se l
Ġm il
a ut
Ġin ter
Ġp ap
in ess
Ġf act
p r
it her
Ġg ave
âĢ ĵ
Ġw atch
Ġ ,
Ġe le
Ġtalk ing
g ed
Ġh igh
g er
ur ing
Ġhapp ened
ct or
is ed
ul ar
the y
ull y
ĠG od
W hen
Ġboy s
Ġs k
Ġunder stand
ĠE d
ĠW e
Ġli ve
Ġact ually
ĠThe re
Ġwho le
am es
el t
Ġm iss
et s
a le
o ke
r ist
Ġinte rest
Ġre d
Ġo h
Ġs leep
Ġf ire
or th
Ġad d
Ġin v
in es
Ġl ater
i et
Ġha ven
Ġknow n
bab ly
âĢ ĺ
Ġ id
A re
Ġd ire
ent y
ĠT his
n ed
Ġp h
ĠJ ohn
m m
Ġs il
Ġim p
b r
Ġre ady
? âĢĿ
Ġk id
Ġal ong
E N
Ġm aking
ĠI nd
ut h
W here
u al
W ho
s h
Ġfam ily
Ġv o
Ġp ie
Ġde p
T hank
a pp
ak en
b y
or row
Ġbo x
Ġsp eak
Ġto wn
ĠA r
Ġtry ing
Ġbr ing
t on
Ġsu b
Ġwould n
i er
Ġp oss
Ġal most
Ġwom an
ent s
" .
g o
Ġmo ve
c ed
Ġwas n
Ġm et
Ġe ight
o or
Ġ1 8
ĠN ew
Ġwond er
Ġex p
ci al
us s
I S
i ke
Ġret urn
Ġfo ot
o k
L ook
o e
t s
l ic
Ġal ready
Ġh ope
Ġp ay
Ġj ob
Ġst ory
Ġt able
in ed
Ġdo g
ward s
ha ps
Ġdis c
D id
Ġre f
und red
Ġsay ing
Ġm us
Ġh or
ĠG er
Ġt ra
Ġnum ber
Ġ20 0
Ġs ince
Ġto p
Ġgu ess
Ġc ut
Ġ hat
Ġsee med
ter s
Ġbre ak
Ġl ar
er y
R E
Ġs ent
ie ld
ation al
w ho
Ġ âĻª
a x
ĠA n
e x
Ġcon f
Ġt en
Ġs ign
Ġs ir
Ġh undred
un e
e ed
Ġre p
Ġu m
a id
Ġs on
Ġpl an
G ood
t en
Ġfriend s
M r
ĠH ar
Ġr ather
Ġ20 2
Ġwr ong
Ġbl ack
w hy
Ġe as
Ġf ull
Ġpro ble
re en
m hm
Ġin f
O n
ĠC HI
Ġex t
y ing
Ġa w
en se
r ic
ĠE ng
Ġcl ose
Ġex c
Ġc ertain
on y
Ġgirl s
is ion
at s
Ġd ied
Ġbr ought
d on
Ġstart ed
Ġ 4
Ġc ity
Ġturn ed
Ġbr other
ĠA s
Ġl and
omb a
b all
ri es
Ġpro bably
w er
C an
ent ly
Ġin c
Ġcom es
Ġcount ry
ĠD e
Ġmon th
C H
Ġst e
Ġmy self
Ġd ro
ĠT h
Ġst ate
T h
ant s
ft a
at ive
Ġs we
Ġbe c
Ġt imes
Ġbe aut
v ie
hi p
Ġlo st
Ġvo ice
Ġg ame
Ġ 5
Ġf ine
Ġt aken
Ġyour self
ĠG r
Ġwh ite
Ġha fta
Ġs at
Ġfe et
Ġwee k
sel ves
ĠCh rist
Ġword s
Ġid ea
Ġtr ain
Ġd in
Ġan im
Ġmean s
Ġthan k
a j
ent ion
Ġmin ute
b o
Ġf elt
iz e
ĠĠĠĠĠĠĠĠ ĠĠĠĠĠĠĠĠ
Ġf ood
et er
Ġex pl
Ġcha ir
) .
ĠO h
Ġp rom
en e
Ġpo or
I T
ou b
ou d
Ġno ise
Ġs im
on es
ess ie
f ully
e b
t ed
Ġde ad
ie f
Ġp ict
ment s
Ġp ur
Ġl ad
ĠS o
Ġde al
Ġh ot
f ter
Ġab le
Ġl augh
d id
ay be
Ġst uff
c ess
h ind
Ġs y
Ġb as
w o
Ġdr ink
Ġt re
ĠB en
ĠC l
w h
am a
itt ing
Ġqu ick
ï¿½ ï¿½
ou ch
ĠB art
Ġg ener
Ġbeg an
ĠAmeric an
Ġp op
ou ble
Ġde ath
Ġco ll
Ġc ur
ut es
Ġl ess
Ġgr and
Ġc ra
u red
Ġc ase
id ed
Ġte am
d u
Ġt ill
Ġbus iness
Ġs qu
Ġsh ort
ver n
if ul
cl ud
ac es
c hes
is on
Ġp leas
ĠT om
Ġquest ion
Ġ es
it ies
---- ----
Ġpap er
Ġhapp en
at i
ĠF l
p ut
Ġw in
f ord
Ġcont in
Ġfor m
is es
ĠB e
ĠThe n
F or
Ġdo ll
ate ly
A s
Ġp ull
ag g
er n
f or
A S
Ġd ress
ĠI s
Ġf ight
Ġgi ven
ke y
ĠY OU
u es
G o
Ġmay be
f ort
Ġt aking
Ġc ent
et h
and er
Ġbe hind
ang er
T ER
Ġha ir
Ġcle ar
Ġhapp y
Ġp ain
Ġgot ta
Ġw ish
Ġon es
Ġb orn
ag es
Ġle ast
Ġser v
us ed
Ġbu ild
ou p
Ġo cc
air s
Ġl ear
Ġst ra
Ġle ad
Ġmin utes
g s
ro om
Ġim port
ĠT O
he ad
Ġe v
if ic
ap e
Ġfr ont
Ġd uring
ot e
Ġag o
ir ty
i o
Ġcould n
Ġin s
Er m
c il
Ġplay ing
a ld
Ġst ud
Ġpart y
it al
Ġsome one
Ġal one
) ,
r ing
Ġher self
Ġchan ge
Ġl ady
Ġpres ent
o int
Ġb ar
Ġf ig
Ġtr ue
Ġf uck
ĠH ow
Ġgu ys
Ġwant s
in a
aught er
Ġw ife
en n
ĠB essie
Ġre ason
le y
Ġv is
" ,
Ġtw enty
Ġl ine
Ġother s
Ġf av
re et
Ġoff ic
Ġc ry
ĠC ha
ĠJ ap
id er
ous and
He re
ic s
iz ed
You r
Ġof ten
ĠB omba
Ġe ither
G et
Ġst ick
Ġgr ound
Ġ 6
ren ce
om my
l ight
er t
li ke
ious ly
Ġ Z
Ġgl ad
ain ed
ĠT hat
i k
un k
A P
l ish
Ġre pl
m orrow
Ġad v
E D
a im
are nt
c y
Ġe m
Ġm akes
Ġro ad
f ic
ter n
re ad
Ġp ri
ol og
h il
Ġs ister
Ġm ess
ard s
Ġchan ce
Ġli k
ĠC ar
A l
Ġdra w
Ġc ir
Ġmus ic
Ġbeaut iful
Ġgu y
Ġd ar
ot s
e en
Ġf if
Ġf air
Ġ ed
ct ed
Ġstr ong
oll y
ĠUn ited
Ġex pect
A t
Ġg un
Ġlist en
s on
ĠH is
Ġpro v
ian s
Ġa ge
Ġam ong
st er
Ġ19 9
g ood
Ġ ĠĊ
L E
e ad
Ġh um
ĠI f
Ġo pp
Ġth ousand
I I
Ġd ark
om m
O M
e y
ra id
Ġ 8
Ġ Yes
et y
r ict
Ġout side
Ġh on
Ġfl oor
Ġor der
Ġb ody
Ġm ag
Ġf ore
Ġare a
Ġlar ge
agg ie
le x
Ġplay ed
Ġm outh
Ġl ay
Ġbec ame
Ġproble m
Ġp ower
Ġco ld
Ġp ar
Ġimport ant
Ġs um
Ġt ried
Ġm ine
d le
j ust
Ġp ast
se e
at ur
ri e
ur y
Ġswe et
Ġm ain
Ġl ate
Ġwork ing
Ġsee ms
Ġde f
id es
es e
ell o
ĠO F
Ġm ark
Ġri ver
b ed
Ġfor g
m en
ust r
Ġche ck
R e
Ġm id
ac hed
it ch
Ġp os
ĠA ll
Ġs n
Ġthink ing
Ġpart ic
Be cause
Ġbl ue
Ġsomet imes
A h
ww w
H AT
pp ing
N D
ĠM OT
Ġbl ood
Ġrec ord
Ġr an
Ġlo c
Ġac ross
O ne
it ing
ac ed
o es
Ġin clud
f fe
Ġp ub
Ġb ott
Ġapp ro
ĠC har
Ġre ce
Ġro ck
ha ll
ĠA t
ĠW ill
Ġhe ll
Ġin side
Ġp en
Ġaf raid
Ġhor se
Ġare n
Ġbo at
ĠY ork
m ing
m ore
ĠR e
Ġbe ar
Ġh uh
s ing
er ing
Ġ Yeah
ĠSt ates
Ġwr ite
Ġtr ans
z e
he y
Ġlet ter
Ġper haps
Ġsur pr
d e
Ġs un
Ġse nd
Ġcon c
ow ing
Ġse ven
Ġnew s
we red
Ġhur t
Ġdin ner
Ġm ill
Ġfun ny
un ch
Ġans wer
! âĢĿ
. '
Ġ Q
Ġst ood
Ġget s
A n
d den
Ġm ed
Ġh o
o on
Ġatt ack
1 9
Ġs ong
Ġr a
Ġf ree
T o
z y
Ġwe ar
g in
ĠW hen
Ġans wered
Ġke pt
Ġpie ce
Ġpict ure
ĠM ay
Ġ 7
um b
Ġkill ed
c ri
Ġy ell
Ġsu dden
ea red
T HE
Ġc ried
ow ed
Ġen g
Ġear ly
Ġg reen
ut ion
ĠS p
Ġknow s
Ġa in
ĠJ ane
te en
ĠM aggie
ill y
ĠA d
av id
th ough
Ġtr ouble
Ġw ood
Ġhour s
Ġex am
ic es
Ġ19 8
Ġdar ling
R O
p ri
Ġf ast
P lease
g an
at ure
o ber
Ġqu iet
Ġbu y
el s
id ing
Ġsupp ose
A M
Ġc at
Ġd aughter
Ġar t
u ed
âĢ Ķ
ain s
id ge
Ġcomp any
ic ally
Ġte le
Ġwhe ther
Ġd ream
Ġcan not
ĠF or
Ġpr ot
ir th
Ġgo vern
Ġwith in
n ce
Ġhe ld
Ġcl ass
Ġt y
ent le
Ġst o
Ġto morrow
Ġthem selves
Ġsome body
act ly
ac her
a ul
Ġd oub
ha m
Ġfor ward
Ġre port
Ġcar ry
Ġres p
Ġa p
Ġn in
Ġf ro
Ġli ved
r act
al ity
Ġs itting
il ity
ra p
ĠJap an
Ġc ou
t le
Ġmo vie
Ġ 9
Ġt ree
Ġw all
ĠP hil
han ks
o ver
ound s
Ġj o
ĠEng lish
ĠP e
Ġph one
Ġl aw
d ing
z z
Ġcle an
Ġpass ed
k en
am ed
Ġli ving
er v
ar a
al th
oo f
Ġcl ot
Ġv ill
c ol
en g
Ġc ho
H ave
Ġsee m
Ġso ld
Ġmonth s
Ġc a
Ġsp e
Ġar m
Ġf ear
Ġfeel ing
art ment
Ġt ouch
, --
i vers
Ġh it
ĠD on
j oy
Ġposs ible
Ġ1 0
E x
ud e
Ġc ook
b it
Ġeas y
Ġw at
Ġse ver
Ġ -
Ġm od
ĠI N
ist s
Ġt on
Ġf ish
ress ed
Ġrun ning
] ?
ĠB l
Ġstra ight
Ġf a
Ġad m
Ġd ie
Ġfin ished
S T
b ye
V E
at or
ĠD o
ĠĠĠĠ ĠĠ
Ġ *
Ġf ing
S h
Ġhe av
c ha
Ġab s
e or
n ight
E very
M aybe
oc al
Ġ ?
is m
Ġcon st
Ġ âĢĵ
Ġcol or
u ly
Ġ ill
Ġbeg in
b and
ar ch
A L
ĠH er
Ġn ine
Ġst ep
Ġd anger
ag ed
i ved
t hank
Ġter ri
ch ild
Ġdif fic
Ġc orn
oun cil
ĠM ummy
Ġwor ry
Ġ ...
Ġc amp
Ġsever al
as er
Ġbe come
Ġ ve
Ġde m
Ġc ross
em ent
Ġbook s
g es
it c
Ġob ject
l er
a ur
g y
l o
Ġwh om
no on
Ġg entle
Ġar ri
ay s
ap tain
O f
os p
Ġwait ing
p ar
i pp
ess ion
Ġm ur
Ġb irth
ĠP r
Ġlove ly
Ġst ar
W ith
Ġf ield
oo ps
Ġl ow
Ġex cl
G H
Ġpol it
Ġc or
l s
Ġcou ple
Ġm ot
Ġc os
Ġor d
gg y
ie w
Ġm ist
ĠG u
em pt
i am
Ġg ra
Ġex per
ĠEd na
Ġfor get
Ġdo ctor
Ġk iss
itt en
Ġgr oup
b les
Ġal right
ep t
vel op
c ent
Ġwom en
Ġro ll
Ġb reat
ne y
Ġper fect
Ġd a
ur ch
Ġpro per
Ġc e
O W
Ġs ight
Ġli ves
Ġt ired
Ġhow ever
c o
Ġh us
ĠC an
c he
oo p
ren ch
Ġ19 7
Ġfav or
aj or
Ġd est
Ġf ur
har d
Ġ X
Ġmil es
Ġen joy
ang u
S ome
ĠB ar
Ġc reat
or ies
ru ary
Ġd ad
st em
ce ed
Ġso ft
eb ruary
Ġt akes
as k
al right
Ġton ight
il t
ĠJ ack
e k
Ġm er
ĠP ro
ĠC ount
Ġafter noon
Ġsl ow
Ġpol ic
Ġrepl ied
i ver
ag er
00 0
Ġt ea
Ġ ought
Ġm is
Ġh ung
Ġto ys
Ġme ant
Ġtell ing
A ny
Ġ1 7
qu e
Ġv iew
Ġwork ed
Ġfell ow
ain t
Ġwhat ever
H ello
d uc
Ġdis app
Ġchar ac
Ġmar ried
Ġb ath
Ġspe cial
end ed
ha ve
Ġhis t
Ġes c
b s
Ġyour s
ĠO n
Ġb ase
Ġl uck
Ġanim als
Ġf ix
Ġpartic ular
Ġb ur
Ġab ove
Ġre qu
u ro
Ġs al
Ġsh ot
Ġevery body
as p
Ġbl ock
Ġpro f
Ġeven ing
Ġfor t
gg est
Ġwind ow
Ġkid s
aim ed
I C
ĠC ol
Ġc aught
am er
u ri
Ġf ly
Ġneed s
I D
v a
it er
le te
W h
an u
Ġse a
d d
Ġm ad
Ġc atch
Ġsu ggest
ĠF ebruary
Ġoff ice
S ee
Ġha ng
Ġde ep
ĠL e
un ity
Ġs har
ĠA unt
AP TER
2 0
ĠD addy
Ġs ick
Ġclot hes
is ing
Ġd et
Ġwor th
Ġ19 6
be cause
b l
Ġb ird
ĠO r
Ġsec ret
Ġapp ear
Ġcir c
re ed
anc es
Ġst ru
Ġdist rict
Ġreturn ed
ĠN ow
Ġdoub t
f fect
Ġr ing
ĠW hy
Ġany way
Ġar ms
ĠK ing
Ġhus band
Ġk ing
Ġe qu
ul ation
Ġbo ard
ad a
ir t
ore d
Ġsu cc
r ay
Ġb ag
Ġc al
ĠS ir
Ġsa fe
Ġtr ust
Ġ !
Ġex actly
not e
F oot
Ġd at
Ġd uck
Ġf ill
Ġl angu
Ġst ation
Ġmeet ing
CH APTER
Ġsy stem
ore nce
Ġus ually
Ġstand ing
E T
Ġd addy
Ġsp end
Ġlong er
Ġpr act
att le
Ġyell ow
Ġe ye
Ġvis it
hi le
ow ers
Ġsh oot
te red
AN D
Ġse at
Ġfig ure
ol ute
Ġpoint s
A Y
Ġto wards
Ġpos ition
Ġmil k
il ed
itt y
ond on
Ġj ump
Ġm aster
Ġc ost
O r
Ġsa ve
Ġsupp ort
Ġcertain ly
Ġc up
Ġpol ice
Ġsupp osed
Ġcount y
u k
ist en
Ġany one
Ġchan ged
Ġind eed
n et
e an
Ġp ost
Ġr ain
u ation
oo se
un ic
ĠD avid
Ġw ild
Ġn ur
id ence
ĠBr it
Ġcont ro
s hall
Ġs us
Ġy a
ĠG ood
Foot note
M ummy
Ġ est
on el
Ġsh ip
Ġdire ct
Ġa head
Ġn orth
Ġp u
ic ha
e al
Ġth irty
g ar
Ġgo ld
Ġex cept
b orn
Ġd iv
ĠChar l
an a
Ġde velop
Ġnear ly
O K
r is
Ġf it
ĠJ oe
gr am
Ġb es
U T
c om
ight s
Ġpro p
Ġmill ion
Ġ1 5
Ġp ot
r at
Ġcom fort
Ġrem ark
A D
ĠG eor
Ġcons ider
Ġe ffect
ĠC on
f er
Ġs ad
Ġr u
ru pt
ĠW ell
Ġv ar
the n
Ġmo ved
Ġt est
ci ally
Ġdec ided
Ġs and
ĠS te
pri l
Ġsh ut
Ġ âĢĺ
Ġh op
Ġfollow ed
Ġfoot ball
i um
Ġacc ount
ĠC aptain
il ing
Ġle g
Ġsound s
Ġto y
ĠM in
ĠBr ad
ĠCount y
Ġsil ver
ter day
ĠA lex
ĠO ne
ĠGer man
Ġ z
us hed
Ġkn ock
anu ary
Ġ âĢĻ
Ġw a
ĠW ar
Ġput ting
ĠL ondon
Ġcomp lete
icha el
ĠA ND
r or
ĠM c
Ġbro ken
Ġre ached
m as
itt ed
Ġp arent
f orm
Ġl a
ĠD r
S orry
Ġquick ly
i or
uth or
l a
Ġto ward
ree k
ĠInd ian
.. ..
Ġwho se
g as
Ġt reat
Ġb ab
Ġqu ar
og n
k ing
ĠR os
Ġstr ange
Ġgi ving
Ġserv ice
Ġsudden ly
Ġgovern ment
Ġsp oke
Ġdri ve
Ġs ense
ri gin
Ġlear n
c use
_ ,
Ġa v
Ġm ount
ĠFl orence
Ġp ress
ir on
ĠM y
Ġ1 2
Ġcl im
Ġcl os
Ġlea ving
w hen
Ġo per
st airs
her n
Ġsp ec
Ġv al
Ġst ri
Ġco ver
ff ic
T hanks
ĠFr ank
Ġwr itten
Ġexp ress
em y
Ġb and
g ing
Ġprot ect
itc hen
Ġm ention
Ġe vent
Ġno se
Ġto t
v ision
Ġbro ke
Ġd am
Ġp age
Ġb urn
if f
ffe e
, '
Ġh ors
Ġme mber
Ġsh out
ho ld
Ġdiffic ult
om p
Ġis s
Ġhapp ens
Ġinst ead
Ġli e
Ġcar ried
ĠI T
igh b
Ġis land
Ġexcl aimed
le an
Ġsu per
Ġor gan
Ġop ened
Ġac cept
ĠJ anuary
Ġtr uth
Ġheav y
Ġbirth day
Ġde cl
Ġinf orm
ic hard
Ġn amed
if t
ĠT r
ard en
Ġfif ty
Ġc ool
Ġsucc ess
s c
Ġp ack
ri ll
Ġk itchen
Ġrec ogn
ou l
Ġwee ks
Ġcharac ter
Ġt ick
ĠF rench
mb ers
Ġcra zy
Ġr ide
Ġsto pped
m other
Ġst reet
W ait
oun ter
Ġ ice
en cy
E L
H i
ĠP ar
Ġ19 5
do es
f ast
Ġa h
Ġim ag
Ġeat ing
c on
Ġg all
Ġne cess
Ġcomp an
Ġser ies
' .
i ent
in ation
ĠN orth
Ġbel ong
i ence
ous ly
anc y
osp ital
Ġb right
Ġc ast
Ġan n
-------- --------
g ue
re r
i ps
il es
Ġevery one
Ġ ]
Ġt em
Ġan g
Ġpl aces
T ell
S te
t wo
Ġc op
Ġp ig
Ġde light
A fter
s y
t ime
Ġf ail
Ġe gg
ac y
Ġ ut
ĠS c
Ġwh is
ĠT o
Ġvill age
Ġsome where
ber t
Ġgener al
ĠM an
Ġgr ow
Ġfollow ing
Ġbuild ing
Re ally
he ll
Ġ19 4
Ġfuck ing
Ġfur ther
is hing
oo h
Ġpr ison
Ġl ed
Ġst ore
if ied
Ġpub lic
T ake
ĠA b
Ġyes terday
Ġinterest ed
i ves
Ġb ra
Ġo rigin
Ġres ult
Ġal though
Ġb ull
Ġ1 6
Ġany body
I R
Ġle vel
Ġthr ow
res ent
Ġb ow
Ġmid dle
Ġte acher
Ġc ab
Ġn ational
Ġj u
ing ly
Ġne ck
Ġwar m
ĠFr ance
wh ich
sing ing
Ġsp ir
am b
am ma
ear s
Ġb ank
Ġsh op
Ġl im
Ġre leas
ro p
Ġc re
ĠN ove
Ġcomm on
F r
s ay
ivers ity
C K
Ġlik es
ĠG o
ick s
. --
or ld
Ġsl ight
Ġcare ful
Ġcur rent
n es
Ġs now
Ġme mbers
Ġsing le
ĠN ot
Ġloc al
L ike
ro y
ĠS outh
ĠNove mber
y n
in y
Ġe mp
Ġsil ence
he l
ĠP er
Ġlo ved
Ġt ur
Ġde v
H is
w as
ill s
Ġsit uation
Ġdist ance
w ork
Ġb an
ĠW est
Ġwr ote
Ġdes cri
St op
Ġrece ived
ĠB ob
Ġm atch
Ġcon d
Ġhum an
p ly
ĠE uro
pe cially
a i
Ġb ought
Ġit self
Ġth ird
id ay
Ġan x
ĠEng land
Ġf ut
Ġh ol
Ġbus y
Ġlangu age
W ill
s ome
Ġmo ving
Ġsum mer
Ġa uthor
ct ober
ĠW h
ci ent
Ġquest ions
ar r
ĠJ im
ept ember
lean or
y a
Ġne ighb
olute ly
Ġl ab
ph one
Ġwatch ing
Ġco ffee
Ġres pect
rie f
Ġshould n
Ġdep artment
Ġb ud
ut y
Ġde fe
ard on
Ġcom pl
Ġatt ention
C h
ck et
au g
gg ed
Ġv ol
ĠC al
Ġ202 0
e ge
ic ian
Ġc ow
Ġse lf
ĠA fter
pl ay
m o
Ġh ospital
A LL
Ġre ach
Ġse ll
Ġv ict
ug ust
S IS
res h
ĠUn cle
b ing
m on
Ġus ing
Ġm ajor
v al
Ġn or
f riend
Ġn one
Ġsub ject
Ġcr ow
Ġadd ed
Ġinc re
Ġt ape
Ġhe alth
am ent
Ġso l
as ion
Ġpro gram
Ġcontin ued
m akes
y ond
ĠD an
Ġfin ish
Ġc ause
ĠC ity
Ġmom my
. âĢĻ
r al
Ġfor mer
Ġ202 1
Ġslow ly
G r
Ġb ene
um s
Ġlo se
Ġreg ion
ĠA pril
Ġsee ing
ren e
Ġd i
ĠC omm
ĠL et
iss ion
Ġch ief
Ġtre es
I GH
Ġr id
ci ous
Ġcomm and
Ġear th
ĠP aul
Ġpro du
Ġpr in
Ġchar ge
Ġbott om
Ġparent s
Ġlot s
Ġreleas ed
s it
Ġd ry
Ġbl ow
ĠFr aser
Ġall owed
ĠJ uly
Ġwalk ed
Ġinv ol
r it
ĠA m
v iously
Ġ ver
ick en
Ġcap t
Ġwonder ful
Ġfut ure
c han
Ġsh it
Ġany more
Ġapp eared
Ġcorn er
L D
le ct
Ġle gs
uh huh
Ġpie ces
Ġexam ple
Ġhors es
ĠS T
ĠW orld
Ġser ious
Ġshow ed
Ġp aid
Ġbe at
Ġlea ves
Ġbu ilt
b ers
g u
Ġsp ot
Ġdoll ars
ĠS h
ĠAd am
as ed
ĠS eptember
Ġgo d
ĠR ichard
i od
Ġh oney
ĠS w
Ġsh oes
Ġsc ar
bab bles
Ġtele vision
L isten
Ġfar m
Ġsw im
Ġbreak fast
l ay
in ing
ĠO N
Ġlo ck
Ġacc ident
gas ps
h ouse
v ol
ĠO ctober
Ġcl ub
Ġturn s
Ġgl ass
a ff
ĠP ol
ist ed
ĠChrist mas
U n
pl oy
hell o
Ġse x
ant ly
Ġreg ard
Ġtr uck
S E
Ġli ft
Ġt ast
ic ed
Ġto r
at he
Ġr ad
r on
Ġwork s
Ġhat e
s p
w ith
um e
Ġlet ters
Ġext ra
ri but
ĠM e
ĠS ha
ĠB E
Ġr ub
es us
Ġfor ce
gr ound
ll ustr
Ġp ort
am und
Ġse ason
Ġatt empt
h ood
ĠAlex ander
Ġno ises
Ġ1 1
olog y
ac hing
Ġbreat h
Ġe ff
ĠD or
med i
Ġdire ction
Ġpop ulation
ill e
ĠT e
f l
y our
Ġn atur
Ġterri ble
i res
Ġk ick
ĠC hi
ĠB y
Ġhist ory
o ff
Ġc as
Ġwere n
Ġdro pped
Ġbegin ning
Ġp ati
Ġst uck
G ive
i ol
Ġn orm
Ġman ner
are t
Ġl unch
Ġhas n
Ġl ying
Ġcoll ect
M e
Ġ $
is f
Ġc ouncil
Ġch urch
Ġent ire
ĠBrit ish
Ġv ocal
Ġha ll
ĠA ugust
Ġj ud
ound ed
Ġty pe
Ġh ig
Ġar r
Ġbre ad
EN T
n ect
is c
Ġha st
ĠE l
Ġn ames
ce mber
Ġwor se
Ġ19 3
Ġper iod
Ġter m
P er
Ġprom ise
pp y
ĠGr and
. _
in o
ll y
Ġh ous
ir m
od e
Ġanim al
V ER
ĠG reat
ĠEuro pe
Ġm ach
ĠA g
Ġpres ident
Ġput s
Ġpre p
vie w
Ġinform ation
Ġp al
anc ed
Ġlik ed
g est
t i
es tern
Ġpri v
is k
ri age
Ġsm ile
Ġsha re
Ġcontro l
U m
ĠJ une
Ġ1 4
Ġwalk ing
Ġinterest ing
it ive
Ġp ark
ut s
Ġme m
ĠM al
Ġar my
Ġcr ay
Ġpret end
o f
Ġg arden
a ven
re l
el ve
Ġy e
Ġwe l
ĠT HAT
Ġed uc
i en
Ġhe y
cl ock
Ġcry ing
ĠS ome
ak er
eng th
w ould
ĠP at
Ġtalk ed
Ġdisc uss
Ġcrow d
om es
Ġbe yond
Ġcon vers
iz ation
v in
in ite
Ġp ounds
Ġsm ell
Do es
Ġdro p
se y
Ġj ack
ab ly
ĠL uc
Ġc amer
ĠM ark
duc ed
B y
Ġd ance
om as
ac ing
ul a
ers on
up id
st on
w ood
ha s
Ġsurpr ise
U N
Ġrem ain
E LL
Ġs le
Ġal ive
res ident
Ġset tle
ĠGer va
Not hing
Ġhung ry
Ġeff ort
W ould
ĠL ord
ove red
Ġproble ms
A K
in ary
er ve
Ġf ool
Ġj our
Ġhold ing
ĠGerva ise
l t
ĠS und
Ġdiffe rence
S omet
e ep
Ġt end
Ġneed ed
ĠGeor ge
M ar
Ġc and
Ġst ren
ast ic
Ġask ing
Ġbel ow
Ġpleas ure
ĠW ho
Ġf il
Ġbut ter
un ny
ust om
ĠP eter
fe rence
Ġco ve
ĠMar ch
ĠPe ggy
Ġto w
ch n
Ġwr iting
Ġcomp et
Ġele ct
l ished
u ge
Ġim medi
ĠDe cember
E ven
S ure
om an
ic a
ĠC o
ce ll
um ent
] !
Ġp ush
ig g
ĠJ ust
Ġsat isf
al a
Ġlaugh ing
Ġpolic y
Wh ich
unic ip
c ounter
ĠC ome
Ġag ree
Ġob s
ĠRos amund
M hm
Ġf at
Ġthan ks
Ġfin ally
ld en
art y
ap er
i ers
s et
Ġd rew
Ġl ength
ĠM ad
ĠS e
Ġj oy
un ting
Ġcour t
C E
m it
Ġd eter
Ġpick ed
Ġresp ons
b aby
Ġc ru
Ġg en
Ġman age
Ġread ing
bo x
Ġg ames
as hed
ct ure
Ġaf f
az ing
Ġinv est
Ġfavor ite
b ur
Ġf resh
pp er
Ġold er
Ġm ass
Ġf right
w ill
p ose
y l
z en
Ġre pe
Ġno body
ĠR oy
Ġun cle
Ġju ice
u nder
Ġf le
il ar
Ġnin et
b out
as hing
ĠM ary
Ġsp ent
ose ph
Ġbr own
R I
p lease
Ġv iol
Ġam ount
ĠInd ians
Ġr ul
Ġpro ject
Ġstren g
Ġw ide
ot hy
ill a
Ġposs ib
bo ard
e es
ĠW ith
Ġlike ly
s u
ati ves
ĠR uss
p es
Ġturn ing
anc ing
t ake
Ġe ars
ad es
pt ion
Ġes pecially
Ġm a
Ġfro g
Ġt all
st r
el en
Ġfing er
in ct
Ġw ag
V ery
c er
v ious
Ġs ens
Ġg rew
Ġse par
Ġr ap
ĠUn iversity
N G
l in
Ġd ate
Ġhe ro
ĠS ec
Ġtr ack
ash ion
Ġinf l
Ġl oud
ad ed
il s
ĠF OR
Ġgi ves
Ġho le
ĠM a
ĠR ep
n el
w ow
w ise
er ved
ĠI rene
ĠIt al
Ġro se
Ġra ised
D addy
p or
ol f
Ġcom b
Ġdes ign
Ġt ail
Ġe mb
ĠJ ames
ĠJ ones
Ġsp ring
Ġcare er
atur day
Ġforg ot
n ie
om ing
ĠM om
Ġsp eed
Ġfe ed
Ġexpl ain
ĠBrad ford
Ġl aid
ĠF ather
Ġsk y
Ġspeak ing
i ar
Ġm unicip
ĠW here
ck s
pe red
Ġhard ly
Ġconc er
Ġcamer a
M om
Ġs illy
Ġsu ff
Ġ1 3
ĠE x
Ġgr ass
Ġhand le
C T
Ġl aug
Ġthink s
Ġrep resent
Ġsim ply
I ON
Ġa ut
ĠS u
Ġr ough
Ġocc asion
Ex cuse
Ġw et
Ġf ol
The se
Ġkn ights
Ġmon key
ĠAmeric a
Ġinter rupt
Ġarri ved
ĠSund ay
Ġlaug hed
Ġwas h
al es
ĠS m
ĠT HI
Ġsp ace
Ġfl owers
Ġb ound
at ic
Ġtw elve
I llustr
P e
c her
er ry
Ġc ake
Ġh ide
Ġeng ine
Ġdest roy
Ġb attle
Ġd ue
Ġth reat
ĠHar ry
U R
t r
Ġst upid
ĠA f
ap s
Ġint ro
Ġocc ur
Ġs outh
Ġc ream
or a
Ġpr ay
li er
Ġcap tain
Ġdeter m
re m
it ions
ed er
W as
Ġte eth
Ġnin ety
Ġpu zz
om in
ĠA re
ĠCharl ie
L Y
Ġb rief
Ġwe ap
ĠO K
O P
re ct
Ġp ause
ĠM E
Ġcon tain
Ġset t
ĠWill iam
Ġcove red
Ġgu ard
Ġ3 0
i ant
ic o
ĠMar ie
Ġbott le
C l
T wo
k es
w his
Ġh y
Ġas leep
ĠE m
Ġway s
A r
O ur
b es
k y
k in
it ude
ĠI S
Ġh ost
ell y
ĠL ady
Ġar rest
Ġpo cket
Ġent ered
Ġbab ies
c ul
Ġ201 9
Ġhur ry
Ġoffic er
ar i
Ġgo in
Ġcall ing
Ġhelp ed
Ġopp os
S p
Ġf re
im ent
... ?
Ġ201 8
Ġem ploy
Ġsurpr ised
o x
Ġv ide
Ġcl osed
ĠIs land
Ġc ard
Ġfor th
Ġlad ies
Ġopp ort
Ġfing ers
F rom
Ġme at
ĠM ichael
Ġr ich
ord ing
Mr s
n ers
if orn
Ġter ms
i pe
Ġ ident
ĠL ea
ĠO f
Ġstart s
k et
Ġnot ice
Ġpe ace
Illustr ation
m aybe
ra ph
Ġbr idge
Ġann oun
Ġst age
ĠS am
Ġpro cess
Ġcon nect
Ġsc ared
Ġfell ows
ener al
Ġcap ital
Ġinclud ing
IGH T
w ait
Ġst ream
ch ie
Ġsim ple
Ġcab in
Ġd uty
ĠM er
ĠHe y
Ġpleas ed
Ġmist ake
I M
it ary
ed dy
Ġu nd
Ġthere fore
hi re
g on
p han
r ation
el est
Ġninet een
d in
i pped
Ġc uri
Ġe ast
Ġe ager
Ġwel come
us ion
us hing
ad s
Ġke y
iv id
Ġb uck
Ġth rew
Ġdri ving
ĠCal iforn
Ġnecess ary
M iss
Ġg ar
Ġfor ty
ro at
Ġne g
Ġjo in
Ġsus p
Ġnot e
Ġsing ing
Ġesc ape
t ell
ĠH all
ress ion
Ġhon est
P ro
Ġg ate
ĠR E
C ould
Ġt one
Ġde li
ian ce
n s
re me
ĠM ommy
ĠL ou
a ves
Ġu r
ess or
y er
Ġt ax
Ġm amma
Ġpl aced
ĠN ational
Ġsim ilar
ĠJapan ese
inite ly
it a
Ġp ir
ĠP resident
Ġsp ell
id a
og rap
Ġhold s
M ay
c our
s ings
u ce
Ġb omb
Ġn ea
ĠC he
itt ee
Ġsp read
Ġshow s
Ġsk in
B l
d own
Ġyou th
Ġg as
ab les
Ġany where
ĠCaliforn ia
J ohn
S ir
ell a
Ġun less
Ġpict ures
Ġstreng th
M ommy
T r
Ġfam il
Ġt ight
re y
it z
ar th
Ġse arch
ĠD ad
Ġte chn
Ġvar ious
r s
Ġs oul
ĠThe se
Ġbro ad
Ġca used
Ġp et
ac hes
el ess
Ġcha p
Ġnum bers
Ġmark et
Ġstru gg
Ġcomplete ly
Ġdecl ared
Ġmach ine
Y OU
d a
o ved
or ing
Ġin qu
Ġen emy
ung le
Ġnatur al
Ġl ines
Ġst ories
ĠM on
ĠS aturday
Ġpart s
Ġlaugh s
Ġdress ed
Ġfa ith
D e
in i
Ġs ize
it es
Ġro le
Ġpr oud
Ġapp re
Ġcomm une
Ġrel ations
Ġconvers ation
C elest
l ine
ce ly
hy s
uck les
Ġsc ene
Ġbas ed
Ġfill ed
ve y
Ġhappen ing
Ġexpect ed
v ille
Ġse vent
Ġim m
ar m
Ġwe ather
Ġcoll ege
Ġimmedi ately
A VE
Ġw it
Ġsh ore
Ġ2 4
Ġco at
ub lic
Ġcr ack
Ġche er
ex as
Ġshar p
G od
Ġd ru
est s
Ġsp r
Ġ202 2
Ġstep s
Ġn ature
Ġde b
Ġtw ice
Ġour selves
ail s
Ġreg ular
Ġdraw ing
Ġwood s
Ġremark ed
Ġang ry
Ġspir it
f ield
Ġhad n
Ġch icken
Ġeas ily
Ġaw ful
Ġprom ised
Ġvocal ises
Celest e
i ving
w orth
Ġw est
Ġof fe
ĠC ent
ĠH ouse
ĠG O
Ġear n
Ġph ot
Ġsqu are
Ġinvol ved
I L
b oy
Ġw and
id s
ĠF red
Ġ2 5
ens ion
col m
Ġfa ult
N ever
at o
Ġsa ved
Ġoff er
Ġref er
Ġgentle man
Ġcon side
uck er
ĠCha ir
Ġconside red
Ġfl at
Ġact iv
g ive
Ġc rew
Ġp un
Ġli ps
ive ly
Ġperson al
ĠChrist ian
Ġmess age
Ġt our
en ing
ri an
ĠB ill
Ġall ow
el p
Ġsu it
Ġpl ain
Ġper cent
Ġkeep ing
ĠAl bert
Ġmention ed
A U
ha ha
Ġm at
Ġp an
ot ion
Ġcir cle
ha nd
Ġm m
ar ry
ĠT ur
em s
ous in
gg ie
A ye
f ather
an ny
Ġp at
Ġp ath
Ġst ro
Ġus ual
Ġcar s
Ġcomp ut
Ġcr it
Ġsupp er
Ġadd ress
Ġfight ing
Ġlear ned
ĠQ ue
Ġbes ide
Ġ et
Ġr ate
ĠD O
Ġen v
Ġplay s
Ġper form
Ġstr uck
Ġabs olutely
p ret
Ġ ide
en ces
ĠM ex
ant ic
Ġal b
Ġbl ank
Ġdis p
Ġact ion
igh s
ott en
Ġth ou
Ġmiss ed
Ġfig ures
1 0
Ġsp ort
ĠInd ia
Ġegg s
u el
ur al
Ġear lier
Ġfall en
ustr al
C he
Ġ &
Ġc ell
Ġd read
ig er
ra ft
Ġap art
con om
O L
d om
Ġj ungle
Ġpl ane
ĠJ esus
Ġdanger ous
ĠDor othy
f ace
Ġd en
Ġh i
ĠC reek
Ġquar ter
y le
if y
Ġad vent
ok en
Ġjo ined
Ġwat ches
Ġblock s
Ġemp ty
Ġcray on
b ack
Ġ =
Ġb other
Ġth ick
ĠM att
ĠP l
ĠJ enn
Ġpolit ician
Ġt ou
ĠK itty
Ġun c
Ġpull ed
oint ed
R em
m ommy
r im
w ant
Ġm ix
ĠL em
ĠR am
ci ence
oss ible
B ye
g ress
w r
Ġluck y
Ste ven
Ġmunicip ality
" )
Ġb ang
as ure
al t
ĠW AS
Ġmiss ing
! '
. ,
Ġb le
ĠO kay
ens us
Ġbig ger
Ġche ese
Ġac qu
Ġstud y
Ġgra ve
a f
k a
o om
Ġt ears
or ough
Ġsp l
Ġbl ess
Ġco ach
Ġshould er
ĠTh omas
Ġperfect ly
I E
Ġbe ll
th ree
Ġcal m
i que
Ġag reed
Ġwat ched
Ġmot ion
ĠAf ric
Ġvide o
N e
r an
Ġd are
Ġf ashion
ant on
Ġor ange
Ġgr own
be red
Ġexper ience
Ġtot al
Ġbra ve
f ive
u gg
et t
ĠS chool
Ġpl enty
Ġpro ceed
Ġgr ad
Ġcent ury
H er
j a
v ies
ce nd
Ġ2 1
au d
Ġdes p
_ .
or ks
Ġp ink
ar ily
ur s
Ġend ed
Ġcomm unity
Ġocc up
e er
f our
Ġr isk
so ci
ens ive
Ġstart ing
On ly
Ġpur pose
Ġhot el
ï¿½ï¿½ ï¿½ï¿½
Ġwin ter
Ġmur der
Ġpract ice
Ġimag ine
C os
G u
ru ction
Ġanx ious
Ġst at
Ġsa il
Ġexc ited
E leanor
u ke
an ch
Ġe p
out hern
act ion
Ġsm oke
iv il
it or
as ons
Ġh iding
Ġth roat
Ġre se
Ġgun s
Ġcho ice
Ġbird s
in al
Ġd irty
en ry
Ġst one
ĠC ouncil
ĠL o
ĠR iver
Ġtr ick
Ġbl ind
A g
W ow
Ġde lic
ĠF ort
Ġlo ves
Ġfav our
Ġsand w
ve ll
Ġpl ans
ĠE ve
Ġopport unity
Ġr ace
Ġfif teen
1 8
K eep
b ell
c ue
Ġ vers
Ġpleas ant
OM E
i ally
oo s
ro ad
ĠD id
ĠJ oseph
l or
p ed
y ep
Ġf irm
Ġst orm
ĠM other
Ġ( "
Ġpr ice
ĠSt reet
ild a
led ge
Ġiss ue
Per haps
O oh
k i
z a
Ġ )
Ġb ill
ĠA ustral
Ġhead s
mp ions
ĠQ u
I F
ha l
Ġp a
Ġl oss
Ġre vol
ĠT exas
Ġsa ke
ĠF rom
ĠU S
Ġrem em
Ġexc use
Ġbas ket
Ġev idence
Ġinfl u
Ġwe ak
Ġre ck
ĠM art
ee ch
Ġsold iers
ĠMal colm
uh oh
aster n
Ġev ident
Q u
Ġwor ried
Ġfam ous
Ġclear ly
Ġfly ing
Ġhig her
w ing
Ġh uge
and a
ict ion
U S
Ġm ud
Ġp in
ĠS er
Ġnot iced
ol a
Ġplay er
ĠSt ate
B omba
O D
ic ro
ĠS ch
ĠN e
Ġtr ad
Ġen er
Ġass ist
Ġdem and
Ġcirc um
Ġnur se
Ġtem per
D ad
Ġt ong
Ġd ig
ĠB ur
os ing
ĠHe re
Ġcare fully
ober t
, âĢĻ
r ain
Ġup stairs
Ġrem ained
Ġhar m
ĠMar g
L ES
c ries
u x
w atch
ot ed
ĠT hank
ĠP ark
Ġper m
Ġimp ro
Ġhous es
T H
w est
Ġc hat
Ġhe at
ot te
Ġfor med
Ġso cial
Ġne ither
Ġafter wards
Ġfin al
Ġdec ision
Ġfall ing
Ġdog s
Ġoffic ers
* *
Ġw ake
le cted
ĠH igh
Ġeight y
Ġprep ared
G E
ĠB ert
Ġv an
Ġsc r
Ġmo on
Ġpop ular
Ġjour ney
e re
le m
Ġst ock
ĠM ac
ĠM ama
ĠG eneral
Ġatt ract
k iss
ic le
Ġst ret
-- "
Ġro b
Ġfair ly
Ġorigin al
Ġbud get
B r
B RO
R A
le br
id den
Ġst ars
ĠA lf
ist ic
Ġf und
Ġn et
Ġ2 3
end ing
Ġsha d
us es
Ġde g
Ġwill ing
Ġback ground
Ġimp ossible
w anna
er m
ar ah
ur ity
ĠR ob
Ġsc ream
Ġmo vies
Ġsm art
Ġcle ver
Ġgener ally
arent ly
G ot
or ter
Ġex ist
Ġcl oud
IN V
Ġind ivid
Ġwear ing
Ġconcer ned
ct ions
Ġsome what
as y
ci ety
1 7
G reat
v ocal
Ġt iny
Ġc ustom
ar ies
ar row
Ġin j
Ġr ab
Ġser ved
Ġob viously
Ġcol onel
ĠYou r
Ġyoung er
Ġsleep ing
Ġut ter
Ġt it
Ġf aces
Ġl atter
st op
Ġare as
ĠT ed
ĠR ed
no ise
ĠK e
Ġlisten ing
Ġdevelop ment
Ġav ail
Ġnorm al
C ar
F irst
F AT
Ġp hys
ur ry
Ġknow ing
ĠE ast
IT H
Ġfix ed
b ly
Ġ iron
Ġm ut
Ġf em
Ġwe ight
op h
ort hern
Ġcreat ed
Ġprof ession
Ġn aught
ld er
ir ing
Ġ19 2
Ġ5 0
Ġed ge
Ġest ab
A m
S ay
Ġ ign
Ġa ud
ĠJ ul
Ġte ach
Ġdire cted
Ġtra vel
aur a
Ġcomfort able
Ġspec ies
H old
P oss
j o
y al
as c
ĠS id
ĠH elen
Ġr oof
âĢľ âĢĺ
Ġtri p
n on
re g
Ġm ir
ĠC ass
Ġwhe el
Ġent er
Ġmar ry
Ġtast e
b a
Ġbe ha
Ġsh ips
od ay
Ġmed ic
Ġscar cely
Ġcircum st
Ġp ound
Ġon to
Ġe conom
ak ed
ĠCh ic
Ġair port
Ġpur ple
Ġhon or
Ġpriv ate
ĠChair man
H a
he art
ĠL ittle
Ġdefe nd
F uck
s pect
he t
Ġh ill
Ġh unting
Ġwas te
Ġop in
Ġblood y
ograp hy
T O
s es
Ġ ir
Ġm ater
Ġto wer
Ġth us
Ġsp oken
AN T
Ġtown s
A d
is hes
Ġd ouble
ĠT ucker
Ġcom ment
Ġlight s
Ġdef initely
W E
c raft
re es
Ġl ap
Ġe mer
ent ed
ĠH i
ist ory
Ġwor st
Ġmean ing
Ġsett led
5 0
Ġb ite
am n
ĠR and
pl es
Ġmost ly
Ġmil itary
ĠJenn ie
t urn
ĠM Y
ĠE ll
Ġele ven
ĠHow ever
Ġvict im
ish ment
iv al
Ġsur r
Ġind ic
Ġparticular ly
Ġru le
v o
Ġt eddy
Ġat e
um ber
Ġpen cil
Ġappre ci
us ing
ab r
Ġpl ant
Ġpl ate
Ġqu ality
Ġbr ain
oo per
Ġrel ig
Ġexc it
H uh
M um
m in
er c
ĠW E
Ġar row
Ġdri ver
Ġstate ment
ĠBob by
an ning
ve re
ut ch
all as
ĠA N
ĠA lden
Ġbring ing
Ġdisc overed
Ġeduc ation
Ġalb um
n al
es sel
Ġcall s
Ġact or
Ġres ol
sy ch
E d
e h
f it
g ot
k ed
Ġp ony
st it
ĠB oy
Ġaf ford
Ġcond ition
cell ent
Ġb oss
Ġm um
at ors
Ġdo c
Ġ1 00
Ġgr owing
Ġrem ind
Ġcont act
Ġsw ing
Ġwall s
ĠGu y
Ġrap id
p en
Ġt aught
Ġw ed
Ġthe e
Ġsp eech
Ġsus pect
U ST
ou red
Ġf ond
Ġhe aven
st ood
ĠH E
our s
Ġv ac
ag o
ĠSp an
ĠDon ald
Ġwag on
J ack
d ra
g en
is a
Ġc art
ut en
Ġst aff
ĠA h
ur t
Ġr ail
ĠIn tern
Ġsil ent
Ġcontin ue
is y
Ġo dd
Ġn on
Ġst airs
Ġsu c
ber ry
Ġgood ness
M an
h ost
p aper
Ġt ask
Ġs ides
Ġv essel
Ġbed room
Ġtri es
Ġpick s
ĠAn ge
Ġbrother s
Ġce lebr
Ġbur st
Ġstru cture
Ġmount ain
Ġtong ue
Ġsuc ceed
i ot
k ins
Ġf ru
se qu
Ġdo zen
ES S
Ġoppos ite
Ġcomput er
h in
u ps
Ġ #
Ġbe ach
ĠT wo
ĠF enn
Ġcl ock
Ġco ast
Ġsecond s
Ġpap ers
aj est
ific ation
c ar
Ġc ong
Ġc ult
ac he
ĠD ist
ep end
Ġserv ices
Ġr ange
Ġtell s
Ġfind ing
Ġfeel ings
Ġsur v
fort un
ĠGo vern
G l
g l
Ġ ..
Ġt ap
Ġf ancy
Ġp ill
Ġg ro
ĠH enry
ond ay
Ġstr anger
Ġob l
Ġlaw yer
Ġinvest ig
Ġpossib ly
A bout
Ġr ow
Ġtr oops
Ġsha pe
Ġch oose
ON E
C hi
Ġl ower
Ġkn ife
Ġcon du
Ġsix ty
ĠCol onel
f all
i us
Ġw rest
ick ed
ĠSt one
Ġte xt
ĠGer ald
Ġprov ince
ĠLuc y
Ġdeterm ined
I LL
le nd
out s
Ġme al
fe ction
iz es
Ġcont ract
Ġpres ence
Ġcra w
Ġord ers
Ġsuggest ed
Ġrad io
Ġexcit ement
' ?
b b
c ast
h od
Ġha m
ab ri
Ġfeel s
Ġwait ed
Ġind ust
Ġhell o
Ġprin ci
Ġc ensus
Ġe h
al ed
Ġst re
ĠL aw
Ġ2 7
Ġthought s
Ġreal ize
Ġadd ition
Ġinclud e
Ġcas es
ĠA ir
ter ing
Ġv ote
ord er
Ġpre fer
ou ps
Ġp air
Ġan t
Ġtr oub
Ġbelie ved
Ġlar gest
Ġcent re
ĠLou is
1 5
Ġt ar
Ġc red
Ġknow ledge
Ġdes k
Is n
Ġmatter s
Ġener gy
s ha
ĠK ore
Ġcour age
ult an
Ġaw are
Ġste al
Ġforg otten
Ġmod el
Ġord ered
Pe ople
C on
M ama
S e
a ign
p a
Ġb al
im ate
Ġme re
Ġbut ton
ul ous
em an
ĠE very
Ġ2 6
Ġapp le
og er
Ġcor rect
ĠSte ven
Ġpati ent
Ġrepe ated
Ġoffe red
C har
N OW
P ut
ĠW ind
Ġcon v
Ġthr own
HE R
Ġcr ime
Al right
Ġpolit ical
o id
Ġb are
Ġman aged
Ġcl aim
ĠIt s
Ġmag net
s n
Ġpre vent
Ġopen ing
Ġext reme
L e
n own
ĠC up
iz ing
Ġdec ide
Ġcarry ing
Ġfright ened
Ġnaught y
D r
H O
l ie
Ġd ancing
an ing
ĠD em
Ġ2 8
Ġgr ab
ict or
Ġstay ed
Ġinst ant
Ġwind ows
Ġappear ance
ĠLea gue
er o
Ġh m
Ġfor ces
ĠN or
Ġaf fect
Ġstay ing
Ġrep ly
T w
Ġth in
ic y
ĠĠĠĠĠĠĠĠĠĠĠĠĠĠĠĠ ĠĠĠĠĠĠĠĠ
rill iant
Ġarr ange
Ġtow el
Poss um
Ġ --
Ġd ying
Ġf urn
ke ep
ly mp
look ing
Ġcompan ion
c ut
d ie
v an
Ġp ool
Ġfor ced
ĠS E
ĠThe ir
Ġ2 2
ok ing
Ġlead er
b ook
Ġsh irt
Ġde ck
be y
HI NG
Ġpre vious
Ġ201 0
ĠRep ublic
Ġreck on
? '
p ro
r in
Ġs na
Ġm or
at oes
Ġh omes
Ġdo ors
os h
ather ine
Ġhelp ing
Ġexpl ained
bur g
1 2
ĠS an
ch ief
ĠR o
Ġeas ier
Ġrock s
AM Y
Ġproper ly
iron ment
omp any
Ġsusp ic
f le
r id
is her
ord s
Ġmot or
ĠCharl otte
Ġrul es
Ġf ully
Ġn arrow
Ġkn ees
Ġsh own
Ġ2 9
Ġ201 2
Ġpass ing
ĠFr iday
Fr aser
Ġmem ory
ĠQue en
Ġet c
B art
o ly
Ġc ivil
Ġl ake
Ġwh ist
ĠA my
ĠT V
Ġsh ook
Ġam azing
Ġmo ves
tain ed
Ġpub lished
Ġhist or
Ġpal ace
Ġwit ness
s ed
am m
Ġpart ner
Ġpre par
Ġpr im
Ġsm iling
P E
b re
Ġl iter
us ic
ad emy
ĠA T
ĠH AVE
Ġshe ep
ĠP ort
Ġsp lend
Ġqu eer
Ġgr oups
Ġshould ers
Ġsl aves
Be fore
Ġplan ning
Ġmod ern
ĠSm ith
Ġopin ion
a e
a ed
p ardon
ĠG l
Ġright s
Ġpro duced
Ġsur face
Ġfore st
Ġannoun ced
Ġc ro
Ġr out
Ġsh ock
ĠJ ean
Ġsp oon
Ġex ec
Ġpro gress
Ġtr unk
Ġdes per
Ġrequ ire
3 0
T ilda
b its
c ould
e very
s m
ur a
ĠC oll
ĠR obert
uck y
Ġfl ag
Ġele ction
Ġadv ant
ĠTHI S
Ġcircumst ances
ro ll
ĠĠ Ġ
Ġsa f
Ġby e
Ġsha ke
Ġstand s
Ġpap a
a ult
k er
p oint
Ġm ate
ĠH ER
ĠD ick
Ġhur ried
Ġsing er
Ġlead ing
ĠOr der
ĠSte ve
Ġclos er
Ġexpress ion
Ġcop y
le ar
ol ars
Ġtr ade
ect ive
per ing
az ed
Ġshout ed
Ġpuzz le
Ġc ott
Ġp sych
Ġde l
Ġex erc
ĠO lymp
ud d
Ġgreat est
Th ose
Ġquiet ly
A ct
Ġg ift
ri ble
Ġup set
Did n
Ġesc ap
Ġhang ing
B E
O H
T om
m und
r am
Ġw ished
Ġth y
pl ace
Ġfl o
app y
ĠGerman y
Ġslight ly
Ġswim ming
D S
o oth
ĠS ing
Ġsh o
end s
Ġgreat er
Ġremem bered
Ġs ac
ur ance
ul f
ĠL O
the se
Ġschool s
Ġ201 1
Ġdire ctor
Ġresp ond
ĠBar ry
Somet hing
d s
g n
Ġp ad
Ġas ide
ĠC or
ĠP arty
ĠL aura
Ġsp o
ap a
Ġpro ve
gg ing
ĠCh urch
br other
Ġadv ice
Ġval ue
Ġtot ally
M a
l ow
w hile
it i
Ġf ought
ĠD allas
os aur
Ġsc rew
ib ility
Ġwonder ing
Ġbath room
Ġwhis pered
Ġjud ge
Ġrelations hip
a res
Ġc ad
ĠD E
Ġpr int
Ġsm iled
Ġball s
" ?
Ġf ra
Ġp le
Ġin no
ĠR em
Ġrun s
19 9
ĠSec ret
ajest y
D avid
ha ppy
it ation
ĠPro f
S ince
i j
Ġwe ird
ch ing
Ġshe l
Ġcl own
Ġdis m
Ġfo x
Ġgl ance
Ġ201 6
Th ree
Ġcamp aign
Ġfort une
Ġdam n
Ġavail able
aed din
Ġb od
Ġf ile
Ġy ards
Ġn ap
ent h
ĠO ld
Ġdream s
Every thing
Ġneighb or
Ġw estern
ĠC H
Ġj oke
ĠT H
Ġsome how
Ġsc ore
Ġele phan
iet y
Ġbeaut y
Ġdisapp eared
ĠMin ister
athe red
Â ¶
Ġt ie
Ġa chie
Ġs our
Ġc ards
Ġst yle
ea ks
ur b
il ver
Ġr om
Ġfl ight
Ġcont r
Ġshow ing
laugh ing
oc rat
Ġstra w
Ġcru el
Ġc ousin
ĠS ea
ĠG ra
ĠJ o
Ġper for
Ġact ing
Ġtri be
Ġgentle men
Ġknock ed
r ick
Ġw id
Ġm ult
Ġd un
Ġhe sit
Ġh unt
ĠM id
ĠW il
Ġsent ence
asp ed
Ġevent s
C all
o le
Ġw ine
ĠM or
ĠH ay
ĠD olly
Ġdown stairs
Ġchan ges
Ġche m
ES T
Ġ18 7
II I
Ġrece ive
Ġfol ks
Ġsandw ich
U CK
p ers
r ate
Ġt a
Ġg ir
ĠM at
ĠS us
Ġsh oe
ĠP olly
ol an
Ġag ed
Ġmiss ion
Ġfil m
Ġprofession al
I V
N ice
il ian
Ġevery where
Ġunder stood
Ġdes ire
Ġent ertain
ĠAl aeddin
Ġdep art
Ġsong s
B en
L ea
M other
u ous
in ting
ent al
ro st
ch uckles
ul ty
ough s
Ġfe at
aw s
az y
Ġcol ors
uten ant
M AN
M ichael
] ,
c ing
Ġm ort
ic an
ĠM onday
ell e
ĠT y
ul ations
Ġkeep s
ĠMar illa
Ġdrink ing
wh oops
Ġpri ze
Ġdirect ly
Ġhol iday
Ġnea rer
Ġmedic ine
S c
Ġ ess
Ġo w
ed s
Ġp ra
Ġp ale
Ġl ion
ĠM aster
ĠS en
Ġman ager
hi ps
OU LD
Ġeight een
ĠFl or
Ġev il
Ġbar n
Ġcho col
Ġenv ironment
ĠSpan ish
Ġobl ig
Ġt im
he st
Ġb oo
Ġf al
ĠA c
ĠB O
ĠH y
il ities
ge ant
ĠR y
ĠN OT
ĠE ven
are n
Ġar g
the w
Ġcount ries
Ġbene ath
Ġsaf ety
M ad
Ġp ushed
Ġst ir
Ġkn ee
ĠB ro
Ġcar riage
Ġpower ful
ĠChar les
Ġeng aged
ĠBl ack
ĠRam sey
C ause
is ions
oo ke
ent worth
Ġst ates
ess ed
ĠE n
ĠK en
Ġfo ld
Ġrec ently
Ġdist ribut
Ġpay ing
ĠItal ian
Ġep is
w ater
um ents
Ġbu ried
Ġmove ment
ĠBart y
Ġcontin ues
ĠYOU R
---------------- ----------------
r ant
ing u
at ory
Ġre asons
ul ated
Ġsc he
Ġbit ch
Ġ201 7
Ġsmall er
Ġ18 6
Ġproper ty
Ġearn est
F ine
ĠM o
ĠB at
Ġne at
Ġsu gar
ĠL ook
Ġacc ording
Ġtrain ing
Ġforg ive
Ġrequ est
ĠMarg aret
ĠC at
un s
ock s
Ġmon ster
Gr and
ĠDist rict
A IN
p al
v i
Ġc ute
Ġo il
Ġf ishing
ĠH al
il a
ĠL ab
ĠN ed
Ġcomm ittee
Ġdra wn
Ġtra il
Ġmag ic
Ġsuccess ful
Ġgall ey
Ġfail ed
Ġprodu ct
Ġwed ding
A B
m ake
Ġa ver
ĠB ra
ĠT ony
ĠL a
Ġgr ate
og raph
Ġche ek
Ġjob s
Ġins pect
Ġcast le
Ġauthor ity
e g
s hip
Ġw ha
Ġb atter
Ġf ier
Ġto ast
ad ing
ĠB el
ust ed
ab oo
ines e
Sh ut
ĠPar is
Ġentire ly
Ġtou ched
ĠLo ire
p et
t ry
ke nd
ĠE leanor
anna h
Ġmag n
Ġw ound
on ed
im a
ĠC our
Ġj ail
ĠW entworth
ep ing
Ġthr owing
Ġact ress
Ġdark ness
s orry
Ġa im
Ġg ang
ĠI I
et ch
ant a
ĠF anning
ĠR uth
act ually
Ġapp arently
Ġser ve
ĠCh ris
Ġ201 4
Ġdr unk
Ġter ror
app ing
Ġ200 8
Ġcent er
Ġprop os
k nown
Ġm icro
Ġo x
Ġf aint
Ġg host
et ter
th ose
ĠG old
Ġbr ush
ish op
ER S
b ow
Ġg athered
Ġr ushed
Ġcan cer
ĠP et
ĠP al
han g
ĠR oman
Ġmar riage
Ġmag az
Ag ain
Ġsplend id
b ig
u le
Ġp red
ain ing
." ]
ag ing
Ġfo c
Ġpain t
Ġhon our
Ġfore ver
Ġsoft ly
Ġclim b
f a
r ot
ĠM um
ĠM any
ĠB ern
Ġshe ll
ink ing
ĠG et
Ġbo ats
Ġplay ers
Ġneed ta
Ġbit s
Ġwar ri
Ġord inary
Ġtar get
Act ually
' ,
K E
Ġl one
Ġfor ms
ĠH ave
ĠW in
Ġother wise
Ġ201 3
A lex
I A
Ġf art
ĠS ultan
ĠA ward
li ament
to gether
Ġste pped
Ġdro ve
Ġsold ier
Ġpress ure
H istory
y m
as ing
om en
Ġh ook
ĠH aw
ĠT own
ck y
ol es
ig s
ĠO k
Ġpro ced
Ġshow er
ĠUn ion
ĠCl a
Ġenjoy ed
Ġobs erved
Ġfru it
N O
on a
Ġn ative
ot o
Ġbe ast
Ġse ction
and y
ĠH am
ĠO x
Ġpo et
Ġsha me
ans as
Ġind epend
Ġrel ated
Ġoffic ial
Ġappro ach
ĠDo ctor
ĠPat ty
Ġweap on
Ġspr ang
z es
Ġs ch
se mb
Ġdo in
am ing
am my
ĠA LL
op en
ĠW ITH
ĠD av
ap t
Ġfriend ly
Ġent r
ĠMiss ion
Ġair craft
ĠCass on
C ha
P aul
Ġp ant
us hes
ent ial
Ġas soci
il ty
um n
ang ed
Ġatt end
Ġwalk s
Ġfall s
oint ment
ĠWh ite
Ġincre ase
y o
Ġd ise
ver t
Ġst ones
ĠM ed
ĠA B
ĠC amp
Ġde re
ol s
Ġpro duc
Ġtr uly
Ġwee kend
Ġhear ing
Ġdra gon
On ce
Ġinclud ed
Ġcuri ous
Ġrese arch
Ġindivid ual
w in
Ġs oup
Ġm ail
Ġd im
Ġf an
Ġre lease
ĠH ad
ie l
ond er
Ġen cour
Ġsit s
AR D
Ġchocol ate
o v
in c
Ġp it
Ġl oose
as m
Ġr ush
Ġr iding
ate g
ĠN E
Ġv ent
Ġuse ful
ĠĠĠĠĠĠĠĠĠĠĠĠĠĠĠĠ ĠĠĠĠĠĠĠĠĠĠĠĠĠĠĠĠ
Ġcra ft
Ġadvant age
s ure
on se
Ġm ile
es ides
Ġl ord
ĠM ore
ĠB ull
ĠE li
Ġche st
Ġret ired
ĠEd mund
Ġinc red
Ġbec oming
Ġdiffic ulty
Ġlift ed
2 00
e ff
s how
er able
Ġn erv
ĠM ost
her ry
Ġli ber
Ġsa ving
ĠF a
os en
Ġcom ed
ĠR ush
No body
Ġfl ower
ĠSt an
Ġsec urity
---- "
Ġkid ding
sh ould
Ġconc ern
1 6
g ency
s omet
Ġf ired
Ġg ather
ir gin
Ġsure ly
ĠZ eal
Ġtele phone
cha ir
Ġinflu ence
I nd
u f
he w
Ġw ore
Ġb unny
Ġl ack
ce an
ĠB er
Ġpl at
ĠL ee
Ġcon ce
Ġbr anch
uch i
ĠV ictor
ott ed
Ġinst ru
Ġexc iting
Ġsn ake
Ġintro du
P l
Ġso re
Ġsa v
ck ed
em ies
Ġ( )
Ġheart s
Ġbad ly
Ġlist ened
Ġsign ific
ĠHar old
Ġfair y
Ġmed ical
ĠBrad ley
ĠAg nes
Ġrespons ible
Ġoccur red
Ġcred it
f ish
u a
Ġs en
on ly
Ġc ities
ĠM el
ĠS arah
ab eth
ĠW olf
Ġag ent
Ġco al
Ġsign al
Ġgovern or
Ġburn ing
Ġide as
ĠAlf gar
S u
d addy
y ell
Ġa unt
Ġp ants
Ġe lder
Ġre act
Ġbut t
ĠR ight
Ġkind ly
Ġlad s
Sh ould
Somet imes
Ġfre qu
Ġfem ale
ĠFlor ida
E n
U L
Ġs cient
Ġb at
ac hel
Ġan cient
ĠB o
ct ors
ĠD ep
ĠJ www
uh uh
ang le
Ġad op
Ġsl ave
Ġkind s
Ġpres ently
Ġtrans fer
Ġra ise
ĠMart in
O ther
Ġa ston
Ġc ash
ĠI r
al y
ĠM os
Ġpl ants
Ġqu al
Ġrem oved
Ġown er
Ġser iously
Ġreg ret
Ġgrand ma
Ġap olog
ĠGreat er
ĠProf essor
i est
l ock
Ġt ough
Ġd well
an o
an other
ch i
if fe
Ġj eal
Ġinv ited
Ġdin osaur
ĠCar l
Ġve h
Ġiss ues
Ġrecogn ized
Ġelect ric
itz er
abri ella
1 3
Ġw ave
Ġs ite
Ġb rilliant
ing er
ro l
Ġex cellent
we y
Ġfour th
Ġinter view
Ġadm in
Ġvers ion
H elp
I G
R Y
i als
ĠM ike
ce l
um mer
ĠN at
ĠK NOW
Ġpre cious
St ay
Ġsign ed
Ġdat a
Ġdevelop ed
Ġresult s
Ġfamil iar
ĠAustral ia
b u
Ġw ounded
Ġg ently
ĠC r
ĠH im
Ġr ings
Ġsu ffe
Ġcon sequ
Ġqu it
Ġgu ilty
Ġcr im
OU T
Who a
Ġcross ed
ĠGeor g
mpions hip
Ġrab bit
L ove
T ry
Ġt un
ĠS y
el come
ĠJ ew
Ġcomp ar
hm m
Ġreal ized
az e
Ġhor rible
Ġsy mp
Ġmad am
Ġcompan ions
Ġsepar ate
Ġweap ons
Ġappreci ate
1 4
Ġa id
Ġc ave
Ġf uss
Ġin n
Ġst ern
and s
ell ig
ĠT ri
ĠL at
ĠR oger
Ġresp onse
Ġstri ke
Ġdescri bed
Ġlone ly
d at
l aw
u ght
Ġw an
Ġf ant
Ġf reed
ll a
Ġp ension
Ġl in
Ġre ve
Ġst ol
all ed
ĠC O
ĠB ig
ie ce
ĠL ake
ep s
Ġint ended
oc key
Ġhands ome
Ġstop s
go ing
Ġ200 6
Ġlar ger
Ġmount ains
ĠMex ico
L O
g ate
p os
v is
Ġt id
Ġt ied
Ġp atter
ri ff
um ed
um ble
op s
Ġen emies
Ġprov ide
Ġpos itive
ĠCour t
f ers
p ir
s ighs
Ġb i
Ġy o
Ġvo ices
Ġprov ided
Ġart ist
H mm
Ġd ust
Ġp ity
om a
et te
Ġkn ight
ĠD ar
ĠD ay
ĠD utch
Ġsu ffic
Ġsp are
Ġlo g
Ġapp l
ob ile
Ġkind a
Ġtri bes
Every one
Ġsettle ment
igg les
ĠRuss ian
Lea ve
itzer land
S it
d is
Ġc it
Ġl id
Ġth orough
Ġbe e
ch o
Ġal together
Ġgreat ly
ĠCh ina
Ġ4 0
Ġinc ident
ĠDe wey
Ġlear ning
Ste ve
ĠSw itzerland
Ġsle pt
Ġaut om
Ġinqu ired
Ġevident ly
ĠIntern ational
Ġjeal ous
Ġt ear
he e
ll en
en ny
as es
Ġli es
Ġr ise
ĠT ra
ĠN ight
av al
Ġact ive
Ġcr ash
Ġdes er
Ġdr own
Ġteam s
Ġaccept ed
ĠJim my
ĠRoy al
Ġstre ets
Ġbod ies
R os
Ġp our
ĠM ic
Ġmy ster
... "
iz abeth
Ġsl ipped
ĠCh inese
Ġwond ered
ĠAr ab
Ġ200 9
Ġconst it
Ġexper ien
Ġjump ed
Ġprison er
ĠPer haps
Ġprogram me
Ġaff air
M ove
[ .
er al
or se
Ġp ile
Ġp ump
Ġg ained
om pl
Ġme l
ĠS im
ĠB ible
Ġr are
Ġso ciety
ĠF rost
aw a
Ġconf idence
ĠRe g
Ġsend ing
Ġhop ing
Ġspec ific
ĠEurope an
ĠTur k
Ġdeg ree
f ly
r idge
t in
ha b
Ġm ap
ĠM ajesty
ea ble
Ġbit ter
anc hes
Ġeat en
IS T
Ġ200 7
ĠBl ue
Ġdelic ious
e at
y ear
Ġt ent
Ġs orrow
Ġf ac
Ġp up
Ġha bit
Ġsee k
ree ks
Ġbl ame
Ġbet ray
ile en
Ġri fle
AR T
Ġsqu ee
ĠCar ol
ĠCan ada
Any way
Ġnur s
Ġtit le
Ġrapid ly
Gl ory
ĠZeal and
Ġs cience
Ġb ike
en a
Ġbe nd
ad o
Ġno vel
ĠR el
ĠK at
Ġres our
Ġ201 5
oc r
Ġrel ax
Ġsign s
Ġpur su
Ġobject s
Ġbes ides
Ġdelight ed
Ġsatisf ied
ashing ton
olars hip
ocrat ic
Ġaver age
F l
l ong
m es
Ġt v
Ġt iger
Ġb oun
Ġh idden
Ġha ha
ĠB u
ack s
ĠD el
Ġsp ite
hi b
Ġsm ooth
Ġact ual
Ġend s
Ġmoment s
cept ion
Ġcreat ure
Ġrecogn ize
Ġsho pping
Ġt al
ic les
Ġre jo
Ġan ge
ber g
Ġch osen
ail ed
AT ION
Ġbre aking
Ġsw itch
Ġrest aur
Ġtrans port
Ġkiss ed
Ġtend er
T e
T HAT
l im
Ġw ra
Ġs in
Ġy ard
Ġp il
om ach
Ġse vere
ĠC han
Ġr ising
Ġus es
ast y
Ġgr ace
Ġam b
Ġun fortun
Ġbeg ins
ĠFr anc
Ġtri al
Ġstud ents
Ġcook ing
AK E
Ġarrest ed
Rem ember
M ake
W hile
d ad
m om
m aking
re al
Ġb ark
Ġd ea
ri a
ĠM ont
ĠS ee
Ġgo al
ind a
ĠE X
Ġcl ient
Ġres ist
Ġcomm unic
Ġhigh ly
Ġext ent
Ġdoll s
Ġap artment
Ġmur d
Ġdam age
Ġtur tle
Ġperform ance
Ġmir ror
O F
W atch
c r
i ation
Ġw ise
Ġf ate
Ġn ic
ge nd
Ġour s
Ġroom s
Ġsw ift
St ill
Look s
Ġdestroy ed
eder al
ĠAfric a
Ġestab lished
Ġnerv ous
H urry
g ly
k now
om ed
ĠM ot
ĠM ajor
all ey
ill ed
um an
Ġv ain
ick ing
ĠĠĠĠ Ġ
Ġbre ast
Ġsoon er
IS S
Ġshoot ing
Ġnorm ally
Ġpir ates
Ġelephan t
Ġsuffe red
" '
S m
b el
e ks
g ues
ha h
en ger
Ġg ay
Ġn ation
Ġn orthern
ri er
ĠM ount
ĠS el
Ġsh r
ĠP ak
Ġlo ving
Ġsc reen
Ġpoint ed
Ġpick ing
Ġform ula
Ġsevent y
Ġdru gs
Ġsport s
Ġnurs ery
1 1
N A
_ _
g a
h us
l ings
re ally
Ġb ent
Ġb orrow
Ġo we
al ph
am s
st ead
ĠH ello
Ġr ang
Ġgu est
Ġbig gest
Ġnorth west
Ġpa used
U M
b ark
h un
ar ly
Ġin vent
Ġh orn
Ġdo ggie
ĠA ct
ĠT hanks
Ġbo ot
Ġbo ots
Ġchan ging
ĠHar ris
Ġrecord s
Ġve get
Ġequ al
Ġtreat ed
Ġav oid
Ġfle w
Ġeager ly
Ġdeli ver
B ob
I ES
Y ep
a fter
m ark
u gh
Ġc aut
Ġp ow
ot a
ĠC ross
ĠG reen
ian o
Ġch ums
Ġop ens
Ġpass ion
Ġmet hod
Ġcut ting
olog ical
Ġdiv or
Ġmajor ity
Ġblank et
Ne xt
Ġmater ial
T oday
n ine
en ced
ĠC ON
Ġde lay
ab ility
Ġcom r
ag u
Ġpro ved
Ġpo ison
Ġfound ed
Ġsort s
Ġstud ied
Ġloc ated
umb led
ĠFa ith
Ġs outhern
Ġp or
st e
st ery
ĠA RE
ell ed
ore s
ĠF in
ĠL i
iz za
Ġstr ing
Ġrec omm
Ġacc ompl
Ġrel ief
Ġclose ly
orks hire
Ġexerc ise
Ġgrate ful
, ]
A ha
W HAT
l ers
ha med
ir teen
Ġun us
Ġpre gn
Ġwr iter
ĠBr own
Ġpain ting
Ġpartic ip
Ġroll ing
Ġprop osed
Ġrespons ibility
ĠAc ademy
ĠOx ford
F ather
J oe
Ġb ast
Ġm ig
Ġm ale
Ġh ut
ĠS a
Ġgo dd
ĠC ong
um ps
lf riend
ost a
Ġbr anches
Ġad ult
ign ed
ĠAn n
Ġplan ned
Ġadv ance
Ġadv anced
pri ate
Every body
Ġfamil ies
Ġescap ed
c are
l ittle
s ix
an ed
Ġk itty
ĠM i
Ġcan non
Ġv ot
ost on
uc ed
Th ink
Ġcent ral
Ġnews paper
ĠX X
Ġlock ed
Ġeffort s
Ġmat ches
Ġtrad ition
Ġshad ow
Ġfart her
A H
is n
Ġc ig
Ġse es
ĠB ay
Ġup per
ab out
ĠL ong
ist an
ag n
Ġtalk s
Ġcomp let
ĠY orkshire
iv ity
Ġdes ert
Ġhard er
Ġele cted
Ġtre m
Ġconc ent
ipp er
iam ond
Ġhop ed
Ġadvent ure
am in
ĠM ill
ĠM il
Ġmin or
Ġfar mer
Ġcol our
Ġinst ance
Ġcheck ed
ĠRuss ia
F OR
O ver
g ent
m at
p ress
w yn
Ġw ire
Ġst omach
ĠA yl
um a
ĠP orter
ĠF re
ĠR ock
Ġcon clud
Ġv ast
ose ly
we et
Ġpr on
ĠSt anton
ons ense
Ġhouse hold
Ġdist inct
Ġpers ons
Ġcons ult
Ġpull ing
Ġmur m
Ġbow l
Ġjack et
Ġsuff er
Ġdread ful
ĠAyl mer
A C
A CK
M ore
i ge
n ic
Ġb ump
ar ing
ol ic
ĠJ er
ĠO UT
What ever
Ġbr ings
Ġfield s
Ġfort un
Ġpir ate
ĠChic ago
Ġsurr ound
ĠRo ad
z ing
Ġs ang
on i
Ġc y
le ction
Ġal arm
Ġgr ant
Ġdes erve
Ġpers u
Ġter rit
Ġkill ing
Ġinter n
ĠPe ople
ĠPr ince
Ġequ ip
Ġinno cent
Ġdun no
ĠBat ala
N ew
d ro
n ament
r ough
Ġto m
Ġg e
Ġu gly
ĠC OM
ĠT im
so ft
pl ane
Ġpre m
ĠSt ep
ah ul
Ġamong st
Ġburn ed
Ġvict ory
Ġcompet ition
Ġmanage ment
Ġoblig ed
Ġadmin ist
o very
Ġc ents
Ġd ish
ic ated
im it
ĠC AN
th ur
um m
ĠW ashington
ĠL os
Ġwor n
ĠR alph
Ġcl oth
Ġro pe
ĠK im
Ġpre c
Ġfour teen
ĠAn ne
Ġgrand father
eth ro
bl ue
Ġfle et
Ġexec ut
B UT
Ġa ward
Ġcon qu
Ġag re
Ġar med
Ġaf fection
Ġun f
Ġpart ly
Ġmark ed
Ġadm it
Ġspir its
Ġstrugg le
Ġbal ance
Ġstol en
L uc
s ilver
w are
Ġb one
Ġb ones
Ġo oh
at a
ĠM ax
Ġshe et
ĠL ike
Ġwhen ever
Ġgu ide
eak ing
Ġstand ard
Ġref used
ative ly
Ġattack ed
ĠAdam s
Ġhig hest
ĠItal y
Ġemer gency
Ġdise ase
A G
Ġthe ory
Ġb on
Ġd iss
Ġf aster
Ġp ure
Ġe astern
st ers
ĠM ur
Ġshe d
ol ph
ĠJ erry
os ity
act or
Ġpr ide
Ġcont ribut
Ġ200 5
Ġserv ants
Ġsister s
Ġheav ily
Ġrequ ired
arr ass
Ġdru g
Ġcit iz
a a
h ta
Ġw ow
Ġb ot
Ġo o
Ġd ump
Ġto ss
Ġl ately
am ie
ĠS H
Ġas hamed
ĠA ny
ĠH a
Ġdes cend
Ġexp ensive
Al though
Ġsuff ering
ĠSecret ary
P oor
t w
Ġb unch
it ure
an cial
ic ing
Ġse lected
ĠC ast
ĠP ays
Ġsp eaks
Ġex ha
ven ue
ĠE arth
Ġhand ed
ne e
Ġhel ps
Ġche ap
Ġcha in
ĠBe cause
Ġmain ly
Ġprot est
Some one
Ġspl it
Ġperfor med
ĠHay den
Ġsche me
Ġmagaz ine
is ha
or med
ro se
ĠP L
ĠP lay
el ia
ĠL ie
Ġbo ld
Ġdis hes
do or
Ġthrough out
Ġche eks
ream s
ont in
Ġinst r
Ġaw ake
Ġpri or
Ġoper ation
Ġcre ate
Ġcapt ured
oph ie
ĠRem i
T urn
f rom
p ot
v est
re ls
Ġf ed
Ġl osing
ri g
ĠS omet
ĠA ust
Ġr hy
Ġso cks
un ning
ĠW HAT
ĠE r
ang ers
Ġke en
Ġcont ent
ĠCh ief
Ġdr ama
stand ing
Ġdri ven
Ġ18 8
Ġcirc us
Ġcurrent ly
Ġvol ume
Ġintro duced
Ġperm ission
Ġdoc ument
Ġgir lfriend
Ġentr ance
E P
u ction
Ġb en
Ġto ile
om s
at hy
ic ide
ly n
Ġan no
ĠA ileen
ĠP o
ĠG ames
Ġsp in
Ġsp ect
cc a
Ġcr own
Ġres cue
Ġmin ister
Ġmark s
Any thing
bs olutely
ĠMc Glory
ĠKore a
Ġdesper ate
ĠDav is
d r
p o
w ar
or ge
Ġp ardon
am ps
ĠB oston
Ġj ew
Ġpl us
ĠR es
land s
Ġball oon
Ġsix teen
Ġid iot
Ġsub st
ok i
Ġdro ps
ĠTh ree
Ġgrand mother
Ġsto le
Ġspend ing
ĠBrit ain
Ġneighbor hood
b ird
u ated
Ġb ub
Ġto es
Ġl it
Ġin cl
et ty
am ily
ĠM osely
ĠS ure
ĠS ara
Ġse ats
Ġnot es
Ġso fa
th ink
rom er
ĠL I
ud ge
ĠV an
How ever
Ġset ting
pect ed
Ġbas ically
Ġpull s
An other
ĠSp ain
ĠCan ad
Ġdisapp ear
rat ulations
Ġscr atch
U p
c oughs
m et
o llow
z ed
he ast
Ġp ages
ĠA S
ĠA nt
ĠD ON
ĠF R
ĠL ilian
Ġgot ten
Ġqu een
Ġlet ting
Ġgu ests
Ġsha king
ĠYou ng
Ġsw ord
Ġless ons
Ġdem on
ek aboo
Ġpolic eman
Ġepis ode
B oy
e v
m ond
t ure
Ġt u
ha d
Ġb ay
Ġf ence
Ġp ushing
ri f
ous ers
Ġar ch
Ġfl ung
Ġfl ash
ĠU N
Ġgi ant
ib i
Ġbox es
Ġtra vell
Ġpur cha
Ġwin ning
Ġadm ir
Ġdisapp ointed
ĠGeorg ia
Ġequip ment
A meric
g ment
g iggles
Ġp owers
ic ulous
ĠS qu
ĠB ed
ĠB est
ĠH ill
Ġsa le
ack er
ho le
Ġthr ows
Ġrem ains
ĠV irgin
Ġsw all
Ġ199 0
Ġ198 0
Ġfail ure
Ġregard ed
Ġemb arrass
Ġactiv ity
ĠColl ege
H as
L ast
O ut
Ġg le
ke ys
ĠS oo
Ġse m
Ġse ized
ĠB illy
ĠW al
ĠP re
ĠL E
Ġ20 00
Ġcountry side
Ġexpl an
Ġtre mb
Ġpresent ed
Ġty p
Ġmis erable
Ġtick et
Ġincre ased
Ġbrief ly
Ġimpro ve
b on
b ar
Ġm ouse
ing le
ed ing
ac le
ly ing
ĠB rian
ĠH ome
ĠH olly
ĠW OR
Ġpl astic
ĠG reek
ĠL ight
ra w
Ġun e
Ġboy friend
Ġapp ointed
Ġbel t
Ġown ed
Ġacc ess
ĠAr my
Ġchair s
Ġprom pt
Ġreport ed
Ġvill ages
Ġmicro phone
E l
F our
M ost
ou g
Ġwe alth
se ll
ĠP ir
ĠD iv
ĠD ada
ort ed
od d
ia lect
âĻ «
Ġwar ning
Ġrel ie
Ġhur ts
Ġdec or
Ġsub m
Ġsweet heart
Ġprotect ion
Ġhol es
Ġarr anged
Ġsucceed ed
e ys
i pping
t ic
it ar
Ġm ood
Ġc ats
Ġd oo
Ġg reet
Ġwas hed
ĠM us
ĠB on
ĠT w
Ġab and
ĠF irst
Ġsec ure
Ġgl anced
Ġdist ant
Ġposs ession
Ġless on
Ġbull et
Ġprodu ce
Ġhous ing
Ġcand y
Ad am
I AN
Ġb ore
Ġwas hing
Ġas h
um ph
ĠF ar
Ġgr at
ĠK elly
pl ess
Ġun able
Ġun com
ĠU P
cc ording
int end
ĠY e
Ġnight s
Ġbus hes
Ġï¿½ ï¿½ï¿½ï¿½ï¿½
Ġmus ical
Ġland ed
Ġbec omes
Ġem otion
Ġreport s
Ġbase ball
Ġpill ow
Ġfal se
2 2
F in
S er
c ies
z o
ĠM ia
ĠS C
ink y
ĠJ ake
ĠL ove
Ġpart ies
ĠU h
Ġsc are
ne ath
ĠBe fore
AM E
ĠĠĠĠĠĠ Ġ
Ġconst ruction
gy pt
Ġarri val
Ġcompan ies
Ġdelight ful
cul iar
Ġconnect ion
c orn
Ġm aid
or ious
Ġp itch
Ġg ri
Ġth irteen
id ays
im p
Ġre ar
Ġan ger
ĠS av
ea v
ĠC atherine
ĠW ood
Ġgr ay
iss a
int on
ru b
ĠY ear
Ġmight y
Ġmind s
ertain ly
Ġappro ached
Ġfro gs
Ġroll ed
Ġcharac ters
Ġwa ves
Ġpig s
Ch rist
Ġprin cess
Ġextreme ly
c ase
Ġt ip
Ġw ipe
re k
Ġb order
Ġd ialect
Ġl t
Ġre nt
Ġme as
Ġj oint
Ġcom mer
Ġgu id
Ġcomp os
Ġch oo
Ġcont est
Ġcomm un
Ġent hus
ĠWill ie
Ġbene fit
Ġglass es
ĠBert ha
ĠTurk ish
Ġenthus i
b elt
u it
Ġs igh
Ġd er
Ġf est
Ġli br
Ġde but
ul ate
ĠD uring
Ġcon cl
Ġex ceed
ĠE gypt
Ġpe culiar
Ġhapp iness
Ġim pl
Don ald
Ġcons cious
ĠAmeric ans
Ġbas is
Ex actly
Ġda ily
Ġconsider able
ĠSc ott
Ġsell ing
ĠRichard s
ĠChi ld
Ġfol k
Ġadvent ures
Ġmix ed
J esus
S hall
b ury
c od
p hew
r ison
es h
Ġbe er
il ight
Ġr ank
Ġam end
ne w
Mm m
less ly
Ġexcept ion
ALL Y
Ġcollect ion
ĠSch olarship
ĠMat thew
ĠLab our
Ġfreed om
Ġtoile t
D ear
H ar
S ha
Ġw icked
Ġf acing
en ess
Ġin come
im me
Ġan ti
ĠH art
Ġwhe els
ĠL ola
ive red
em on
Ġpro spect
Ġun it
Ġch ose
Ġcomm itted
not hing
Ġmet al
Ġtre asure
Ġstick s
Ġwat ers
Ġ196 0
Ġinterrupt s
ĠBur ton
C aptain
L ittle
Ġt ale
Ġw ishes
Ġc oun
ll ed
Ġp ressed
Ġp iano
Ġn omin
ac ious
se c
um es
ag ue
anc he
ib ly
Ġsound ed
âĢĺ _
Ġph r
Ġph il
ĠAr t
Ġtra ffic
Ġ200 4
who a
Ġpur s
Ġrepl aced
Ġstrong er
Ġbear ing
ĠEl izabeth
ĠAfric an
urs day
Ġcloud s
Ġunus ual
A ren
B ack
D amn
a ft
u ries
Ġt empt
Ġn uts
ri al
Ġse ated
Ġsh y
ĠP h
ĠP an
ĠD et
ĠL in
ĠN ick
ĠE mp
ĠO ther
Ġlo ad
Ġbeg un
Ġsw ept
ĠBe cky
Ġthousand s
Ġinclud es
eng ers
Ġdet ails
Ġpot atoes
Ġorigin ally
Ġcond itions
C om
E M
g i
Ġc ounter
Ġd uh
an ks
Ġn est
Ġh ills
ro s
ĠS A
ĠC om
Ġher s
Ġtr ousers
we re
Ġapp eal
Ġsl ip
Ġ3 1
bo at
Ġlangu ages
lem n
ĠAnge les
Ġcondu ct
Ġindust ry
$ =
o ons
r as
Ġw re
Ġw ings
on ies
en ne
Ġth rill
Ġre view
Ġfor b
ir a
st one
ĠS un
ĠS anta
il i
Ġso lemn
ĠP ers
Ġjust ice
res p
Ġus eless
Ġsp ark
Ġro de
Ġbl owing
Ġch ick
AN K
Ġpass age
Ġste el
Ġstud ent
ĠAt l
Ġty pes
Ġarri ve
Ġdeb ate
Ġrevol ution
Ġachie ve
Ġincred ible
E m
y ard
Ġa ye
Ġd ull
as a
ĠB ord
ĠG irl
ak a
use um
Ġle gend
Ġun ex
Ġke ys
Ġold est
ĠV al
Ġrec ent
OU R
Ġac id
Ġrep ro
IT T
Ġsqu ir
Ġtrans l
Ġsal t
Ġgold en
iff s
nes day
Ġnea rest
Ġtroub les
Ġshel ter
Ġfeat ures
Ġmyster ious
Ġpregn ant
B ig
O pen
b our
ing ing
Ġre aches
ĠB aker
ĠP lease
ck ing
ak i
Ġlo ft
Ġbr ace
Ġdis play
Ġsl ide
IN D
Ġsw ear
Ġfr ame
Ġimp ression
ok es
Ġste ady
umb ling
Ġsatisf action
Ġrom antic
ĠCamp bell
" ]
M ark
R OU
W elcome
b or
g abr
s an
Ġ x
Ġd iamond
Ġp izza
Ġin ha
Ġit ems
ver ing
Ġst out
ĠS U
Ġli qu
ĠC ons
ĠH annah
Ġab ility
Ġal tern
Ġint ense
Ġhel pless
IN E
Ġsupp l
ger y
go es
ĠGr an
Ġdiv ision
Ġleg al
ĠSc ot
UN T
Ġaff airs
Ġrefer red
Ġoccup ied
Ġwhist le
Ġrestaur ant
4 0
F ive
S O
T ON
g t
t ies
Ġb att
is er
Ġp ipe
ay ne
ĠN O
ven ge
âĢĿ .
Ġun ion
Ġdis ag
Ġcha se
Ġlad der
Ġdoll ar
Ġcook ies
Ġill ness
Ġda wn
Ġcal cul
Ġz oo
Ġbelong s
Ġban ks
Ġsour ce
Ġresour ces
A pril
d ale
h u
i ents
m ine
Ġs am
er k
Ġb isc
Ġc anton
Ġl amp
ic hes
Ġk m
ĠB a
ain e
Ġne phew
ĠW as
Ġcon vin
ud den
pt ions
hes s
Ġ200 2
Ġdet ect
Ġnecess arily
Ġrid iculous
Ġinterrupt ed
Pro bably
Ġmurd ered
Ġintern ational
A bsolutely
P re
w alk
he red
Ġa rose
Ġs ink
Ġg ain
al i
Ġre ward
Ġst iff
The ir
ĠS al
ĠS erv
ĠA wards
ĠC reeks
Ġmy stery
ĠP ri
ĠG il
ĠG abriella
ĠR od
Ġfe ver
ren ces
ĠCl ar
Ġappro aching
Ġappro priate
ipp i
ĠMex ican
Ġmut tered
Ġrelig ion
B Y
E h
o ves
p ush
w a
Ġt rop
Ġb id
ar l
al ing
ĠS outhern
Ġas semb
Ġr is
Ġr ag
Ġr ude
ĠF ire
ĠF air
Ġsp osta
Ġro les
be cca
ict ed
Ġfind s
Ġatt itude
Ġsupp ly
Ġthank ful
Ġexpl os
Ġcra p
Ġdress ing
Ġlead ers
Ġexpect ing
Ġfore ign
Ġrecord ing
ĠKing dom
Ġclim bing
Ġlim ited
Ġplat form
ĠIr ish
2 5
G O
f oot
s que
t alk
u ct
Ġt ack
er ous
ĠC ompany
Ġro yal
Ġunder neath
HE N
Ġcr is
Ġcha mp
Ġnice ly
Ġfin ancial
unt s
Ġ200 3
Ġbuild ings
Ġsal es
ean while
Ġproceed ed
Ġmere ly
Alex ander
Ġbast ard
Ġlibr ary
S C
b an
b ling
r ated
Ġw ard
hat i
ro g
ĠS ummer
ĠW ed
qu ar
Ġno ble
the less
Ġwork ers
Ġsomet hin
Ġpr oof
Ġass ured
Ġland ing
Ġvis ited
Ġdiv ided
Ġdesign ed
Ġble w
ĠGovern or
Ġpow der
ĠVirgin ia
c ream
n ice
Ġt ummy
Ġl amb
ĠM u
ĠS and
ĠS pr
Ġj un
pp le
ĠP en
ig an
ĠO ur
ĠO ak
Ġint ellig
iss ippi
Ġkind ness
Ġdra g
Ġchar ges
Ġimp ati
Ġexp ed
fort able
Ġlaw s
Sh it
omp an
Ġbelong ed
Ġviol ence
Ġcheer ful
ĠEli ot
ĠFranc is
Ġunex pected
g bark
n or
w an
z er
Ġw itch
Ġb in
ut ies
ĠM all
ĠT er
Ġpl ot
ĠJ ess
Ġv ig
Ġle ather
Ġ( ;
Ġun if
Ġun happy
ru ct
pe cial
Ġapp les
Ġch uck
Ġfollow s
Ġdri ft
Ġconf ident
Ġcur tain
Ġauthor ities
Ġver b
ĠWilliam s
Ġdemand ed
Ġphys ical
ĠGovern ment
Ġfoc us
Ġpron oun
D uring
J im
W ant
c a
e ight
Ġt ank
Ġa st
Ġs ought
her s
ĠA sh
ĠW ould
ard o
Ġcon ference
hi a
Ġen c
Ġsc hed
ip ina
Ġpol ite
Ġele v
Ġexc han
Ġtrain s
ik ander
Ġshout ing
Ġremain ing
ĠBra z
ĠRel iance
Ġcig aret
g reen
u able
it able
Ġm ama
es cue
ad d
Ġst ove
Ġme asure
th row
ĠR ay
Ġv ic
Ġgu ards
Ġacc ord
Ġfun eral
Ġreturn ing
Ġtra ve
Ġimport ance
Ġclean ing
Ġappear s
Ġcost s
Ġprison ers
Ġteacher s
Ġprodu ction
Ġdiscuss ion
Ġintrodu ce
6 0
n am
p ull
t oo
t oy
re nd
Ġb ul
Ġto oth
Ġp ic
Ġl at
at re
Ġh ug
ĠM ass
Ġse qu
ĠH on
Ġr ust
Ġr ider
Ġde er
ry ing
ĠF e
ĠE v
ne ver
ars on
let on
ues day
Ġ6 0
An ne
Ġcreat ures
Ġmer ry
Ġviol ent
ĠMer rim
Ġgar age
ĠWind ows
Ġrout e
Ġarg ument
ĠCong ress
Ġcomplet ed
L ife
c les
p ing
Ġt in
Ġc ouch
Ġd ug
Ġf etch
Ġbe lly
Ġe re
ea u
ĠC romer
Ġr age
ĠW estern
ĠD is
ig ger
Ġen qu
Ġun known
Ġdis g
Ġfact s
ĠAr thur
Ġwin ner
Ġsweet ie
ĠRe ally
ĠPro v
Ġbur den
ĠComm ittee
Ġextra ord
ĠGrand ma
point s
Ġchem ical
ĠSus an
ĠLat in
, ...
[ $=
s qu
u y
Ġw ret
re fers
Ġc ord
Ġg rey
Ġst ared
Ġme chan
ĠG ar
ĠF oot
Ġint ention
Ġco ck
Ġ19 0
Ġpo inting
Ġmo b
Ġmust n
gg er
Ġeat s
ĠMiss issippi
ï¿½ï¿½ ï¿½
Ġmid st
Ġconst ant
Ġmer cy
ĠOn ly
IC E
dd ed
Ġring ing
Ġorgan ization
Ġcand id
Ġwarri ors
Ġindepend ent
b oo
o an
w ick
Ġp ond
ĠI m
Ġhe ight
Ġdo ctors
âĢ ķ
ĠT an
ĠW acker
ĠD a
ĠJ UST
ĠJ ethro
ĠE ric
Ġlo ver
Ġcl ap
Ġreal ity
Ġdr ank
Ġconf usion
Ġserv ant
Ġmist aken
Ġdistrict s
Ġcompl ain
Un cle
Ġport ion
Ġpossib ility
ĠSu per
het ti
Ġrelig ious
Ed na
ĠMic key
Ġconclud ed
ĠCanad ian
B C
I X
L ING
b ie
c ow
Ġn onsense
Ġan al
ĠS ob
ĠT ell
ĠN et
ĠO nce
ag le
We re
iss ed
Ġco vers
av y
Ġhead ed
ret t
Ġob tained
Ġbelie f
Ġret ire
Ġdec ent
Ġimp ress
sh ine
Ġext ended
ĠGr ace
erv ation
Ġabs ence
Ġvisit ors
Ġlim it
Ġcow boy
Ġcray ons
Ġcrit ic
Ġuncom fortable
H ang
T ime
f in
s a
s ho
Ġp ace
Ġl ink
Ġth ief
all s
ĠC ho
ĠW hile
ĠD un
ĠD ever
ind er
ĠSt and
Ġapp lic
Ġend eav
Ġcomm ander
Ġdra ft
Ġri bb
put s
ĠJap azy
uk i
com ing
Ġpack ed
Ġfool ish
mit age
Ġthreat ened
rem ember
whis pering
ĠCent ral
Ġpun ishment
igs aw
Ġpatter n
Ġinha bit
w en
w ers
Ġd om
ĠI ll
ut ation
Ġre v
ĠS l
ĠN as
ĠN ever
Ġnow here
Ġsm iles
Ġte aching
Ġact ed
Ġlea f
Ġbu ying
AT E
Ġair plane
Ġjump ing
Ġclim bed
Ġtor n
AU GH
Ġresol ution
ĠLaw rence
Ġveh icle
C C
D O
H OR
M any
Ġw oke
Ġb ishop
Ġc ode
Ġo cean
Ġha l
se ven
ĠS how
ĠA li
il st
Ġr ac
ĠP ac
Ġwant ing
em e
Ġun iversity
Ġthr ust
Ġstr ict
ĠAr mitage
Ġsub s
Ġattack s
uri ous
Ġtrack s
Che ck
ĠAB OUT
C ol
S ec
X X
o is
u ate
Ġd umb
Ġl ou
Ġbe gged
ac ity
Ġst able
ĠM et
Ġnot ed
ĠA D
Ġer r
Ġfl u
Ġchi ps
Ġchild hood
Ġch um
Ġdra gged
Ġconf ir
Ġhundred s
Ġfriends hip
Ġpain ted
Ġins isted
Ġstud io
Ġrecord ed
Ġest im
ĠWar ren
kiss es
vocal izes
udden ly
B ER
B ring
T ony
b ud
b age
g iving
Ġw ip
Ġm ast
Ġc reek
Ġd ies
ad ies
Ġli f
Ġsh ining
ĠL it
od es
end ous
Ġpr ince
Ġcha mber
Ġind ign
ĠEd ward
Ġsleep y
Ġadd ressed
Ġconf l
Ġconf used
CH AR
ĠCl ub
ĠCar ter
Ġmid night
Ġbreat hing
Ġ197 0
ĠSw ed
Ġham mer
ĠDem ocratic
Ġcott age
Ġcomr ades
2 4
B oth
C o
E arly
S uch
a way
h um
Ġs ank
Ġf eared
as ant
Ġit em
am an
ĠH end
ain ted
Ġno dded
ĠG arth
ĠR ose
Ġro ast
Ġatt ached
let s
Ġob st
OR T
AR Y
ĠAs ia
Ġsto pping
asp berry
Ġeffect s
Ġtreat ment
Ġtick le
ĠNot hing
Ġhol idays
play ing
Ġnatur ally
Ġfaith ful
Ġamend ment
ĠDever ing
2 3
H appy
M aggie
N E
U E
k o
er am
Ġm ac
Ġc am
Ġy er
Ġy um
Ġth irst
ĠA be
ĠH ol
os op
ĠL ower
ĠK y
Ġpo le
Ġrem ove
Ġcap able
Ġkid na
Ġaw ait
Ġdin ing
AS E
Ġeng ines
ĠPar liament
ĠAb out
Ġanx iety
Ġconnect ed
Ġgrad ually
Ġinj ured
Ġcult ure
Char lie
Ġfurn iture
ĠRuth ven
Ġapolog ize
Americ an
2 1
; "
B R
J ane
R un
U nder
W ar
f ire
ou ri
Ġf are
Ġhe ap
Ġha y
ac on
ĠM ars
ĠS ince
ur bed
ĠB aby
ig hed
ian a
ci a
Ġpass engers
Ġdisc over
Ġhor ror
Ġsy mb
ĠPr ime
Ġdeep ly
Ġsafe ly
Ġcapt ure
Ġprep are
oos a
Ġassist ant
Ġinvestig ation
bre ak
k rain
Ġt ables
le g
ea ut
Ġwh ilst
ĠR ec
ĠR olan
Ġcon ver
Ġsp ots
Ġany how
ap h
age ment
ass es
har t
ens es
Ġob vious
Ġsum m
Ġadm itted
Ġce ased
Ġpolic ies
IC K
Ġking dom
Ġwhis per
Ġbud dy
pret end
Ġrespond ed
ĠGold en
yell ow
Ġthorough ly
Ġmig ration
Ġterrit ory
C omm
H oney
O S
P hil
W ELL
_ ;
n ut
n ge
p icks
r ul
s l
t op
v ant
Ġw olf
Ġc ows
Ġto x
Ġh un
Ġbe ars
ĠC L
ĠC ath
ĠB ook
Ġj olly
Ġyour selves
Ġup side
Ġde ce
ĠD es
ĠL ang
ra h
ĠR ich
can ora
Ġpres ents
Ġfr ank
Ġass ume
Ġfact ory
ĠAr m
Ġplan et
ĠAs ian
ĠTom my
ĠIs a
Ġshar k
Ġlevel s
ĠDan ny
ĠON E
stit ute
Ġextraord inary
P ol
V I
y y
y ay
Ġs ings
Ġc akes
Ġd u
Ġp ud
Ġg azed
Ġl ic
om i
et tle
Ġre ference
ir ts
ĠA L
ĠG ET
Ġtr ace
Ġen orm
Ġun its
HI S
Ġfl ood
Ġsc en
Ġim it
ĠSt ill
ict ure
ump y
Ġmar ch
Ġexp ressed
Ġref ers
Ġdef ence
Ġprof essor
Ġworth y
ĠDan iel
Ġkick ed
Ġmem ories
Ġbuck s
Ġstro ke
ĠFort escue
Ġstret ched
B essie
C are
S am
e ven
i ries
n is
Ġ 0
Ġs ons
Ġs well
on ia
Ġm al
Ġg rief
Ġg abr
al m
ent ine
if ts
ol k
ĠF ox
Ġv oy
hing s
te xt
ĠU p
Ġcomm it
Ġacc ompan
Ġob tain
Ġdist ingu
Ġret reat
Ġwood en
Ġstar ing
Ġquar ters
Ġpack age
Ġlab our
Ġhealth y
Ġrepresent ed
Ġign or
Ġaffect ed
Ġwra pped
Ġphr ase
ĠBord en
: --
A F
B ill
G R
P L
P ardon
f irst
g irl
Ġb ord
Ġp ist
Ġth under
Ġbe ating
ac co
ur d
ĠL u
ak in
int s
Ġsm oking
Ġcomp lex
Ġatt ended
Ġcons ist
Ġred uced
Ġins ist
iver se
Ġdescri be
Ġhast a
ino is
ustom ed
Ġphot o
Ġarrow s
keep er
Ġsignific ant
Ġpil ot
ĠPak istan
ĠWed nesday
b ro
g ie
m aster
s w
v iet
Ġw ars
Ġs ession
Ġm ental
Ġd irt
Ġg ym
Ġl aughter
et a
ĠA ri
un te
ĠR ome
ĠN ancy
ous ed
Ġback wards
ĠU rs
Ġch im
Ġlea gue
Ġbus h
Ġwar n
Ġass ault
Ġdep ends
ĠAs soci
Ġste am
Ġroad s
Ġprov ision
Ġ199 7
Ġroll s
Ġru ined
Ġpig gy
Fr ank
Ġneighb our
ĠCent er
spect or
dra w
ĠOlymp ics
ĠWil son
eaut iful
2 6
B LE
C ong
E CT
I nt
b i
c at
m ate
t es
he ther
Ġd ared
Ġf ires
ar ant
Ġre nd
ĠM ag
ĠM olly
ĠS O
ĠS ax
ĠC hat
ĠC am
ĠP ipina
ol and
nt il
Ġbl ows
ĠBr ooke
Ġbed s
Ġchar ged
Ġgener ous
Ġlead s
Ġpen ny
Ġterri bly
Ġtem por
Ġannoun ce
Ġtechn ology
ĠSer geant
Br other
Ġaud ience
rin ini
Ġproduc er
Ġcomed y
Ġsuffic ient
ĠSob rinini
ĠHend erson
! âĢĻ
A pp
Ġb ond
it ched
Ġc ries
Ġl ux
Ġn atives
om er
ic op
Ġk il
ĠS har
ol i
Ġsc ri
Ġmo le
Ġcomp ared
ons cious
Ġchan nel
Ġche w
Ġear ned
Ġins urance
Ġfif th
Ġloc ation
Ġart icle
Ġconsider ation
Ġgrow th
ĠCo ch
Ġsepar ated
Ġfier ce
ĠPac ific
J oseph
M Y
k ind
l ah
in ity
nd ed
Ġo bey
oo ja
ur g
ĠH ond
Ġr ice
Ġr ug
ab el
ink ie
ĠP ost
ĠP oint
Ġpro s
ĠV is
row s
St and
Ġ18 4
ĠSo ciety
Ġ199 9
Ġclass es
Ġill ustr
Ġexper iment
Ġrain ing
Ġwa ist
Ġcow ard
Ġsol id
Ġbene f
ari us
Ġdesp air
Ġsen ior
Ġrecomm end
ĠCast le
Ġash ore
V EN
b in
r ound
Ġt ide
it an
Ġm our
Ġd ough
Ġp ier
ar med
us ie
Ġat h
ĠC y
ĠĠ ĠĊ
il ton
ĠT ake
Ġno isy
est ion
ĠF ield
Ġex act
Ġag es
Ġlo yal
Ġtr actor
Ġgood bye
Ġfe e
Ġgr im
Ġbl ast
Ġpart ners
Ġsc ale
pe ople
Ġsl a
ret ty
Ġsit es
az z
unt ed
ĠJohn son
Ġ200 1
Ġshort ly
Ġreason able
Ġstrong ly
Ġrecord er
de rer
Ġbag s
AY S
Ġpu ppy
ĠLuc as
Ġloud ly
Ġcontain s
Ġsevent een
Rem i
Ġtemper ature
ĠDep artment
Ġconvin ced
Ġinhabit ants
G e
O k
S ix
i ven
p art
u als
ĠA ng
ĠC ooper
ĠB Y
Ġr ushing
ĠD u
ĠD en
Ġcom ments
Ġv irt
ĠE lo
ĠO ver
ag ain
Ġ[ ?
ĠK night
Ġwhere ver
uc lear
Ġcle ared
Ġinst it
Ġinst inct
Ġimp ressed
Ġspeak er
Ġ199 4
col n
Ġtouch ing
Ġsuggest ion
Ġla un
sc reams
Ġut tered
ĠSha gbark
ĠEll ie
Ġcad ets
Ġenvironment al
Ind eed
uf act
3 5
H al
I VE
l ast
n i
p ur
r ots
t om
Ã ¦
Ġl os
ad al
ĠM aybe
ĠT all
Ġcan oe
ck ets
ĠG un
ist ics
ĠN orthern
Ġman ufact
uck ing
per or
Ġrec all
aught ers
Ġfun ction
Ġri vers
Ġunderstand ing
Th omas
Ġbas ic
AS T
Ġfig ured
Ġ199 5
ĠMay enne
Ġcross ing
Ġjour nal
Ġpray er
Ġacqu aint
Ġdeg rees
Ġsurr ounded
Ġhesit ated
ĠEmp ire
ĠIll inois
2 7
9 9
D ada
E X
R el
j ac
r d
Ġt iss
Ġw oof
Ġc age
Ġd ude
an i
ar se
at tered
Ġhe e
Ġhe els
im ately
Ġsa uce
ul se
ĠP enn
ĠD ire
ĠR us
ag ger
ci pl
ĠU krain
ĠMiss ouri
amp ed
OR Y
Ġdep end
RE AM
Ġsun shine
ĠPhil ip
Ġtick ets
Ġstore s
ĠPat rick
Ġfirm ly
ĠAustral ian
icy cle
ocr acy
Ġcitiz ens
Ġunif orm
ĠNas canora
E F
P eter
c est
d ri
n ame
u j
y ed
Ġt ha
in ated
Ġw ing
it ors
Ġf aced
Ġg est
Ġgo sh
ĠC T
ĠH ot
Ġmy th
ĠT uesday
pp ose
ĠW omen
Ġpl ung
ĠF il
ag hetti
Ġfe ather
ĠK ansas
hen s
Ġmother s
Ġgl orious
fect ure
OR E
Ġperson ally
Ġposs ess
cri pt
Ġgreen belt
Ġabs olute
Ġmis chief
Ġshar ply
ĠJoe y
Ġimag ined
Ġsol ution
ĠRand olph
Ġinstru ctions
Ġcrim inal
ĠLie utenant
ĠLI KE
Ġexplan ation
Ġbrace let
ĠElo ise
C ertainly
T oo
g un
l am
o ard
v y
re c
Ġb ored
Ġg rie
Ġh om
im um
ri ger
am as
ĠB ear
il k
Ġso ap
os ition
ĠO ff
Ġqu ant
ree ze
Ġpe ep
Ġday light
Ġsc rap
Ġcar pet
Ġdis aster
OU S
Ġdoor way
Ġele ment
ĠEd ric
EN D
Ġcut s
Ġtrain ed
ĠSo viet
Ġstud ies
Ġho ly
Ġclot hing
With out
Ġsupport ed
Ġhop es
Ġval uable
Ġevent ually
hel p
Ġdescri ption
Ġvol unte
Ġrub ber
whis pers
Ġcad et
Ġsymp athy
Ġtrem endous
5 00
C I
M on
M art
U P
b ag
j ack
r ont
s k
u its
in ate
Ġb und
Ġd uties
Ġy ield
Ġn ut
ri ly
st ick
Ġj igsaw
han e
qu es
ĠR ad
ĠO ut
Ġbr icks
Ġ[ _
ew is
Ġte en
Ġch in
Ġchan ces
Ġsur gery
Ġdec isions
Ġinst antly
did n
Ġconst antly
Ġmist ress
Ġsal ary
Ġpu pp
athe tic
Ġhast ily
Does n
Ġbutter fly
Ġdelic ate
Ġscream ing
Ġexist ence
Ġaddition al
Ġdistribut ed
Ġbatter y
Ġadop ted
Ġange l
cod ile
nge un
S how
j amin
Ġw ander
Ġb ust
ll ie
Ġp ed
Ġha ul
Ġe cho
st ill
ĠM AN
ĠM obile
ĠS P
ĠH IM
um ption
ĠD ave
ĠL isa
hi gh
HE RE
Ġcha llen
ĠBr id
ott a
Ġent ering
Ġans wers
AR S
Ġinterest s
Ġ18 5
Ġdisc overy
Ġhat ed
ĠHar rison
Ġste ad
ĠTh ursday
AP P
Ġsn akes
Ġcook ie
Ġenjoy ing
Ġest ate
Ġgod s
._ ]
Ġphot ograph
Ġvessel s
Ġprinci pal
Ġsav age
Ġfant astic
Ġconfir med
) }
A unt
C L
H y
Y S
b al
e z
l ove
w orks
in em
Ġc ors
Ġf asc
or i
Ġl an
Ġhe n
Ġbe w
im m
ad or
ĠT IM
pp ers
el ing
Ġfe ast
Ġro ar
Ġgr in
pt on
Ġun like
Ġfl esh
ĠU nder
Ġres ident
Ġbel oved
og ue
ER E
Ġcount ing
ys is
ĠTHE RE
Ġcol ored
Ġref lect
ĠHar wood
Ġstick ing
OM AN
Ġcheck ing
Ġmed ia
Ġ9 0
Ġterri f
Ġsecret ary
Ġclos ing
Ġban ana
ĠPol ice
Ġoccasion ally
ett ie
Ġestab lish
ĠAir port
Ġmurm ured
ĠStep hen
Ġguid ance
Ġdisg ust
' ...
H ad
U D
d uck
he m
en o
ir y
ĠS ol
ĠC ad
ĠH IS
Ġr at
ore n
Ġsh ift
um per
ĠW all
ĠW ANT
ĠG e
ĠL ife
ap ers
ĠE aster
Ġle aning
ud dle
ĠK as
Ġpo ckets
Ġcr ick
Ġstart led
ail ing
Ġcount ies
Ġsw ung
vent ion
RE E
Ġdoll y
Ġmur derer
ĠGu adal
Some body
ask a
Ġcatch ing
ĠLe on
Ġpot ato
Ġrepe at
Ġwag ons
Ġnet work
Ġbare ly
Ġarrange ments
ĠHER E
Ġmagn ific
Ġnomin ated
ĠFoot ball
9 0
B etter
R S
d i
f ind
n ope
p ick
w ind
{ \
Ġ :
Ġ eth
er g
it o
is l
Ġc ough
es ome
Ġg a
Ġh id
Ġh ired
ic ip
Ġr aid
ĠT W
ĠP apa
el ine
ĠG all
Ġcon ven
Ġv en
ĠK ang
Ġlet s
Ġhel icop
Ġsl ipp
Ġrec overed
Ġwar rant
ĠAl ice
ĠAn other
Ġswe at
Ġmain tain
ĠIN V
Ġbreat he
Ġbur nt
Ġsystem s
sy l
ĠRep resent
Ġbless ed
Ġfund s
Ġtroub led
Ġearnest ly
Ġdemon str
ĠCath olic
J ul
N at
m ar
s ung
u ing
Ġt ub
ou gl
Ġb ars
Ġd aughters
Ġf ake
Ġf ederal
Ġre in
Ġas pect
ĠB ye
ĠB esides
ĠD uke
ck er
ĠF ore
ist ry
ĠN a
Ġwho a
Ġbr and
Ġgr asp
Ġam us
te acher
Ġgu arant
cl ose
Ġapp ointment
AN G
can al
Ġnum erous
Ġalong side
Ġtra p
Ġstuff ed
Ġpain ful
Ġisland s
Ġincre asing
Ġbell s
Ġvan ished
Ġproced ure
ste in
Ġexped ition
ĠCoch ran
N or
T en
w art
Ġd ign
Ġto e
Ġth umb
al so
ĠA le
ĠH oll
ul s
ĠG ord
ĠL ar
ĠR oss
ĠR IGHT
Ġgood s
Ġbr ick
Ġun ple
ĠSt r
do g
ĠV er
Ġgl oom
Ġsk ill
Ġref use
Ġdeal ing
Ġ199 6
Ġopp osed
ĠJack son
Ġbull ets
Ġdefe at
mo ans
ĠTe am
Ġcontain ed
Ġdeb t
Ġeconom y
Ġprepar ing
ker chief
ĠLi ber
ĠGuadal canal
ougl as
. =
A GE
N one
b by
i at
i pt
Ġa x
Ġp oo
Ġp ushes
Ġh its
Ġst or
Ġst ated
Ġse as
qu ick
ĠJ an
Ġneed n
ĠU pper
Ġunder t
Ġres c
Ġbu g
up on
Ġ3 5
ins on
mb re
Ġrel ation
ĠAl an
ĠAl though
Ġinf ormed
ĠChrist ians
Ġ199 2
omm od
Ġho llow
Ġequ ally
Ġpract ically
Ġcover ing
ĠDan es
AK ING
Mad am
Ġexperien ced
bel ie
Ġdivor ced
ĠFre ud
Ġconcl usion
F O
b ang
g one
h ot
k ward
m ove
Ġc ooper
Ġg ard
Ġn ations
im ents
ver se
Ġre aching
Ġfor k
se x
Ġj oking
Ġr um
Ġso b
ĠT a
ĠP RO
qu et
ĠJ ud
ĠJ ung
ĠL ane
ĠK i
iz z
Ġcomp osed
Ġact ions
ĠEd die
Ġguess ed
Ġdef ense
ĠCol in
ĠCon f
Ġpuzz led
Ġactiv ities
Ġtour nament
Ġfavour ite
Ġeconom ic
Ġdel ivered
Ġinn it
agu ar
Ġrelie ved
Ġaccompan ied
B esides
C ON
L a
c oh
i os
m ates
er ves
Ġb ol
Ġm ummy
Ġc ups
Ġo ption
Ġd art
or al
Ġp oured
Ġan ch
ea ven
ill ing
Ġr acing
Ġab oard
ab s
Ġpl ates
ĠL ara
ĠR om
Ġad vert
ĠSt ar
ever al
OU N
Ġacc ommod
Ġdist ress
Ġlight ed
Ġinter fe
br ush
sh it
ĠNew man
Ġhor rid
Ġaw kward
ĠGr oup
Ġpoor ly
for ce
Ġvis ible
olog ist
Ġ199 8
Ġfore head
THE R
Ġcolor ing
ĠDr usie
Ġshop s
IGH S
cher s
Ġident ified
Ġpursu it
resp ond
Ġpic nic
B el
H on
P H
T alk
g ro
n at
t ick
Ġ Â
Ġs ack
Ġg asped
Ġin ner
Ġbe ard
ir k
ĠM oon
ĠG ive
ĠF el
Ġv ision
ĠE st
ag raph
ĠHe e
Ġsc ary
irl ing
Ġask s
Ġwr ites
Ġhead ing
ĠV ic
Ġlast ed
Ġbu ff
Ġgl ory
Ġgl oves
Ġkill er
Ġrel ative
Ġimp act
Ġaw fully
Ġcoll ea
ĠCha mpionship
Ġ198 5
Ġ198 8
Ġkiss ing
Ġmer chan
ID S
Ġdirect ions
Ġneighb ors
Ġlab el
Ġkick ing
VER Y
Ġsettle ments
Ġsens ible
Ġstret ch
ĠRand all
ĠRepublic an
Ġsuspic ion
ĠTy ler
Ġproced ures
iffe rent
Ġben ch
ĠBed rul
sque als
Ġconfl ict
ĠAssoci ation
N K
P lay
b ara
c ur
c ount
m ight
w ha
w estern
an n
Ġbe ans
ir s
ĠM ich
Ġan cest
Ġgo ver
ĠC ont
ĠB ang
ĠH ind
ĠT or
Ġsu icide
Ġal oud
ast e
ĠO R
Ġpe as
ci p
ĠY et
Ġchar ming
ex cuse
Ġten nis
Ġ198 6
Ġdet ective
Ġduck s
Ġvisit or
Ġclos es
ĠEm ily
Ġcuri osity
Ġplain ly
wr iter
Ġstat us
Qu ick
Ġant icip
Ġfrequ ently
ĠMerrim an
bud our
lah oma
ĠBedrul budour
2 8
J ean
P S
Ġt ires
on ce
Ġm ars
Ġc ateg
or ous
Ġg re
Ġg al
Ġk ings
ĠM au
Ġas hes
ĠC ur
ĠT ib
ood y
ĠD ID
Ġget tin
ĠF our
ĠF ord
ĠJ enny
ĠL es
ĠL and
Ġint r
Ġle ans
hed ral
Ġun s
Ġrec on
Ġrec over
Ġacc ustomed
Ġmon keys
ĠAr k
Ġrep utation
Ġste amer
Ġdrink s
ĠBen jamin
ik o
Ġsn eak
cri ption
Ġview s
Ġclos et
Ġorgan is
Ġgall eys
Ġslight est
vol ution
Ġcrowd ed
Ġbroad cast
Ġrevol ver
Ġhistor ical
Ġwid ow
Ġmult ip
somet hing
Ġinstr ument
Ġsubst ant
" ).
4 5
O ld
R ichard
p oor
re land
Ġm orn
Ġc ri
Ġc ared
al o
Ġu lt
ĠM m
ĠC elia
ĠB road
Ġint end
Ġlo ads
Ġdis gr
Ġsha red
Ġapp et
Ġapp ly
Ġwar ned
Ġlight ning
ned y
Ġsil k
Ġsqu ad
Ġpar rot
Ġmed al
Ġca uses
Ġpolit ics
Ġpot ential
Ġhop eless
Ġz ero
Ġcop s
Ġcre pt
Ġmass ive
Ġstrugg ling
Ġgrave ly
lem me
Ġattract ive
Ġutter ly
Ġsurv ive
Ġsteal ing
care ful
Ġtremb ling
Ġcommer cial
ITT LE
ĠMall ory
Ġvoy age
B ro
U RE
V ID
i i
t t
v ior
ha mm
Ġp oop
Ġl emon
Ġin iti
Ġn asty
ĠI reland
ld om
Ġwe ary
ri gg
Ġu mbre
ill er
ink le
ĠP a
Ġno on
ĠR ahul
ĠN ich
ĠSt op
Ġwr it
Ġinv ite
Ġhum ans
Ġdisapp ointment
bl ack
Ġlie utenant
Ġsuper ior
does n
Ġlab or
Ġregard ing
Ġhast e
Ġsle e
whis pered
Ġcabin et
Ġvictim s
ĠOk lahoma
ĠMission ary
Ġunfortun ate
ĠSel wyn
ĠIsa ac
K en
M eanwhile
b ish
g ain
h ous
i ography
p re
p ired
Ġto ols
Ġn om
ĠM O
ĠS em
Ġj ar
un o
ook ie
ĠD od
Ġsee king
ĠJ eff
ĠR achel
ĠN ettie
Ġpe an
Ġfl ed
Ġfl ow
Ġfl our
av a
Ġres ign
ĠAnd y
ĠTHE Y
Ġdep th
Ġdep ression
Th ough
ĠCl ara
Ġev ol
Ġra ising
ĠMay or
Ġ197 9
Ġremark able
Ġtest ing
Ġshout s
Ġ195 0
Ġdev oted
Ġpati ents
Ġeduc ated
Ġemploy ed
ĠSE E
Ġcott on
ĠOlymp ic
199 9
ĠStan ley
Ġbutt ons
Ġtransfer red
ĠReg ion
Ġexha usted
ĠSomet imes
Ġaband oned
Ġunple asant
O w
e le
r ace
Ġc ure
Ġd ed
Ġto ps
Ġg orge
Ġh ockey
ot ing
et ime
ac ement
Ġst ack
Ġdo ggy
ĠC ap
Ġsh ove
ge on
ĠD og
ĠD arius
ck now
ol ine
Ġal coh
ra el
ĠN ob
em ic
te enth
Ġpo ll
ach us
Ġim per
Ġstr ateg
Ġacc used
Ġacc ompany
Ġ3 3
AR E
sh h
ĠAn na
Ġconf ess
Ġcry st
Al so
Ġlay ing
Ġca res
Ġsex ual
Ġide al
vocal ization
Ġcraw l
ĠLO OK
Ġfortun ate
rif ice
ĠBon net
quar ters
. [
A w
M at
P r
i able
m ade
n amed
p ack
Ġt une
Ġo k
Ġo ven
Ġf its
Ġn ick
Ġn ails
le ment
im er
Ġst air
Ġst oop
âĢ ²
ĠS ikander
if ully
ĠH AD
ul u
Ġbr u
be e
Ġsc rub
Ġdis cipl
OT H
Ġhelp ful
Ġcha mpionship
Ġset s
Ġacc ur
Ġdri ll
ĠEd ith
sh outs
Ġoffic ially
Ġpri zes
OM ET
RO W
Ġdest ruction
Ġmount ed
rem ony
Ġchap ter
Ġrail way
Ġmagnet ic
Ġliter ally
Ġcontr ast
ĠKen nedy
ĠCla vering
somet imes
ĠBraz il
Ġlaun ched
hamm ad
B ar
P erson
S ame
c os
m ind
Ġc ert
Ġf itted
ĠI II
al ie
st an
Ġse ldom
Ġso il
rom ise
ink s
ĠF le
ĠL ewis
Ġaf t
Ġbr ide
Ġsc attered
ne ed
Do ctor
St art
cle ars
Ġele ments
Ġposs essed
Ġdro pping
Ġstud ying
Ġprop ose
ffic er
ĠMe g
van ia
Ġmor al
Â¶ Â¶
Ġpra ise
Ġproduct s
Ġpor ch
Ġphil osop
ĠProv ince
Cong ratulations
ĠHond ura
1 00
C or
E nd
K e
M ia
O b
P retty
c omm
l ots
Ġs out
Ġn a
ĠM amie
You ng
ĠW es
ĠD ear
ĠD ouglas
ĠF amily
ĠJ un
ĠR h
Ġcon text
ĠN OW
Ġv alley
Ġcl ients
Ġpre viously
Ġcomp ound
ĠV iz
anc er
li est
ĠAnd re
Ġcons cience
Ġinter pret
Ġhor iz
Ġhat h
Good bye
Ġaw hile
Ġill eg
Ġcor respond
Ġce remony
Ġmeant ime
Ġremark s
Ġru in
ĠAb bey
Ġbeat en
Ġproject s
Ġhonest ly
Ġdeli ber
Ġsandw iches
ĠKe ith
Ġprim ary
ĠSen ate
Ġtun nel
Ġbee f
Ġagre ement
ĠLin coln
ĠPers ian
Ġenorm ous
syl vania
2 9
A lf
C ut
m osp
u an
Ġs ou
on ge
Ġc attle
Ġc herry
Ġg ates
ĠI V
et ts
Ġe ld
Ġre venge
ad i
ri fic
ent on
Ġst ress
Ġst ations
ĠW ILL
ĠP R
ĠD own
ig ator
ĠL uke
ĠR oll
ĠE ach
Ġtr amp
Ġam used
Ġpr ime
Ġdra wer
Ġmar ched
Ġcap acity
Ġexp and
ĠCl inton
For get
Ġground s
Ġ198 9
Ġexcl am
OW N
Ġdet ail
Ġpract ical
Ġsad dle
ĠTr ump
Ġpati ence
ĠSec ond
ĠIsland s
Ġident ify
ĠGO ING
Ġcrit ical
ĠRob in
Ġcustom er
ĠKore an
Ġwha le
ĠVictor ia
Ġnic er
Ġarch ite
CHAR LES
ĠCT X
ĠMich igan
G eor
L ara
Y ES
g onna
v ia
Ġd omin
ar ian
le ave
Ġre fe
Ġre action
ĠS ub
ĠS orry
ĠC all
ĠC ind
ĠB oth
ĠH ugh
ĠW ait
ĠJ r
ĠO s
ag ers
ect ion
be fore
ĠSt ud
get s
Ġlea ped
Ġend ing
Ġind ul
St ep
ug s
Ġwind s
ĠAr chie
ĠNew s
enn es
Ġtele gram
bye bye
Ġterri fic
Ġclim ate
Ġoper ations
Un less
Ġfeed ing
Ġdesp ite
Car l
Ġdoc uments
Ġwrest ler
ĠPort ug
Ġdea f
Ġincl ined
Ġtiss ue
ĠTIM E
A my
A ccording
G er
J www
J eff
M ust
d es
g reat
m ag
Ġo ars
Ġd ashed
es ar
Ġg it
Ġl un
.. "
Ġme als
st eps
ter y
Ġdon key
ĠW ick
ĠF A
ĠL ITTLE
ĠN eram
look s
oc a
Ġmeet ings
Ġsk ull
Ġred uce
Ġland s
Ġquestion ed
ik i
Ġ8 0
19 8
ĠPr in
Ġsecret s
Ġsad ly
Ġaccount s
Ġorgan ized
Ġann ual
Ġut most
Ġcommon ly
Ġgen ius
Ġcomb at
ida e
elp hia
Ġsail or
Ġbill ion
Ġassist ance
Ġvac ation
ĠBu ild
Ġveget ables
Ġsurround ing
riger ator
3 8
T hings
r ants
Ġg ap
Ġn ail
Ġre he
Ġre pt
ad ium
ent ions
ĠS ay
ĠS ally
ĠC ould
ĠW ater
ĠP ope
Ġsu ck
Ġcom in
Ġwho ever
Ġv ague
ĠK o
uck s
Ġpre y
Ġcont ents
Ġown ers
Ġser ving
AT IA
ON G
Ġchar ity
Ġass urance
EN CE
ĠHow ard
Ġ199 1
ĠRe becca
Ġmill ions
Ġ198 7
Ġexper t
bl ows
Ġnur sing
ĠEm ma
Ġunc onscious
Ġutter ance
Ġbeha lf
ĠAN Y
Ġspo il
Grand ma
Again st
Ġaston ishment
Ġtal ent
Ġvot es
ĠJer sey
ĠDiv ision
ĠAtl antic
ĠDis ney
Ġamus ement
Ġumbre lla
7 0
C O
D es
E llie
M c
t ree
v able
Ġb ills
Ġm ath
Ġc ush
Ġf iring
an as
an im
Ġp atch
Ġin ch
Ġn uclear
ĠI llustr
ay a
Ġe ase
Ġe ffic
Ġre ign
ad elphia
ĠS OME
Ġwh ip
ĠA ggie
ch in
Ġshe ets
Ġsa us
ge e
ĠD al
Ġal ter
ĠJ on
ĠJ oy
ĠL ater
res ently
ĠR hod
end er
Ġoff ering
act ory
Ġhand kerchief
Ġstr ain
anc ies
Ġdist urb
ING S
Ġnear by
gr and
ug o
ged y
br idge
Ġdep os
Ġreturn s
ĠAn nie
Ġste ep
Ġfood s
Ġtre as
ĠCar r
Ġprov in
Ġ198 2
Ġru ins
Ġprotect ed
Ġang le
Ġjud gment
OP LE
Ġresol ved
Tw enty
Tom orrow
Ġsac rifice
Ġdwell ings
Ġwre ck
ĠLang ridge
S ho
S ounds
h h
p icture
w ide
Ġs ke
on ing
Ġb oring
Ġf iles
Ġf iction
ed ge
en ra
Ġp eak
Ġg inger
us a
ĠM aced
ĠS i
ĠB ell
if ying
ĠH or
ct s
Ġj am
un ks
ĠT RI
Ġsa iling
ab a
ab or
ĠG R
ĠF anny
ĠJ ob
ate gy
ĠO VER
Ġag ony
Ġbo om
ber y
ud dy
Ġun ivers
Ġun iverse
per haps
Ġfl ashed
Ġstr ategy
Ġdist ract
Ġrel atives
Ġass ure
IS H
ĠAs hati
Ġev ac
Ġobject ion
Ġdifficult ies
IR ST
Ġself ish
Ġimmedi ate
ĠTHI NK
Ġdeli very
Ġpan el
stit ution
ĠGra ham
ĠHaw kins
Ġpoet ry
Ġconce aled
Ġscient ific
Ġtid y
Ġsquee ze
Ġresist ance
ĠServ ice
Ġexchan ge
ĠPenn sylvania
ĠNich ol
B O
B S
C DS
D own
G irl
M P
M usic
S uddenly
e enth
p op
t les
Ġw ounds
Ġs han
on ent
Ġf uel
or us
as hes
Ġbe have
Ġe jac
Ġre ject
ĠM ask
ĠS HE
Ġli p
if ted
ĠH un
ĠW ERE
Ġsp y
Ġcl aimed
Ġfe ature
orn ey
ang led
ne xt
Ġfo e
ĠBr other
Ġ3 6
br ooke
sh ot
ĠHar vey
Ġ5 00
Ġdress es
Ġdraw s
ĠAunt ie
Ġdoubt less
ĠCon way
Ġla wn
ĠFrank lin
Ġhors ie
Ġcre ep
Ġanx iously
Ġattempt s
ĠAg ain
Ġpriv ile
Ġdiscuss ed
Ġneg ative
Ġimm ense
Ġperm itted
Ġimpro ved
Ġexist ing
Tw ilight
Ġprint ed
Ġpropos al
ĠPet ers
Ġassoci ated
Ġsaving s
__ __
Ġadmir ation
ĠSqu are
J ames
S H
S IGHS
f at
p her
| |
Ġ ing
Ġa pt
in n
in ating
nd a
Ġb er
Ġm ister
Ġd ating
Ġd anced
Ġf ab
Ġf urious
as ions
ĠI ran
at ched
Ġh itting
ut ter
ĠA F
ĠB os
Ġde y
Ġab road
ab ama
ĠP oor
ĠL oren
Ġman ners
ag on
Ġbo b
Ġcl ip
Ġam az
ia h
Ġcar rots
Ġchi p
ob y
ult ural
Ġcomm ission
Ġdist urbed
Ġhur ting
ĠDe v
IT Y
Ġclear ing
Ġpar agraph
ĠOF F
Ġappro ved
Ġfree ly
THE RE
Ġdev il
ĠWest enra
Ġsens itive
Ġrough ly
Ġneg ot
wr ite
ĠSim on
Ġexecut ive
Ġfest ival
ĠHart ley
Ġtrop ical
Ġplung ed
G ra
W on
p ent
s ong
is se
Ġl ung
ar o
Ġh oo
ut ions
Ġu na
ĠM usic
ĠB ank
Ġj us
Ġr ates
ĠT ok
Ġde ed
Ġab und
ĠW ork
ĠP E
ĠD ream
el f
Ġcon cept
the m
ress ing
Ġfl ames
Ġtalk in
âĻª âĻª
Ġrest rict
Ġtri umph
ĠGer hart
ĠTh ose
Ġmess ages
Al ways
ĠBl ake
Ġabs or
Ġdem ocracy
Ġbelong ing
Ġdefe ated
Ġpresident ial
Ġbuck et
cour se
Ġpan ic
Ġble eding
Ġshad ows
ĠJul iet
Ġbeha vior
ĠHad ley
ĠCOM P
ĠPre fecture
ĠPir ate
ĠFrancis co
Ġpud ding
Ge ography
3 2
E ng
M ike
S arah
Y E
p an
r its
s har
u zz
v als
y um
Ġs unk
is hi
Ġc ust
Ġc uddle
Ġl y
ar in
ot ions
id ers
ĠS aint
Ġgo at
Ġgo als
ĠH an
Ġpl ains
ort heast
Ġlo aded
Ġfl ame
Ġlong est
Ġstr angers
Ġcount ed
Ġpass es
vel ope
Ġstay s
Ġinv itation
Ġpur se
Ġpain s
Ġrepl ace
Ġrece iving
Ġanswer ing
Ġtrust ed
Ġstri p
IR L
Ġcommand ed
athe mat
Ġinvest ment
str ong
ĠTur ks
Ġcelebr ate
UCK LES
ĠHy un
Ġliber al
Ġelder ly
ĠCarol ina
Ġgodd amn
Ġexceed ingly
Ġliqu id
Ġbisc uits
Hal f
ĠDire ctor
Ġterrif ied
ĠArk ansas
achus etts
ĠRhod es
B aby
T AIN
d ire
g al
Ġa cknow
in ent
Ġthe atre
re nder
Ġs ung
ing ton
Ġto mb
Ġy ummy
Ġin se
Ġha mb
us ter
ke l
Ġst ake
Ġse asons
ĠA R
Ġat mosp
ĠC ousin
ĠB attle
ĠH ard
ĠT em
ĠW HO
Ġal ike
ĠG ot
os is
ĠN an
em ploy
ĠE the
ĠHe ad
Ġpe ekaboo
Ġafter ward
ah hah
ens ions
man n
Ġcont empt
Ġdr um
Ġhat s
Ġinc hes
ĠGr ant
ĠBe ach
Ġfuck in
Ġstick y
Ġart ists
ĠPr ot
Ġ196 9
Ġband age
ĠAg ent
Ġmem or
Ġpretend ing
ĠEx press
Ġur ged
Ġsuit able
Ġtou ches
Ġinj ury
heart ed
Ġprinci ple
Ġwarri or
Ġpup il
Ġswift ly
Ġgrant ed
ĠDet ective
ĠScot land
Ġdisag re
Ġsam ple
Ġlou der
Ġbenef its
ĠRepresent atives
rits ar
J o
M ENT
R ed
S on
f s
j u
n in
n uts
v ous
on ation
Ġd ick
Ġf ulf
ing o
Ġl end
ve t
ut ed
ĠM ir
ĠS ophie
Ġkn ot
ĠB or
ĠH ank
ĠH oly
ĠP ie
ĠG OT
ĠL ine
Ġv oc
ous ins
ear ly
Ġcl ay
ree ce
Ġpo em
Ġad just
Ġper il
Ġsha de
ĠIn ter
ĠCh in
ĠAnd rew
Ġlight ly
ump ty
Ġcol umn
ĠIs rael
Ġpri est
Re ady
ND ER
Ġstar red
Ġmist akes
Ġkiss es
Ġce iling
Ġcontro lled
Ġeffect ive
Ġtest s
Ġoper a
Ġoper ating
ĠTr ans
Will iam
Ġhy m
Ġimm ig
Ġsuspect ed
Ġfold ed
Ġdrown ed
tw enty
ĠFR OM
ĠMu hammad
ĠMass achusetts
Ġlan tern
D et
c row
h oo
l ar
l ife
t is
Ġw ins
Ġb ade
Ġd ried
Ġf res
ot ic
ĠM en
Ġan k
ur ger
ĠB ry
Ġso le
Ġshe lf
Ġsh rie
Ġab rupt
ĠW OULD
ĠP ooja
ĠG reece
ĠL ast
ĠL augh
ĠE nd
Ġtw ist
ber ries
Ġro ots
ord an
cc er
Ġim age
ĠCh ick
OU GH
Ġyoung est
Ġsur f
Ġball oons
Ġmar vell
Ġinte gr
Ġsk ills
Ġmove ments
ok ed
Ġ4 5
As k
Ġmess enger
Ġsum mon
Ġdream ed
erv ative
Ġcor por
Ġfill ing
Ġvar iety
Ġdev ice
Ġcompl icated
Ġsol ve
Ġrub bish
Ġattempt ed
Ġrefer ring
Ġrab bits
ĠChic asa
pro bably
Ġentertain ment
Ġconsequ ence
Ġconstit ution
Ġcaut iously
Ġaccompl ished
Ġtradition al
Ġexplos ion
ĠDun can
? âĢĻ
E ight
H L
H ard
I RE
P ar
R ob
Y o
b ear
t it
w oman
Ġ /
Ġs ed
Ġb ows
Ġf id
or por
Ġg um
Ġl ick
ay lor
ac les
ad u
st art
ĠA ss
ĠC herry
Ġr ot
Ġso ck
ĠT ime
ĠW alk
ĠW ales
ĠP ot
est ed
Ġus eta
ĠR O
Ġsp aghetti
Ġex isted
ure au
Ġle cture
Ġsc ored
iz ations
Ġch rist
Ġgl imp
port s
ĠAl abama
Ġconf irm
Ġswe ep
Ġanim ated
Ġdead ly
Ġins ult
Ġed itor
Ġ199 3
Ġpar liament
ĠPhil ipp
Ġla unch
ĠAm ritsar
ĠMad am
Ġcomb ined
Ġindivid uals
Chi ld
Ġcontr ary
Ġcheek y
Ġshell s
ĠMos cow
Ġpup ils
Ġunfortun ately
Ġjew els
Ġprompt ly
intend ent
HOR ATIA
Ġglimp se
3 7
B illy
B iography
D an
F ollow
K ING
P ER
S im
S ea
l isten
m outh
s chool
w l
Ġs ust
Ġp ine
Ġn aked
Ġhe d
st ar
ĠM ull
ĠS ix
ĠC OULD
ĠH ockey
ct ures
Ġso da
un a
ĠP un
ĠP ear
ĠG i
Ġback s
Ġtr ay
Ġover come
Ġbr id
be ep
ĠU K
Ġlea p
und e
Ġbu zz
Ġent ry
Ġrest ing
Ġlight er
ĠJohn ny
Ġhope fully
Ġmus cles
Ġdar ing
Ġsurpr ising
Ġexam ination
itc ase
ĠGu ard
Ġ197 6
Ġwild ly
Ġtur tles
ĠComm ission
Ġtast es
Ġdiscuss ing
Ġelect ron
Ġcomb ination
Ġtechn ical
Ġsuspic ious
every body
Ġprec ise
Ġgrat itude
Ġenthusi asm
Ġwret ched
Ġbew ild
Ġhelicop ter
Ġalcoh ol
, .
B L
C lear
D E
F ire
W ork
] ...
f ight
Â °
Ġt um
Ġt uck
Ġw ool
Ġg aze
as ha
ow l
ke e
Ġst ares
ĠM ISS
ĠS ur
ĠB ACK
ell ow
Ġr att
ab bit
Ġal p
ĠE astern
au nd
Ġle aned
ile y
Ġdis gu
ĠV alley
Ġheart ily
Ġsix th
Ġcol on
ĠAr ch
Ġbreak s
Ġexpl ore
ĠBe cket
ĠCha mpions
Ex cept
Ġstar ring
Ġdest iny
ask et
Wh oo
Ġdirect ors
Ġstri king
Ġiss ued
Ġrepresent ative
Ġhy dro
Ġneg ro
Ġtax es
Ġscr amb
fortun ately
Ġinspect or
Ġbetray ed
Ġcommunic ation
soft ly
Ġgri p
Ġsched ule
Ġfare well
Ġsymb ol
Ġinterfe re
Ġmerchan t
Ġdisgr ace
OMET HING
. )
3 6
4 7
4 8
F F
H arry
M ary
N ING
U ntil
b reat
c ray
g imme
m ay
p ill
r un
s ound
s pecially
Ġs way
Ġb um
Ġp iss
Ġl est
at han
et ween
Ġse lect
Ġgo lf
ĠC as
ĠB re
ĠB as
ĠB ir
ĠH itch
Ġr ural
Ġsa iled
ab in
ĠW HI
ĠL y
Ġer ror
Ġpro b
Ġtr ash
Ġen velope
Ġun ique
Ġim pr
og ne
Ġpass enger
Ġperson ality
Ġadd ing
Ġrep air
Ġexc ess
Ġgener ation
Ġgra ph
ID E
Ġdecl are
Ġtur b
Ġregion al
Ġfarm ers
Ġsmell s
Ġcompet ed
ĠChe ro
Ġsearch ing
AU SE
Ġcro codile
Ġnap kin
Ġaston ished
ĠJew ish
Ġreve aled
Ġpour ing
ĠKat ie
ĠAust ria
Ġbub bles
Ġaltern ative
Ġcris is
Ġchamp ion
Ġlat est
Ġmob ile
Ġmagnific ent
ĠIllustr ated
C HE
S ophie
f olk
m iss
s hi
w ash
Ġs an
Ġb os
Ġd ial
Ġf er
Ġp uss
Ġg on
ar ms
as ks
Ġbe ings
Ġsh ield
est ic
ĠF ive
Ġpro port
Ġtr icks
Ġqu ack
Ġover board
Ġcl in
Ġbr ook
ĠK han
Ġsomet ime
ho e
Ġgu itar
int o
Ġper man
cl ass
Ġapp arent
Ġch op
Ġcr ab
Ġtry in
Ġser geant
Ġcha sing
Ġel bow
AN S
ph ones
ĠMar ion
Ġ3 2
Ġrel uct
app le
Ġref lected
Th irty
Ġocc asions
Ġoffic ials
Ġfast ened
Ġmod est
Ġgra pe
ĠCon st
ĠAm anda
ĠPol and
ĠTe le
Ġ193 0
Ġmach ines
tr unk
Bl ack
Ġbless ing
Ġindust rial
Ġliter ature
Ġrequire ments
Ġmort g
ĠClar ice
Ġcigaret te
Ġpist ol
Ġscri pt
Ġcrick et
ĠGord on
Ġanch or
ennes see
Ġatmosp here
A b
A y
F ind
L AUGH
V II
b ot
c hard
h im
j ump
m usic
Ġw rap
Ġm ax
Ġc ub
ar io
ri ve
Ġst ab
ch oo
ĠB L
ĠH as
ĠH orn
ĠT ennessee
Ġout er
ĠP op
ĠD aw
ĠD uc
Ġal ert
Ġno d
ĠJ ac
ra ge
pl aces
Ġper ce
Ġmay or
ĠV iet
Ġdes ired
Ġbre ach
Ġpol ar
Ġelse where
Ġac ademy
Ġreg ister
Ġtri gger
Ġsk ipper
Ġ18 9
RE AT
Ġsim pl
wh ose
AS S
Ġdef in
Ġpub l
some body
Ġprogram s
Ġmunicip al
Tr ust
Ġbang ing
Gu ess
Ġswing ing
Ġprepar ations
Ġdepart ure
bu ild
Ġappl ied
Ġchick ens
Ġsuppl ies
Ġimpati ent
Ġthirst y
ĠUrs ula
ĠUkrain e
ĠBrid get
hous es
Mat thew
ĠMaced on
3 9
H Y
J ess
M M
Q U
g asp
i ently
p iece
t akes
u be
z ie
Ġ vel
Ġt ones
Ġa er
in ea
Ġw is
Ġw ives
it ter
or ange
an z
Ġst ub
Ġdo d
am i
ĠS on
ĠS AY
ĠC ivil
ĠB R
ĠB ax
if ty
Ġso ot
ĠT urn
ĠL au
ĠN ap
ick y
Ġtw isted
Ġag ency
Ġro ot
ĠK aren
ĠĠĠĠĠĠĠĠ Ġ
ĠIn spector
Ġfr act
Ġlist ed
CH UCKLES
Ġpar lor
THE Y
Ġesc ort
Ġprof it
Ġshar ing
Ġsle igh
Ġcand le
Pe ggy
Ġdig ging
ĠCor por
Ġess ay
Ġvent ure
Ġgather ing
Ġadop t
Ġassemb led
Ġacquaint ance
Ġchallen ge
Ġgard ens
Ġgover ness
ĠViz ier
C r
D ON
Y et
g row
p ha
p ass
Ġt ire
Ġt ales
Ġb ail
Ġb reeze
Ġd ing
Ġf ury
Ġin k
Ġn erve
Ġre new
Ġme nd
ĠS ar
ĠS uch
Ġas cend
Ġse ed
ĠC are
ĠH eaven
um bo
ul ting
ĠP il
el a
Ġor phan
Ġcon vey
Ġsp ray
Ġtw ins
Ġqu e
ĠK eep
Ġpr ices
pe e
do ll
ĠV ER
Ġche ering
ING ING
Ġreg ist
Ġri g
Ġtri but
ĠAl b
Ġ202 3
Ġ4 8
ĠTh us
wh ines
Ġvis iting
ĠCha p
Ġbott les
Ġappro val
19 6
Ġ198 1
ĠFor ce
Ġ9 9
Ġgra v
che ck
Ġmer ged
Ġfort night
IC T
Ġwa ving
Ġimag ination
ĠMad ge
Ġengine er
ĠGO OD
IF A
Qu ite
Ġmater ials
urt is
ĠMid dle
Ġliber ty
Ġadult s
Ġcy cl
Ġtom ato
ĠMus lim
ĠYe on
Ġtack le
Ġannounce ment
Ġrehe ars
pher d
" --
7 5
A V
A W
B I
H ome
H all
K at
M olly
S a
l ace
l ady
p ic
p ol
t ur
w he
er a
Ġc ousins
Ġto ol
ll ing
Ġp uff
Ġg azing
Ġin it
Ġst y
Ġst im
âĢ İ
ĠS k
ĠS ER
ĠA IR
ĠH appy
Ġj ury
Ġcan al
Ġde e
ĠD OWN
Ġsu itcase
ĠF riend
ak s
na h
em ents
Ġro d
iss ors
Ġfl ies
ru ce
ĠSt ation
Ġper mit
Ġcomp re
Ġcomp elled
ens ity
ĠV ery
ĠV aug
ult ane
bab bling
Ġsur vey
Ġmiss us
Ġdisc har
eter a
Ġpop s
Ġem otions
Ġ8 5
Ġsum mit
ĠWill is
Ġpen et
ĠPhil adelphia
Ġfear ful
Ġabs ent
Ġ197 5
Ġmer c
Ġ196 8
Ġboard ing
Ġknock ing
Ġemp has
Ġsubject s
Ġcas ual
Ġdisp osed
wr iting
Ġcalm ly
Ġir rit
Ġindic ate
Ġprefer red
Ġtim id
En ough
Ġconsequ ences
Ġdeser ted
Fl orence
Ġaward ed
Ġtravell ing
Ġwip ed
Ġkil omet
Ġmultip le
Ġstrateg ic
ĠMask oki
. !
E at
E ver
L ater
M orning
P at
P resident
S w
S end
T HIS
a unt
h ur
i as
m ot
t il
t hanks
u i
Ġt ag
Ġw o
Ġb ri
Ġm ammy
Ġm athemat
Ġg ifts
Ġl od
Ġl azy
ar ched
Ġin her
Ġn arr
Ġwe b
ĠA z
if ies
Ġall ows
Ġsh ots
qu is
Ġwor ship
ĠN avy
Ġag ric
Ġlo gs
Ġam id
Ġam azed
Ġ( ,
uck le
Ġwhere as
ci ed
So on
Ġcar rier
Ġsec ured
Ġsha kes
pe ekaboo
ĠV aud
Ġmin es
Ġchar t
Ġred uction
br ing
ĠAr gent
Ġref uge
ĠCl ark
Go ing
read ing
Ġ198 4
Ġspe cially
Ġdeep er
Ġ196 6
ĠMc Donald
Ġdam aged
Ġ194 3
ĠPer cy
Ġtur key
Ġrul ed
Ġoppos ition
Ġident ity
Ġstat ue
Ġbasket ball
Ġcondu ctor
sn iffs
ij i
Ġpropos als
Ġdea rest
ĠSA ID
Ġbatt les
Ġintellig ence
Ġribb on
ĠOff ice
Ġstead ily
nat ured
Ġgorge ous
Geor ge
B OTH
F ort
G AS
R oy
f ia
t own
Ġa y
Ġc oo
Ġf ret
Ġf ert
Ġto ler
Ġg ent
Ġl ane
om y
at ically
us ive
Ġk ettle
st ra
ĠM em
ĠM useum
ĠS PE
ĠA M
ĠA venue
ĠB ird
ĠH istory
ĠT re
ie ve
pp a
ĠW alt
ĠG reg
ĠG ulf
ist ling
oh oh
Ġcl o
Ġbr isk
Ġpe e
Ġen sure
Ġfl ushed
Ġrem ote
Ġfo g
ob b
ĠYou ngeun
Ġmin us
Ġacc ent
ream ing
St r
eb ra
Ġdeath s
ring ton
Ġbar rel
Ġforg iven
Ġ7 0
Ġyell ed
ĠEnglish man
Ġclean ed
Ġfear s
Ġ197 7
Ġmis under
ĠCol or
Ġconsider ing
Ġpress ing
Ġlim bs
Ġformer ly
Ġcollect ed
Ġfat al
Ġgen u
Ġaut umn
Ġbomb s
Ġcraw ling
Ġclaim s
Ġsna p
Ġhistor ic
Ġflo ating
Ġfra ud
ĠBO Y
ĠWin ter
hab et
Ġdistinct ly
Ġdescend ed
ĠSpr ing
Ġcollea gues
4 4
B ern
C our
C han
F e
L ong
M att
e rest
f are
m ill
s or
s illy
in ter
Ġs ighed
is ure
or ters
Ġp onies
Ġof the
ar ling
ow nt
ow ary
Ġe agle
ĠS n
Ġnot ion
ĠB ox
il ence
Ġj elly
Ġr ack
th m
ab i
ĠP arson
ig a
ĠF er
ĠR on
ĠR oland
ak ers
ĠE rin
no ck
ang s
ĠU s
Ġsc an
Ġsc old
Ġthought ful
Ġch ill
Ġhead quarters
Ġcr imes
Ġlea k
OU ND
Ġsur render
Ġread ily
Ġreg ions
ec il
Ġtri angle
Ġlive ly
ĠInd eed
Ġspeak ers
Ġexp osed
Ġthank ed
ene z
Ġvis its
atur al
Ġrece ipt
Ġra ft
Ġ197 3
Ġwa ved
Ġbab e
rop ol
nes ota
Ġtor ture
Ġgen us
eder ation
Ġspell ing
Ġden y
Ġunc ertain
ĠSer ies
TH ANK
Ġattract ed
Ġdism ay
Ġdistribut ion
Ġinspect ion
Cha ir
Ġfan cied
Ġfrequ ent
Ġgodd ess
Ser iously
Ġjun ior
ĠWick ham
ĠLoren zo
ĠDuc hess
ĠVaug han
A X
D ER
L adies
N a
P P
T E
V III
a ah
c ool
c rying
f ix
f ashion
h or
l ines
m are
n els
r ad
r ane
u gged
w on
w ari
ha w
it als
Ġc her
Ġto re
es cend
Ġhe ars
us k
im s
ro d
Ġnot hin
th ony
op her
ĠF isher
ĠF ederal
itt s
ĠN ice
Ġwho lly
em en
Ġint ake
ag i
Ġcl a
ĠK ent
Ġfl av
ĠY am
Ġcr ashed
Ġdr am
az a
Ġchar m
ĠAl so
pr ise
mm m
Ġexp enses
Ġref rigerator
Ġcoll ar
Ġins ane
Ġpos itions
Ġce real
Any one
Ġleg isl
Ġ195 7
Ġgall op
ĠPol ish
bur gh
Ġsens ation
ression al
Tr ans
Ġtight ly
Ġbother ing
ĠEll en
ĠBoy s
sn ame
Ġmult i
ĠChan nel
Ġdivor ce
Luc y
ĠGran by
ĠOak dale
âĢķ âĢķ
Ġhal ted
Ġlif etime
Ġignor ant
Ġbund le
ĠTib bits
Ġnegot i
G eneral
H aven
M ind
M AR
R ahul
b orough
c up
m ilk
p ool
t ape
w hel
w hee
Ġc rest
Ġd ess
Ġd ates
Ġf ug
Ġg ens
Ġwe bs
Ġre ci
Ġre ception
st ay
st ep
ĠM ouse
Ġse al
ĠA G
ĠC ray
ĠB UT
ĠH ills
Ġj e
Ġso ber
Ġshe riff
ĠP leas
Ġthem e
ĠF IFA
ĠJ O
ĠE N
ĠO cean
Ġgr ade
ond isse
ĠK ong
ire n
ho ibi
Ġun employ
Ġper pet
Ġcomp ens
Ġhome work
Ġres umed
Ġ3 00
pr on
Ġtra pped
don ald
ĠMay a
Ġconst ru
Ġcorn ers
Ġsal ad
Ġ196 4
ĠCon ference
Ġav o
Ġemp ire
ĠWh ich
Ġthreat ening
pret ty
Ġplant ed
Ġveh icles
hun ters
Ġconcent rate
Ġtyp ical
anche ster
Ġbord ers
Ġchim ney
Ġpros per
Ġgest ure
ĠTW O
Ġhoriz on
Ġamaz ement
Ġgenu ine
C OME
E ach
J ECT
N Y
S OP
S PE
d am
e qu
f aced
m amma
p ie
x ed
Ġt ut
Ġa wards
ou ched
re p
it age
Ġp y
Ġg rap
Ġn it
ĠI F
Ġh ire
ic ians
Ġbe am
id o
Ġe e
ac o
Ġst ool
am en
ĠA pp
ĠA cc
ĠC ape
ĠB ol
if ford
ĠH ap
Ġj ingle
um in
ab e
ab led
ĠF E
ist or
ast on
ĠN ative
Ġdis ple
cl ap
OT HER
Ġres ent
ign ment
Ġcont ented
Ġhar sh
In stead
Ġsw am
Ġdiffe rences
Ġreal ise
Ġ3 8
Ġcons pir
ma id
Ġ18 0
ĠHar rington
Ġbeaut ifully
Ġpop corn
ĠZ oe
Ġsun set
Ġconc ert
Ġabs urd
Ġ197 2
Ġsupport ing
ĠMin nesota
Ġband s
Ġver se
igg le
ĠJust us
Ġgar bage
Ġur ban
Ġden ied
ĠKe vin
ĠJul ie
Ġstraw berry
ĠSea brooke
Ġinvent ed
Ġadminist ration
Ġdiss ol
Ġpurs ue
Ġtrave ling
Ġretire ment
Ġscen es
Ġath let
Ġprovin ces
ĠTok yo
ĠHitch iti
) ;
C alm
D is
E asy
P inkie
S ub
S aint
S weet
f initely
i per
m ust
p arent
t an
v ation
w ah
w oof
Ġw ages
Ġthe rap
Ġm ic
Ġm uff
Ġd iver
Ġto b
Ġp ha
Ġp anc
ĠI nt
le vant
ut tering
Ġwas ted
Ġwh irl
Ġli ed
and al
ĠC ub
ĠH ye
ĠH AM
Ġr uff
Ġr asc
Ġso ph
ĠT imes
Ġcan n
um i
um ing
ĠW el
ĠW ild
ĠD ie
ol ar
Ġsu p
ĠG U
ĠL im
res ents
Ġsp an
ĠN ord
Ġlo an
Ġar gue
ĠHe alth
Ġle an
Ġco inc
Ġsc ra
Ġsc issors
Ġhapp ily
Ġwr ist
Ġsl im
Ġsl ate
Ġcare less
ĠBr ook
Ġinv al
Ġcur ly
ific ations
Ġmusic ian
Ġprov iding
Ġhum ble
Ġart icles
Ġfro zen
Ġca using
Ġcreat ing
ek le
ĠOr ton
Ġrecogn ise
EL Y
Ġgall ant
aret to
Ġindic ated
Ġrail road
ĠRy der
-------------------------------- --------
-------------------------------- ----------------------------------------
ĠPet e
Ġbeast s
Ġexperien ces
Ġtoss ed
Fin ally
ĠHon or
Ġsla very
Ġejac ulated
C LE
K im
L ou
R ep
R obert
b am
d ed
f ound
j i
v as
Ġ eter
he ro
Ġm ild
Ġm ask
Ġc unning
Ġd ash
ed ale
an net
ar c
ĠI ce
Ġh ither
ac ter
ad er
Ġst amp
Ġr aw
ĠT s
ook ed
ĠW als
ĠP ayne
Ġal t
ĠF IRST
ĠL ion
ĠN ic
Ġtw in
Ġqu id
Ġcl am
Ġbr ains
ĠK ar
ps on
ang ar
Ġunder ground
ru nd
Ġsha pes
pe ed
Ġhead ache
Ġrun way
Ġent it
Ġheart y
Ġrest ed
Ġdifferent ly
Ġass hole
Ġfire place
Ġdep ressed
Ġtra gedy
Ġconf ront
Ġplan es
Ġext ract
Ġborn e
Ġsn ack
ĠRe v
Ġexam ined
Ġarm our
Ġcook ed
Ġmod e
Ġcor rupt
asp ing
ĠCol umb
ĠLe ices
Ġcompl iment
Ġrub bing
Ġoccasion al
Ġpray ers
Ġacqu ainted
Ġheat hen
Ġcustom ers
vo ice
Ġshock ed
Ġple be
ĠRy edale
Ġbatter ies
Other wise
Ġbend ing
Ġpurcha se
Ġune asy
Ġguarant ee
Ġdiscipl ine
Ġtob acco
L AND
Q ue
R olan
b ott
b etter
c ill
d ate
i rie
k ers
l iness
m ont
m ission
u z
Ġ âĻ«
ou st
Ġm ing
Ġm os
Ġm useum
Ġf isher
Ġp ets
Ġp unch
Ġh oof
ac hi
Ġst ew
ĠS her
ĠA br
ĠA pal
ĠC orn
ell ing
Ġj aguar
Ġr attle
ĠT aylor
ie ves
Ġ" "
Ġsh one
ab outs
ul ance
ĠP ooh
ĠD ale
ĠD oub
Ġsee ming
ig o
Ġsp ared
Ġv ice
od o
od ed
Ġbo ast
Ġover whel
Ġcl asped
ĠK aw
Ġco ff
Ġwhere upon
har m
ĠU FO
ne cess
Ġsm ugg
cl osed
cl aps
Ġact s
ĠY ang
ĠV I
Ġmon arch
ĠMar ia
Ġfr own
mb ass
ĠNew ton
Ġaw esome
Ġexpl ains
ted dy
At l
Ġlow ered
ĠFrank y
Ġbull shit
ĠComm ander
ĠPaul ine
Ġcapt ives
chan ts
ĠDor a
ĠEx cuse
Ġtax i
Ne ither
Ha ving
ĠAnge l
Ġcong rat
Ġwitness es
ĠGra eme
Ġepis odes
ĠHam ilton
Ġdom estic
Sec ond
GR UNT
Ġmanufact ure
ĠÂ £
Ġappet ite
Ġalp habet
fashion ed
; âĢĿ
A ub
B ra
C oming
M ight
b oth
c ontin
f unny
o ch
p at
p ath
r ical
r aspberry
t able
u ations
z ona
Ġt act
Ġt roll
Ġb owed
Ġd iet
Ġf et
Ġg oose
Ġh ipp
ot ty
Ġk it
ĠM AKE
ĠM ORE
ĠS ant
ĠS OMETHING
and om
ĠC le
ĠB EL
ĠB etty
ell er
ĠH old
ĠH AS
Ġj erk
ĠT ELL
ĠT igger
ĠW itch
ĠP ur
ĠP art
ĠP ony
ĠD ra
ĠG re
ĠG al
ĠJ en
os ure
ĠL www
ĠR im
ear ch
Ġover all
ĠK ath
ress es
Ġpart ed
Ġsc al
Ġsc rat
Ġfo es
Ġcomp ass
Ġhel met
Ġel im
ple te
ĠBr idge
Ġass ess
Ġhigh way
ĠFl o
head ed
Ġins pired
Ġstick er
Ġem ig
ĠRe volution
.' "
19 2
ivers ary
Ġnecess ity
Ġcop ies
ĠGrand pa
Ġwide ly
Ġconcer ning
Ġwand ered
Ġenv y
ugg ing
ache te
ĠWind sor
amm ar
Ġrequire ment
Ġsac red
Ġghost s
Ġpit ched
Ġpersu aded
Ġpurs ued
Ġelev ator
Ġcandid ate
DO OR
War ren
Ġresc ued
ĠColor ado
" ;
L ee
T is
W hether
a ffe
p apers
r ating
t ub
Ġ `
in als
Ġs inking
on ight
er ving
Ġm ant
Ġm achete
Ġc ul
Ġo d
Ġo l
Ġd yn
Ġf ist
Ġp ip
Ġp enn
Ġg reed
Ġl aund
Ġh int
us ions
id re
ĠS ky
ĠC f
ĠC ru
ĠC HE
ĠC urtis
ĠB ishop
ĠH ung
Ġso ccer
Ġ" _
ĠW y
han t
ĠF at
ĠL ib
ĠN ak
ĠE ver
ag a
Ġqu ote
Ġoff ers
Ġcl ue
Ġbr on
Ġbr ute
Ġbl own
Ġbl oke
Ġen able
Ġen counter
Ġpre ced
ons on
ons ider
Ġmother f
Ġwon t
Ġatt ic
Ġcomm enced
Ġunt o
Ġcons ent
Ġaw oke
ĠTh ough
Ġstate ments
Ġchair man
agg ing
ĠIs lam
ĠZ ekle
Ġmess ed
Ġcheck s
ĠAll yn
Ġappro x
Ġpen gu
Ġjo ining
Ġ194 0
Ġneighb ours
ĠPol icy
Tr ue
Gu ys
Ġstock ings
Ġmir acle
Ġcomment ed
Ġremind s
ĠIntern et
Ġcong ressional
Ġtap es
ONE Y
Ġrom ance
Su ppose
Ġecho ed
Ġdign ity
Ġsubstant ial
Ġilleg al
ĠChero ki
A in
D eb
E ve
G ee
J uly
K now
K itty
L ady
R oan
b read
d one
s ur
y ama
Ġt ons
Ġt att
Ġc inem
Ġo ak
Ġf itting
Ġl es
Ġl ame
Ġl ump
ar n
Ġh ood
Ġh ind
Ġon line
im et
Ġre tain
ad ays
Ġk ite
Ġme ad
ĠS ong
ĠB oss
ĠB udd
ant hoibi
Ġout fit
ol ate
ĠF ame
ĠJ ose
ĠL ind
od s
Ġint im
Ġqu ot
Ġcl ick
Ġco b
Ġco ax
ĠU r
ru p
ER ING
Ġatt orney
Ġacc us
Ġfin est
Ġbelie ves
Ġri val
ug ar
ĠNo el
Ġfact ors
Ġele g
Ġtop ic
ony m
ĠSo cial
Ġdeal t
put ting
io let
Any body
Ġbab a
Ġice cream
Ġ194 6
Ġneck lace
Ch ief
ĠSec urity
Ġcontain ing
Ġhost ile
ĠSam uel
cour t
Ġblank ets
Ġspl ash
IF E
OD Y
Ġcelebr ated
Ġconv iction
Ġsac rific
ĠLO VE
Ġfra g
Ġdism issed
ĠMel issa
ĠCO VID
Ġautom obile
ĠThanks giving
Ġcaut ion
Ġunf air
Ġswall owed
ĠSax ony
ĠChat ah
Ġexclam ation
Roan oke
3 3
7 6
8 0
G old
N umber
P h
R ec
T y
g ers
re fe
Ġs hat
Ġd ip
ar oni
as per
Ġha bits
Ġth read
us cript
Ġbe ads
ent ially
ĠM oo
ĠS ean
Ġse arched
ill es
ĠC oosa
ĠC aretto
ĠB ea
ĠB BC
ant ry
Ġhad ta
ain ts
ĠT R
ul ating
ĠP ower
ĠD oes
ĠG ro
ĠJ ason
ĠJ ordan
Ġwor m
ich i
Ġman if
ĠO UR
Ġbo iling
Ġover head
Ġbr ass
Ġun necess
wn s
Ġhand y
Ġlong ing
ĠSt irling
ob al
ĠV in
og y
Ġbu ggy
Ġgl ue
ĠCh uck
AN CE
AT H
Ġsur ve
Ġï¿½ ï¿½ï¿½
Ġdri ves
EN S
ĠBe lden
enn is
cy cle
Ġmess y
ĠQ U
ĠFor rest
Ġ197 1
ĠBar bara
Ġ196 7
ĠGerman s
sc ape
Ġlim its
some one
Ġrub bed
Ġcand les
Ġcompet e
whis per
Che ers
Ġcell ar
Ġremind ed
Con nor
Ġarrange ment
Ġprepar ation
ĠEn ter
Ġcompar atively
Ġpersu ade
Ġprem ium
Ġbot hered
ĠArm strong
Care er
Ġjournal ist
ĠFil m
ĠHoll and
ĠEst her
Person al
Ġhamb urger
Ġabrupt ly
A II
B re
C AUSE
F T
G HING
H OW
M al
P ull
R es
d ig
d ling
i ac
r ous
u er
u ating
u ously
he astern
Ġw oo
Ġc ater
Ġd ot
Ġd orm
Ġd ancer
or gan
en cies
Ġp ear
Ġg ear
ay e
Ġbe ats
Ġre b
se cut
all el
Ġse eds
Ġwh ipped
ĠA ms
ch icken
Ġsa ils
ge red
Ġout ta
ink ling
ĠD NA
qu estion
ĠG eno
ĠF L
ĠL ily
Ġv est
ĠE p
Ġer a
Ġar ts
Ġpe pper
Ġgr asped
Ġco pper
iz zy
Ġthought fully
oy o
Ġcr ush
Ġres erve
ult ure
ĠIn c
Ġcha l
ĠBr uno
amp a
Ġfr ustr
St ar
Ġround s
Ġsmall est
Ġfact or
IS E
Ġ4 4
ĠDe rek
Ġexpl o
Ġgrand pa
Ġsqu eal
ĠIs n
Ġoffic es
ik a
Ġadv ised
Ġ7 5
Ġcat ches
entle men
Ġ197 8
Ġdest ination
ĠJack ie
Wh ite
Ġcup board
Ġz one
Ġstrange ly
Ġval ues
Ġbow ling
Ġdi agn
Ġinvol ve
Ġtruck s
Ġpark ing
Ġwel com
Ġfil ms
Ġuncle ar
De ath
Ġexec ution
ĠNE W
ĠBer lin
Ġelectric ity
ĠCarol ine
Ġinstr uments
Ġsquir rel
Ġris en
ĠJess ica
Ġcurtain s
Ġpronoun ced
Ġtrave led
Ġapplic ation
Ġfrank ly
ĠDod ds
Ġtreas ures
Ġmarvell ous
? ]
A nt
A IR
A CE
F red
I Z
W in
W OMAN
a ise
c ont
g ian
h r
h ome
i ary
i ency
j ud
l an
m ir
r ors
r ained
w ich
Ġw har
Ġw ishing
re te
Ġb un
Ġo ath
Ġo ptions
Ġp athetic
Ġl ur
Ġn iece
Ġwe igh
Ġre bell
ĠM RS
Ġli ar
ĠA ld
ĠH ong
Ġr ans
Ġso ci
ĠT our
ĠT AL
ĠJ in
ĠL isten
Ġby eb
ard ed
ĠR ud
It s
Ġman uscript
ĠO fficer
Ġag ents
Ġevery day
Ġfl ats
Ġthr one
Ġch lor
ix on
ĠV enez
Ġsl ope
Ġnight mare
Ġdes erved
let ta
ye h
AT HER
Ġsw ords
uff y
Ġmar bles
Ġcons isted
Ġdri vers
Ġsil ently
Ġsqu eak
Ġform al
Ġadv ise
Ġdream ing
Ġadm ire
Ġcor re
Ġ197 4
Ġmis ery
Ġ17 9
Ġsick ness
Ġnur ses
Ġdiv ide
Ġtest ed
ĠMc C
Ġpack ing
Ġpack et
Ġcond em
ĠST ORY
Ġsex y
fl ies
rel ative
Would n
Mar illa
Ġhero es
Ġdeterm ination
Ġprocess ion
Ġpet ition
Ġcrack ed
Ġmort al
Ġstir red
Ġrequest ed
Ġcomed ian
Ġpurcha sed
ĠWal ter
Ġconscious ness
ĠChild ren
Ġforb idden
ĠVal entine
ĠPen elly
Ġstrict ly
Col onel
ĠRus sell
Mart in
belie vable
Ġlaund ry
ĠAms den
A IT
B eautiful
E specially
H ope
M o
S low
] :
d ear
d ies
j an
l on
p ink
t oday
u is
Ġb ury
Ġb apt
Ġm ike
Ġf iance
Ġl ing
Ġl oop
Ġbe gging
Ġre e
Ġst adium
am il
ro ar
ĠS M
ĠS hi
ĠA uthor
ĠA ccording
and o
ĠC omp
ĠB RO
Ġj er
Ġj unk
Ġj umper
ĠT oby
ie ge
Ġall oc
ab by
ĠD oto
Ġal armed
ĠG ang
ĠJ e
Ġv ib
ĠO P
ĠO t
ite i
ud der
Ġfl ock
cc ess
Ġnever theless
Ġcomp are
Ġfin ishing
Ġob sc
unt ary
pr ints
Ġph ones
Ġmet h
Ġexp ense
uss on
Ġsent ences
Th ought
Th rough
Ġsy m
Ġtre acher
Ġgrand son
Ġfight s
Ġrock ing
Ġeng agement
Ġmod els
ĠHer o
Ġcamp ing
Ġoper ate
Ġann iversary
Ġ194 5
Ġrespect ed
ĠComm un
Ġlock s
Un fortunately
with standing
Ġcollect ing
elen a
Ġguard ian
Ġemploy ee
Ġpeace ful
Ġchap el
Ġcomput ers
Ġinvestig ate
Se ems
Ġachie ved
Ġscient ists
ĠNat alie
Ġfant asy
pos es
Ġdelay ed
Ġvot ing
Ġadminist r
ĠPL AY
ĠSomet hing
Ġcoun sel
ĠEv ans
ĠSwed en
Ġdistingu ished
Ġtempor ary
ĠHot el
shar p
Ġproport ion
Ġdefin ition
Ġentit led
Aub usson
' !
) :
3 1
A lden
B JECT
D ave
N ope
R est
T ra
W HI
j e
m ummy
p ow
u ent
y gen
Ġa u
Ġa we
in ction
re fer
on et
Ġm ales
Ġf ame
Ġf ans
ĠA C
ĠC a
ĠC ro
ĠB our
if er
op y
ĠD am
ĠF orm
ĠJ ill
os a
ak o
ak ened
ĠN orm
ort s
od ern
ĠO b
Ġag g
Ġbo il
Ġtr ump
Ġle isure
Ġgr acious
Ġbl oss
Ġbl azing
Ġthr ong
ang ing
Ġchild ish
ks wari
ĠIn stitute
Ġcount s
Ġob ed
ĠTHE M
me al
Ġent ers
Ġass umed
any thing
Ġdep uty
Ġhat es
Ġconf ession
Ġ4 9
Ġprom ises
Ġlarge ly
Ġpar cel
ĠPr ice
Ġforget ting
Ġsecret ly
Ġeye b
ĠMin chin
Ġprotect ing
Ġ194 8
Ġtast ed
ĠCo ast
Ġviol ently
Ġsens es
Cl ose
ĠEm peror
Ġopport un
Ġur gent
Ġstrugg led
Ġcheer fully
boy s
AU GHING
Ġdisp osition
Ġinj uries
ĠCass owary
Ġencour age
ĠTri pp
ĠZealand ers
Ġsevere ly
omed ay
ĠMount ain
Ġanno ying
Ġdialect s
Ġaccord ingly
ĠSwed ish
Ġrend ered
Ġslipp ers
Ġaccur ate
YE AH
ĠViet nam
ĠVER Y
rund y
Atl ant
Ġbyeb ye
ĠVenez uel
A A
B ad
B est
D un
D ude
G annet
K S
M el
R oger
T er
U se
e em
f old
g ic
g raph
p ea
Ġb ass
Ġb ait
Ġm art
Ġm ush
Ġd um
Ġd amp
Ġp ills
Ġg b
Ġl ace
Ġin fect
ver ty
st ream
ĠC OME
ĠH OW
ant e
Ġj est
Ġr ats
Ġr aces
Ġup right
ĠT op
ĠT ower
um er
ge ance
Ġab use
ĠP ut
ĠD oc
ra it
oh ra
em ois
âĢĿ !
Ġag gress
hi o
ĠK al
Ġco co
Ġneed le
Ġpo verty
Ġfl ows
Ġpre v
Ġhapp ier
ĠV e
Ġsl ap
Ġmin i
Ġrest rain
Ġrel atively
Ġsing ular
Ġinter ior
Ġinv asion
app ie
ok er
Ġcut ie
ĠAs semb
Th row
Ġswe eping
Ġbar gain
At t
Ġsend s
child ren
Ġarri ving
Ġmot ive
che e
Ġdest ro
ĠBar letta
Ġsuggest ing
Ġ196 2
Ġcirc les
ĠMin nie
Ġspec im
Ġsuper intendent
Ġwhis pering
ĠMan ip
Ġ194 2
ĠWh it
Ġvol can
Gr ady
ĠSh ut
Ġscar ce
ĠBE EN
Ġhurry ing
IL TON
Ġaddress ing
ĠQue ens
ĠEve lyn
Ġweak ness
ĠJean nine
ĠMur ray
ĠHolly wood
intend o
Ġemotion al
Ġsuppl ied
Ġrag ged
Ġerr and
Rel ax
Ġwander ing
Ġdisagre eable
Ġdess ert
SOP HI
ĠHAM ILTON
emois elle
4 6
B less
B AR
D in
E v
F ar
G abriella
L F
U s
b uh
c ro
h ol
k ets
s pl
t uce
y ummy
z burg
Ġs or
Ġb om
Ġb ib
Ġb icycle
Ġm arty
Ġp ul
Ġn erves
Ġn ortheast
Ġbe es
ut ive
Ġk itten
ĠS ho
Ġso d
ĠT es
Ġall owing
op ard
ĠW ars
ul es
ĠD art
ĠG us
ĠL ead
ĠL arry
Ġsp ill
ĠN ations
ĠE lf
Ġtr ot
Ġar oused
ĠU m
Ġsha llow
tain ment
do ing
ĠY E
air y
Ġrec ess
li ver
Ġear liest
Ġ4 00
Ġquick er
Ġform ing
Ġnews papers
Ġmed ium
Sh h
Ġce re
ĠCol omb
amer on
Ġmaster s
Ġrain bow
Ġest imate
AD E
Ġquar rel
ĠRos a
Ġ195 2
Ġ195 4
Ġ195 5
Ġ195 6
rer s
Ġtem ple
Ġcre ation
fl ower
ENT S
._ --
Ġphot os
Ġcell s
Ġgrad uated
Gu y
Ġgrab s
Ġfurn ished
Ġforest s
Ġpra irie
Ġsch olars
Ġintrodu ction
ĠJew s
ught y
Ġmethod s
Ġsurround ings
ĠRay mond
Ġconven ient
Ġphilosop hy
Ġperman ent
Ġwelcom ed
5 6
A dd
C OL
N ESS
O ff
P ORT
S ur
S HE
W onder
c ross
c alled
e ating
f ood
f les
g ies
m ail
n ity
o cc
v ard
y up
Ġw i
er ted
Ġm oo
ing e
es y
Ġl ions
ar ia
as hi
Ġn aval
at ures
Ġha w
oo g
im al
Ġre li
ri ved
Ġst all
ro be
ĠS ilver
ĠA y
ill o
ĠB id
ĠB all
Ġr andom
ain ty
ĠT eddy
ĠT oday
ul gar
han ie
Ġsu its
ind ing
ig en
ig ers
ĠR ub
Ġex ists
ĠN HL
Ġtr aces
Ġover se
Ġcl er
Ġcl apping
Ġun lock
Ġfl ashing
Ġcar go
Ġcar bon
ub b
ĠY uchi
ĠV ol
Ġown s
Ġrec oll
Ġpret ended
ĠAl aska
Ġmet ers
Ġref lection
Ġrep resents
Ġpur poses
wh ite
Ġbusiness man
ues e
Ġev al
Ġopp onent
Ġmag ician
Ġpar allel
Ġrock et
ĠAt t
Ġhorse man
ze ch
cri bed
lo ad
co at
hold s
ĠPol ulu
ĠMe itei
ĠRuss ians
Ġengine ering
Ġemploy ment
ĠMon ster
Fuck ing
Ġdesper ately
Ġdepart ed
Ġess ential
ĠCla ire
Ġconcern s
Ġsav ages
Ġqual ified
Ġlin er
Ġswall ow
Ġsem i
Ġsubm ission
Ġmeas ures
Ġanal ysis
Ġhun ter
ĠRad io
Ġdisgust ing
cur rent
ĠBroad way
ĠPE OPLE
tit les
ĠWals all
ĠChatah uchi
ĠAssemb ly
" ..
/ /
B u
C ool
D ick
F R
H it
P o
P ost
T ur
l ap
r r
u v
Ġ {
Ġ ----
ha ired
Ġc f
Ġd ated
Ġf aded
or ation
or ial
Ġhe nce
Ġh osp
le e
al gi
im b
im ming
ir it
ĠM AR
ĠM icro
her lands
ĠS no
Ġse ctor
ĠA st
ĠH ur
Ġj aw
Ġr am
ĠT iger
ie ur
our ing
th y
Ġsp it
ĠN ame
ĠN umber
ĠN intendo
Ġv ivid
Ġv ault
ort ing
Ġro pes
Ġpe ac
so ever
Ġpo ems
Ġfl ights
Ġpre cip
ach t
ĠSt u
Ġwr ath
Ġper f
do ors
ĠV en
ee k
ĠCh ow
Ġpres erve
ott ie
Er ic
Ġbed time
Ġ3 7
gr unts
Ġmar ble
Ġmar vel
cle ver
ĠAn thony
Ġinc orpor
Ġswe ater
Ġcent uries
ik es
ey ed
Ġpar ade
Ġsun ny
Ġexam ples
Ġmod er
che ster
Ġenjoy ment
Ġsucc ession
Ġdev otion
Ġ193 9
ien na
Ġfle e
tr uck
Ġdeterm ine
Ġsusp ended
Bl ue
Bl oody
Ġactiv ist
Ġperform ing
Ġrese mb
Ġwrest ling
ĠEvery thing
Ġetc etera
Ġflo at
Ġow l
Ġfaint ly
Ġpant ing
Ġsuffic iently
Ġdeser ves
Ġamb ulance
Ġexecut ed
Ġprior ity
Ġrhy thm
Ġtu be
Ġgreet ed
Ġcommun ities
ROU ND
dri ver
Ġcors airs
imm ock
ĠPortug uese
ĠTele vision
angar oo
Ġcoff in
) .]
A CT
I CH
L ord
M arch
N ick
c hat
f ine
i ques
o ft
p ig
s kin
t ra
he ld
re ll
on om
Ġd ainty
or ms
Ġha n
ic ate
ic als
id y
Ġwas ting
ac ha
Ġre nder
Ġk in
ro it
ĠM ess
ĠM amma
ĠM anchester
ĠS AME
ĠS pecial
ĠC ensus
ĠC LO
if ting
Ġr ic
un ty
ĠT en
ĠT erry
ĠW on
ĠP att
ĠP ier
ĠP ART
qu ack
ĠG ina
itt in
ĠJ osh
ard ines
Ġcon vention
Ġlook in
Ġright ly
Ġover t
Ġtheir s
Ġcl iff
Ġbr ut
Ġgr ows
per t
Ġsha wl
ĠĠĠĠĠĠĠĠ ĠĠ
Ġgl ancing
Ġdes cent
AN Y
Ġsw amp
Ġret rie
ont o
Ġdear ly
Ġcons ol
Ġass ass
Ġinter nal
ale m
Ġfoot steps
Ġpay s
Ġdisc ount
Ġmus cle
Ġste pping
Ġfuck ed
ĠAll ied
Ġappro ve
Ġpen al
Ġfro ck
Ġvill ain
Ġ196 1
Ġconsider ably
Ġeffect ively
Ġquar ry
Ġ195 1
Ġ195 8
Ġang rily
Ġ194 7
Ġfat ig
ĠSe oul
aps ed
Was n
Sp eaking
Could n
Ġdread fully
US IC
Ġchat ter
** **
ere lla
Ġign ore
Ġwrest lers
Ġconv ince
Ġrout ine
every thing
Ġhunt ed
Ġox ygen
Ġindepend ence
Ġencour aged
Ġvent ured
Ros a
po inting
Ġwealth y
Jim my
Ġimpress ive
ĠAli bam
pur ple
Ġfeather s
ĠConf eder
ĠNob ody
ĠPrin cess
Ġank le
ĠLaugh s
cray on
Ġpuss y
Ġmortg age
ĠMcDonald s
ropol itan
ĠMoo re
ĠGeno a
refer ring
! --
" ),
5 5
A men
N OT
T V
a ire
b us
b ble
c us
g ins
h ors
s wer
s ounds
Ġw ires
it ated
Ġm akin
Ġc el
Ġc able
Ġd ummy
es c
Ġl orry
Ġhe ns
Ġh ip
Ġha z
ic ations
Ġe y
al most
Ġre ins
se en
ir cle
ĠM as
ĠM UST
ĠS now
ur se
ĠB and
ĠB unny
ĠH ospital
ĠH OME
ĠH uns
il ion
Ġcan vas
Ġsh h
ry n
ĠD oug
ĠD immock
Ġpl acing
ĠG IRL
ig i
ĠR eb
Ġsp ider
ap se
ĠE le
ĠO re
ĠO pen
Ġlo af
ho en
Ġun ions
Ġmo ist
ict ures
Ġch orus
og an
Ġcont em
ĠIn f
Ġsur geon
Ġstand ards
Ġfr idge
Ġtri ps
Ġcons umption
Ġsk irt
Ġunderstand s
oub ted
ati o
Ġdef ined
ĠAll ah
Ġsn iff
Ġfix ing
Ġpot ty
Ġknock s
Ġdescri bes
mo ves
Ġver d
Ġcapt ive
Ġtor ch
ribut ed
Ġguard ed
Sp eak
Ġstream s
ĠBert ie
Ġbeha vi
Ġsurv ived
Ġprinci ples
Ġprim arily
Ġspo iled
Ġprint s
Ġinno c
Ġelephan ts
ĠNE VER
ĠMore over
Ġrare ly
hib ition
Ġbark ing
Bob by
Joe y
Ġconsult ation
rig ade
ĠEgypt ian
ras her
ĠRod ri
Ġcigaret tes
Ġestim ated
ĠRec ords
Ġtox ic
App arently
Ġinstit ution
Ġquant ity
Ob viously
dire cted
ĠEthe l
Ġhed ge
escend une
Ġapprox imately
Atlant ique
Ġbom ber
A LE
H o
L em
N ame
P age
W HO
c ups
d les
d ey
m ad
m un
o qu
p erson
s uch
Ġt aps
Ġa uth
Ġa ught
in er
Ġw ww
Ġthe ater
ha ra
Ġp uma
Ġn ay
Ġhe m
Ġh oll
et ing
id ency
Ġe c
se m
ri ft
Ġst atic
Ġdo l
st ri
ĠA ma
ĠA CC
ĠA escendune
Ġr idge
Ġr aspberry
ĠT alk
ĠT ai
Ġsh ru
Ġbut cher
ink led
ĠD omin
Ġsu nd
ĠG aston
ĠF ur
ĠF arm
ĠJ udge
ĠR F
ĠR u
em et
Ġv oted
fe el
Ġwill n
ĠO hio
ag les
Ġtr oop
Ġro ses
ud es
ĠK ap
act ive
Ġhand ful
ĠU NDER
Ġim ple
ĠSt ory
Ġact ors
ĠY an
Ġnew ly
Ġsl ack
oss y
Ġche at
Ġche aper
Ġgl ove
Ġrec overy
Ġsit uations
Ġread ers
Ġret orted
Ġtri ump
Ġsecond ary
Be ing
Ġinter ven
Ġsleep s
ters hire
ĠTh rasher
Ġprom otion
ĠSo fia
Ġquestion ing
Ġadv is
Ġed ition
itch ing
âĢĶ âĢĿ
Ġfro st
Ġobject ives
ĠPro bably
Ġappear ances
Ġdoubt ful
ET TER
Ġvar i
ĠDr ake
Ġstri pes
Ġgrow led
Ġresult ed
Ġban anas
Ġaccident ally
Ġtor ment
Ġviol in
Ġcuri ously
ĠRE ALLY
May a
Ġcruel ty
Ġgir affe
ĠBern ardo
ĠCla us
Ġreact ing
Ġtear ing
Ġfac ilities
Ġrejo ined
Ġaccompl ish
ĠMax well
Ġcontribut ion
Ġspect ators
Ġembarrass ed
Ġconver ted
ĠAri zona
Ġpupp et
Ġestablish ment
Ġven geance
Ġsout heast
LAUGH S
ondisse ment
Ġgrap es
, ,
H ear
H enry
I O
L ar
L augh
M amma
P art
S y
T ommy
V ictor
a o
b urn
c all
c atch
l ater
l ord
p ost
Ġw ist
Ġo pt
Ġf i
ĠI ng
id able
Ġwe lf
im an
ac ie
st ate
ĠM s
ĠS andy
ĠS everal
ĠA v
ĠA pple
ce ler
ct op
Ġso lo
ĠT oy
Ġcan s
Ġwhat soever
ĠP H
qu al
ra gue
ĠR ect
ĠR ES
Ġex ert
Ġv ine
ĠE VERY
ĠO wen
ick ers
Ġoff ence
we e
ĠK ir
Ġco ke
Ġun w
Ġun kind
ĠSt ri
cl ing
ub l
ons ieur
Ġhead hunters
ĠV o
ĠV ill
Ġcr ushed
Ġres erved
ĠIn stead
AN E
Ġfather s
ĠAnd erson
Ġtri fle
St ation
pr oof
ĠThere fore
Ġadd s
ier ra
Ġsign als
eed s
Ġ4 6
ĠTh ink
Ġshort s
Ġ6 5
Al most
Ġ198 3
Ġroll er
che on
Ġprof ound
ĠLe g
Ġtrust ing
Ġcost ume
AD Y
Ġtast y
Ġtor t
sp eaking
Ġ193 1
Ġremain der
ĠSe ven
ĠWith out
ĠTHI NG
Ġfre ight
Ġspread ing
Ġalb ums
Ġtrad ing
Ġmoon light
vocal ize
Ġfem ales
turn ed
min ist
Ġodd s
Ġsurv iv
Se ven
Ġscrew ed
ĠJo el
Ġshr ine
Ġsquir rels
ĠPri ze
Ġpolite ly
Ġvic inity
ĠNet herlands
Ġmac aroni
ĠKy ung
Ġlux ury
Ġdart ed
rigg s
Ġdisgu ise
Ġstub born
Chair man
ĠAG AIN
Ġconspir acy
cill or
oubted ly
C ho
G erv
L o
L ight
M ic
P olly
T ri
U gh
U ARY
b ian
d ist
g ard
m oon
Ġt asks
Ġw ob
ha lf
er red
Ġb a
Ġc ore
Ġc udd
Ġd ict
Ġd ense
Ġf ir
Ġf iled
Ġp av
Ġp unk
Ġg ig
ar ter
as ia
Ġin ev
Ġn g
at an
Ġhe el
Ġwe ars
Ġre verse
ĠM U
ĠS il
ĠS we
ĠC zech
ĠB C
ĠB ack
ĠB og
ĠB ush
ĠH APP
Ġr oo
... !
Ġcan e
Ġde eds
Ġde leg
ĠW ay
art en
ul ars
ĠP y
ĠD in
ĠD er
ĠL yn
ĠL ena
Ġwor ms
Ġsp ons
ĠN isha
ap oosa
Ġv ary
Ġnow adays
are r
Ġbo ards
ud ed
ark er
Ġhar ass
oun ge
Ġac he
ott o
Ġ3 4
Ġrest less
Ġri pped
Ġsort ed
Ġï¿½ ï¿½
Ġhur led
Ġhigh light
app ro
Ġsub sequ
Look ing
ĠTh om
Ġdeal er
ĠBart ow
for med
ĠIs abel
Ġlear nt
ĠCha kswari
Ġstick ers
ĠZ en
tern al
Ġyell ing
AM P
Ġclass ic
Ġve ter
itc her
iver ing
Ġequ ation
Ġcre eping
Ġgod mother
Ġlift ing
Ġrad iation
isc her
Ġpal m
Ġsle nder
Ġobs ervation
yl via
Ġspeed ily
Ġthreat s
kes pea
Ar t
Ġcrack er
ĠJul ia
Ġconv oy
Ġsuspic ions
Ġaim ed
hang ba
Ġmagaz ines
ĠHaw ai
Ġfac ility
Ġtom atoes
Ġaffection ate
Ġcitiz en
Ġrepro du
SC REAM
Ġenqu ired
ĠShar ston
Ġhaul ed
Ġax e
Ġlemon ade
Ġpean ut
Det ective
Ġprecise ly
Ġmunicipal ities
Kat ie
Ġcoinc idence
Ġcinem a
Ġopportun ities
emet ery
Ġwelf are
! _
A ah
A IL
C AN
F L
J ap
L isa
M ur
M ax
W est
W AS
b ad
b one
b ra
i u
r ome
r ons
Ġ âĢĶ
he im
Ġa uction
Ġm ajesty
Ġc ot
Ġd ub
en ance
Ġp aw
Ġp ork
Ġp ige
om ers
Ġre ass
ad ise
ĠM ove
ĠS IS
ĠA ut
ter m
Ġr owed
Ġr ays
Ġall igator
Ġsa fer
Ġsh orter
ĠW onder
ul ed
ĠP rem
qu iet
Ġal tered
Ġor gas
ĠF all
ĠF ree
itt ens
os hi
ard i
ĠR ail
Ġsp otted
Ġint imate
ag ne
Ġlo b
hi es
Ġco ats
Ġun su
Ġpo ly
Ġpo pped
Ġpr ow
Ġad apt
Ġsha ken
ub by
ĠV ienna
Ġsl ain
Ġres idence
og ers
Ġhar vest
Ġche wing
Ġgl ow
iv a
AT ES
Ġpres um
Ġri p
Ġfollow ers
ib a
Ġinter cept
Ġpay ment
ric s
ĠEng ine
ball s
ĠDe ath
aj amas
19 7
Ġexam ine
Ġdoub ts
Ġwall et
eng u
AL S
ĠFrank ie
ighb or
sc ar
ĠDan ish
Ġhero ic
Ġpun ish
ĠLem uel
Ġsail ors
Ġtit les
Ġcult iv
Ġgro cer
Ġsour ces
Ġhesit ation
Ġox en
Ġautom atic
ĠFrost y
Ġconqu er
Ġdump ed
Ġexha ust
Ġtremb led
Ġï¿½ï¿½ï¿½ï¿½ï¿½ ï¿½
Ġintellig ent
ĠTer rit
rend an
Ġribb ons
Pol ice
bro ken
Ġobey ed
Ġmour n
ĠDen ver
ĠTall apoosa
Ġevol ution
Alf gar
Ġsou ls
Ġeld est
Ġwhar f
ĠAlibam u
2 20
C e
G ET
J ung
J une
M er
M en
M AY
R achel
U H
W AY
Y e
d led
r ich
s ays
t ri
w ent
w all
Ġ ze
Ġw ider
Ġs ul
Ġb acon
Ġm att
Ġc aval
Ġd ive
Ġd itch
Ġd ances
ll is
or ig
en ri
hat tan
Ġth ro
Ġth ieves
ic it
ic ation
ut t
ut ches
ad ad
Ġst are
am o
am ar
am off
ĠM and
Ġse lection
ĠB uck
ĠB alt
if le
if teen
ĠH u
ĠH orse
ĠH ugo
Ġj okes
Ġshe er
Ġ" '
ab l
ĠP ass
ĠP hoen
ĠP ictures
Ġor chard
ĠG ard
Ġcon j
ak u
Ġex it
Ġman s
ĠE mer
Ġint ent
you ng
Ġback ward
Ġover time
Ġgr ain
Ġam use
Ġam bit
iss y
ĠK atherine
ĠU t
Ġlong ed
Ġmo ck
get ting
Ġsha ped
HE Y
Ġlea gues
og a
Ġhar bour
Ġmin imum
Ġche ers
Ġend ure
Ġrec ru
ĠMar ine
Ġ3 9
uff er
Ġtri ang
Ġsk ip
ĠEd uc
Who ever
uss ian
Ġtra itor
Ġconf eder
ric ane
CH O
ĠTh rough
ĠChrist opher
Ġprom inent
Ġcur se
Ġform at
Ġlik ing
Ġhum or
ĠAd vent
Ġcat hedral
Ġap ology
ipp ie
Ġ196 5
Ġpost ed
Ġcomfort ably
ĠCon stitution
la f
Ġorgan izations
Ġsuccess fully
Ġ195 9
ĠAb ino
ĠTe chn
off s
off ice
Ġeduc ational
Ġmass es
Ġhide ous
Ġappre hens
Ġregular ly
hand ed
Ġdread ed
Ġchat tering
Ġrob bed
Ġcustom s
ĠRand om
Ġcorrect ly
OH N
Ġentertain ed
Ġsignific antly
Ros amund
Ġamb ition
ĠSel by
ĠFair view
Ġfee ble
ĠKnight s
EX P
ĠJun ior
Ġdeliber ately
Ġcush ion
ĠPear l
ĠChampions hips
Ġscramb led
Ġrasc al
Que en
Ġmush room
3 4
? --
I m
P apa
V D
W HEN
W HERE
c al
c ake
c ular
e ye
g otta
l asses
m us
s en
s pr
u ish
he nd
Ġs ultan
Ġs ardines
ha ir
ha les
on ica
it us
Ġc ope
Ġd angers
al ion
am el
Ġme ek
Ġwith draw
ĠB us
ell ect
ĠH oney
ĠH aut
ĠH EL
Ġup ward
th irty
ĠD IS
ĠD enton
qu er
Ġpl ug
ĠG ame
ĠF C
ĠL or
ist a
ĠR aj
Ġsp ear
Ġsp illed
ĠN one
ĠO BJECT
Ġcl ung
Ġro ared
ud ent
Ġco ins
pl ing
pl an
pl ain
be at
Ġun ac
Ġpart ial
Ġdis like
Ġrem o
Ġsha ft
Ġche ating
Ġpres erved
Ġac celer
ĠFr itz
OR D
RE T
Ġ4 2
ĠTh ousand
Ġbar r
Ġage nda
Ġdef ensive
ĠAll en
An ge
Ġattack ing
Ġcho ke
Ġfear ing
Ġsoft ware
ĠPro ject
Ġsuggest s
Ġdet ailed
Ġban quet
Ġprin ting
ĠAm ong
Ġjud ged
Ġoccur s
Ġsouth west
ograp her
Ġpun ished
iction ary
ĠRob inson
ĠLouis iana
Le ft
Ġmotor cycle
Ġpsych iat
Ġspo ons
Ġ187 0
Ġmission ary
Ġsche mes
Ġfoc used
Ġdwell ing
Ġstern ly
ĠArab ic
ĠMount ains
Ġhorn s
ĠCON T
Ġcy cle
Ġanno yed
bird s
sec ution
Com te
Em ily
ĠRich mond
Ġneighbour hood
Ġbol t
ĠLes lie
Ġsaus age
Sho ot
Ġimpr ison
Cour se
Ġcompens ation
donald s
Ġchal k
Ġsym pt
ĠBour g
Gerv aise
: //
B er
B oss
I BLE
J an
K ing
M O
P ass
R F
S n
T im
W N
b ound
m oo
n an
n um
n ings
s aid
s itting
v ag
w oo
w ear
Ġt art
Ġt umble
Ġs ne
ha ven
Ġb unk
Ġm i
ed e
Ġl ounge
om on
ow a
ad der
ĠM www
ĠM iles
ĠM aud
Ġan aly
Ġse w
ĠA w
ĠC ow
ĠC ry
Ġkn ives
ĠB ase
Ġr ains
ĠT ry
ĠThe od
ĠG ary
ĠF O
ĠL ow
Ġwor ries
ĠR as
ĠR ain
ĠR ick
na p
ĠN ine
Ġv ow
Ġman agers
Ġback ed
Ġar gu
Ġcl an
Ġcl ar
Ġaf ore
Ġaf fl
Ġro aring
Ġplay in
pl ed
Ġun will
Ġfl owing
ord in
Ġgu ilt
ach ment
Ġsm ashed
Ġeven ings
Ġch illy
ans y
Ġmin ing
Ġser ves
Ġgl ances
Ġatt ending
Ġcha ins
oun ce
ĠBr and
vers ed
Ġfell a
Ġrest ored
Ġcol ony
Ġcons ists
mp oo
Ġimp ulse
Ġref res
Ġref orm
Ġsince re
Ġsign ature
Ġ4 7
Ġste ering
Ġprom oted
Ġbas kets
Al an
Ġprov isions
Ġho arse
Ġfree zing
Ġcho king
velop ment
Ġ17 0
Ġdirect ory
Ġ15 0
Ġz ebra
hold ing
Fr anche
ĠPer ry
mon key
ĠON LY
Ġclub s
Ġbreath less
Ġcourt esy
ĠMary land
Sp ike
Ġident ical
phan t
worth y
Ġremem br
Ġpin ch
ere my
Am ong
Ġign ored
Ġmum m
Ġvac ant
Ġcelebr ation
Ġwhist ling
Ġarg uments
Ġpred ict
Ġscient ist
Ros y
Ġpump kin
Ġbitter ly
ĠMot or
Ġcomr ade
Ġembarrass ing
Ġtempt ed
Ġbisc uit
ĠGil roy
Ġkidna pped
Ġawait ing
Hy un
ĠLiber al
Hon est
Ġslee ve
Ġdepth s
ĠBor is
Ġsummon ed
ĠMull ins
Ġwis dom
ecil ia
Ġwebs ite
Ġreci pe
ĠCray le
Ġpha se
ĠDoub s
Ġtatt oo
refe rent
Ġunnecess ary
kespea re
ĠBourg ogne
5 9
6 6
C ur
D el
D AR
R ay
S an
T HING
c over
h ill
h uman
j ab
n est
o i
r ise
Â Ļ
Ġ ou
Ġt umbled
Ġw are
Ġs i
Ġs iege
Ġb ung
it ia
Ġm ice
Ġm hm
Ġd ent
Ġf ain
or ay
an ese
Ġp p
Ġp ave
Ġp ots
Ġin fection
le ans
ic ious
Ġbe gg
ld on
Ġme lt
ĠS hane
Ġas c
Ġli ver
ĠA ce
ĠA ud
Ġgo ss
ĠC AR
ĠC hile
Ġkn e
Ġde em
ab b
ab ove
ĠP ad
ĠD ong
ĠF BI
ist inct
ĠR a
Ġsp ur
ĠN ana
Ġlook out
Ġv ital
Ġint onation
hi er
Ġam using
be an
Ġ19 20
Ġsc ul
Ġsm ack
ĠSt arr
Ġsha res
ĠY outh
Ġres igned
Ġcha sed
Ġac ad
ĠTHE N
Ġkill s
Ġï¿½ ï¿½ï¿½ï¿½
ib ilities
Ġsub stitute
Ġdisc our
bo ards
Ġbas ement
wh oo
for ward
ĠCha mp
AP TAIN
Ġrepl acement
Ġadv ancing
Ġem pt
men io
Ġsn atched
Ġarm ies
Ġobject ive
Ġrequ ires
Ġdiv ine
Ġ194 4
ĠNot ting
ĠWh istling
gu ard
ĠWho a
ĠMad die
Ġcru iser
Ġhy p
ĠCent re
Ġdisp ute
Ġstat istics
Ġstret ching
Ġ192 9
Ġcondu cted
ĠMor gan
Ġneat ly
Ġtrail er
Ġmagn ets
ĠWin nie
cel ona
Ġcompar ison
pir ation
Ġspecific ally
Ġpainting s
Ġconqu ered
Ġprotest ed
Ġsubm itted
Ġcompos er
Ġrevolution ary
bour ne
Ġdisplay ed
Ġsequ ence
ĠKas hm
ĠFore st
Ġancest ors
Ġrept ile
Ġalter ation
Ġinse cts
pee ch
Ġagric ultural
ĠPleas ant
Ġcater pill
Ġauth ors
' -
D ec
I d
P ick
P LE
T Y
T onight
W ater
b ia
d ah
j ingle
t ail
Ġa irl
Ġa pron
in ja
Ġw aking
er ness
Ġc one
Ġc od
Ġo wing
or rect
Ġp ajamas
Ġg aining
ĠI van
ĠI MP
et ta
ic ine
Ġst amps
ro chee
ĠM ah
ĠM AT
ĠS up
ĠS alt
Ġse ctions
ĠA www
ĠC D
ĠC E
ĠH mm
ct ive
Ġne ut
ĠT E
ĠT AKE
Ġsa uc
Ġsh ine
ĠW ol
ĠW HEN
Ġpl uck
ĠF est
ĠF ound
ra zy
Ġjust ified
ĠR ory
ap o
Ġv it
ort ion
âĢĻ ,
Ġtr icycle
And re
Ġbr ushed
Ġam mun
Ġbl ink
Ġbl ah
ĠK ay
be ing
Ġpart ing
Ġfl ip
Ġsc orn
ĠSt umpy
cl oth
ĠY az
Ġsl op
Ġbit ing
Ġche f
me red
Ġri fles
Not e
Ġass ail
ĠWe re
br own
Ġconf essed
Ġten ant
Ġrep ublic
Ġland scape
ĠTh or
bo om
Ġcontin uing
Ġed ges
Ġlay er
Ġmain tained
de f
Ġconc rete
Ġeng age
Ġ9 8
Ġworry ing
Ġstar ving
Ġpolit icians
che ese
oop ing
Ġpost s
Ġwhis pers
Ġ194 1
Ġlim b
Ġvol umes
Ġdi aper
Ġchief s
Ġhast ened
Ġterm inal
Per fect
Mar g
ĠJust ice
Ġsatisf actory
Ġbound ary
Ar ound
Ġemploy ees
Ġpercent age
ĠTur key
Ġreck less
Ġscream s
Ġphys ician
vere nd
Ġfru its
Ġcraw ls
bre vi
ĠCH AR
Ġscore s
Ġfeat ured
Ġox ide
Pl us
ĠDar win
Ġborrow ed
dr ink
Ġjew el
Ġtravell ed
Ġimprove ment
Ġune as
ĠChild sname
Ġsolemn ly
Ġleaders hip
GO OD
Ġtank er
Ġbul k
Ġcommit ment
might y
Ġcryst al
Ġcust ody
ĠChin aman
Ġchrist mas
Ġbewild ered
Ġmax imum
ĠEnter tainment
mir al
Ġaggress ive
ĠManip ur
onom ous
ĠOre gon
Ġammun ition
, [
C ER
C oll
C atherine
D or
D ead
F all
L aura
M aster
S ighs
S everal
W r
W ITH
b asket
g od
h ums
p ower
w ord
x ide
Ġt ame
Ġt ies
Ġw ax
Ġc ant
Ġd il
Ġp issed
Ġg imme
Ġl ined
ĠI D
ĠI an
Ġhe ed
ot y
ve mber
al ysis
ac r
Ġre ly
Ġre un
ri ving
Ġst ing
Ġdo omed
ĠM IN
ĠS cience
ĠC e
ĠC OUR
ĠB ate
ĠH at
Ġr amp
ĠT un
th rough
Ġsh rill
ĠP G
el uj
ĠF uk
Ġus er
ĠR ow
ĠE mm
ĠE VEN
Ġer ase
ĠO per
No vember
Ġbr ake
ĠK E
ĠK ha
ĠK id
ĠK am
Ġco in
Ġwork er
ho oray
Ġlet tuce
Ġun in
thing s
ord ingly
ia o
Ġdis pl
Ġcr ooked
Ġhouse keeper
Ġdes ir
Ġsupp orters
ank ing
Ġfar ming
Ġbelie ving
Ġfell as
ON NA
Ġrest ore
Ġhalf way
gr im
Ġinter vals
Ġmiss iles
sh ut
Ġsub mit
Ġwonder fully
Ġdisc om
Ġsent iment
ĠHar court
Ġste er
Ġbar rels
Ġsn atch
Ġran ks
ming ham
umb les
Ġcho ked
Ġve ins
Ġmot ions
ĠGu inea
ĠCount ry
Ġdecided ly
ĠMan hattan
hell e
cient ists
Mar ie
Ġtall er
Ġvide os
Ġneg lected
Ġpat rol
af ed
Ġexcited ly
IF F
ĠMart ha
Ġfund ing
Ġscream ed
Ġgrab bed
ĠBO OK
Ġstir ring
Ġfier cely
ĠPal mer
Ġassoci ation
Ġdim in
Should n
En joy
ĠSy d
Ġyo gh
ocr ats
Ġrelax ed
Ġange ls
Ġrecomm ended
FOR E
Ġagre eable
Luc as
ĠPlay Station
Ġmeas ured
ROU GH
Ġdisag ree
ĠSand ers
add ressed
Ġimit ates
Ġconsist ent
ĠHind u
Ġlun cheon
Ġprivile ge
ĠBos well
Ġperce ived
Ġregist ered
ownt own
ĠWel sh
ĠAbr amoff
Ġeleg ant
ĠCommun ist
Ġeyeb rows
Ġdestro ying
ĠMicro soft
eluj ah
- ,
4 2
A ss
A CH
A ugust
B arry
D rop
E ither
M in
M ine
O VER
S EL
T ot
W ha
b od
b ah
b ased
c ala
d uh
p apa
s weet
Ġ |
Ġt ips
in ations
ha st
er ie
Ġb ureau
Ġg er
Ġg ale
Ġl ugg
Ġhe ck
et e
Ġbe an
ut a
Ġwe ed
ri k
ri ers
am ble
Ġk angaroo
Ġan te
ĠS out
ĠS ang
ĠS hall
ĠS unny
ĠA ra
and ra
ĠC ALL
ĠC lear
ĠB ud
ĠB und
ĠB rett
ust y
ĠT al
ĠW ow
ess a
ul ator
ĠP hy
ĠD ak
ĠG iant
ĠR ober
Ġex clud
ĠN ong
ĠN ag
ĠN ora
ĠN IGHT
Ġman ual
ĠE agle
ĠO oh
ĠO THER
ag uchi
Ġbl o
Ġhow l
Ġ( ),
ĠK a
Ġco aches
ren ches
ci ously
Ġyear lings
int ed
ied er
ĠShe pherd
ens ed
ĠV ig
Ġhar mon
Ġstr ained
ĠCh uckles
Ġcha ps
Ġcount enance
look ed
Ġent reat
Ġdra gging
ec utive
Ġlist s
Ġair field
Ġdec re
Be en
Ġinter rog
Ġmiss ile
ĠInd ones
Ġdep ending
Ġhat ch
Ġconf ined
Ġten ants
Ġsim ultane
ĠCl ass
TER S
Ġbar ge
Ġglad ly
Ġdef inite
Ġtrans ition
Ġprot ests
Ġbreat hed
oop y
bl ock
Ġcirc uit
Ġnorth western
ĠCon nect
.... ....
Ġgall ery
ĠCo ach
yl um
Ġamount s
Ġsepar ation
Ġrepresent ing
ĠAre a
Ġstream ing
Ġstrugg les
Ġacqu ired
ĠNe xt
ĠAlf red
Ġburst ing
Ġsna pped
isher s
ĠCat al
ĠBo ard
Ġpatter ns
hab ited
Ġboun ce
Ġboun ces
Ġbold ly
ĠAust rian
Ġdecor ation
Ġdebut ed
Ġliqu or
Ġenqu iry
Ġhun ters
Ġlic ense
Ġgym n
ĠKas i
tick le
Ġcateg ory
Ġfab ric
Ġhym n
Child ren
Ġtuck ed
ĠDaw son
Jess ica
âĢİ .
ohoh o
Ġconstru cted
Ġming led
Ġreli able
Ġdol ph
Ġpav ilion
" ...
4 9
C ont
C omp
D AY
D AD
H oly
I an
M ed
N ah
S S
V as
W ake
Z oe
c har
c hen
c akes
g ently
h our
l oy
l oud
p ite
r um
y ers
he never
Ġw ol
Ġw ig
re pe
Ġs omeday
it ches
Ġm ates
Ġc ass
Ġo ar
Ġf ax
Ġf ries
Ġp and
Ġp ins
Ġl em
Ġl ass
Ġl ang
Ġn igh
Ġn oun
at ers
Ġha e
Ġha mm
Ġth ump
id ly
Ġwas her
ac re
Ġre named
Ġre levant
Ġst ag
Ġst umbled
am ous
ĠS ak
ĠS ierra
Ġse ize
ĠC un
ĠB av
ĠB elle
ĠH uman
Ġr otten
Ġr oused
ĠT unde
op les
ood le
Ġout rage
ĠW ON
ĠP S
ĠP ick
ĠD AY
Ġpl ac
ĠG a
ĠF ederation
ĠL IGHT
ĠR AD
ast a
ĠE arl
Ġsay in
Ġpro long
Ġgr ammar
ass an
ren ched
Ġun re
Ġsc oot
Ġcar rot
Ġsm ash
do ggie
Ġsl ice
Ġcr ashing
ans ion
Ġkind erg
Ġfound er
Ġfound ation
Ġsw ings
Ġdist inction
Ġpers ist
Ġfell er
ins ula
ject ion
Ġcap s
Ġid le
sh op
uss ia
Ġext inct
Ġcoll apse
Ġcontin uous
Ġbar rier
Get ting
Ġ6 6
Ġ6 8
Ġmouth s
Ġpar am
Ġ7 6
ĠSp irit
Ġclass ical
Ġfa iries
lo v
Ġhung er
Ġsuggest ions
Ġcontro vers
Ġtreat y
Ġcast ing
Ġfail ing
Ġcompl aint
Ġsol ved
Ġ193 3
Ġ193 8
Ġtow ers
Ġfre ak
Ġspell ed
Ġpun ct
Ġ192 8
Ġdefend ant
Ġrepeated ly
ĠNor man
ĠCat hedral
Grand pa
Ġhook ed
Ġqual ities
ĠTra il
Ġmap le
ĠPak hangba
Ġpassion ate
Ġparticip ated
ĠSav annah
Ġassemb ly
Ġvig or
Ġapplic ations
Ġindign ation
Ġignor ance
Ġgloom y
Ġbuff alo
ĠBang l
ĠDID N
Ġnom ination
Ġstair case
ĠCind erella
ĠNichol son
Ġacknow led
ĠBry ant
Ġtherap y
Ġsup reme
Ġinval id
Ġscrat ched
ĠPLAY ING
ĠVenezuel a
Ġbehavi our
ĠTerrit ory
ĠPhoen ix
Ġsympt oms
Ġgoss ip
Ġscul pt
ĠKashm ir
" "
B ELL
G entlemen
H igh
L ie
M ISS
N ay
P T
S et
V ED
d aughter
g uh
j our
k ids
o be
s im
s ince
s leep
t han
t em
u ffe
Ġt s
Ġthe ft
Ġs ulf
ha i
Ġb uh
Ġc oughs
Ġf ried
Ġto il
Ġp airs
Ġl as
Ġin ex
Ġh oss
Ġha il
Ġha lt
Ġon ion
Ġbe ep
Ġwas hers
Ġst ur
Ġst ables
Ġdo ck
am used
ĠS ad
Ġse aled
if th
un es
pp led
Ġde als
ĠW oo
ĠW oman
ĠP resently
ĠD arry
Ġpl under
ĠG ene
ĠG REAT
ĠF ischer
ĠJ ol
ĠJ essie
ĠJ umbo
ĠL ock
ĠR ic
Ġex quis
Ġwhen ce
Ġint ellect
He e
no ld
hi bit
Ġtr im
Ġcl aws
Ġbr ow
Ġbl unt
Ġbl ues
ud y
ĠK irk
Ġen chan
ass et
pt ic
Ġhand ies
ci ences
Ġim ages
Ġper ple
Ġch ur
Ġch ron
Ġcr ouched
Ġstr ings
Ġcha mpions
Ġcomm ence
rest ling
Ġhard est
bab ble
Ġread s
Ġread iness
Ġdr ain
Ġreg ards
Ġfact ories
sh irt
ok a
Ġext ensive
Ġinc on
ĠDe f
Ġexpl oded
Ġcur led
fort une
Ġem peror
Al bert
Ġdraw ers
Ġpar ish
cha l
Ġill um
Ġcamp us
Ġcor p
ĠLe o
Ġdevelop ing
ĠWar ner
Ġaccept able
Ġwarm ly
Ġsnow ing
Ġjud ges
Ġ193 2
Ġpark ed
Ġsatisf y
ĠMa isy
Ġdestroy ers
Ġpuzz les
OP E
Ġemploy er
Ġneg lect
ĠLou ise
ĠChe ster
Ġtour ist
ĠDO OR
Ġmotion less
Ġproceed ing
ĠEve rett
ival ent
fall en
abri el
Ġliter ary
asm ine
Ġcommunic ate
nee zes
ĠAnt on
ĠScott ish
Ġforb id
Ġcalcul ated
Ġbid ding
Ġvic ious
Ġcomplain ts
NE W
Ġphotograph s
Ġfasc inating
ĠCad et
Bel ieve
PH ONE
ĠFel gate
ĠVic ar
Ġresign ation
Gra eme
ĠCommission er
Ġprob able
Ġgrav ity
Ġgreed y
Ġmarty r
Ġimple ment
Ġtriump hant
) ]
H and
L I
W alk
a ired
c mon
d rew
i our
i ors
k n
l ist
m ist
r g
r aced
w s
y an
in ia
Ġb usted
Ġm aps
Ġc hess
Ġto ken
Ġy acht
Ġp ulse
Ġp itcher
Ġg or
Ġg out
Ġg own
ar ation
Ġin ward
Ġn ah
Ġhe a
Ġha h
ic cups
Ġwe eds
Ġwe ighed
al ways
Ġis ol
Ġre tained
ri ot
Ġst alk
st ru
ĠM ack
ĠM USIC
Ġan arch
ĠS aul
ĠB ad
ell i
ĠH it
ĠH omer
Ġj aws
Ġr ows
Ġall ey
th ou
ess ions
ul um
ĠP inkie
ĠD onson
el son
qu ake
ĠG and
ĠG ONNA
ĠJ ay
ĠL IFE
ra ham
Ġsome place
Ġwill ingly
ĠE agles
Ġlo bby
Ġar d
Ġcl erk
ĠK in
Ġun ited
per ial
Ġgu er
ang es
Ġunder take
iz en
cl ed
og s
up in
Ġmon ot
Ġmon sters
Ġpol es
ĠBr ace
OR TH
Ġworld wide
oot s
Ġass igned
Ġsing les
Ġwind ing
pr it
ĠAr ts
Ġguess ing
ĠAn cient
Ġrep ay
ric ia
ĠDe an
ĠGr anny
Ġprom ising
Ġsy ll
wh ining
An swer
Ġ7 7
Ġ7 9
Ġcho ir
Ġheav ier
Ġconst ruct
Ġve xed
lo at
ĠBar celona
iver pool
Ġbath tub
Ġprof its
amer a
Ġshar ks
ĠOr leans
net te
Ġfootball er
ĠRos ie
Ġrecogn ition
Ġ194 9
Ġwarm th
Ġdi ary
ĠComm on
isc asset
Ġ193 6
ĠSm ur
Ġgar ments
Ġproud ly
Ġsevent h
Ġspirit ual
Ġstro kes
Ġdisp os
Ġoccup ation
Ġtrick y
ĠMarg ie
Ġdefend ers
Ġpill ows
Ġcontract s
Ġcraw led
Ġprevent ed
book s
Ġflag s
Ġhurried ly
Ġple aded
ĠJo han
Su per
Ġpension ers
LO OK
Ġdrown ing
Ġmel ody
ĠMont real
Ġbump ed
Ġgle am
ĠSav iour
ĠPh one
ĠDet roit
ĠOther s
Ġtransl ated
Ġloft y
ĠCons ervative
Ġdrift ed
Ġsequ el
ĠNever theless
Ġestim ates
ĠCam bridge
ĠRom ans
Ġshove l
Ġcert ific
ju ice
ĠPhilipp ines
ĠCare y
Hall o
ĠSER IES
rane an
Ġdram atic
Ġhoof s
Ġpengu in
Ġrans om
ĠMU CH
Ġremembr ance
Ġexquis ite
% .
A be
A side
B ert
K o
N ER
P resently
S aturday
V al
c ook
d ers
f ell
h ide
h orse
l ance
m al
p in
p osed
y u
Ġt renches
he ard
Ġw al
on ents
Ġb ully
Ġf u
Ġf oul
Ġy ah
Ġp anda
Ġp aws
ĠI mp
ĠI DS
at meal
Ġst am
Ġu no
am y
ith s
ro ck
ĠM ap
ĠM ister
ĠS ister
Ġas ylum
Ġse wing
ĠA p
ĠA ction
ill son
Ġkn elt
ĠB U
ĠB et
ĠB urn
Ġr ational
ĠT res
Ġcan cel
Ġall ies
ĠW ayne
ĠD re
el and
el ines
Ġsu cks
Ġsu llen
ĠL is
ĠL inda
res pect
ĠN ort
ous y
Ġtw inkle
ag ram
Ġlo vers
Ġtr act
Oh h
Ġbl aze
ĠK arl
Ġen velop
Yes terday
Ġcar ries
Ġdis order
Ġper fection
Ġmust ard
do lly
ĠShe ila
Ġsl id
IN ESS
OU SE
Ġsw itched
Ġwar fare
me ans
Ġlight house
uff s
Ġrel ate
Ġmar ching
Ġbad ge
ĠAl ready
att ed
Ġinter ference
Ġsub urb
ĠAs her
Ġ5 1
ĠBen gal
Ġbar bar
ĠJap s
Ġprov ides
Ġhum ming
Ġ8 2
Re al
Ġsun light
umb ers
Ġcat al
irth day
Ġadm ired
AL IAN
iam i
Ġce ase
Ġoper ated
Ġorgan ism
Ġrecogn ised
Ġbright ly
Ġbra kes
Ġmembers hip
mo ving
ĠSw iss
ĠSha kespeare
Ġattempt ing
rel ated
Ġtend ency
igg ling
Ġtail s
Ġexplain ing
ĠLea ve
Ġund oubtedly
Ġinqu iries
ĠMon ica
ĠChristian ity
Ġopin ions
Ġir re
Ġindic ation
ĠSpan i
Char les
ĠĠĠĠĠĠĠĠĠĠĠĠĠĠĠĠĠĠĠĠĠĠĠĠ ĠĠĠĠĠ
ĠĠĠĠĠĠĠĠĠĠĠĠĠĠĠĠĠĠĠĠĠĠĠĠ ĠĠĠĠĠĠĠ
ole on
Ġow ed
Ġtim ber
Ġconce al
ĠNat han
Love ly
Ġsquee zes
Ġresour ce
Ġgrace ful
Ġanno y
met ic
ĠNet work
Ġflu id
hum ming
girl s
ĠPost man
Ġvolunte er
ĠJan et
ĠCur ly
Ġmorn ings
Ġwrit ers
Ken zie
Ġnick name
Ġstoop ed
Ġexpand ed
ĠCOMP ANY
ĠBir mingham
Ġclin ic
Ġemphas is
Ġforgiven ess
Ġshat tered
ĠPleasant ville
ĠBate man
ĠBangl ades
uffe ur
Ġincon ven
ĠBrace well
8 9
D a
D anny
E dd
H an
I rene
M EN
P atch
S P
Y a
b ug
b bing
d ust
d el
e ous
f y
h s
h op
i ens
l u
l est
m i
p hy
s ame
t ier
v ich
w i
z ens
Ġ ;
Ġa e
ha pp
er ation
Ġb ald
it ory
Ġc m
Ġo ctop
Ġd ensity
Ġto ot
Ġp all
Ġp iled
Ġg ross
ar ming
Ġn i
Ġn appie
ĠI ra
ĠI ND
at us
Ġh ull
Ġth res
Ġth ither
Ġdo se
ĠM ust
ĠM ONEY
ĠS aw
ĠA ff
ill ery
Ġat om
ĠC art
ĠB ow
ĠH and
ĠH aven
ĠH ilda
ĠT ae
ie re
Ġout line
ĠP ubl
ĠF ALL
ĠL ive
Ġcom ic
ĠR at
Ġ1 20
ĠN i
ĠE ND
âĢĿ ?
no se
And y
Ġqu aint
end y
Ġbr ack
ond e
ĠK yle
ass i
Ġday time
Ġmean while
Ġhand led
ang o
ne ighbor
Ġapp oint
Ġch ir
Ġch urn
Ġsl ay
Ġsl iding
IN T
Ġcour ty
Ġmin ers
ars en
ee z
Ġdes e
Ġsupp lement
atter s
AT ED
Ġmon itor
Ġsit uated
oc har
Ġfew er
Ġdr ums
vent h
Ġfr antic
gr ade
Ġdri pping
Ġinter net
Ġfire works
Ġaw akened
Th us
Ġ5 5
Ġ5 7
ĠChrist ow
IT E
Ġsy n
ĠBart ol
Ġgener osity
Ġform idable
Ġhair y
Ġfore cast
Ġdoub ted
Ġ9 5
Ġproper ties
Ġmis fortune
ĠLe v
Ġ196 3
Ġstru ctures
oose vel
ĠIT ALIAN
Ġdecl ined
ĠTr acy
ĠPar menio
Ġemp hat
Ġban ned
ya wns
chan ge
Ġcamer as
Ġelect ions
Sure ly
Ġbrief case
ico le
din ner
Ġcrack ers
ĠCent ury
Ġcrew s
Ġrese ar
Ġemer ged
Ġresol ve
sha w
ĠNor way
ĠGl en
Ġadvant ages
Ġexerc ises
Ġscrew driver
ĠMor ris
ĠBro ck
ĠHal f
ym ph
Ġsch olar
ĠMed ical
Ġproduc ing
Ġencour aging
ĠMos es
Ġmurd ers
Ġveget able
Ġhousehold s
Ġbon us
Ġsubst ance
Har vey
ĠGirl s
talk ing
ĠStand ish
love ly
Ġpean uts
Ġpoll ution
Ġmath s
ĠJoy ce
ĠGR UNT
Ġunivers ities
Ġreject ed
____ ____
Ġabsor bed
ĠGi ants
ĠBax ter
Ġrehears al
ĠArgent ina
ĠColumb ia
Ġpenn ies
Ġobed ience
Ġfatig ue
ĠEduc ation
ĠNotting ham
ĠFest ival
Ġyogh urt
Ġkinderg arten
Edd ie
B rian
D ay
G ary
H ot
M ac
N orm
N ana
R ock
S al
S ue
T A
U C
c ap
c ock
e als
f r
h on
n orm
r us
r ary
s light
y ah
z i
Ġt ad
in ha
Ġs ins
Ġb orough
Ġb aked
Ġb acter
is ons
Ġc ured
Ġo le
Ġd ivers
Ġd owntown
Ġl ingu
as aki
Ġin aud
Ġit ch
ic he
ic ut
ic ity
ĠS W
ĠS han
ĠS uk
ĠS IGHT
ĠS ighs
Ġwh im
ĠA ge
ĠB an
ĠB ab
Ġr ape
Ġso aked
un ned
ook s
Ġall eg
Ġde le
Ġout ward
ĠP itts
el ed
Ġpl ough
Ġpl ural
ig her
ĠF RI
os es
ĠL iverpool
Ġthink in
res a
ĠR un
Ġcon vert
Ġsp onge
ate ur
Ġv ir
ĠE ls
ĠO l
Ġar ise
Ġgr an
iss ions
ĠK ate
ĠK end
ĠK now
pl om
ff er
Ġsc ent
Ġsc ound
av ier
Ġapp rent
ĠShe riff
Ġlea ping
Ġbu gs
Ġcour te
Ġrec alled
Ġdes ires
ident ly
Ġsw orn
Ġsur m
Ġread er
Ġind uce
Ġpers isted
Ġfun ctions
Ġdra ught
Ġmeet s
Ġbro om
Ġsk ies
Ġred und
iet h
Ġimp art
ual ity
Ġdep ended
Ġsent enced
ex cept
ex cellent
Ġland lord
Ġsy nd
Ġgrand mamma
Ġpleas ures
Ġfight er
ĠTO O
Ġpen is
Ġsurpr ises
Ġfree ze
Ġ7 2
Ġtele graph
Ġjo ins
ĠPe ace
erv ations
Ġmer rily
Ġappear ing
Ġtest im
ĠIndian a
Ġrecogn izes
amb ling
arr ondissement
Ġcompl aining
ĠComm unity
Ġlift s
Ġcas hier
Ġrespons ibilities
Ġrepe ating
Ġrul ing
Ġcomb ine
tr ain
Ġsett ling
Ġeager ness
Ġshore s
Ġspr ings
Ġcrit ics
ĠDO ES
ĠPl ace
Ġmix ture
Ġbrave ly
Ġoccup y
ĠFort ress
Ġdig ital
** *
ĠKe ene
Ġgro aned
Ġflo ated
Ġpad dle
Ġchem istry
Ġentertain ing
Ġess entially
ĠSen ator
ĠBern ard
Ġtarget s
yell s
achel or
ĠDar ling
Ġappl ause
Ġautom atically
ĠFin ally
Ġrhy mes
El izabeth
Ġtempt ation
Ġris ks
zer b
ĠMars hall
Ġsumm ons
Ġdistingu ish
Ġtempor arily
Ġgrim ly
Ġyield ed
Ġslipp ery
mind ed
Ġeffic ient
ĠJon athan
Ġlung s
Ġabund ant
uzz le
Dan iel
Ġinher it
ĠKent ucky
SPE AKING
ĠDie go
Ġassess ment
Ġbron ze
Ġcorre cted
Ġcere mon
Ġretrie ve
Ġverd ict
Ġorgas m
ĠHEL P
Ġbarr acks
Ġargu ing
Ġbung al
" _
B ull
C ount
C ES
F ore
H ell
I mp
J anuary
K ill
M S
M i
S i
S us
T em
U r
a ver
d iv
i oca
j um
k ia
m oney
n ell
t ha
v ance
in clud
it ations
Ġm rs
is ible
Ġd w
Ġd izzy
Ġy onder
en cer
Ġp ies
Ġp ens
Ġg room
Ġl ent
Ġhe aling
al al
Ġfor wards
ir o
st ret
Ġwith drew
ĠM eanwhile
Ġnot withstanding
ĠA k
ĠC re
ĠC iscasset
ĠB ess
ĠH elp
Ġher itage
Ġr ides
Ġsh udder
Ġab st
Ġab brevi
ĠW AY
ĠP O
Ġpl um
Ġor nament
ĠF ine
ĠF ull
ĠJ es
-- âĢľ
ist les
Ġjust ify
ĠR INGING
ĠR ogers
Ġsp aces
Ġex agger
Ġman ned
ĠE s
ĠO liver
Ġpro cl
Ġtr unks
Ġqu oted
Ġcl ips
ĠHe art
we gian
iss ing
the ir
Ġpre jud
Ġpr am
Ġsc am
Ġsc andal
ĠSt acy
ful ness
ĠV ice
Ġsl aughter
ign s
hm en
ĠIn s
In spector
Ġmen u
Ġpass port
ĠFr ont
omb s
Ġball et
ĠAl ger
Ġremember ing
Ġass ets
Ġcap ability
Ġhigh chair
Ġinv iting
Ġid i
Ġid ol
ĠAn laf
ten ance
Ġcountry men
ĠGr ammy
Ġweek ly
IT NESS
ĠSo on
Ġsy nt
Ġbusiness es
Ġpaper work
Ġwin ners
head s
Ġdark er
Ġ8 3
Ġpast a
ĠSp eak
ĠAd miral
Ġdisapp oint
Ġprof ile
Ġequ als
Ġcal f
Ġcontro ls
ĠMc donalds
Ġstri kes
Ġwhis key
Ġbank rupt
Ġcompl ained
Ġincre ases
Ġchief ly
gu ess
ĠSh into
Ġscar f
Ġtor rent
ĠMe iji
ĠSha wn
Ġperiod s
ĠGrand ad
Ġfright en
Ġsepar ately
ĠMa ori
UR N
ĠME AN
Ġund o
Ġinqu ire
Ġrelations hips
Ġimm ort
Ġdeb ts
ugg a
Qu iet
ĠBert ric
Ġrob bery
reg ular
Ġbeha ved
Ġdefend ing
Ġant el
sha kes
ĠNor folk
Ġsna il
every one
Ġsore ly
Ġtid ings
Ġtal ented
Ġpoison ed
imit ating
Ġbub ble
ĠWOR K
Ġmaid en
Christ mas
Ġspark ling
ĠFair y
Ġdough nuts
Ġloyal ty
Ġcors air
Ġeth nic
Ġrein force
ĠTor onto
Ke vin
Ġrept iles
ĠNichol as
Ġinit ial
Ġdiagn osed
Ġadministr ative
ĠElf wyn
ĠColomb ia
sem ble
ĠKap oor
ĠHawai i
Ġconfeder acy
ĠSup reme
Ġstag gered
Ġstur dy
oosevel t
A UT
B A
B on
B it
B et
C ap
G RO
G osh
G otta
H am
J ake
O ctober
P R
P il
S l
T eddy
W HY
_ ,"
c s
c ard
c ery
f un
f ree
h ou
j ay
k nock
m itted
n oo
n atural
p arty
r abbit
t ip
t che
v r
Â ¡
Ġt an
Ġt anks
Ġw reat
Ġthe r
Ġs aints
Ġs ittin
er als
Ġb ah
Ġb ounds
Ġm all
Ġm ol
Ġm oss
is i
Ġc rop
es ter
Ġp ard
Ġl uc
ar act
Ġha ck
ve red
Ġth ud
ay ed
et ti
Ġon ions
im ore
ly mouth
ri ages
Ġst ink
ion a
Ġdo zens
out ing
ĠM ake
ĠS ylvia
Ġse aman
Ġwh oles
ĠB ASE
ĠH o
Ġher d
ĠT est
Ġsh irts
Ġsh ifted
um ns
op l
op hy
Ġout l
ĠW r
ĠW arden
ĠP U
ĠP in
ĠP ER
ĠP ublic
ĠD i
ĠD onna
ĠD ark
ĠD ennis
Ġal umin
ĠThe atre
Ġpl ight
ĠG ri
ĠG ippie
ig ation
ig ators
ĠF ood
itt ees
ĠJ os
ĠL F
ĠR i
ĠN az
Ġany time
Ġv on
ag ged
Ġpro bab
Ġpro dig
Ġover sp
Ġfe es
Ġro sy
Ġbr ows
Ġgr id
Ġbl amed
ble m
Ġmake up
ho ven
Ġun gr
wn ing
Ġhand ing
Ġfl ick
Ġcar ved
Ġcar av
ne g
Ġhome less
Ġsl am
Ġcr utches
man y
ĠIn vest
Ġgl owing
Ġgl obal
Ġel abor
atter ing
uc ing
Ġpres ume
ret ion
Ġwar mer
ĠMiss us
oll en
Ġmar gin
Ġinst all
Ġwond ers
Ġimp et
ĠAr cher
Ġexp end
ok o
Ġref resh
Ġinf er
ats on
Ġtre ason
ĠCl amp
ĠCl aud
Ġgener ations
Ġcontin ually
Ġform ally
ĠCha d
Your s
ĠZ oo
ĠZ ohra
Ġmess ing
LE T
Ġ8 6
Ġhon ored
Ġmed als
ĠSp y
Ġart ific
zz o
col or
Ġexper ts
Ġmer ger
bl ow
Ġstation ed
Ġpract ise
Ġsuper st
Ġorgan ic
Ġbull ion
Ġhuman ity
Ġprogram ming
Ġearth quake
ĠST ART
ĠSh ort
Ġ193 4
Ġ193 7
Ġemb ark
ĠIS LAND
Pro f
ĠRE PORT
Ġbomb ing
Ġtechn ique
Ġtechn iques
Ġimm une
Ġoffe nd
Ġfault s
ĠPl an
Ag ent
Ġpa using
Ġattract ion
Ġindic ates
Ġheaven s
Ġsurv ival
fall s
ĠDem ocrat
Ġcro ps
Ġpsych ological
ĠChurch ill
Ma isy
ĠRy an
Ġdise ases
ĠMel bourne
Ġrejo iced
ĠPo acher
Ġaband on
Ġdetect ed
Ġcris p
Ġinstit utions
Ġlos er
Aunt ie
Ġmars hal
Ġcateg ories
tt p
Ġarchite ct
Eng ine
Ġelectron ic
fight er
breat hes
Ġbail iff
Ġdischar ged
ĠBox er
Bre ak
ĠForm ula
ĠVe gas
ĠQueens land
Ġsod ium
Tur k
ĠUt ah
ĠDak ota
Ġcourty ard
zerb ai
4 3
B ALL
B ODY
F riend
F amily
J on
L ondon
L IE
M s
M uch
M akes
N orth
N eed
P op
R oland
S ikander
W ARD
b un
b red
b eautiful
c ough
c ade
e ges
k ov
l ich
o a
r ina
t ries
t rees
Ġ iv
in ence
Ġw ink
Ġw ailing
er r
Ġm ent
Ġm ound
is ation
Ġd uke
Ġf ry
Ġf el
Ġf rench
Ġto ads
or f
or in
es pecially
Ġhe ating
Ġha unted
ut her
se ction
Ġst eak
ĠM orning
ĠM abel
Ġse als
Ġwh ore
ĠA P
ĠC air
ĠC www
ĠC esar
ĠB ruce
ĠT ina
Ġcan cell
Ġsh iny
Ġde cks
ĠW restling
ĠP iper
Ġal as
ĠJ i
ĠJ ed
ĠJ ared
ra v
ĠR oc
Ġsp lin
na ughty
ĠN elson
ĠE arly
ep h
od ox
ĠO p
ĠO ri
Ġtw inkling
Ġback up
Ġtr am
what ever
Ġar ray
Ġcl icking
Ġcl inging
Ġpe ered
ĠK um
orn s
Ġtell y
pl o
Ġsc ree
Ġdis k
Ġfo am
Ġfo lly
Ġcomp act
ob a
Ġhead phones
ĠV III
ĠV iolet
man s
but ter
Ġche ered
Ġkeep er
Do or
Ġfar ms
AT ER
Ġmon ument
Ġmind ed
Ġri bs
OR K
Ġcol ours
ĠAl c
AR O
Ġmiss es
br aska
Ġrep ent
Ġrep aired
Ġplan ets
Ġext ension
Ġ4 3
ĠCl ay
ouch ing
ĠBart ram
Ġcur ve
Ġform ation
ĠCar ib
Ġ8 9
Ġpast ure
de al
Ġclass room
Ġnin th
Sh r
Ġconst able
ĠPro du
20 20
Ġexcept ions
form ation
Ġclim bs
Ġtick ling
Ġdev ices
Ġrespect s
Ġcommand s
ĠAm az
ĠSha w
AK ES
Mar gie
Ġbutter flies
under current
RI G
su it
ĠSm all
Ġbound aries
Ġhy ster
Ġharm less
Ġdefend ed
Ġvac ancies
Ġcart oon
Ġcong ratulations
Ġant agon
rid or
Ġple bes
Grand father
ĠNE ED
Ġinstru ctor
ĠDep uty
Ġreve al
Ġincident s
OF F
mark et
Ġparticip ate
ĠSH OULD
ĠHa ving
Ġrelie ve
Ġachieve ment
Ġrepro ach
Ġward robe
Ġcandid ates
Ġindign ant
Ġaccommod ation
ele phant
ĠRh ines
Ġeld ers
Ġarchite cture
ĠBuild ing
ĠAF TER
ĠLeices tershire
Ġsqueal ing
Dun no
Ġvolcan o
ĠCLO S
minist ration
Ġsurviv ors
Ġveter an
Ġunsu ccess
Ġmumm ie
ĠPhy llis
ĠConnect icut
8 8
A f
B uy
D allas
F rench
F ebruary
G as
G il
I P
J enn
J UST
P romise
R ead
S en
S and
S aid
V er
b at
b rilliant
h t
h urry
i ate
l it
l as
m ama
m icro
n ation
p m
t im
t aking
y on
Ġ q
ha fta
Ġb ough
it imate
Ġd war
an se
Ġp ose
Ġg uts
Ġl amps
ar ound
Ġn av
ĠI d
ic ab
Ġwe aker
Ġst amped
st al
ĠM ix
ĠS ue
ĠS elena
Ġnot icing
ĠA na
ur ation
ill ings
ĠC os
ĠC arson
ĠH istor
ĠH assan
Ġj et
Ġr g
Ġr az
Ġr iches
ĠT it
ĠT at
ĠT oll
ĠT odd
Ġsh rim
Ġsh ifting
op ot
ab ul
ĠW right
Ġlike wise
ul ah
ul ner
ĠP LE
ĠD uck
qu ite
Ġno ds
ĠG en
ĠG riff
ĠF ern
ound ing
-- âĢĿ
ĠR est
ĠR AF
Ġsp ed
Ġsp ears
Ġint entions
Ġbo iled
Ġqu ad
Ġoff ense
Ġpe ek
Ġam ple
Ġco c
ount ain
Ġfl ush
Ġfl owed
Ġpre lim
Ġcar ing
Ġcar pent
ru g
Ġte ase
Ġsha bby
ĠV II
Ġsl ipping
man ces
old s
Ġhar ness
iv ia
Ġrec y
Do c
Ġpres idency
oun ced
Ġpret ti
Ġbest owed
Ġfr anch
fect ures
Ġtri bal
Ġcol umns
Ġsub du
Ġmet er
Ġmet res
uss ion
Ġtable ts
Ġtra uma
Ġtra gic
ĠDe velopment
Ġ5 9
Ġprom ote
Ġtre ad
wh im
Ġcoll abor
For give
Ġ6 3
Ġstrong est
Ġ8 4
Ġlay ers
Ġhorse men
ĠRe ich
Ġart illery
Ġlaw yers
ĠIN TO
Ġdisapp ro
Ġbur gl
Wh ose
uk es
Ġz ip
Ġz oom
Ġpack ages
ĠAb raham
Ġbra very
work ing
Ġban ner
Ġsol itary
Ġcapt ivity
ĠST R
Me et
Ġarr anging
Ġhast y
ĠSe o
Ġjoy ous
Ġjoy fully
Ġdesign er
Ġmarket ing
Ġoffe nded
Ġproceed ings
Ġgrad uating
Ġloss es
Ġdemand s
ĠEll a
uten berg
Ġcult ural
Ġstre ak
ĠDem ocrats
rid ges
Ġcivil ian
Ġpsych oan
ĠDE AR
ij ay
AB LE
try ing
Ġox id
Ġpant ed
Ġcrim son
Ġcrim inals
Ġtun a
ĠSy stem
ĠSy ria
Ġmel ted
Ġrestaur ants
dro ps
Ġrhy me
Ġcrown ed
Ġcompos ition
Ġenthusi astic
Pre viously
Ġimpati ently
ĠBraz ilian
ĠIm perial
Ġcam el
ĠRome o
ĠVis it
ĠVis hal
Ġaspect s
Ġseas ide
Ġadvert ising
Ġrecon cil
Ġslee ves
Ġded icated
Start ing
Ke ith
Ger ald
grand ma
Ġdepos it
Ġfiction al
Ġacknow ledge
Ġimmig rants
Ġsole ly
ĠEnd ers
Ġclo ak
Ġavo ided
Ġtroll ey
Ġscal p
ĠNak tche
Ġfrag ments
Ġmanif est
Mal colm
ĠLead er
igen ous
Ġbrut al
Ġcaval ry
ĠSyd ney
ĠTres ham
Ġdw elt
Ġpretti est
! !
A cc
C OM
C opy
F ree
G ina
H elen
K ar
K ind
M E
M ain
S TER
S OME
b ub
b ank
c ons
c ony
d ened
e ffic
g or
g han
k un
k itty
l orn
m aker
s igh
v ic
Â Ń
Ġt ch
Ġt ents
it ness
Ġm as
Ġd ashing
Ġf oss
Ġy ay
en burg
Ġp ia
Ġp ail
Ġp omp
Ġp ensions
Ġg au
Ġl ousy
Ġn anny
at on
ot es
le a
le en
et ic
Ġe f
Ġre vel
Ġre venue
st atic
ĠM ember
ĠS leep
Ġwh ining
ĠA ROUND
ĠC ups
ĠC APTAIN
ĠB ooth
ĠH ope
ĠH OL
Ġj umps
Ġr it
Ġr ation
Ġso lic
ain es
ĠT rees
Ġall iance
Ġsh udd
Ġsh illings
ood les
ry s
ink er
ĠP rague
ĠP lymouth
ĠD VD
Ġsu cking
ĠF itz
ĠR ing
ĠR en
Ġsp here
ĠN aval
od or
ĠO scar
Ġle e
Ġbl uff
ud er
Ġen s
Ġplay ground
Ġhand ling
Ġpo ke
ĠU ntil
Ġad equ
ru ff
Ġsha mpoo
ah l
Ġch icks
ĠV OT
ĠĠĠĠĠĠĠĠ ĠĠĠ
There fore
Ġche ery
port ant
Ġcha os
let t
let ons
ple nd
Ġac res
ĠUn ivers
ĠTHE IR
Ġdist ressed
ĠWhat ever
Ġreg iment
gr own
ush ima
Ġass ented
Ġinst ruction
Ġfire man
Ġinv isible
Ġexp osure
Ġref ormed
ĠGer da
Ġten se
Ġsign ing
Ġext end
Ġtre nd
Ġcur ls
for ced
Ġstra p
light s
unk er
Ġ8 8
Ġmain tenance
Ġpub lish
An n
Ġexam ines
Ġdem ocratic
Ġmot iv
Ġfavor ites
ĠX IV
Ġblock ed
Ġhang ed
Ġequ ivalent
Ġpost p
onel iness
Ġvar iable
ĠMin ardi
Ġcharacter istic
was n
Ġinvol ving
ĠSh ould
off at
Mar ion
Ġjoy s
Ġdesign s
Ġaut onomous
Ġoccur rence
cul es
Ġoppos ing
ĠRE AL
Ġur ge
Ġtechn ically
ĠMon te
pret ends
Ġacqu is
Ġgrad uate
urs ed
ĠDid n
Ġinflu enced
ĠMarg ry
Ġenter prise
Ġcircumst ance
turn s
Ġafford ed
ĠAnge la
Ġlower ing
ĠTH AN
Ġhesit ate
ograph ical
Ġpropos ition
ĠPal ace
Ġsch olarship
Ġproduc es
ĠStan ard
bu ilt
ĠCr us
Sm all
hun h
ĠMil fort
Ġminor ity
ĠRock y
Ġfortun ately
Ġterrit ories
ĠLight ning
ĠSC REAM
Ġcommun ist
Ġthrill ed
ĠServ ices
Ġchuck led
omi ya
rec order
Ġunlike ly
uls ive
Ġstor age
CON T
Ġult imate
ĠCind y
Ġcush ions
Ġsaus ages
Ġunivers al
Ġconstitution al
Ġturb ochar
Ġvel vet
Ġsoot hing
Ġaccus ation
Ġau ber
ĠThom pson
engu in
Ġmans ion
Ġdent ist
Ġacad emic
ieder ik
Ġchur ches
ĠPitts burgh
ĠAlc inda
micro phone
A c
A le
B o
C ontin
E va
F a
H ye
I mag
K aren
L u
N ord
R et
R IST
S ing
S ally
T op
V is
V ENT
j ah
p res
p aste
u ary
w ake
Ġt apping
Ġt angled
he ka
Ġb ake
Ġb agg
is ode
Ġd ung
Ġf ishes
Ġg ut
Ġg ull
Ġn appy
at z
Ġh ush
et ies
et to
Ġbe ad
Ġre ct
ĠM un
ĠS is
ĠA WAY
ill ance
ĠB owl
ĠH O
ĠH ook
ĠH op
ĠH afed
Ġr av
ĠT ha
Ġall e
th ren
th odox
um at
ĠW atch
ĠP atch
Ġsu ited
ĠG as
ĠG reeks
ĠF ATHER
ĠJ uan
os ph
ĠL A
ĠL ot
ĠR ifle
Ġex ult
Ġv ows
ĠE ight
ĠE conom
ĠO w
ĠO LD
Ġint ol
Ġpro ves
Ġoff ensive
Ġpe oples
Ġbl iss
the ned
ĠK az
ass ium
ho g
ount ed
Ġun believable
HI P
ci ation
Ġcar n
ĠSt re
ĠSt ock
cl own
Ġte asing
Ġsha dy
ens on
Ġsl ing
Ġbu rial
ail or
ars ons
CHI NG
Ġrec ession
Ġel astic
Ġear ning
Ġreal izing
Ġind ifferent
Ġside walk
ON T
me an
az ar
Ġtri als
Ġsk i
Ġph oned
br umm
ĠInd epend
sh ore
Ġdisc o
Ġhat red
ats u
ĠDe idre
Ġste alth
Th ird
Ġbas es
ĠCl are
Ġsqu ash
AS H
Ġcent res
gs on
Ġins ign
ĠCha nd
Ġorder ing
ĠMOT HER
ĠRe ady
Ġ7 1
umb ent
âĢĶ âĢĶâĢĿ
,-- "
oop ed
ĠBar ney
uri ously
Ġshut ting
Ġband ages
Ġbright er
Ġdev ast
Ġdescri bing
arr ison
Ġrespect able
Ch uckles
ĠEl isa
Ġpriv ately
Ġpark s
Ġfil thy
ĠMad ame
Ġgen ie
Ġrul er
Ġconcer ts
tr ack
Ġhost age
Ġwest ward
Ġstro de
Ġfashion ed
ĠAlf ie
Ġ192 7
Ġtravel ers
Ġbal cony
Char l
ĠĠĠĠĠĠĠĠĠĠĠĠĠĠĠĠĠĠĠĠĠĠĠĠ ĠĠĠ
amm ie
Ġcontr ad
Ġperfor mances
Ġow es
Ġpra ised
ĠLab or
ograph ic
Ġfier y
ĠAB C
UL T
Ġsymp at
Ġappl ies
Ġjealous y
Ġpil ots
ĠMill er
Ġcontribut e
ĠAny thing
Ġgle e
Ġtyp ically
Ġprospect s
Ġappeal ed
Ġsam ples
Ġrust ling
Ġdough nut
Ġlos es
Ġpeep ed
Ġgrin ned
Ġresident s
Ġresident ial
ĠNa omi
Ġanticip ated
Ġorganis ation
Ġcri b
ĠPa heka
Ġbru ised
Ġinterpret ation
ĠBrother s
ishi ge
Ġsust ain
ĠCorpor al
ĠCorpor ation
Ġrenew ed
Ġcla pped
Ġunemploy ment
ĠCub a
Ġsoph om
ĠBrook lyn
ĠLion el
GRUNT S
Bra vo
Ġfrustr ated
ĠStu art
ĠRodri go
Ġinev itable
Ġpige ons
Ġpresum ably
ĠBalt imore
Ġasc ertain
ĠFound ation
ĠSunny side
Ġwol ves
ĠJol iffe
Ġdele gate
Ġtestim ony
Ġbungal ow
6 5
B us
C ass
D eep
F ant
G ro
H ands
J e
K ay
L and
L aw
M oney
R o
S outh
S ex
S eptember
T exas
c ame
c ott
c ulation
c rit
e yes
m ic
m el
s ort
s hire
t ch
v or
Ġt enth
he h
Ġw akes
Ġw its
Ġthe at
Ġs aint
Ġs izes
Ġs arc
er ies
Ġb ould
is ive
Ġc oup
Ġd re
Ġd ictionary
Ġf ainted
es ame
Ġg asp
Ġl ac
Ġl am
Ġl umber
om ot
Ġh ob
ic ular
us ively
Ġbe hold
ac s
Ġfor lorn
ri ous
Ġst ain
Ġdo do
ro gate
ĠM iami
ĠM offat
ĠS weet
ĠS CHO
all ow
Ġse izing
ĠA ctor
ĠA unty
ĠC op
Ġkn ots
ĠH ir
ĠH ast
ĠH ons
ĠH ans
ĠH unting
ĠH OUSE
ant ing
Ġj ug
Ġr ay
Ġr owing
un ge
un ately
Ġup wards
You ngeun
ĠT u
ĠT ar
Ġsa bot
ight ed
ĠW atson
ĠP UT
ĠD aven
ĠD illson
Ġpl ank
ĠG rundy
ĠF oll
ĠL en
ĠL iz
ra zzo
ĠR ita
ĠR oosevelt
Ġman ly
here nt
Ġtw ent
ag s
Ġpro secution
Ġback ing
end ix
Ġcl icks
ost er
Ġro be
we alth
Ġgr ub
Ġbl ade
Ġbl oom
ft en
Ġ( ï¿½ï¿½ï¿½ï¿½
ĠK on
ĠK enn
Ġen abled
self ish
Ġco arse
ian e
Ġun con
Ġgu ided
ang a
ang ling
Ġsc ant
ne ys
atch i
Ġcr ust
Ġchan nels
Ġcour ses
ling ton
Ġser ial
AN GE
Ġbus es
Ġret iring
ĠMar low
Ġlight ing
gr oup
Ġtri pp
Ġinst ances
Ġsing ers
att ie
Ġsk etch
Ġdisc on
Ġcoll ision
Ġless er
Ġsqu ares
Ġcontin ent
Ġreason ably
Ġ6 4
fic ial
ster dam
atur ally
Ġsweet est
de re
Ġgovern ments
Ġ9 2
zz a
erv atives
ĠIN TER
Sh ort
Ġcor ridor
ĠCan ute
angu age
Ġmis chie
ĠOn line
Ġspend s
Ġpost er
Ġest eem
Ġval id
Ġcover age
sc reaming
Ġang uish
Ch uck
Ġhospital ity
Ġdi plom
ĠRichard son
Ġaccident s
Ġrad i
Ġrad ius
Ġcouncil s
Ġvocal ising
Ġpretend s
Ġconvers ations
ĠSund ays
ĠJust in
Ġobs erve
ĠMom ma
ĠEx ecutive
Ġthreat en
arth y
field s
Ġpat ron
Ġpath s
Ġcrit ique
lor ia
ĠPark er
Br ad
ĠJul ian
reg ation
Ġeconom ics
min ute
Ġgro ve
ĠEvery body
ĠNor wegian
sm all
roll ed
Ġflo ors
rick et
Ġarg ued
ĠBat man
ĠMission aries
Ġincred ibly
Ġsymp athetic
ĠTri p
Ġconstit u
Ġconsult ed
ĠLE ON
ĠWOR LD
ĠLight on
Ġexceed ing
Ġdiamond s
ĠBa ek
Ġrag s
Ġexchan ged
Ġawait ed
OS S
Ġtox in
Ġscen ario
Ġbond s
Ġvirt ue
tom orrow
Ġvolunte ered
Ġcough ing
Ġstor ms
Ġnom ine
ĠFle ming
ĠWes sex
Ġcorrespond ence
Ġske leton
âĻªâĻª âĻª
ĠHorn er
ĠNap oleon
Ġfug itive
Ġtut or
Ġpanc akes
Ġhither to
Ġmos qu
Ġquot ation
Ġcob alt
Ġchlor ide
Dave y
Ġcoco a
ĠWars aw
Ġperf ume
Ġey el
ĠRu pert
ĠHAPP EN
ĠTheod ore
Honest ly
Ġpave ment
Ġbegg ar
Dor othy
Ġvigor ously
Ġprobab ility
ĠClamp ett
opot am
Ġsubdu ed
B as
B etween
C arry
D D
G B
G reen
K i
M ont
N ine
S U
S leep
U rs
W ind
b et
c u
c ry
g ium
h it
j asta
l is
m oor
n umber
r ust
r ide
s ized
t ically
v ar
Ġt rench
Ġa int
in omiya
Ġw iser
Ġb rigade
Ġm iko
is ms
Ġd usk
Ġf lex
Ġto ll
ll eng
Ġp hen
Ġg ait
Ġl oo
ar on
ĠI X
at isf
Ġhe ir
Ġh orm
ut o
im o
ad ers
Ġk etch
ro pe
ĠM are
ĠS in
ĠA mb
ur red
ĠB ajor
ĠH el
ĠH ud
ĠH OR
Ġj ur
Ġr atio
ĠT hy
Ġall igators
th ird
Ġab ilities
ĠW WE
ĠP ed
ĠP arsons
Ġno is
Ġpl aster
ĠG em
ĠG arden
ĠL oki
ĠL adies
ĠL AUGHING
-- '
ĠR ider
ĠR over
Ġcon ting
Ġsp ee
Ġex hibition
ĠN ature
ĠN ights
Ġv ia
ĠE mbass
Ġover fl
Ġcl utch
Ġaf loat
Ġbr andy
ĠK ings
ĠK ISS
Ġtell in
ire ct
irst y
Ġun selfish
Ġpart ially
cc oli
av or
oy s
Ġcha lleng
Ġcomm otion
Ġacc ursed
Ġyoung sters
Ġreal ised
vel ina
az ine
ject ed
Ġri ot
gr abin
Ġcons ervative
sel s
Ġsk irts
EN G
Ġmet eor
Ġdisc rim
ĠTh ird
Ġ5 6
ĠGr acie
ĠCl ifford
Ġgrand dad
Ġsqu aw
ĠBe at
TER ING
ĠZ e
Ġdef ine
Ġmark er
Re becca
Ġra is
ham pton
Ġ9 6
ding ton
Ex cellent
ĠHer stan
Ġmer it
bl ocks
ĠOr gan
Ġwa ff
Ġtreat ing
Ġgrow ling
Ġled ge
ĠWh itt
Ġvol s
with out
your s
UN G
Ġfool s
igg ers
Ġcru cial
Ġspring ing
ĠSu pp
Ġsett lers
Ar thur
ĠSam my
Ġeast ward
sings ong
YOU R
De rek
Ġallow ance
wr ong
IE VE
Ġvers us
ĠNe il
Dad aw
Ġchat ting
RA FT
Ġmut tering
Ed ward
dra wing
Ġtap ir
ĠRem ember
ĠJo an
Ġdepart ments
Ġpant ry
Ġattend ant
Ġdim ension
Ġcompar ative
Ġlog ical
ATION S
Ġ188 0
Ġdisappear ance
ĠTw ilight
Ġjoint s
Ġder ived
Ġfest iv
Ġchamp agne
Ġvig orous
Ġtooth brush
ĠProv idence
Ġlink ed
aph ne
Ġswell ing
Bill board
Ġillustr ations
ĠSol omon
ĠAle c
Quick ly
ĠMau grabin
ĠFour th
Ġmorn in
Ġult imately
Ġdistract ed
Girl s
Ġber ries
arin en
ĠMuhammad an
ĠJac ob
Ġpubl ishing
ICT OR
Ġsty les
Ġcompre hens
Pat rick
Ġbrisk ly
Ġresent ment
ĠTs ar
ĠVin cent
ĠTAL K
Ġbapt ized
SOPHI A
Ġhosp itals
Ġinnoc ence
Ġunwill ing
SEL F
stret ched
ĠCair o
ĠCarib bean
abul ary
Imag ine
ĠHons hu
ĠFoll ies
ĠHud son
Ġspee ches
- .
B orn
B arty
D ra
E vent
F E
F ight
G ar
G onna
M em
P en
S ister
S ara
T R
T a
T ill
T ING
V ic
W omen
f ar
i qu
k h
l ies
p age
p itched
s hed
Ġt el
he ar
in ch
Ġw ilt
Ġw iggle
Ġs ly
er os
Ġb ash
Ġb aa
Ġy ucky
ed y
ed ged
Ġp harm
Ġl s
Ġl av
as ingly
Ġin habited
Ġh ugging
le gged
Ġth ine
ay o
et ah
us alem
Ġbe in
Ġbe llow
Ġbe held
Ġwe as
Ġwe eping
ac ies
Ġre build
Ġst ages
Ġst ored
ĠM P
ĠM ick
Ġan ten
ĠS it
ĠS ound
ĠS eth
ĠS uddenly
Ġwh iz
ĠA th
ĠA zerbai
and ro
ĠC R
ĠC ir
ĠC ra
ĠC rim
ĠB ond
ĠB ath
ĠB apt
if i
ĠH enri
Ġr ash
ab ab
ab ella
Ġout come
Ġout stretched
ĠW ald
ĠW OMAN
ul ously
ĠP ress
ĠD L
Ġsu e
Ġsu ite
ĠG L
ĠG ill
ĠG az
ers ed
ĠF ight
ĠF IND
ĠJ u
ĠJ am
ĠJ oon
ĠJ asper
ĠJ asmine
ĠR ene
Ġsp okes
ĠN ik
ĠN atives
ĠN iger
ĠE ston
od us
Ġback pack
we ight
Ġle ctures
ĠK r
ĠK or
ĠK IND
Ġen force
Ġco aching
Ġwhere abouts
act ions
be c
Ġun l
ress ive
Ġpre fectures
Ġyear ling
ia ow
int ellig
iz ard
Ġte ased
av ia
gg s
Ġhel m
do gs
Ġlea pt
og en
Ġuh oh
Ġgl im
Ġatt ent
Ġeat in
Ġhard s
Ġbre eding
Ġbre thren
Ġpol ish
Ġsw ollen
Ġind uced
ĠFr ances
cle an
Ġdec ides
Ġpick le
ĠEd wards
ale nd
Ġeight eenth
Ġref urb
ĠDe bb
Ġ5 2
ĠBe ing
Al ice
Ġhum ili
Ġ8 1
Ġ8 7
Ġfore most
Ġdef erred
Ġpartic ulars
ĠRe verend
Ġstraight ened
ST AND
Ġarri ves
ĠPr ison
With in
Ġpolic emen
Ġ17 8
Ġstru ct
ĠKing ston
Ġsupport s
Ġcomfort ing
Ġsad ness
la pped
Ġdecl ine
Hi ya
Fr ance
Ġsnow y
Ġdescri ptions
ĠWh ig
ĠComm and
Ġinvol ves
ĠAm elia
Ġver anda
lect ric
Ġswim mer
Ġninet eenth
Ġproject ions
por ary
Ġcontain er
Ġtax icab
hand le
Ġstro lled
anch oly
Ġinflu ential
Ġmud dy
Ġpin ned
ĠNe braska
Ġfem in
Jack ie
Ġcelebr ating
Ġwrest le
Ġaffect s
Ġlack ing
IG N
Ġpositive ly
Ġboun cing
Ġrejo ice
Ġcig ar
Ġprem ises
Ġconqu est
Ġbon net
Ġpure ly
ĠPir ates
Christ ian
Ġcoun cillor
ĠSpr ings
Ġvig il
toy s
Ġcritic ism
sho es
Ġdraft ed
ĠMet ro
Ġindign antly
Ġimit ate
Ġconsist ing
Ġpupp ies
CL A
ĠPortug al
Ġdepos ited
ĠIran ian
song writer
Ġly rics
Ġhym ns
Ġfres hmen
OUGH T
ĠTurn er
Ġque ens
GAS PS
ĠJO E
Ġdisple asure
hero e
ĠKath ryn
imet res
Ġdorm itory
Ġtrump et
ĠKal yal
Ġpenal ty
ĠRect or
ĠVo ice
appro priate
Ġmatt ress
Ġambit ious
Ġtriang les
spr ing
Ġcaterpill ar
Ġneut ral
Ġsimultane ously
loy d
ĠSpani ards
Ġfranch ise
Ġpia zza
ĠDebb ie
' '
5 3
A ir
A sh
C D
C al
C ross
F ound
F air
G U
H aw
H ush
M ajor
N ight
N ancy
R oss
S ave
S pecial
V an
W oman
_ ,--
a el
f ed
f als
f ering
f ifty
g b
g d
g osh
l eness
l ako
m ith
m arsen
p ast
p ence
p oles
r ings
r aint
t ad
w ife
Ġ +
Ġt ab
he a
Ġa ired
Ġa ided
in ery
Ġb ak
Ġb atch
Ġb ounded
Ġb uns
it os
Ġm amm
Ġc ement
Ġc emetery
Ġf ero
Ġp aces
Ġin put
Ġhe ated
Ġhe aps
ow een
et een
id dle
Ġe rect
al in
al though
im i
Ġfor ks
Ġfor cing
ad le
Ġst em
Ġst unned
out ed
ro ach
ĠM is
ĠM OR
ĠS ports
all ing
Ġnot able
ĠA ub
ĠC age
ce ls
ĠB ent
ĠB ureau
ĠB ulgar
ĠB rendan
ĠH ou
Ġso vere
ĠT F
ĠT oo
ĠT ip
ook er
th s
op sy
ul i
ĠP anthoibi
ĠP ansy
ol o
ĠJ orge
ĠJ aguar
os er
ĠL al
ĠL ost
ĠL uck
ist ical
ĠR oom
ive k
Ġsp ank
ĠN BC
Ġany ways
Ġv au
Ġv amp
ich inomiya
Ġman gan
âĢĻ .
ĠO il
ĠO rigin
ĠO cala
ide o
Ġlo ll
no body
Ġover night
Ġar se
Ġpe ach
Ġgr anny
Ġbl ades
Ġen closed
Ġdis in
Ġrem n
Ġwr ought
Ġcomp romise
Ġch ugga
Ġhead long
ĠV ar
ys s
let ter
Ġrun away
ner gy
Ġsit com
Ġpol ished
Ġac ute
ĠUn it
oc o
oc ity
Ġdist ur
Ġreal m
ON Y
ĠMar ines
Ġrel ates
gr ad
St an
Ġcons pic
Ġass isted
Be cky
Ġred oub
app er
Ġbox ing
Ġsub way
Ġtra iling
Ġext ending
Ġmonth ly
ĠĠĠĠĠĠĠĠĠĠĠĠĠĠĠĠ ĠĠĠ
ones ome
wh oop
Ġcur sed
Ġfight ers
ĠYOU NG
Ġ6 2
ĠZ orin
Ġdraw ings
Ġsn ug
An na
ĠSp otty
ĠAd d
Ġreport ing
Ġap iece
Ġ9 7
Ġ10 1
ĠBl ood
Ġda isy
ĠX II
iter ranean
ĠOr ange
Ġcirc ular
Ġshoot er
uk u
Ġbes ie
Ġconsider ations
ĠTr uman
ĠTr inity
Ġ195 3
ĠSc ar
Ġgrow l
Ġrespect ive
Ġcommand ing
ĠAm sterdam
Ġport ray
ĠAg ency
Ġshare hold
Ġfright ening
Pro duced
Ġyouth ful
Ġinqu iry
De cember
hand s
Ġstro ll
ĠDO ING
Che er
ĠPl at
Ġbang s
ĠMac le
kiss ing
Ġappreci ated
ĠLaw yer
sha ped
Ġcivil ization
Ġwhist led
ĠTH REE
Ġdrunk en
ERS ON
ĠPal est
NO CK
Ġbat hing
Ġmel ancholy
Ġsorrow s
Ġnovel s
cr ash
UM B
ĠFin n
Ġmurm ur
imit ates
Ġprec aut
Ġgreet ing
ĠSA W
Ġtroubles ome
ĠBa iley
ĠPri x
Ġunexpected ly
Ġsched uled
Ġwret ch
ĠStand ing
Ġflu or
Ġrecommend ations
ucking ham
ĠUkrain ian
ĠJud y
Ġaccommod ate
Ġgal ax
Ġorganis ations
ĠWes ley
ĠTRI BE
Ġing en
Ġperil ous
Ġcolon ial
Ġunemploy ed
Ġathlet es
Ġscra pe
Ġeter nal
bott le
Ġoverwhel med
Ġcul prit
Ġmead ow
Din ner
Ġrecoll ect
Ġopt im
ĠStri ke
Ġremo ving
ĠTun is
Ġdesir able
Ġcorp se
Ġisol ated
Ġthres hold
ĠKend all
jum ma
ulner able
Ġbagg age
Charl otte
ĠSCHO OL
Ġphen omen
5 7
5 8
B AB
C a
C onsider
C razy
F ifty
J ethro
K ids
L ola
M ag
M ER
P ooja
R od
R ub
R ene
R IGHT
S ean
Y ang
[ "
c old
d um
e i
j in
j ing
l ion
l ate
p ter
p ies
r ine
r ations
s ugar
v ate
Ġt ac
Ġt ug
Ġt ended
Ġt umbling
in us
ha ving
on ic
on gh
it is
Ġc uck
Ġo ri
Ġf ri
Ġy ep
en ched
Ġg ains
Ġl akes
Ġl icked
Ġl icking
Ġin doors
Ġn ie
Ġh oe
Ġbe ck
id d
Ġre app
ad vant
Ġst er
ĠM ail
ĠS ung
ĠS cientists
ch urch
ĠC ook
ĠH AND
un less
ĠT ige
Ġsh rew
Ġwhe at
Ġde port
Ġab ol
ab ilities
ĠW R
ĠP CI
ĠD ance
ĠD rew
ĠD over
ĠD ana
Ġpl edge
ĠG ab
ĠG ros
ĠF ollow
ĠL AUGH
ĠL ONG
ĠR idge
ak ia
fe rences
other wise
Ġint ently
Ġtw e
Ġpro c
are well
Ġtr otted
Ġar rog
Ġro gue
Ġam p
ish ly
ud ence
ue y
Ġday break
pl ate
Ġun b
Ġun anim
Ġ19 18
Ġpr ick
Ġpr ote
Ġmo aning
gg ling
Ġhel per
ĠShe ldon
Ġcr ater
und ay
Ġhar bor
ever ly
ars ity
In tern
Ġword ing
Ġfin als
Ġwait er
ĠTHE SE
Ġround ed
ĠAl pha
Ġhur ricane
pr ot
elt on
ale b
Ġinv aded
Ġmet als
Ġdisc retion
RE D
ĠHar vard
ball oon
Ġstate ly
Ġ5 4
Ġanim ation
Ġexpl ode
ĠFl at
put er
ik h
read s
Ġmusic ians
Ġopp ose
OM EN
Ġorder ly
Ġrece iver
Ġclean er
col ored
Ġca fe
Ġtouch down
lo aded
ĠPr oof
Ġcor ps
Ġgra vy
ĠX I
ĠJack y
Ġrequ ests
Ġfort ress
Ġmad ness
ĠLe ima
Ġbird ie
Ġcirc ulation
net ic
Ġdiv isions
ĠMc Queen
Ġoper ator
Ġval entine
Ġorgan ize
ĠPar ish
Ġang les
Ġpublic ity
Ġcapt ors
Ġextra vag
Ġpati ently
VER N
ĠEurope ans
ĠSome one
AK S
ĠCo le
ĠMad emoiselle
Ġpossib ilities
Ġhero in
ĠRep ort
Ġintro duc
Ġpray ing
Ġhost ess
Ġemploy ers
Ġbomb ers
Ġbomb ard
Ġskin ny
John ny
Ġearn ings
Ġstro ve
Ġbless ings
Ġvers es
Ġrevol t
Ġtong ues
ĠHigh way
ĠHigh ness
Ġphys ically
Ġ192 3
Ġtravel s
Ġwaste basket
Ġir regular
ĠDist ributed
Ġgro cery
cast le
Ġwitness ed
Ġprim itive
Ġfra gr
Ġshel tered
Ġfox es
Ġchem icals
ĠSus ie
Ġtim ing
ĠBO YS
Ġ186 1
ĠMed iterranean
Ġpursu ing
Ġpursu ers
ĠEX P
ĠEX PL
Ġconcent ration
Ġfortun es
Ġspin ning
sec ond
Ġbatt alion
Ġere cted
fin ish
Ġkidna pping
Under stand
Phil ip
Ġdece ived
Ġlic ence
Int erest
Ġmour ning
Ġath lete
Ġsla pped
Ġsob bed
Ġanticip ation
Ġlabor atory
Ġrefe ree
ĠHugh ie
Ġbrid ges
Ġhydro gen
Ġbos om
Ġinit ially
ĠFriend s
Ġkilomet ers
Ġmathemat ics
Ġnarr ative
ĠAz ad
Ġprosper ous
ĠAcc ordingly
ĠFE EL
Ġmanufacture r
contin ues
Ġsurve illance
uer to
Ġtreacher y
Ġbloss om
ĠYE ARS
FR OM
Ġincorpor ated
Ġmoder ate
hors ie
Ġcel ery
ĠInf antry
ĠSwe yn
Ġlob ster
Ġgrocer ies
Marg aret
ĠVig il
Ġlem me
Ġstam mered
ĠAff airs
ĠPubl ishers
Ġelabor ate
ĠAmaz on
ĠEmbass y
3 00
5 1
A Z
B all
B ird
C la
D em
D ID
D arling
I LD
I OUS
J enny
M ill
M AG
N onsense
N isha
O OD
P ir
P IR
R ose
R ather
T ed
W ay
W anna
b led
c ers
d ow
d ough
d amn
d ifferent
f ull
f ront
f iller
g ives
h urt
h oles
k u
k ok
l iffe
p unk
s neezes
z el
Ġ ia
Ġb ind
Ġm im
Ġm and
Ġm entions
Ġc alend
Ġo ops
Ġd airy
or ia
an ie
en ig
Ġg oo
as is
Ġn ug
ĠI ove
Ġh ugged
ot ch
ot hes
Ġth irt
et o
ic ating
id i
id dy
ac c
se a
ri or
Ġk ittens
ĠM R
ĠM es
ĠM ain
ĠM aine
ĠM ICH
Ġwh ites
Ġli z
ĠA then
ĠA mbass
and ed
ĠC ody
ĠC ock
ĠC ontin
ĠC ecilia
ĠB oo
ĠB il
ĠB ren
ĠB orough
ĠB IG
ĠB etween
ĠB arker
Ġknow ed
ĠT ree
Ġsh ifts
Ġde fect
Ġde fic
ul in
ack ing
ĠP as
ĠP ic
ĠP el
ĠP oly
ĠP uerto
ĠD I
ĠD ig
ĠD AN
ĠD odd
ĠG ate
ig oo
ĠL eb
ĠL iving
Ġwor shi
ĠR ab
ĠR ead
ak h
Ġman aging
od ge
ĠO WN
Ġpro str
Ġqu art
ure n
we ed
Ġpe ering
urn ame
hy l
Ġ( ï¿½ï¿½ï¿½
ĠK an
ĠK ane
Ġneed ing
ĠU ru
ark s
Ġbefore hand
ru gs
ne cked
Ġsm oot
gg ies
pe x
ict ory
Ġch ug
Ġstill ness
Ġlea ked
og o
Ġlife boat
ung a
OR S
OR RY
Ġchar ter
Ġchar ging
Ġlist ens
Ġcons on
Ġcons umed
Ġass umption
any a
Ġred ucing
ĠAr ound
ĠAr men
Ġsent in
Ġeas iest
Ġext rem
Ġsat ur
Ġhot els
Ġgener als
Ġcur ric
Ġpain ter
Ġ6 7
Al pes
Ġfif teenth
Ġexpect ation
Ġhon oured
Ġsn ugg
Ġbear ings
Ġtrans mission
Ġart istic
Ġfro cks
Ġ9 3
ĠX III
Ġtea pot
asp berries
Ġblock ing
ID ENT
Ġequ ations
Ġprop osing
ĠMin or
ĠWar ford
Ġcop ied
Ġbra ves
hel m
ĠPer ri
Ch ic
ĠSh ir
Ġlock er
Ġport s
Ġport rait
ĠTe acher
fl akes
Ġhall way
Ġ193 5
ala is
Ġjoy ful
Ġcru ise
Ġgen es
Ġinfl ation
Ġemb race
ION S
Ġpray ed
Ġcard board
ĠRE M
Ġacqu ire
Ġstat ues
Ġvers ions
ĠUS A
ĠNe ither
Ġnet works
ĠRed ding
Ġphys ics
Ġiron ing
Ġmut ual
Ġmarry ing
ĠHE AD
dra wn
Ġcong ress
Ġgro an
Ġconv icted
Ġhistor ians
ĠAT T
Ġrout es
Ġbod ily
ĠJo jasta
ĠMid d
Ġ187 8
Ġwha les
Ġsignific ance
Ġdinosaur s
ĠCr own
Ġdust y
hib ited
Ġtender ly
Ġshr ink
Ġconcent rated
Ġconcent rating
ĠRes earch
Ġguid elines
Ġchoo sing
ĠPh ill
ira ffe
Ġintense ly
walk ing
ĠGil bert
ĠRod ney
Ġjun ction
Ġdrag ons
ruct ive
nam ents
Ġmechan ical
Ġrug by
ĠField s
Ġdepend ent
Ġgrie ved
bag s
ĠDave y
ĠWall is
Ġconven ience
Ġdemonstr ation
Ġdign ified
Ġsob bing
ĠTa ens
Bar bara
ĠStud ios
Ġfab ulous
ĠProt heroe
Ġcolon ists
Ġsan ct
Ġreluct antly
Ġfract ure
Ġcycl ist
tur tle
Ġcompre hend
Ġflav or
Ġconfront ed
Ġfisher men
ĠDra gon
Ġdyn asty
ĠCru z
Ph one
ĠAuthor ity
ĠOt to
opard y
Ġcler gy
Ġwist fully
ĠZen ana
Ġassail ants
ĠCun liffe
Ġgor illa
ĠSmur f
Ġinaud ible
ĠTest ament
Ġartific ial
ĠDaven port
ĠBajor um
" :
' ?"
4 1
9 8
B ell
C U
D ouble
E ast
F ur
G ame
G ER
J ump
L es
L ots
M il
M ade
M ister
N ELL
P ur
P anthoibi
S N
S R
S chool
T F
b ike
c ond
c amera
e ur
f i
g ag
h orn
h oney
m uch
m ons
n ia
n vr
p are
t ie
t rochee
w re
y oyo
z an
ģ Ħ
Ġt cha
ou ches
Ġw rench
Ġthe ore
Ġthe ories
re ction
on er
Ġb ir
it ives
Ġm c
Ġm ature
Ġm aker
Ġm uzzle
Ġc j
Ġo min
Ġf ists
ing ham
Ġy arn
en aw
Ġg arrison
Ġl ust
Ġl oos
Ġl umps
Ġl oneliness
as cha
Ġn ets
ĠI ike
Ġha iled
ve land
le aves
ic ans
ke red
Ġre cl
Ġk a
ith metic
st reet
ro c
ĠM od
ĠM aur
ĠS ab
ĠS acco
ĠC ab
ĠC rest
ĠC uth
ĠC over
ĠC OL
ĠC BS
ĠC ameron
ĠH ood
ĠH uh
ant ed
ĠT reat
ĠT RA
ĠT RY
Ġsh illing
Ġout break
ĠP am
ĠD imit
ol as
Ġpl ague
ĠG abriel
ĠJ ura
ĠJ eremy
ĠL av
ist le
ra ight
Ġus age
ĠN une
ĠN icole
Ġv ap
ĠE xt
od dy
ous ing
au c
au x
iss ance
Ġ( ï¿½ï¿½
Ġplay offs
ps y
Ġun ite
Ġhand writing
Ġpre st
Ġdis li
Ġdis abled
Ġdis advant
Ġad ap
ne um
Ġrem oves
Ġcomp r
do is
Ġch ol
ĠV i
ĠV iv
ĠV ik
Ġsl umber
IN AL
up iter
Ġsupp ressed
Ġel oqu
Ġbre ed
Ġfin ance
bab a
Ġyoung ster
Ġhear th
Ġbest ow
oll ey
Ġrel ating
ug u
Ġcol oured
ĠAl most
unt il
Ġair s
Ġperson nel
Ġwatch man
Ġsk ate
oke y
Ġph osph
Ġexp ansion
Ġrep orter
Ġext ends
Ġcertain ty
Ġswe ets
ĠCl iff
Ġgener ously
Ġcoll eges
Ġgrand daughter
Ġpresent er
Ġ6 1
ĠCar rie
Ġ8 00
Ġrock y
Ġ7 4
over lapped
eng ine
Ġca ves
Ġstraight forward
Ġsoft ened
Ġought a
Ġview ed
Ġsal aries
ĠLe ft
Ġworth less
Ġrain y
Ġcomfort ed
ĠWell s
Ġstri ving
Ġstri ps
Ġinform ant
ĠTr ust
Ġsuccess or
Ġbelong ings
ĠWest on
Ġcompl iments
Ġcompl ications
Ġvict ories
ĠComm ons
Ġtor to
ĠBE CAUSE
ino le
ĠCo x
Ġprocess ing
ĠHall oween
Bl ake
Never theless
Ġtour ing
US ED
Ġpopular ity
ĠMac Kenzie
Ġrob ber
ĠKe ys
Car oline
Ġ192 6
Ġpencil s
Ġvac u
Gl ad
Ġclaim ing
ĠSE C
Ġhomes ick
PE OPLE
sm ith
Ġescap ing
ĠLa iren
ĠBel gium
ĠBern ice
ĠĠĠĠĠĠĠĠĠĠĠĠĠĠĠĠĠĠĠĠĠĠĠĠĠĠĠĠĠĠĠĠ ĠĠĠ
Try ing
Ġlin eman
Ġtid ying
Ġbi ological
ĠDel hi
ĠCON F
ĠSa arinen
Ġwire less
ĠFre ya
ĠStep hanie
Ġben ches
ĠVan marsen
Boy s
Ġrent ed
Ġwre cked
Ġthrill ing
bour g
ĠSU RE
Ġdrift ing
Ġast ron
Ġaccord ance
pull ing
ĠMerrim ans
Ġerr ors
Comm ander
ĠMag ic
ĠJeff erson
Ġsout heastern
Ġeffic iency
Ġabund ance
Ġfulf ill
Ġascend ed
ĠChap el
hur st
Ġbri be
Str ange
Ġavo iding
Ġdisple ased
Ġwhirl ed
Ġcorrupt ion
Ġhipp o
ĠJen kins
Ġrebell ion
Ġree f
Ġprev ailed
Ġspecim ens
Add ons
Ġunlock ed
ĠYan kee
Laugh ing
ĠKir by
Ġwob bly
ĠAdvent ure
Ġpsychiat rist
Ġunre ason
Ġcertific ate
ĠMap le
Ġceremon ies
Ġcarav an
Jenn ie
ĠAub rey
Ġvau dois
Ġshrew d
ĠAmbass ador
' "
A uthor
A EL
B at
C amp
E le
E xt
F ish
G reg
H C
H ur
H AL
H AVE
I LE
I LY
J un
J osh
L ive
M onday
T ook
U LL
W henever
X T
a ha
b uck
g ra
g rap
i antly
l our
m orning
p ay
r uns
s i
s is
s ilence
t ow
t ouch
â ģĦ
Ġ ic
Ġ 000
Ġt ension
Ġt akin
Ġw rigg
re ens
er ick
Ġb itten
it udes
Ġm es
Ġm irth
is ers
Ġc ork
Ġf ib
Ġp als
Ġg ee
Ġg hast
Ġin aug
Ġn ought
Ġn avy
at in
ot ine
le ft
Ġon ward
ut ory
Ġfor ci
ri l
ri ans
Ġst ump
ion ed
Ġk ung
st orm
ĠM oor
ĠM AX
ĠM onsieur
Ġan th
Ġan them
ĠS ard
ĠS ep
ĠS AT
ĠA CT
ch io
ur u
ĠC ard
ĠC hen
ĠC LE
ĠC inc
ĠC obb
Ġkn ob
ĠB aboo
ell ite
ĠH in
ĠH es
ĠH ick
ĠH umph
Ġj ab
Ġj azz
ĠT el
ĠT ory
ĠT ex
Ġ" ".
ĠW ur
ĠW ELL
ĠW hether
ĠW ii
ĠW eek
ĠD oo
ĠD AR
ĠD umpty
Ġor bit
ĠG ob
ĠG ib
ĠG host
ĠF ab
ĠF AM
ĠF LY
ĠJ ar
ĠL ina
ĠL loyd
ist ol
ra g
Ġcom a
ĠR ap
ĠR aven
Ġ1 000
Ġhere by
ak ut
Ġsp elt
ap y
Ġv a
Ġv irgin
Ġgr ind
Ġam ateur
ĠK urt
so le
ps hire
ount ered
his m
Ġfl uffy
Ġpre acher
ru ly
ĠSt aff
Ġapp endix
Ġdoing s
hes is
Ġch ina
Ġch uckles
OT T
Ġsl ips
Ġcr ane
Ġstart ling
Ġgl are
Ġend less
Ġcomm a
Ġcomm ittees
let cher
AN N
AN ING
rent ly
Ġrun ner
AT ING
ph us
Er in
rew s
ĠMar se
Ġchar ts
Ġtri pped
ĠAl mighty
Ġcons ented
Ġass ignment
any way
Ġbro ker
bo ats
ĠCl oth
Ġgrand children
ĠBe yond
Ġpresent ation
ĠCar m
ĠCar roll
Al ready
Ġpar aly
Ġdef iance
Ġpartic le
ĠRe al
de ep
Ġ7 3
Ġexam ining
arch y
Ġobject ed
Ġlow est
Ġexper iments
Ġda res
Ġfavor able
ĠX VI
Ġcreat ive
Ġsal oon
Ġcal culation
Ġwild erness
com es
Ġprop he
ĠMin istry
Ġbab ble
Ġquar re
Ġclos est
Ġburn s
Ġdecl aration
Ġcharacter istics
Ġtick les
Ġcab bage
amb a
Ġneighb oring
Ġsol ar
Ġdry er
ĠSw an
Ġregard less
sp eak
ĠSha k
ĠTe ch
fl owers
Ġjud ging
ĠEl vis
ĠGrand father
ĠPat ricia
Ġfool ed
Ġcompet itive
RI L
Ġrepresent ation
ĠSu ppose
Ġengine ers
Ġhy pot
ĠEm my
Ġhost ages
ĠMer c
Ġund ressed
De finitely
back s
Ġthick et
alt ies
Ġmotion ed
Ġfashion able
Ġoccup ants
Ġtrad er
Ġharm ony
Ġbudget s
min ster
Ġheaven ly
Ġbedroom s
gl ass
Ġtap ioca
Ġfurn ish
keep ing
oly n
Ġcivil ized
PE CT
Ġshel ves
Ġaim ing
ĠEli jah
Ġapolog ies
Ġfuss ing
Ġbi ology
Ġsquee zed
Ġwise ly
ĠMi yama
nee ze
EP S
sell ing
itar ian
Ġgrat ified
Ġgri zz
ĠArt ist
Ġstout ly
ĠSal zburg
Ġconfident ial
Ġenc ountered
ĠTan ishige
BER T
Ġretreat ed
Stand ing
Ġvirt ually
Ġpossess ions
Ġteen ager
ez vous
Nat alie
ĠFore ign
quick ly
Ġundert aking
Ġcooper ation
OUN T
ĠSem inole
Step hen
ĠHun ter
inn ati
ĠOFF IC
Ġsung lasses
ĠTem ples
Jo el
ĠWalk er
ĠConst ant
ĠConst able
Ġcasual ty
Ġkilomet res
Ġgent es
Ġnegoti ate
Ġje ans
Ġathlet ic
parent s
Ġmic row
ĠBEL IEVE
Deb bie
Ġling ered
Att ention
ĠPH ONE
Ġreprodu ctive
ĠMove ment
orig inal
ĠTechn ology
ĠBus iness
Ġdiscom fort
ĠBav aria
Ġperple x
ĠBartol ini
Ġbacter ia
ĠClaud ia
Ġcancell ed
Ġprelim inary
Ġshudd ered
ĠEston ia
Ġfero cious
ĠProof reading
ĠCinc innati
. ?
6 2
6 4
C AR
C HER
D one
D ig
E K
F ig
H m
H ank
J ones
L ind
L au
L ead
L ucky
M ING
M ex
N in
O ICE
P RO
R om
S har
U sa
W orks
Y up
_ :
b ase
b ob
b ones
c am
c aster
f rog
g ame
j un
o bey
p it
p ants
p icking
r ance
s er
s un
t v
t ea
t ical
w ants
Ġ ion
Ġ 00
Ġa venue
re ars
Ġb ree
it tering
Ġm otto
is ie
Ġc odes
Ġd iam
Ġp ac
Ġp am
Ġp ry
Ġl onesome
as g
as i
as al
ĠI by
at ar
at hed
Ġh ips
et on
ic eless
id ated
ut ched
im eter
Ġre igned
ri ver
Ġk icks
ĠM ater
ĠM OM
ĠM arty
ĠM agn
ĠS L
Ġse amen
Ġnot ices
Ġwh it
Ġwh oo
ĠA PP
ch ick
ĠC ell
ĠC ob
ĠC hel
ĠC ookie
ĠC ARE
ĠB adu
ĠH ell
ĠH um
ĠH ak
Ġj og
Ġr he
un cle
un ciation
Ġup date
Ġthere in
Ġsh uff
Ġsh oved
ĠW ITNESS
ul ch
ĠD oll
ĠD yn
qu est
Ġal ien
Ġpl ump
Ġpl unge
est ead
ĠG an
ĠG ail
ĠG wen
ĠF uck
ĠF OUR
ĠJ ove
ĠJ amie
ĠJ UD
ĠL as
Ġsp itting
Ġex ternal
ĠN am
ĠN av
ĠN ash
em p
Ġv owed
fe et
ĠE velina
Ġint act
Ġint ending
Ġthen ce
are l
Ġag in
Ġar ithmetic
Ġar rears
Ġcl iffs
ud a
pl us
ach ine
Ġsc ales
irl ines
Ġmo ons
Ġdis obey
iz er
Ġsha ky
HE LL
gg les
Ġgreat ness
ĠShe ll
ub ber
ĠV alais
Ġlast s
Ġsl ower
Ġcr adle
Ġres ort
ors hip
Ġbu oy
Ġdif fer
Ġend ured
AT AL
ĠBut ter
Ġpret tier
oc ation
oc ese
Ġreal istic
Ġpers pect
vel s
Ġreg ain
ES BY
Ġsort ing
AR ED
Ġdec iding
Ġass uming
Ġi amb
ange l
Ġinter course
EN NY
Ġvo iced
Ġhope ful
Ġconf using
Ġrep airs
Ġinf ant
ĠCHI LD
ĠCHI EF
Ġ5 3
wh istles
Ġcur l
ĠFl ossy
Ġvis ual
aim ing
Ġexpect ations
Re g
umb s
cri ber
ĠAd ministration
Ġdoub led
Ġfear less
Ġadm ission
cha ft
ĠHer itage
Ġobject ions
Ġgra vel
Ġsight s
che stra
ĠBar ing
Ġpract ices
Ġpract icing
Ġcontro lling
rat ic
ĠCon nor
Ġaccount ed
ĠBrad shaw
Ġexpress ions
Ġaccept ing
ĠTr ade
Ġwhis ky
ĠMan ning
rop he
rop ical
Ġbud s
Ch ris
Ġvol untary
Ġver ge
Ġver bs
Ġscar let
ĠBE FORE
ĠDor chester
Ġlunch time
ĠGrand papa
Ġconvers ion
Ġobs essed
ĠSe ason
Ġfresh man
Ġrul ers
CT OR
Ġprocess es
ĠMer cia
Ġsusp ense
De idre
wr itten
af ety
Ġpin ched
Ġtrad ers
ĠMac Donald
istic ated
Ġindic ating
Ġcontact ed
Ġcoast al
Se vent
Ġfurn ace
Ġhistor ian
Ġsplend or
Ġfra il
Ġfal tered
ĠBra hm
Ġterror ist
Ġencour agement
ĠĠĠĠĠĠĠĠĠĠĠĠĠĠĠĠĠĠĠĠĠĠĠĠĠĠĠĠĠĠĠĠ Ġ
show s
yell ing
Ġconsequ ently
Ġlog ic
ĠMic helle
Ġtransport s
Ġinvent ion
Ġconsult ant
ĠJer usalem
ĠKim ber
Ġspect acles
Ġenthusi ast
Com plete
Ġreview s
ĠPers ians
ĠAtl anta
ĠAsh ley
Ġelev ation
ĠMet ropolitan
Co ach
Ġdece ased
Pol it
Ġflood ed
Ġpist ols
bro ke
Ġchim ed
urg ers
Ġexperiment al
Ġpier ced
Ġmyth ology
Ġga ily
Ġdemonstr ate
uls ion
ĠSem in
Pr ince
Ġber th
Ġliberal ism
Ġvoc abulary
start s
Follow ing
Ġsust ained
Ġtum ult
hoe be
Ġpubl isher
ĠMacedon ian
Ġmathemat ical
Ġcoo lly
Ġfert ile
ĠMem orial
Fe el
Ġalt ar
ĠLeices ter
GRUNT ING
Ġtact ics
ĠHung ary
Ġlur king
Ġcondem ned
Slow ly
Ġmini ature
Ġspecim en
spl ash
gard e
ĠLyn n
Ġsubsequ ently
SCREAM S
Ġmeek ly
ĠHaut es
plan es
ĠBase ball
Ġdeem ed
Ġempt ied
Ġlugg age
ĠAra os
Ġlang ue
Ġacknowled ged
ĠLis bon
Ġantel ope
Shr ines
Ġraz or
CONT ENTS
Ġinsign ific
ĠPed ro
ĠWhitt aker
ĠAzerbai jan
Ġconspic uous
gag aa
ĠCuth bert
ĠIby n
' ."
6 9
A way
C ad
G ab
G AN
H or
H op
H ouse
K a
K NOCK
M B
M OR
N on
P ay
P ING
S ch
S ort
S ign
S anta
T all
T unde
_ ."
b able
b ath
b ys
c oo
c ope
d ec
d ead
d ada
f u
f act
g room
h n
i age
j uss
m ast
p hal
p gd
r ac
r ice
s aw
t ract
t iger
u pp
v on
w y
w orld
Ġa venge
Ġw ot
Ġw oe
re na
Ġs ar
Ġs ip
Ġs essions
ha y
Ġb ou
Ġc av
Ġo atmeal
Ġd ime
Ġd anc
Ġd ots
Ġf uriously
an ut
an za
Ġp neum
Ġl inger
ow ler
Ġh ose
le ms
le iman
us ually
Ġe yed
ly de
ad illo
se ver
Ġdo om
am oto
st uck
ĠM mm
ĠM AY
ĠM odern
ĠM ADE
ĠS ide
ĠS IR
ĠS oto
ea e
ĠA ur
ur ring
ur bs
ĠC it
ĠC AT
ĠC aval
ĠB M
ĠB right
ĠB AR
ĠB anks
ĠH ang
ĠH etty
ĠH umpty
Ġr ouse
Ġne uro
ĠT ER
ĠT uk
ie ls
Ġde mer
ĠW at
ĠW AR
ĠW ENT
ĠP AR
ĠD F
ĠD ur
ĠD ane
ĠD ec
ĠD oor
ĠD AYS
Ġsu cked
Ġal iens
est one
ĠG osp
ĠF o
os i
ĠL ex
ĠL AST
ist ent
ĠR et
ĠR io
ĠR aff
ĠR abbit
Ġcon es
ĠN ation
ĠN eed
Ġv ag
Ġv ulnerable
fe w
ĠE un
ĠE nergy
Ġpro x
He ad
Ġback yard
Ġover take
Ġover throw
Ġar cha
Ġbr im
Ġpe g
Ġam er
Ġ( ).
Ġco effic
orn e
act ed
Ġ19 10
Ġfl own
Ġsc out
Ġdis qual
Ġad orn
Ġad vers
Ġad rift
Ġunder wear
Ġsm oked
ĠSt at
Ġper ched
pe ep
ub a
ĠV as
ĠV ivek
Ġsl o
Ġsl ung
Ġcr iter
Ġres olute
Ġbit es
Ġchan ced
Ġbu gger
up ree
ee red
Ġbook ed
In c
row ing
AN UARY
ss is
Ġcle arer
Ġbre w
Ġbus ily
Ġsw ore
Ġsw ap
Ġreg ained
Ġopen ly
uff ed
ows ki
Ġtri o
ush u
ĠNo kia
Ġsk ating
ĠEd gar
Ġinv ade
ĠInd ust
ĠInd ies
Ġsub tle
Ġeight h
oor ay
Ġdisc ont
Ġblack s
ric o
Ġexc used
Ġexc urs
Ġ5 8
Ġexpl oring
IT ED
Ġbas in
Ġcur ling
for mer
AS EL
fort y
Ġhair cut
Ġins piration
Ġpresent ing
AP RIL
ĠCar n
Ġmag ical
Ġpar adise
see ing
Ġsweet ness
Ġmain land
Ġdef ences
Ah h
Ġconc ussion
Ġsong writer
Ġ7 8
ipp y
Ġgra il
co ff
Ġdest ined
Ġcreat es
ĠCount ess
Ġ17 7
See ing
Ġbes eech
ĠCon c
Ġvar ied
Ġsand box
ĠSte el
Ġstri pped
Ġtick ly
Ġimag inary
ĠMan n
Ġbull do
Ġnational ism
Ġdev ote
Ġlab els
ĠLet itia
gu ay
Un ited
off er
Ġelect rical
cell or
Ġpush chair
ĠSu leiman
Ġfol iage
Ġdestroy er
ĠAf rik
Ġforth coming
Ġund e
Bl ood
ĠSaturday s
Ġphot ographer
Ġaddress es
ĠJenn ifer
Ġmix ing
Gu ard
Ġremem bers
Ġscr ut
Ġrob bers
Ġshad es
Ġhonor able
het ic
vo icing
pen ny
Ġmodel ing
ĠĠĠĠĠĠĠĠĠĠĠĠĠĠĠĠĠĠĠĠĠĠĠĠ ĠĠĠĠĠĠ
Ġprogress ive
Ġpad dling
Ġdism iss
ĠTH ROUGH
Sc ott
Ġfold s
Ġ186 0
ĠCat aract
ĠRoman ia
Ġpred ec
Ġpred icted
Ġassoci ate
Ġdere k
Ġweekend s
Ġconce ived
Other s
ĠMos lems
ĠCr ime
Ġtun nels
Ġfuss y
Ġlin en
ĠDel ta
Ġshr oud
Ġunus ually
Ġpregn ancy
Ġbast ards
ĠXX X
Ġcomplet ion
Ġsuffer ings
ĠCOM ING
Ġdocument ary
Ġminister s
ĠSure ly
ĠAS K
rif ied
ĠSqu ad
Ġprompt ed
ĠFar mer
Ġconcl usions
Ġrank ed
Ġcalcul ations
ĠClar ke
Ġexplos ive
Ġsales man
Ġrust y
Ġbelief s
ĠSl inky
Ġroast ed
Ġsymb ols
Ġbord ered
Ġrecommend ation
ĠRus so
UP P
Ġped est
Ġchallen ged
ĠMO ST
ĠNob el
ĠDear ne
ĠDown es
ĠRoll o
Ġevac uated
ĠTrans port
Ġcorpor ate
Sim on
Ġratt ling
Ġsway ed
Ġadopt ion
ela ide
Ġdischar ge
Chan ge
Ġscan ned
Ġdissol ved
Ġalt itude
Ġcongrat ulate
Ġmarvel ous
ĠConfeder ate
ĠGIRL S
Ġmoist ure
Ġtort ured
ĠChamp ion
ĠKE EP
Ġblo oming
ĠBanglades h
norm al
Ġscound rel
Ġwholes ome
ĠPU BL
Ġexpend iture
ĠChad wick
Ġauber ge
Ġdung are
ĠRifle man
Ġmischie vous
Brad ley
ĠTrip oli
fals etto
Ġnie ces
Intern ational
ĠUru guay
Ġcurric ulum
ĠSemin oles
pgd p
6 8
; /
A igoo
B B
B a
B aker
C le
C ons
C www
C romer
C esar
D ep
F il
F ull
F ifteen
K ate
M RS
O GE
P ast
R ad
T C
T ha
T igger
U NDER
V ill
V ES
Y uki
b ite
b ows
b lo
b bles
d ong
d irty
f rey
g abby
g iraffe
i ber
k ick
l ot
l ass
n n
n ons
o ine
r iment
r inder
s ky
v ised
v ironment
z he
Ġt its
he alth
in side
in ement
Ġb out
Ġb ount
Ġm int
is le
is ley
Ġc ello
Ġd ah
Ġf ountain
Ġto ad
Ġy oyo
ed ia
or able
Ġp ans
Ġp ouch
Ġp iling
Ġg iv
Ġl ining
Ġn oodles
Ġh uts
ot ox
Ġha vin
le igh
le uth
ut ing
ut ton
Ġe uro
oo oo
Ġre ared
ad ada
ir ot
Ġu ric
Ġk i
st s
st ruction
Ġan ts
ĠS op
ĠS atan
Ġnot eb
ĠA in
ĠA irlines
ĠC ord
ĠB end
ĠB etter
ell s
ĠH ON
ĠH ARD
ĠH ollow
Ġher bs
il and
il iation
Ġj ohn
Ġr ises
Ġmy st
ĠT han
ĠT aka
pp o
Ġall erg
Ġsa p
Ġwhe e
Ġab ode
ĠW endy
ĠP res
ĠP oy
ĠP once
ĠD R
ĠD iana
Ġno ses
Ġpl ums
ĠG AS
ĠG www
ĠG aines
ĠJ ama
ĠJ OHN
ĠL ist
ĠL unga
ong a
ong s
ĠR ound
ĠR ice
ĠR iding
Ġsp ar
Ġsp ade
ime h
Ġman ip
ĠE L
ĠE VER
Ġlo lly
Ġtr ades
Ġcl enched
Ġbr at
Ġbr ood
ĠK ill
ĠK ind
so on
Ġco ordin
Ġneed les
Ġun ification
te rest
har kov
Ġpo pping
Ġfl aming
Ġfl uttering
Ġsc or
Ġdis respect
pe c
pe re
do ck
ob ject
Ġch imes
ix t
ĠY oon
OT S
Ġnew com
She riff
og i
Ġnight time
und ered
Ġche ated
Ġstr aining
iv ic
Do lly
Ġacc um
Ġfin ishes
Ġschool room
Ġbaby s
ĠBr isc
oc ol
Ġwar med
ON ATH
me aning
Ġreg ulator
Ġri pe
ug a
ister t
AR LY
Ġdec isive
Ġworld s
Ġpick les
Ġinter val
Ġinter face
Ġinter pre
Ġsk il
ĠEd ge
Ġkid ney
sh ort
Ġ18 50
Ġfoot age
lic ting
Ġsign ifies
Ġste aming
Th ursday
Ġdeal ers
du ction
Ġpleas antly
Ġes pecial
ĠFl int
good bye
Ġpar ap
Ġpartic les
cri be
ĠPe pper
erv o
Ġfear fully
Ġcook s
Ġstar ved
ept une
Ġsight ed
co ffee
ĠBar bie
ĠLe gend
20 17
Ġboard ers
Ġcost ing
Ġcost ly
Ġcost umes
ean ing
ris ford
ĠWar rinder
Ġval ued
Ġdam ned
Ġbright ness
Ġneck s
Ġauthor ized
cket t
Ġvol t
Ġmach inery
has hi
Even ing
Ġstreng then
Ġstreng thened
Ġfinger prints
Ġemb ro
Ġemb ass
ĠAf ghan
Ġident ification
Pro per
Ġpictures que
ĠGO VERN
Ġflat tered
Ġpat ches
Ġsport ing
Ġble nd
ĠSer bia
Ġdemand ing
ĠBur t
Ġrob ot
Ġtit led
Ġ192 4
Ġaud ition
Ġpound ing
ANT ING
ĠMY STER
dra ul
Ġpool s
ĠPort land
Ġscrew ing
ĠTH ANK
Ġwid th
ĠTy re
Sc rew
ĠHam pshire
ĠMed ia
Pl ot
Ġsmooth ly
Ġtender ness
Te acher
Ġamb ass
agu ars
Ġpor ridge
ĠCOM M
ĠTim othy
ĠMur phy
Ġspect acle
Ġexplan ations
ĠTw enty
ĠWood y
Har old
ĠArt uro
Ġtempt ing
Ġcalcul ate
Ġdetect ives
Ġassured ly
ĠAsh ton
ĠFe ld
CHAR LIE
Care ful
ĠLu is
Int o
ĠSax on
Ġacquaint ances
Ġhom estead
Ġstor my
Ġsack ed
Ġcollea gue
Ġorganis ms
Ġing red
ĠIsrael i
Ġshrie k
Ġintegr al
ĠWHI CH
Ġdial ogue
Ġguitar ist
ĠNap les
Ġtribut e
ĠMuslim s
Ġinher ited
Bern ice
ĠRon ald
Ġlegisl ation
Ġfug itives
Ġcann ons
Lou is
Ġeter nity
uz zy
ĠApal achi
Ġcompass ion
Ġdyn am
ĠFat imeh
Ġpreced ing
Ġmotherf ucking
onym ous
Ġsacrific ed
Ty ler
Ġmart ial
ĠTes co
ĠUNDER STAND
Mic key
Ġmourn ful
Ġsincere ly
DAR ESBY
Ġware house
Ġvit amin
Ġjewel ry
ĠBOOK S
ĠIndones ia
Ġcass ette
Ġpand emic
ĠRAD IO
Ġparam et
Ġintellect ual
ĠHit ler
Ġoctop us
Ġatom ic
Ġtad poles
Ġimmort al
Prof essor
ĠPLE ASE
ĠHast ings
ĠMidd leton
Ġghast ly
ĠHumph rey
Ġdiam eter
ĠBrisc oe
( #
( '
5 2
6 3
; &
; '
? [
C old
C ooper
D al
D ist
D ora
F enn
F UL
G one
H ay
H im
J ANUARY
L www
N urse
R ing
S A
S qu
S aw
T aking
T old
T ax
Y ea
b rew
b ump
b idden
c amp
d ated
f us
f orth
g uns
h ope
h iccups
j or
k no
l ad
l aughter
m umm
m akers
n early
p ox
r unning
w ine
x ious
Ġ ions
Ġt et
Ġa z
in stead
Ġw art
Ġw ick
Ġs ib
on o
Ġb am
Ġb red
Ġb ony
Ġb rill
Ġb achelor
it ate
it ably
Ġm it
Ġm uck
Ġm oust
Ġc yl
Ġd azz
Ġd renched
or is
en ch
en cing
Ġp ion
Ġp est
Ġp od
Ġp atted
Ġg rill
Ġg ifted
Ġg asping
Ġl f
Ġl ain
Ġl ament
as ium
Ġn an
Ġn ests
Ġh u
Ġha ird
Ġbe fallen
Ġre pr
ri bly
Ġst if
st able
st raw
ro gen
ĠM ong
ĠM ason
ĠM eth
ĠM ik
ĠM andy
ĠS K
ĠS end
ĠS www
ĠA ye
ĠC row
ĠC raw
ĠB al
ĠB uc
ĠB less
ĠB unker
if ference
ĠH AR
ĠH urry
ant ics
il in
il ized
Ġr ally
Ġr aging
Ġr aspberries
Ġshe pherd
ĠT on
ĠT am
ĠT ak
ĠT ham
ĠT hings
ĠT URN
our ces
th ought
Ġsh iver
Ġout standing
ĠW he
ĠW IN
ĠW elcome
ul atory
ĠP ied
ĠP icture
ĠD ES
ĠD AD
ol ks
Ġor al
ĠG ret
ĠG IVE
ĠG utenberg
ind y
ig ious
ĠF iona
ĠJ upiter
os o
ĠL ammie
ra its
ast ics
nt ario
ak awa
na e
na il
Ġv om
Ġv ines
fe ld
ĠE D
ĠE P
ĠE va
ĠO ntario
Ġright eous
He h
He art
âĢĿ --
Ġtr aced
Ġqu iver
Ġcl ad
Ġcl utched
Ġaf ar
we ek
Ġgr umpy
Ġgr unted
omet er
ĠK it
ĠK ello
act ic
act ivity
be gins
Ġun p
Ġun pack
Ġun seen
te le
ady s
Ġfl an
Ġfl ute
Ġfl att
Ġyear ly
Ġdis band
Ġad jo
Ġim itation
ĠSt alin
cl ub
Ġte e
Ġcomp ounds
Ġcomp onent
Ġsha ve
Ġhome ward
ob ed
Ġres isted
ee ze
Ġcare lessly
iv ism
In ter
li hood
Ġcomm end
---- âĢĿ
ition al
AT T
Ġbus iest
ĠBr on
Ġbed side
ĠMar in
St one
ister s
ĠAl ber
ener y
sh rie
Ġsub urbs
Ġmet ropolitan
Ġmus lin
Ġmus cular
ĠHar low
Ġinf inite
Ġinc umbent
ĠDe bor
ĠTh irty
ĠĠĠĠĠĠĠĠĠĠĠĠĠĠĠĠ ĠĠĠĠĠĠĠ
Ġpict ured
Ġcoll apsed
ĠFl ower
ern ation
Ġbuild s
ĠTO LD
ĠCha mber
Ġpri ory
olog ies
ĠCar risford
Ġhon ors
Ġmark ets
Ġloc ations
Ġpen it
Ġpen rod
Ġtrans actions
ĠSp onge
RO OGE
erv atory
Ġstraight en
ST E
Ġconst rain
Ġill usion
ĠHer mann
ĠPro vin
uri a
Ġdeep est
reed om
Ġdoubt fully
Ġtrust ees
Ġdat ab
Ġest ates
Ġship wre
Ġpot assium
Ġcomfort s
Ġexpress ing
ĠTr ue
Ġtem p
Ġreleas ing
Fr iday
Ġtur ret
some where
Ġtape recorder
.âĢĻ âĢĿ
ĠPaul a
Ġver te
ĠST OR
ĠST ILL
ĠSh rek
ĠSha ft
Ġcollect or
isc ons
Ġjack ets
Ġobs erving
ĠSe lden
su per
Ġtall est
Ġtrack ing
Ġemb raced
Ġaut o
Cl ub
Ġhost ed
ĠMon k
Ġmat ched
Ġunc omm
Ġrisk y
Ġstat utory
bell s
ĠQu ick
Ġinflu ences
ĠNe v
ĠNe ville
LES S
Ġimpro ving
ĠRob bin
Ġairport s
Ġappreci ation
Ġcontact s
UST R
ESS IE
Ġtap ing
Ġgro ans
Ġindust ries
Ġconv ict
Dr ink
ĠĠĠĠĠĠĠĠĠĠĠĠĠĠĠĠĠĠĠĠĠĠĠĠ Ġ
Ġreckon ed
Ġescap es
BE CAUSE
IV ING
Ġfal con
Ġterror ists
ĠĠĠĠĠĠĠĠĠĠĠĠĠĠĠĠĠĠĠĠĠĠĠĠĠĠĠĠĠĠĠĠ ĠĠĠĠ
Ġbend s
Ġbreast s
Ġdeliver ing
Ġpoison ous
Ġdescend ants
Americ a
Ġdecor ated
Ġlegend ary
Ġtransl ator
Pre par
pull s
Ġtooth paste
ĠEv il
Ġcord ially
sho ot
Ġrev ised
Ġsubs id
Sec ret
XX X
Ġwip ing
Ġobst acle
Ġrend ezvous
ĠMag azine
Ġpartners hip
Ġgest ures
Ġhom icide
ĠLeon ard
ĠLar ita
CON D
Ġwrit ings
Ġcryst als
Ġdeliber ate
Ġtramp oline
Ġexclam ations
Ġindul ge
Ġuna ware
Eng lish
ĠEthe ling
ĠMir pur
Ġshrie ked
Hard ly
Ġfid dle
ĠPot ato
Ġratt les
CHE ERING
Ġpenet rated
Ġmisunder standing
Ġcher ries
MAR CH
Ġmanuscript s
Ġfiance e
ĠOP EN
BAR A
cro codile
Ġsor ce
Wonder ful
Ġsund own
Ġvary ing
Ġcultiv ated
Ġimprison ed
Ġrefres hing
ĠAud rey
ĠCOUR SE
Ġenvelop es
ĠSIGHT INGS
Ġreinforce ments
ĠGri gson
ĠCrus oe
Ġcarn ival
ĠHou ston
Ġmangan ese
Ġdistur bing
Ġcalend ar
ĠWur zburg
Ġcriter ia
nons peech
ĠPoy nings
ONATH AN
ĠTham es
ĠDebor ah
' _
4 00
A ut
A ng
C APP
C ameron
D ar
F orm
G G
H undred
H uman
H eaven
J O
L in
L ights
L AUGHING
M I
M aking
N ear
P ri
S un
S ol
S uk
S unday
T ELL
V o
W ord
[ Â¶Â¶
c oll
g am
h iding
i y
i ated
k at
l oo
l ene
m ire
m ese
n ies
n ods
o ow
o inting
s low
t or
t ons
u ctions
v ial
w ipe
w ords
z ip
Ġt har
Ġt ying
in ny
re a
re f
Ġs id
Ġs ash
Ġs omers
Ġm ould
Ġm orrow
Ġm ounds
Ġd ine
Ġd otted
Ġf ade
Ġf ished
Ġf ences
Ġf ading
or g
Ġp ence
Ġp iles
Ġg in
Ġn eared
ĠI owa
Ġh obb
ot ter
Ġbe et
im my
ke rel
ac a
Ġre versed
ri z
Ġst unt
am ount
am ples
Ġk ha
ĠM ort
ĠM ans
ĠM unicip
ĠS ty
Ġwh ither
ĠA ren
Ġat tain
ĠC ut
ĠC her
ĠC reat
ĠC oun
ĠC roat
ĠC AME
ĠC ertainly
ĠB att
ĠB US
ĠB uckingham
ust ered
Ġr aced
Ġso bs
ĠT us
um as
ge nder
Ġde w
ĠW ard
ĠW HERE
art a
ĠP C
ĠP u
ĠP ap
ĠD C
ĠD ub
ĠD ays
ĠD amn
Ġpl a
ĠG ors
ĠJ our
ĠJ etty
ĠL er
ĠL ear
ĠL iter
ĠL ET
ĠR oo
ĠR ights
ĠN ep
ĠN ina
Ġman e
od a
Ġint ensity
ag her
Ġag encies
Ġqu ivering
Ġover looked
Ġoff spring
ĠHe ath
au e
Ġgr ampa
Ġbl onde
Ġ[ !
Ġ( _
irst en
pl ings
pl ays
Ġ19 15
Ġfl apping
Ġfl utter
cc ane
Ġpr udent
Ġad ject
ru it
ĠSt ay
Ġper ish
Ġper ils
Ġsha ck
gg le
pe ek
Ġch ubby
ĠY o
ons ay
ĠV a
Ġcr us
Ġcr ushing
Ġres ume
Ġres ulting
Ġcour ts
Ġhar p
aw ar
aw right
Ġstr ay
Ġstr icken
ee e
iv or
Ġdes olate
In side
li b
land ers
ON D
ON S
Ġreg ulations
Ġhold er
St ick
St acy
Ġround about
Ġsecond ly
unt arily
Ġdec ade
ener ation
Ġinst alled
Ġsound ly
Ġinter vention
Ġsk illed
Ġinv ari
Ġdep ot
go at
Ġeight ies
oe uv
Ġsent ry
ĠAn z
Ġaw aken
oub t
Ġcur ved
ĠFl orry
AS ES
Ġhair s
Ġ6 00
ĠZ ach
ik au
Ġadv oc
Ġpri ests
Ġhum our
Ġpar cels
Re ception
Ġloc ally
Ġho pping
Ġra ises
ĠSp ot
RO SS
Ġfast en
Ġcat ast
ĠFor ces
Ġclass ified
over lap
Ġconst ernation
Ġve x
Ġstar board
Ġexcl usive
ĠX V
Some where
ĠBar on
Ġmer its
ĠPro gram
Ġesc al
Ġprof ess
Ġshoot s
Ġgold fish
rat ors
Ġtest ify
Ġleg itimate
Ġmount ing
Ġsuper market
rer as
Ġpublic ly
amb led
ĠPer u
was her
ĠWest minster
Gr ant
Ġdi agram
Ġrid ers
chan ged
Ġhorses hoe
Ġhoney moon
sp oken
Ġcollect ions
Ġbread th
ĠEl ms
Ġpriv acy
Ġcrowd s
Ġsmell ed
Ġtend s
Ġcompet itors
igg ins
Ġlength s
ĠMad rid
Ġgen ial
Ġmass age
Ġbrown ie
olf ini
Mom ma
UR Y
Ġfre aking
ĠRE C
Ġur ging
Ġspell s
Ġgas oline
Ġpet ty
vey ard
ĠFred dy
Ġbother s
oos es
Ġfund ament
Ġ192 1
Ġaud ible
Ġaud io
Ed mund
Ġcart ridges
Con f
pro v
ĠPort sm
Ġdel usion
ĠTH OUGHT
Â¶ ]
Ġstraw berries
UCK Y
Ġ186 8
Ġhook s
Ġpant ies
Ġreact ive
En ter
Ġbat hed
Ġaston ishing
Ġregret s
ĠArab s
Ġnic est
Ġscreen writer
ĠAct ress
Ġcaut ious
ĠGreen e
ĠSa hib
Ġpron unciation
ĠSH OW
Ġspin ach
Ġscratch ing
ĠDiv an
ĠSC ROOGE
ĠWood s
Em ma
Ġreward ed
Ġverb al
Co ffee
Ġswell ed
Ġmal oca
Ġwars hips
Ġmole cules
Ġillustr ated
Ġmanufact uring
Ġquant ities
ĠGe off
Ġrum ors
Ġtires ome
Ġna ive
Ġindul ged
Step hanie
ĠANY THING
Des pite
Ġevac uation
Ġbob ble
ĠPear son
Ġbrid le
Ġscramb ling
Ġstab bed
Ġdod ged
Ġconvey ed
Ġtribut ary
pol is
whe el
Ġmerc ury
Ġmisunder stand
ĠSn oopy
Ġpy ram
Ġseeming ly
ĠKaw ita
Ġsmugg lers
ĠCle veland
ĠCHE ST
ĠUr du
ĠBea uty
Ġreb els
Ġexplo its
Ġsoci eties
Ġtreacher ous
pow ered
Mel issa
Ġrestrain ing
Post man
Ġec st
ĠPrem ier
Ġkne eling
Ġgymn asium
kn ife
iche ver
ĠShan non
Ġcourte ous
ĠBASE BALL
opl ane
Ġinfer ior
Ġment ally
Ġcoc aine
Ġcarpent er
Ġrit ual
ĠChand ler
ĠGem ma
ĠAth let
ĠMacle od
Ġgalax y
Ġadap ted
ĠCarm ichael
Ġmicrow ave
Ġperspect ive
Ġpneum onia
UPP LES
draul ic
ĠKello gg
Ġflan nel
iscons in
CAPP IE
[Â¶Â¶ Â¶]
ĠPortsm outh
' --
5 4
A llow
A www
A part
C A
C ou
C ry
C OP
C ookie
D en
D og
E st
F re
G un
G rundy
H annah
J ason
K id
L im
L iving
M R
O ppa
S W
S hi
S ON
T W
T ouch
U sed
W ish
W AYS
b il
b reed
c onscious
c orrect
d ry
d ress
e ers
f amily
g ence
j ar
j andro
k ip
t old
v ice
w ed
Ġt ed
Ġt il
he nded
in stein
Ġs ighs
ha p
nd on
Ġb art
Ġb raid
Ġb aff
Ġm oth
Ġc amps
Ġd ye
Ġd agger
Ġf us
Ġf erry
Ġy uck
ed uc
an ikau
es bury
Ġp ent
Ġp int
Ġl ime
ĠI mm
ĠI da
le ading
Ġth orn
Ġbe ams
ut er
al b
im bab
Ġfor s
Ġst inky
out e
ith ium
st ones
ro ars
ĠM M
ĠM S
ĠM uss
ĠM UR
ĠS om
ĠS my
ĠS aid
ĠS ony
ĠS ugar
ĠS ciences
Ġas pir
all ied
Ġli l
ch oc
and ez
ĠC oming
ĠC ombs
Ġkn uckle
ĠB ach
ĠB IR
ĠH oo
ĠH uck
Ġare na
ĠT ate
ĠT ines
ĠT RE
ĠT roy
ĠT HO
ie nd
Ġsh ipping
Ġsh ivering
Ġbut chers
Ġde lete
ĠW or
ĠW AL
ĠW isconsin
ĠD J
ĠD ob
ĠD ixon
han ging
Ġal oft
Ġno stri
ĠG rey
ĠF N
os l
ĠL OT
ĠL ETTER
ĠL eeds
ĠL upin
ist ant
ĠR ey
ĠR LF
ate ful
Ġex cell
Ġex hibit
em a
Ġv i
Ġv s
Ġv as
Ġman kind
ĠO g
ĠO ppa
ick i
ear ing
ag en
Ġpro secut
ine z
ace y
Ġover ha
Ġover heard
Ġmore over
Ġcl aw
ĠHe ather
Ġro bes
ĠK ah
uck ily
ren cy
Ġun intellig
Ġpo ker
Ġfl ap
Ġfl akes
Ġpre ference
Ġpr isons
Ġdis obed
Ġunder cover
ool s
Ġthought less
ĠSt odd
Ġper p
Ġapp ar
ob iles
ĠY ep
oy al
oss ibly
aw are
ult s
Ġche que
Ġser pent
Ġgl itter
Ġshow ers
Ġatt ire
Ġatt ach
Ġatt ribut
Ġrec re
Ġcha gr
Ġroom mate
Ġcle ars
Ġbaby doll
ĠBr ing
ĠBr ice
ĠBr istol
Ġdiffe red
Ġsur ge
Ġind igenous
me ow
Ġnum bered
ug hes
Ġcol onies
Ġlist ener
att empt
Ġsound ing
Ġwind mill
pr int
ctor al
ĠEd ition
ĠWe b
br ook
Ġmet aph
Ġ18 32
Ġpay ments
Ġdisc ern
Ġref uses
ĠAn im
Ġconf ounded
Ġblack ened
Ġinf antry
Ġsat ellite
ĠChrist ina
ĠBen ny
Ġdress er
ĠTO P
Ġfav ors
ĠZ ack
ik uchi
ĠAll ies
Ġsn eaking
Ġfree zer
Ġyell s
ĠSp ider
ĠSp encer
RO D
RO AT
AM ES
ham mer
Ġ9 1
ĠBl ues
Ġve ctor
Ġstar ve
Ġgra veyard
che t
Some how
Ġspecial ist
Ġsal mon
IC AL
bl ank
ĠOr thodox
Ġboard ed
Ġcal am
Ġpract ised
Ġpract iced
Ġseat belt
Ġya wn
Ġdirect ing
Ġdevelop ments
UT H
Ġtreat s
Ġval iant
ffic ial
Ġprotect ive
Ġdecl aring
Ġcool er
sc rew
Wait ing
Ġcab ins
Ġspir ited
Ġlim p
rop hy
Will ie
Ġcompl ac
Ġsell s
Ġdry ing
Ġscar ing
ĠSha dow
medi ately
Ġ14 0
Ġgarden ing
wood s
Ġtow els
Ġsouth ward
ĠWilliam son
Cl ass
kin awa
ĠHall elujah
Ġpet rol
Ġcrack ing
Ġpat ri
Ġapart ments
Ġble ed
Ġdesp ised
Ġblind s
Ġdig ger
Ġstock s
Ġ192 2
Am azing
ba a
Ġmedic ation
Ġhonor ary
ĠHi iu
Ġcong regation
Ġinvestig ations
Ġtext ure
ĠEvery one
sn iff
ĠĠĠĠĠĠĠĠĠĠĠĠĠĠĠĠĠĠĠĠĠĠĠĠ ĠĠĠĠ
ĠGl adys
ĠSing leton
Ġjudge ment
ĠDE C
Ġple ad
ĠTH ROAT
Ġta vern
ĠMat anikau
Ġfold ing
ĠMo ors
ĠĠĠĠĠĠĠĠĠĠĠĠĠĠĠĠĠĠĠĠĠĠĠĠĠĠĠĠĠĠĠĠ ĠĠ
Ġbat tered
bu zz
Ġmyster iously
ĠArab ia
Ġboun cy
ĠFranc o
Ġparticip ants
ĠMi y
ĠXX I
Ġdish on
Ġcontribut ed
Ġtoss ing
Ġdescend ing
ĠPo irot
ĠYe ong
Ser geant
Ġcompos ite
Ġexception al
ĠPan jab
Ġappeal ing
Mark us
ĠCons ervatives
Ġdawn ed
Ġmechan ism
Ġanal ogy
BR UARY
Ġsumm ary
sl ide
ĠRich ie
yy y
Ġcomplex ion
tom atoes
Ġgrin ning
ĠLiber ty
Ġintr uder
Ġevol ved
Ġaccompany ing
Cor rect
Ġinterpret ed
Ġowners hip
Ġdisturb ance
ĠHor ace
Ġexplore r
Ġfer vent
ĠPil ot
ĠChap ter
Ġcasual ties
stra ight
inter rupt
Ġprosper ity
Ġruff ian
Ġsoph isticated
Ġelim inated
Ġol ive
Ġmotherf ucker
ĠBudd h
SOPHI E
ĠDart moor
Ġrecoll ection
Ġpeac ock
Ġconvention al
Light ning
Tri pp
Ġze al
ĠRain bow
Ġsauc er
ĠYaz oo
Ġuneas iness
ĠMIN UT
Ġprolong ed
Ġpunct uation
Ġdispos al
Ġabst ract
ĠOri ental
Ġantagon ist
whim pering
Ġfoss il
ĠHOL INESS
Fant astic
ĠKenn eth
Urs ula
FE BRUARY
Ġstruct ural
tad ah
ĠAthen s
ĠNune ham
Ġdisli ked
zhe imer
Ġadjo ining
ĠGors wen
ĠElms lie
imbab we
ĠTHO SE
6 1
; .
B oom
C hat
C atch
D F
E p
E nt
E yes
E uro
F eb
F unny
G ord
G UN
J in
J erry
K A
M AX
N IE
O fficer
P ush
R ain
R ich
T s
U ES
W HIS
X AND
b ul
b unny
c omb
c ircle
d al
d ance
e ast
e lect
f air
f ires
h igher
l ength
l aps
m ers
m uh
m ile
n ames
o il
p oo
p our
p ound
p iring
s ets
s peed
t u
u ana
Ġt uh
Ġa le
Ġa ching
Ġw age
Ġw ah
on str
Ġb umps
it he
Ġm ah
Ġm ik
Ġm ashed
is o
is en
Ġc ords
Ġd azed
Ġf ath
Ġf ern
Ġf rying
ed ed
Ġp onder
Ġp ottie
Ġn at
Ġn im
Ġn un
Ġn ort
Ġn uis
om atic
ow ls
Ġh ides
Ġh ounds
Ġh ilar
ot as
et ed
et ry
Ġbe f
Ġbe aming
Ġbe eps
ac iously
Ġre el
Ġre cept
Ġst ap
Ġst ip
Ġst itch
Ġu l
Ġdo le
Ġdo gged
am ine
Ġk ah
ĠM uch
ĠM oll
ĠM aid
ĠS ale
ĠS ok
ĠS eb
ome o
Ġas semble
Ġwh oops
ĠA way
ch t
ch u
ur ic
ur st
ill ion
ĠC old
ĠC abin
ĠC aleb
ĠC lyde
ĠB i
ĠB AB
ĠB everly
ĠH il
ĠH IGH
ant ically
ct odus
il ocks
il awar
Ġj ing
Ġr uddy
Ġso ak
ĠT ouch
ĠT owers
ĠT ales
Ġab ide
ab atchi
ĠW inton
ĠP ill
ĠP ink
ĠP ig
ĠP age
ĠP owers
ĠP ERSON
ĠD ame
ĠD isc
ol ite
Ġor anges
ĠG I
ind s
ig ible
ĠF ly
ĠF uj
ĠF letcher
ĠL am
ra z
Ġus ers
ĠR af
ĠR iley
ĠR ooker
ast ard
Ġcon sole
own ed
ĠN ar
ĠN ortheast
oh o
Ġv olley
ĠE ph
ĠO H
ick ory
Ġtw ilight
Ġtw itching
Ġpro g
Ġpro pri
Ġbo ll
ber punk
hi ko
Ġdown s
Ġcl ause
Ġcl uster
No v
Ġro ars
Ġput tin
Ġpe er
Ġgr udge
uh rer
ving s
Ġen han
Ġen light
onna ise
ian jin
ull ah
Ġ19 14
ci als
Ġfl or
Ġfl are
Ġfl aw
ĠU EF
Ġsc enery
Ġdis put
Ġunder brush
iz ers
Ġsm ashing
ĠSt iles
ĠSt ella
Ġsec uring
get ic
Ġwr inkled
cl im
cl iffe
Ġsha m
av i
pe cies
ĠShe l
ĠY un
ĠY ears
ons ciously
ĠV ijay
Ġlast ing
Ġcr ank
Ġcr ude
Ġres id
Ġres olutely
man ship
ĠIn st
Ġgl or
Ġgl am
up ied
Ġend orse
Ġrun g
Ġacc use
Ġmen op
Ġmon aster
Ġind e
Ġpass ions
me re
ĠMar io
Ġnum b
Ġri gged
Ġri gging
Ġrel ent
Ġball ot
Ġsix teenth
Ġtri ple
St ory
ĠAl ong
ĠAl zheimer
she ll
leas ed
Ġdec ades
Ġass ent
ĠGod d
Ġimp ose
ced es
Ġtra versed
Good ness
ĠDe ad
ĠGr ay
ĠGr ady
Ġdin ners
ĠĠĠĠĠĠĠĠĠĠĠĠĠĠĠĠ Ġ
Ġsy rup
wo ah
Ġgrand parents
Ġsqu id
Ġins cription
Ġbar red
Ġreason ing
Ġem ail
Al as
Ġexpect s
Ġlisten ers
Ġfore ns
Ġcold er
Ġappro aches
de h
Ġsun rise
Ġeng ra
ĠAd air
ĠFor ster
ĠPe isley
ĠDon key
ipp in
Ġexcl usively
Ġda is
Ġsal uted
Ġshot gun
IC ALLY
Ġdet ained
bl ast
uk a
uk la
ĠGood bye
born e
Ġremark ably
Ġsense less
ĠMy stery
ĠFrank en
Ġimag in
Ġbow ls
Ġju icy
Ġsol itude
Ġdi ving
Ġdi apers
Ġrid den
Ġearth ly
Ġprin ces
rit es
rit ers
ĠST OP
ĠSh in
Ġfarm house
aff y
Un like
sp oon
Ġport ions
Ġpal ms
would n
Ġdiscuss ions
ELL Y
Ġfool ing
Ġfil ming
Ġcru c
Ġfright ful
Ġdesign ated
Ġsuff ix
ĠSu z
Ġinterrupt ion
Ar ctodus
Ġhost s
Ġstream ed
din osaur
ĠChe ers
Ġpet t
eless ly
Ġspr ung
IL A
Ġunc onsciously
Ġbang ed
Ag reed
ĠQu am
oph one
Ġir res
Ġtowns hip
WE ASEL
Ġspeech less
Ġvac c
Jack y
Ġcult ures
Ġinvestig ating
Ġmor on
Ġdesper ation
could n
BE CC
ĠLO ST
Ġscrew s
Ġfra gment
Ġple a
ij ing
ĠCH RIST
Ġmult itude
Ġdun geon
Ġhesit ating
ĠMor se
Ġ187 7
olan i
ĠTy phus
ĠEn vironment
Ġ186 2
Ġgang s
ĠHaw k
ĠDav y
200 7
Ġinterview ed
ĠReg iment
Ġbitter ness
ĠChan cellor
mom ma
cr ack
hun m
ste ady
Ġprec inct
Ġkeen ly
lyn n
ĠRes erve
Ġgle eman
Ġgle aming
Ġsem antics
ĠPir ah
Ġscare crow
Ġcommer ce
Ġphr ases
ĠCom pton
Pre pare
Ġtrop hy
ĠFire man
ĠIrish man
Ġmechan ic
ĠDa wn
ĠCho ice
Ġendeav our
ĠMars h
ĠBaby lon
aph one
ĠArm adillo
Ġobtain ing
Ġlux urious
Ġpros ody
iven ess
ĠDu plo
Ġvolunte ers
ĠStr onsay
Ġbol ted
Hon ours
Ġgre asy
Ġnick named
Ġbru ises
Ġbride groom
Alf ie
ĠRoll ins
Des cription
Ġcreep y
ĠNan jing
Ġfulf il
Ġfulf illed
Ġcorpor al
ĠPot ter
Ġconfirm ation
Ġreluct ance
Ġpolar ization
Ġvel ocity
doll ar
Ġagric ulture
ĠArgent ine
ĠTre vor
ĠUs ually
aza ar
Ġlegisl ature
Ġmulti pl
Sub titles
ĠGU YS
Ġcoax ing
Ġsacrific es
ĠJe ong
ĠCro ckett
Ġinfect ed
Us ually
ĠBid en
ĠPier re
Ġovert aken
Ġhaz ard
Ġcontem pl
Ġcontem porary
ĠACC USED
ĠTai wan
Ġvari ations
ĠVill age
ĠDin ah
Ġsubsequ ent
SCREAM ING
Ġreass uring
Ġprow ess
ĠClear port
ĠBund es
ĠCatal onia
Ġdolph ins
ĠLIGHT S
Ġcontrovers ial
ĠCommon wealth
Ġinconven ience
ĠIra q
Ġemphat ically
Ġlingu istic
Ġsynd rome
GRO ANS
Ġwreat h
Jon athan
ĠProdu ctions
Ġadequ ate
ĠUnivers al
Fa ith
ĠTha iland
Ġsophom ores
OSS IBLE
Ġketch up
grad uate
Interest ing
Ġworshi pped
Ġprostr ate
ĠTaens a
Ġclergy man
Ġvacu um
ĠGob lin
Ġdemer its
Ġslo ppy
ĠNev ada
choc olate
ĠUEF A
2 000
A ri
B ook
C y
C am
D R
F C
F rost
H UH
I AL
K ath
L ost
N am
S in
S ar
S IDE
S peed
T ow
V en
V ICTOR
c ats
d ee
f ing
f al
g own
g ans
h ohoho
k m
k ie
l ost
m ess
n oth
r ar
r ade
s ense
t aker
v ald
w ark
w onder
y et
â Ĩ
Ġt ins
Ġt ipped
Ġt resp
Ġa i
Ġa ug
in burgh
ou fl
Ġw ank
Ġs q
ha way
er ver
Ġb ats
it zen
Ġm r
is p
Ġo m
Ġo y
Ġd io
Ġd ived
Ġd angling
Ġf ared
Ġf angs
ing ed
Ġto iled
ed ar
or ph
an ium
Ġl n
Ġl att
Ġl aser
Ġl ending
ar le
ar us
as hy
Ġn our
Ġn ailed
at ics
Ġh ound
Ġh olly
ot al
et he
et ition
et hoven
ic ia
ut ters
ut tered
Ġe lf
im portant
ac ular
Ġre n
Ġre arr
Ġre nown
Ġst a
Ġdo ct
out side
Ġk ay
Ġk ins
Ġme mo
st o
ĠM ang
ĠM ON
ĠS et
ĠS hang
ĠS ORRY
ĠS leuth
Ġnot ions
Ġnot ified
ea gues
Ġwh ir
ĠA pex
Ġgo anna
Ġgo sp
ĠC ou
ĠC IA
ĠC osta
ĠB oc
ĠB ones
ĠB ILL
ĠB ETTER
ĠB irthday
ĠH unt
ĠH OUR
ct ic
Ġj an
Ġj inja
Ġj aguars
Ġup l
ore y
Ġthere by
our ke
th or
op ol
op hil
Ġout sk
ĠP and
ĠP sych
han a
han y
Ġal ibi
Ġal arming
Ġthem es
ĠF ig
ĠF alls
ĠF OUND
os oph
ĠL oring
ĠR aw
ĠN AME
ĠE th
ĠE www
ide red
Ġag rees
Ġlo ans
hi ya
Ġdown right
Ġcl ues
Ġro ds
Ġbr ushing
Ġbr ushes
Ġpe el
Ġpe eping
Ġam mon
ft ly
ond a
Ġco con
Ġco ils
Ġco gn
Ġday care
Ġwhere in
be it
Ġun just
Ġ19 00
Ġfl inging
ord inate
gg ard
Ġapp lying
do ggy
ob i
ĠY uc
Ġcr ouching
ip ers
Ġnight fall
Ġser mon
Ġdif fers
Ġcha ined
Ġcha ssis
Do ing
Ġcount less
ye isha
AT OR
ner y
Ġbus k
ĠBut ler
ĠUn less
Ġsur rend
Ġwar like
Ġind ex
Ġdoor step
Ġside ways
Ġfun n
ĠMar ino
Ġter race
Ġrest lessly
Ġmoment ary
Ġfr ay
uff ic
uff alo
ered ith
St upid
ĠAl ton
Ġsecond ed
Ġass ign
Ġi od
Be hind
Be yond
Ġwind y
ĠEd inburgh
EN DS
sh ots
app arently
go vich
Ġexp anse
Ġfoot ing
Ġmus ket
Ġtra its
ĠâĻª âĻª
ex actly
Good night
Ġinf id
Ġexc av
Th ou
ĠĠĠĠĠĠĠĠĠĠĠĠĠĠĠĠ ĠĠ
Ġpop ulated
ĠBe ijing
Ġ6 9
LE Y
Ġopp onents
Ġcheck er
Ġpen insula
Ġtrans formed
unch ing
Ġwear ily
ĠSp ace
ĠSp ike
Ġquiet er
Ġgovern ors
ĠPhil osop
Ġclot hed
Ġcho ices
Ġspe ck
ST OP
Sh ot
Ġcross es
Ġcos y
Ġda et
ĠX box
ĠX VII
ĠX VIII
Ġluck less
Ġprof itable
ID D
20 10
Ġhusband s
Ġfail s
Ġut il
ĠSc oop
Ġpublic ation
ĠAb i
Ġmatch ing
Ġvict orious
Ġdi pped
ĠLet ter
Ġrad ical
ĠMal ay
ĠSome how
Ġfil med
igg a
ĠMad ison
ĠMad iba
ĠSe rena
Ġproject ed
Ġgrass y
Ġforth right
Ġrich ly
Ġconnect ions
Ġtechn ician
Ġinqu iring
Ġfaith fully
line y
Ġimm oral
Ġcrack s
ĠGO LD
Ġpat ting
Ġstro ked
ĠPl ano
Ġtrick ed
Ġblind ed
ĠQu oth
IF UL
Qu estion
ĠSch wart
Ġtrad itions
Ġvan ish
ĠRob bie
Ġcustom ary
Ġutter ing
Ġwheel ed
ĠAN OTHER
Ġafford able
Ġboss es
Ġsuspect s
Ġbal anced
ĠSteven s
Tw elve
ĠSE EN
Ġnarrow ly
ĠMor rison
ĠSen ior
ĠRy u
Ġ186 9
ĠMo ira
ĠCat hy
Ġgrate fully
ima o
Ġpred ators
Ġdim ly
ĠMore land
Ġnerv ously
Ġlack ed
Ġinstru cted
Ġsen ora
Ġcompar ing
Ġpension er
Ġdeser ts
Ġrejo icing
Ġpassion ately
Ġtrem ble
Ġbump y
Ġadminist ered
Ġprec ision
AG N
ĠEr nie
Ġadmir al
raw l
Ġcontest ants
Ġder iv
Ġanti que
Ġlegend s
Ġframe work
Ġconvin cing
rend a
Ġ190 9
Ġcritic ized
Ġlink s
Ġendeav ouring
ĠSl ave
Ġdies el
Ġobst acles
ĠBook s
Ġdece ive
jac ent
Ġgrie ve
Ġhaul ing
Ġfasc inated
ĠWANT ED
ĠINV EST
Jul ie
Jul ien
uls ively
ĠVer onica
Ġcooper ate
Ġrum or
Ġadvert is
Ġbroadcast ing
Ġcri ppled
Ġphilosop her
des ign
ĠFA CT
ĠBuild ers
Ġvague ly
ĠPeters burg
ĠDev on
Ġrestrict ed
Ġmemor ial
vet te
Ġtwist ing
orpor ated
Ġtum or
Ġhydro xide
ĠLy on
Ġgraph ics
miss us
Ġnod ding
Ġaer oplane
grow ls
Ġsurvey ed
Ġlod ge
Ġtoler ate
ĠSpring field
Ġuncertain ty
Trans criber
Ġmant le
Ġod or
Ġpip es
Ġles bian
Ġfrag ile
cont rol
ĠRud olph
BAR BARA
oog le
Ġoverse as
ĠMess ines
ĠPART Y
Ġroo ster
Mur der
ĠCONT IN
Ġclar ify
ĠCE O
Ġslop ing
Ġuneas ily
acr ament
Ġreun ion
ĠNong da
Ġscoot er
LI KE
Ġmonot on
Ġwal nut
ĠLev itt
ĠGRUNT ING
includ e
Ġalumin ium
Ġiv y
ĠCLOS ES
ĠSCREAM ING
Ġhob by
Ġfestiv ities
ĠCra ig
ĠCrim ea
ĠOrigin al
Ġredoub led
Ġfluor ide
ĠRab aul
Ġsatur day
Ġforci bly
Ġrhe umat
ĠGosp el
Ġgiv in
Ġdatab ase
ĠShaft esbury
Ġsomers ault
ĠLer oy
Ġnuis ance
âĨ «
Ġdio xide
Ġoutsk irts
8 2
8 00
A mb
B ew
D Y
D est
D ee
E VER
G S
G IE
H el
H attie
J en
J OHN
K arl
L ow
M et
P O
P ress
P oint
R T
R on
R oll
S her
S ant
S ailor
T ea
U CT
Z Z
c ookie
e xt
e ither
e lection
f il
f inger
g m
g os
h ut
l ia
l og
l iga
n other
s and
u ver
u ity
w ixt
z etti
Ġ Â¶Â¶
Ġt ant
he ne
ou la
re cy
Ġs no
Ġs urname
ha ge
Ġb umble
Ġb inding
it ating
Ġc ay
Ġc ages
Ġd aint
an qu
Ġp asha
Ġp ouches
Ġg age
Ġin mates
Ġn k
Ġhe h
Ġhe al
Ġh ust
Ġh ub
Ġh oot
le ader
Ġit al
et hing
ic us
Ġe i
Ġe ll
Ġe cc
Ġwe ep
Ġwas ps
ver ted
Ġre vers
ri um
Ġst ained
st icks
âĢ ĭ
ĠM athe
ĠS V
ĠS ind
ĠS ign
ĠS ey
ĠS oni
Ġse gment
ea bly
Ġli bert
ĠA jay
ur gh
and ers
ĠC and
ĠC ool
ĠC ald
ce e
ĠB led
ell ows
ĠH U
ĠH app
ĠH ughes
il ation
Ġr ake
Ġr ue
Ġr ushes
Ġr oust
un ction
ĠT as
ĠT ut
ĠT ories
ĠT UCK
ĠT amil
ĠT anya
ore r
Ġcan on
ie val
Ġthere of
Ġsa un
th in
Ġsh rub
Ġab used
op ter
op ened
ab ad
ĠW a
ĠW id
ĠW ea
ul ent
ĠP rest
ĠP OL
ĠP ingu
ĠP hoebe
ĠD ouble
ĠD upree
Ġal ight
Ġpl edged
Ġor deal
ĠG loria
ĠF ish
ĠF lying
ĠF uent
ĠF ifth
ĠL ocal
ist ress
res den
ĠR U
ĠR ut
ĠR UN
Ġex ting
ĠN ad
ĠN ate
ĠE cu
ĠO U
ĠO kinawa
Ġtw itch
ag an
Ġpro ven
Ġpro ctor
Ġlo ading
Ġbo oth
Ġbo omer
ber ville
Ġdown ward
Ġgood y
Ġar ist
Ġar ising
Ġcl ump
ĠHe ights
Ġfe eb
we eter
Ġgr it
Ġgr uff
Ġgr umbled
Ġam en
ud ged
ud ging
ty pe
ĠK u
ass ie
so e
Ġplay fully
ho ly
ater nity
Ġfl ux
Ġsc oop
Ġdis rupt
Ġad jacent
ne ider
Ġrem orse
Ġsm ok
ĠSt art
Ġwr ists
cl osure
Ġte ens
Ġmust ache
ĠShe en
Ġch illed
Ġch ili
ĠV all
ĠV iew
ĠV erm
Ġsl ices
og urt
Ġcont rived
Ġche es
ĠIn n
Ġrec ite
let ed
let te
Ġcle ans
Ġsw ans
ĠUn iverse
Ġind ifference
ane ous
Ġfun nel
Is a
Ġrest rained
Ġrest raint
Ġnum er
Ġdear ie
Ġfr anc
mb a
Ġtri f
Ġcons cient
Ġdri p
ib al
ĠNo ah
Ġfire men
Ġinv itations
br is
ier re
Ġref ined
Ġref rain
RE ET
who ever
Ġexc uses
Ġinc oming
ĠTh umb
Ġlad en
Ġhot ter
Ġcur ry
Ġsqu ire
ĠTom orrow
Ġins ol
Ġglad ness
Ġrepl acing
olog ists
LE ILA
Ġopp a
Ġpar an
Ġpar rots
Ġforg ave
men garde
Ġappro pri
de ck
Ġ7 00
THE N
ĠSp ark
Ġcou ples
Ġ9 4
Ġjo gging
zz z
Ġvill a
VE L
cha nd
Ġve t
ĠPr ay
Ġsal am
Ġfort ifications
20 16
Ġequ ipped
Ġsupposed ly
Ġnorth ward
com p
Ġprop ag
Ġru gged
Ġleg ally
Ġlearn s
Ġclos ure
Ġoper as
Ġoper ates
,' "
Ġorgan ised
EL S
ĠPar aly
ĠSc outs
Ġwhis kers
Fr anc
Ġsnow man
Ġtur f
Ġlab ours
Ġdefe nder
Ġincre asingly
Gr an
Ġdi ab
ĠPaul o
Ġtor ches
Ġtor ped
Ġhate ful
Ġ11 0
Ġpresident s
ĠMal ays
ĠSome body
Mar ia
Ġelect ro
str icken
Ġhero ine
Ġrepresent atives
ĠSu zy
Ġpeace fully
Ġbuck ets
Ġur ine
Ġsimilar ly
Ġbomb ed
ĠChe ck
God damn
Ġthick ly
Ġunc les
aud i
Ġfavour able
vell ed
Ġtemper atures
ĠHigh fields
ĠMac key
Ġrob bing
Ġroof s
Ġindic ations
Ġsucceed ing
ajest ic
Ġsurv iving
Ġgro aning
Ġaware ness
Ġprevent ing
Le od
Ġthin ner
ĠĠĠĠĠĠĠĠĠĠĠĠĠĠĠĠĠĠĠĠĠĠĠĠ ĠĠ
Ġwhist les
ĠGl enn
ĠGl asg
Ġshock ing
Ġpsych ology
Ġdism al
Ġ187 6
Ġ187 9
Ġoblig ation
Ġdistribut e
Ġproduct ivity
ĠHave lock
Ġindepend ently
Ġattend ance
Ġpit iful
Ind ian
only include
ĠDar in
Ġhabit at
Te le
Ġbark s
Sm art
Ġshr ank
Ġboot y
Ġdeliver ies
ĠJer ome
Ġprem ature
Ġdiss ip
ĠMur akawa
ĠEr mengarde
udge on
ĠVan essa
ĠVan zetti
Ġdisappear ing
ĠFR ONT
ĠLight foot
Ġdecor ations
Ġpigs kin
Ġmeas uring
Back ground
EM BER
Ġthrill er
bor o
BY E
Ġenc amp
Ġhug s
ĠFe ast
ĠEv idently
ĠDa isy
Ġkidna ppers
Ġconver ts
Ġflood s
Ġmal ign
Ġneighbour ing
ĠShar on
Ġbund les
Ġmurderer s
Ġga ol
ĠGall agher
Ġgrasp ing
Play ing
Ġancest ry
Ġgre ase
VID ENCE
Ġiniti ated
ele ven
Aw esome
ĠPrin ci
ĠBuild er
Ġpeak ed
Ġginger bread
SH AN
Ġabsor b
Ġcust ard
Ġank les
Ġintegr ity
Eight y
ĠBas in
Ġreluct ant
ĠDaw lish
Ġsimpl icity
ultane ous
fix ed
Ġspan ish
ĠColumb us
ĠLib rary
ĠIslam ic
ĠEp isode
Ġinvolve ment
ĠAld ate
WHI CH
pow der
Ġagg rav
Ġbloss oms
Ġric hest
esc ope
ĠEle ven
mad am
ĠFur long
Ġvine gar
ĠBog art
Jap an
Ġapprehens ion
ĠLor imer
Ġsne ered
Ġrefres hed
ĠRober ts
Ġdolph in
repe ated
lov akia
ĠAnton io
ĠKin man
ĠNort on
Ġresear cher
ĠDOES N
Ġprejud ice
Pil grim
Ġgrid iron
ĠSpy ro
Ġalle ged
Ġintol erable
omot ive
ĠHunting ton
Ġdiscon nect
Ġchalleng ing
Ġanten na
Ġenforce ment
Ġsharehold ers
Cla ire
Ġthirt ies
ĠMICH AEL
Ġdisadvant age
Ġunreason able
Bat man
ĠJar vis
ĠLina res
ĠShell ey
Ġinsignific ant
Ġdanc ers
Ġnoteb ook
Ġingred ients
Ġmoust ache
Ġkha ki
Ġecst asy
Ġnostri ls
Ġmenop ause
ĠBled soe
ĠEcu ador
ĠParaly mp
ĠGlasg ow
. ;
2 50
6 7
7 3
A li
A me
A br
A ustral
B ur
C ity
C ompany
D AN
D ean
H olly
I VER
I berville
J ac
K ELLY
L uckily
M ess
M otion
N ational
N early
O G
O rigin
O ops
P om
P ooh
R a
R ING
R EN
S L
S ad
S AR
S pr
S ilence
S plend
T ok
T iger
T RA
V aud
W al
Y L
Y ellow
b as
b less
c z
d ep
d ens
d rop
f ig
g old
h ttp
j abi
l isted
m ouse
n ard
o va
p ipe
u u
u ld
v arsity
x ual
y i
Ã ¸
Ġt iring
Ġt igers
in ished
ou che
Ġw ither
Ġw arden
Ġw igg
re aches
ha us
Ġb aking
Ġb owing
Ġm are
Ġm ules
is d
Ġc uc
Ġf uzzy
Ġf iend
Ġy ogurt
or ient
an ish
Ġp ang
Ġg ust
Ġg ird
Ġg eor
Ġg rop
Ġg ums
Ġg iggles
Ġg ender
Ġg abby
Ġl or
Ġl itt
Ġl ag
Ġl ashed
ar ice
Ġin appropriate
Ġn ip
Ġn ope
Ġh ump
Ġh oops
Ġon wards
Ġe aves
Ġre ind
Ġre organ
ad ually
ent ric
Ġst ressed
Ġst umps
Ġst agger
ion al
Ġdo pe
am ination
Ġme nded
ith uan
st ore
ro ot
Ġwith drawn
ĠM ine
ĠM ob
ĠM orm
ĠM AKES
ĠS N
ĠS ag
ĠS ON
ĠS IL
Ġse ap
Ġse iz
Ġse ating
Ġse rene
ĠA ber
ĠA UT
ĠA bsolutely
ur rection
and um
ĠC rist
ĠC HAT
ĠC urry
ĠC RAFT
Ġkn ickers
ĠB ou
ĠB ag
ĠB amb
ĠB anda
ĠH A
ĠH anna
ĠH ole
Ġr y
Ġr uth
Ġr owers
Ġr oman
Ġso fter
un happy
Ġup roar
ĠT ill
ĠT ul
ie red
pp ling
um bed
um sy
rom pt
Ġde ment
Ġout s
ĠW u
ĠW ant
ĠW ik
ess es
ink les
ul us
ĠP s
ĠP ant
ĠP aper
ĠD iane
ĠD arewell
el o
el ity
Ġpl aint
ĠG or
ĠG io
ig ne
ĠF al
ĠJ ungle
ĠL il
ĠL ud
ist rate
Ġjust ification
Ġcom fy
ĠR acing
Ġcon ject
ĠN anny
ĠN urse
em ale
Ġv od
Ġman oeuv
ĠE nt
ĠE lly
ag han
Ġag itation
Ġlo omed
no ons
Ġqu itting
Ġar ter
Ġar th
Ġgr unts
omet ry
ish na
ect ed
ĠK ey
ade qu
Ġwork men
act ing
be en
Ġafter noons
per ors
per fect
Ġfl atter
Ġsc anning
Ġdis d
ne enaw
Ġrem onstr
Ġsm ote
Ġsm arter
Ġsec recy
cl ip
Ġte aches
Ġfo lder
HE D
ĠY ORK
Ġsl ides
Ġsl edge
Ġcr umbs
Ġres ented
IN CE
og ram
Ġname ly
Ġstr ains
Ġgl obe
Ġgl ittering
Ġfound ing
Ġcomm itting
oth ic
AN CES
Ġhard ware
Ġpres cription
ĠBr ick
Ġpass ages
Ġdr ooping
ĠMar ple
Ġheart less
amp u
Ġreg ulation
stand s
Ġfr amed
Ġfr antically
Ġri b
St raight
ug osl
Ġcol ogne
ib les
ma ids
att s
ange red
Ġmil it
Ġsk im
Ġred uctions
Ġimp osed
Where as
Ġsub stit
Ġ18 90
ĠNew ark
Ġfoot prints
Ġref using
Ġhor ribly
Ġtra itors
ex pl
Ġconf orm
Ġ4 1
Ġland lady
Ġinc ons
ĠTh ou
ĠChrist ie
ĠChrist church
Ġshort est
Ġes p
ĠBe ut
for ms
ĠIs le
Ġpain fully
Ġstra ps
Ġbar be
Ġbar ric
ĠZ ero
Ġroad side
Ġgun shot
Ġhum orous
Ġpower less
Ġcold ly
Ġimportant ly
Ġsum s
Ġmid day
Ġloc ality
Ġrece ives
Ġtrans form
An nie
gin ning
Ġexam s
Ġfast est
ĠEnglish men
Ġve il
lo be
che ering
ĠX IX
ĠPro gress
Any how
Ġsal ty
20 13
bl ood
Ġpost man
Ġwild est
OK AY
Ġbes et
Ġ15 9
Ġsand y
Ġoper ational
Ġsuper natural
ĠTr aining
ĠAb d
ĠAb yss
Ġreleas es
ĠEuro fighter
Ġbud dies
Ġprin ter
chan ce
ĠST E
Un believable
sp aghetti
Ġrub y
fl u
fl at
Ġchurch yard
Ġsmell y
ELL A
Ġjour neys
Ġobs ervations
Ġcru elly
box es
Ġmass acre
Ġrap ture
Ġfeed s
ĠEx cept
Ġinterrupt ing
Cl are
Ġhy per
ĠEm il
Ġhonest y
Ġur gently
Ġtight er
Ġnatural ist
Ġcrit ically
ĠJenn ings
ĠSer bian
Ġener gies
Ġattract ions
Ġrob in
Br ought
17 9
Car ter
Ġphys i
Ġ192 5
Ġwheel chair
Ġemer ald
Ġobl iv
Ġinvestig ated
Ġprinci p
Ġsna pping
Ġsuspic iously
Ġspoon ful
ĠSing h
Ġchem ist
ĠSus sex
ĠNOT HING
Mad ame
ĠMo at
AB OUT
ĠBel ize
Ġassoci ates
Ġassoci ations
ĠMed icine
200 6
Ġcompanions hip
Ġtransport ation
Ġwra pping
Ġnic kel
Ġrang es
Ġparticip ation
Ġparticip ating
ĠSa o
ĠMil itary
Ġconclud e
ĠAny how
Ġembarrass ment
Ġimprove ments
Fin ish
Ġgri pped
Ġcommun es
Sha gbark
ili ary
Ġtransl ation
Ġtrop hies
talk s
Ġchuck ling
Ġpronoun ce
ĠAsh leigh
add ress
squ are
Ġcord ial
Ġmechan ics
ĠGar ter
Ġcowboy s
sa fe
Ġrev ived
Ġrac ial
Ġcam oufl
ĠDes ign
ĠUp on
Ġinstinct s
Ġlos ers
Ġyield ing
Ġga unt
Ġraid s
Ġmaintain ing
ĠRepresent ative
Ġancest or
ĠCont reras
Ġrecover ing
Ġsquad ron
Ġhopeless ly
ROW N
ĠAndre na
Mc Glory
ĠJoy ner
Ġevac uate
Ġimmense ly
ĠWork ers
ĠHard ing
ĠTem ple
ĠProt est
Ġmemor able
Ġimmig ration
ĠPun ishment
Clear ly
cray ons
Ġtribut aries
Ġrehears als
Ġsty lish
Ġamid st
Fort y
Ġfert il
ĠGreg ory
Ġgallop ed
Ġscra ps
Ġstew ard
Ġpengu ins
ĠJose on
Ġpremium s
Ġdiagn osis
hr oo
ĠTour nament
Hope fully
Ġthrong ed
ubb ies
Ġeval uation
ĠAtt orney
ĠAst bury
Ġric her
ĠTalk er
Ġvari ables
Ġexert ions
quiet ly
Ġrecru it
Ġacceler ation
ĠWol fe
Coll eagues
Ġdil ig
acr ity
Ġdispl acement
ĠSout hampton
sim ultaneous
ĠGand olfini
Ġsyll able
Ġinherit ance
Tem per
Ġungr ateful
Ġscree ch
ĠShaw ano
Gil roy
Ġrect angle
Ġbould ers
Ġdre ary
Ġlam bs
Ġsabot age
Ġmosqu ito
ĠMare chal
Ġhards hips
Ash ley
ĠPalest ine
ĠFollow ing
Ġconson ants
Ġsentin els
Ġomin ous
ĠTreat y
ĠAur ich
ĠTuk abatchi
Ġbulldo zer
ĠPUBL IC
ervo ir
ĠPied mont
Ġpenit ent
ĠBuddh ist
BECC A
Ġgosp el
ĠINVEST IG
acrament o
ĠTUCK ER
Ġexting u
A p
A ction
A wards
A war
B ay
B oo
B ear
B reat
B rit
C Y
F ood
G os
G IRL
H umph
I ENCE
J ay
K iss
K aw
L arry
L ands
M ass
M ater
M AS
M erry
N ong
O i
O uch
P a
P ot
P un
S ays
S hane
T re
T ube
V in
V ING
W ed
W IN
W ILL
b ach
c j
c art
c ricket
d oo
d est
d ose
e cho
f ret
f uta
g ah
k ill
l apping
m umbles
n one
o val
p resent
r ange
r iding
s le
t ap
t reat
t cha
t ray
v oc
w hether
z ig
Ġ Â¶
Ġt at
he he
ou ver
Ġw agg
Ġw erry
re ci
Ġs ire
Ġs not
er ied
Ġb azar
it ious
Ġm un
Ġd ice
Ġd oth
Ġd uly
ing don
Ġy ea
an ar
Ġg h
Ġl atch
ar led
Ġin let
Ġin ject
ĠI ro
Ġhe v
Ġha llow
Ġha cked
et le
ic ism
ic ola
Ġbe eping
Ġe ve
Ġe ch
Ġwe pt
Ġwe aken
Ġwe ights
Ġwe ighs
al gam
im ity
Ġre bel
ir ting
Ġst owed
Ġst unning
Ġst alls
am itos
st ation
st alk
st ruct
ĠM ut
ĠM ight
ĠM ol
ĠM ond
ĠM ills
Ġan ime
ĠS or
ĠS at
ĠS ic
ĠS old
ĠS low
ĠS audi
Ġse vered
Ġli able
Ġgo ats
ill as
and ar
ĠC J
ĠC ost
ĠC atch
ĠC ott
ĠC oke
ĠC RE
ĠC inem
Ġkn itting
Ġkn uckles
ĠB eth
ĠB ains
ĠB odo
ĠB rigade
ĠH ig
ĠH av
ĠH www
ĠH AL
il ess
Ġr ained
Ġso aking
ĠT ap
ĠT ammy
Ġcan oes
ie ft
Ġsh ipped
Ġsh ivered
Ġde jected
Ġde bris
Ġout right
ĠW AIT
ĠP ist
ĠP anda
ĠP ONY
ĠD ol
ĠD IST
ĠD iamond
ĠD iggers
qu ila
Ġal k
Ġal acrity
est yle
ind ers
ĠF ace
ĠF AR
ĠF UN
ĠF lynn
ĠJ ae
os he
ĠL anc
ĠL amb
ĠR eed
Ġcon vent
Ġsp un
ĠN on
ĠE den
ĠE sc
ĠE lect
ĠE VIDENCE
ĠO st
ĠO ften
ear ance
ag ara
Ġtr uce
Ġqu iz
Ġover turned
Ġar tery
Ġcl ing
Ġcl aps
Ġcl asping
Ġcl umsy
ĠHe brew
au per
Ġle ver
Ġpe w
Ġam iss
Ġam iable
We ren
ud ing
Ġhow ling
ĠK l
ĠK ra
ĠK uro
Ġen vious
Ġen forced
Ġwork in
pl aced
ian g
be hind
Ġun inc
Ġcall er
Ġ19 12
ise ly
Ġbet wixt
ater al
Ġfl ocks
Ġpre ached
Ġsc ru
Ġsc reens
Ġdis pose
Ġad ore
Ġrem edy
ĠSt ore
ĠSt adium
ĠSt uey
ew ard
Ġcomp ly
Ġcomp ose
Ġsha lt
av is
Ġmay onnaise
ens en
Ġhead aches
ĠV ir
Ġsl ime
Ġsl ugg
Ġcr amped
Ġlea king
Ġfeel in
but ton
Ġbu ccane
Ġuh huh
Ġche etah
dy s
Ġcha uffeur
li ved
let ubbies
Ġfour teenth
Ġhard ened
AT ELY
Ġmon k
Ġfin s
Ġpret zel
ĠUn like
Ġreal izes
ope z
Ġret ail
Ġter med
All ah
St ri
ĠAl amitos
Ġcons ignment
Ġcons umer
Ġass erted
any body
Ġinter posed
Ġsk et
Ġdep ressing
Ġexp elled
Ġdisc reet
Ġhor rors
Ġbreak ers
ĠHar bor
Ġinc omp
ĠĠĠĠĠĠĠĠĠĠĠĠĠĠĠĠ ĠĠĠĠĠĠ
Ġlad ders
Ġdeal ings
Ġpop ulations
Ġsqu eals
ĠFl agg
ĠBe hind
Ġcent ers
ander a
Ġins ens
Ġins ulting
Ġbar ges
Ġbar riers
AP S
Ġdar n
Ġpast oral
Ġrock ed
Ġmill s
Ġmill er
To gether
Ġbuy er
Ġbuy ers
els don
ara oke
oof y
Ġcho pped
Ġca vern
ĠBl itzen
ĠHer bert
Ġpolit eness
Ġgroup ed
che ek
Ġought n
Ġbath s
Ġesc orted
ĠCol ony
amer ica
Ġhang s
ĠLe ila
Ġsecret aries
ET S
net t
unic ations
Ġconsider ate
Ġleg acy
ĠMin ley
ĠDr ama
ĠRos y
ĠRos en
Ġval our
Ġmention ing
Ġsuper stit
Ġbirthday s
Ġrecogn izing
oul as
ĠPar amount
Ġbull s
ĠGo ing
yn n
Ġban ners
ĠWh oo
Ġlab ou
Ġsubject ed
Gr ab
Ġsex ually
SE E
ĠBE LL
Ġfil ter
Ġcompet itions
Ġcru isers
bur ps
ĠWith in
ĠMa futa
ĠEx pl
UR ES
Ġoccur ring
Ġcaptain s
Ġident ifying
Ġgar ment
Ġgas ps
Ġsquare ly
ĠFred erick
Ġtour ists
Ġpat ent
ĠPl uto
IE W
ran o
Ġdesp ond
Ġep id
ĠBur mese
Ġchat tered
Ġstret ches
Ġprofession als
Ġign oring
ĠJul ius
ĠHelen a
ĠHE AR
Ġcart oons
Ġtext s
Ġtext ile
Ġcontract ed
sha ke
Se o
ĠRepublic ans
Ġcivil ians
ĠGl ad
ĠColl ins
roll ing
Ġrespond s
IV ES
Lea ving
Ġess ence
Ġow ls
ĠFlor rie
ĠBro s
ĠEn ough
Ġearnest ness
ĠLook ing
ĠWin ston
asm uch
ĠVictor ian
Su pp
Ġqual ifications
Ġadmin ister
Ġdrown s
Ġmyster ies
Ġpump ing
Ġsquee zing
Ġsin ister
Ġvain ly
Ġvast ly
Ġge ese
Ġaffection ately
isha ble
ĠPlay er
ĠAust in
Ġ188 1
Ġtu ber
Ġtravell ers
Ġadmir ingly
ĠWal ton
Ġsecure ly
Ġrank ing
ĠScot ch
Ġnephew s
Ġstiff ly
Ġchuck le
Ġdisg usted
uy per
fin ished
Ġendeav oured
Ġsubs ided
Sec urity
ĠAD VENT
Ġmast s
Ġmast urb
ĠHol mes
Under stood
ĠDes ert
ĠAL WAYS
sw ings
Ġillustr ation
Ġpier cing
CI AL
Mon ica
Ġteen agers
Ġsavage ly
Ġguarant eed
Ġundert ook
Ġundert aken
Ġgard ener
gro ans
Ġmerchan ts
ĠTib et
ĠRegion al
Ġcryst all
Ġstoop ing
ĠRh ode
Ġrefe rences
ĠFA IR
Ġprivile ged
ĠAF C
Ġrestrict ive
Ġadjust ed
ĠLast name
ĠCOULD N
ĠPun jab
beep beep
Ġbewild er
breat hing
Ġexcess ive
him o
Ġsimpl er
Ġdod ging
Ġfract ures
Cr ash
Ġregist ration
Ġmerc iful
hur ray
Ġmisunder stood
Bern ardo
ĠVaughan s
Ġflav our
Ġperpet ual
Ġmuff led
Ġdiver t
Ġslim y
Lou ise
ĠIce land
Ġboast ed
Ġoverwhel ming
Ġscrat ches
Ġelim inate
Ġemig rant
Ġmead ows
ĠSocial ist
Ġ179 1
ĠMcC arthy
amil iar
occ o
Ġmoo red
ĠVen us
Ġassass ination
Ġholl er
ĠLeg isl
ĠTHING S
Ġharass ment
Ġmushroom s
Ġunac cept
MO ST
Ġairl ine
ĠCOUR T
Tot al
Tot ally
ĠWON DER
Ġchron ic
Ġcommence ment
ĠDef ense
ĠGand hi
Ġappoint ments
Ġsupplement ary
ĠFRI END
ĠSpeak er
AUT IFUL
Ġflick ering
Ġrefresh ments
Ġunsuccess ful
Ġdwar fs
Ġacquis ition
ĠHop kins
Ġsympat hi
crit ique
opotam us
ĠOrgan ization
Ġcomprehens ive
Ġattent ively
Ġvamp ire
Ġingen ious
Ġphenomen on
Ġunanim ous
MAG GIE
Ġchol era
ĠVanmarsen ille
tow el
ĠSard inia
ĠWITNESS ES
ĠGan non
HELL O
Ġki wi
ĠTaka hashi
ĠMYSTER Y
Ġhaird ress
ĠSTOR IES
Suk ie
Ġfundament al
Ġpett ico
uffic ient
design ated
Ġmonoton ous
ĠPrest on
ĠFuent e
Ġuninc orporated
Ġsuperstit ious
" ----
7 9
8 7
A ge
B ow
B etty
C J
C ent
C ell
D ire
D ale
D ifferent
E ar
F IRST
G AR
H ugo
I ED
I EL
I ENT
K ane
L ess
L oki
M ot
M odern
N et
O O
P HI
P ark
P rin
T an
T odd
U ses
W his
W ON
W orld
W RIG
X I
Z ach
_ !
a is
b ies
c ars
c overed
c arry
c ule
e ffect
g iva
h ound
i ago
j ev
l ore
l ime
m ain
m atch
m ister
n ear
n igh
n ets
n ik
o van
r oo
s we
s ub
s now
t ock
t was
u en
u ber
Å Ĥ
Ġ icy
Ġt am
Ġt angle
Ġa ux
Ġa isle
in th
in ian
ou x
Ġw ad
Ġw ards
Ġs her
Ġs ill
ha ss
Ġb ible
Ġb oop
Ġb aker
Ġb itts
Ġm ute
Ġo ink
Ġf ren
Ġy oke
an x
Ġp se
Ġp ite
Ġp ian
Ġp its
Ġp acing
Ġg ene
Ġg urg
Ġg ambling
Ġn er
ĠI ron
at ical
Ġh itch
le ys
Ġth rees
ic eable
us al
id al
ut ra
Ġwe a
ac ulous
ver b
Ġfor d
Ġfor ged
ad el
Ġst up
Ġk ar
Ġme ow
st age
ro e
ro v
ĠM am
ĠS ent
ĠS ook
ĠS ig
ĠS ug
ĠS ex
ĠS adi
ĠS aints
Ġwh ipping
Ġli a
Ġli ly
ĠA ges
ĠA aron
ĠC ort
ĠC lement
ĠC AMP
ĠB ri
ĠB ott
ĠB RE
ĠB OM
ĠB ury
ĠB EST
ĠB hati
ĠB uster
ĠB ODY
ĠB riggs
if ix
ell ation
ell ers
ĠH ob
ct ory
il ot
Ġj ub
Ġr hin
Ġr apper
un i
ĠT igers
Ġsa ves
Ġsh red
um ptions
ge l
rom well
Ġde ars
Ġde ception
Ġab ack
Ġab ortion
ĠW ord
ĠP RI
ĠP OPE
ĠP enguin
ĠD www
han tom
qu in
Ġal beit
ĠThe ory
ĠThe bes
ĠG y
ĠG oogle
ĠF et
itt e
ĠJ a
ĠJ oint
ĠL af
ĠL ux
ra ise
ĠR ID
ĠR ico
ĠR ourke
Ġsp urs
Ġsp ruce
ĠN y
ĠN ing
ĠN ear
fe it
ĠE R
Ġer ratic
ĠO ptic
Ġint u
Ġtw igs
use ums
are z
are rs
no ises
Ġbo ing
Ġover powered
au de
Ġro y
Ġbr ot
Ġam pl
ĠK el
ĠK ali
so ld
Ġco on
Ġwork shop
Ġwhere by
pt uous
be f
be ads
Ġun ce
Ġun ity
Ġun rest
Ġun real
Ġun pre
Ġ19 17
te ch
Ġpo king
Ġpo ked
Ġfl ing
Ġgu inea
ĠU CI
Ġboy hood
Ġsc uff
Ġcar b
Ġcar c
Ġdis closed
Ġsec ular
Ġper ch
Ġper ception
cl ad
cl othes
day s
Ġte ch
Ġact ively
Ġch ooses
Ġch ieft
ĠY ellow
ĠV IS
ĠV OICE
Ġsl ot
Ġsl ur
Ġcr am
IN K
ip edia
Ġcont rive
ail en
Ġmin s
Ġgl ared
Ġatt ributed
anc ouver
Ġend angered
Ġsupp osing
AN NA
Ġset up
Ġacc using
Ġmon ks
ĠBr itt
oc ated
ph ur
ph osa
ĠFr an
me i
Ġfr action
Ġri pping
Ġchar med
Ġcons iders
Ġass es
Ġass umptions
Be at
Ġpick et
Ġinter section
Ġinter fering
pr ising
Ġsk ins
Ġfire work
iet ies
Ġimp osing
ĠAr nold
oor ah
Ġexp ose
IS A
RE ADY
ax e
ĠAn an
Ġrep ressed
Ġplan ks
Ġblack mail
Ġswe eter
ĠGr anger
cess ion
ĠCl if
Ġpop ulous
Ġcur t
Ġshort ened
clud ing
Ġpleas ing
ati ent
Ġbuild er
ĠZ ane
ĠZ himo
Ġrepl en
ĠCar ly
ĠCar la
Ġdar lin
Ġmouth ful
Ġdef y
Ġrecord ings
Ġloc ate
Ġloc als
Ġhorse back
de finitely
Ġmill imetres
Ġho isted
Ġclass mates
Ġty re
Ġap ost
Ġfro ze
Ġfro ggie
Ġfish y
ĠBl air
ST ON
AL D
ĠHer ndon
Ġdem ons
itc hell
ipp on
ĠPr inc
ĠGu ang
ĠGu itar
cent ury
OW S
Ġhus ky
Ġdest ructive
Ġcreat or
Ġview ers
aint ree
Ġrequ is
20 15
Ġdet ention
Ġduck ie
Ġpot ent
Ġav iation
Ġband aged
ĠIT S
Ġaccept s
Ġdelight s
ĠSc ale
ĠAb ingdon
Ġrespect ively
friend ly
Ġprogram mes
Ġcommand ery
ĠST AR
gu ys
ĠSh it
Ġ11 8
fl ix
Per ri
ien ces
ĠLuc inda
bur st
Ġrap ed
Ġsouth western
Cl arice
Ġpocket book
Sp ot
ket ch
ĠMer cedes
Ġgar lic
Ġimm inent
ĠGO D
Ġ25 0
Ġtour s
AU D
ĠQue bec
Ġenv is
Ġden ying
Ġcoach man
Ġgrad uation
four teen
Ġrisk ed
ĠLo is
ĠMart ini
Ġtemper ance
GE THER
Ġscr amble
Ġrob ins
ĠRed s
Ġphys ic
Ġaud it
Ġir ons
Ġmeaning less
Ġvac ancy
gen cies
Gl enn
Le o
Le on
ĠSE COND
Ġsna ps
bre aker
udd led
ĠSing ing
ĠSing letons
ds hi
ĠDE F
Ġple ading
Ġnap kins
Ġ186 3
ĠMo z
Ġmagn ate
KE Y
ĠALL IES
Cha pter
Paul ine
Ġattend ants
ĠWhite hall
ĠBull ett
200 1
200 5
ĠLee ville
ĠGeorg ian
ellig ence
Ġlin iment
Ġreve rence
Ġstol id
ĠSim pson
Ġsorrow ful
Ġbetray ing
Ġboun ced
ĠBu en
Ġtal ents
Ġcommunic ations
Ġborrow ing
hun hunh
Ġveget ation
ĠCON S
ĠFin land
ĠMil an
Ġprem iered
Ġprotest ing
ontin ued
Ġprior ities
dr usa
Ġsubm ar
Ġdoo zy
Ġgreet ings
ĠTw ice
ĠWood row
Ġimpl ications
Ġwicked ness
Em cee
ĠPen insula
Ġimpati ence
Ġast ern
Ġenc ir
ĠNet flix
Ġwip es
ĠHol wick
ĠRec ord
Comm and
ĠRich ter
Ġenorm ously
Ġimit ating
Ġcommit ments
Ġconsist ently
[...]
