#version: 0.2
Ġ t
h e
Ġ a
i n
o u
Ġ w
Ġt he
r e
Ġ s
h a
o n
e r
n d
Ġ b
i t
Ġ m
i s
Ġ c
Ġ o
Ġ d
Ġ f
in g
Ġt o
l l
Ġ y
e d
o r
Ġy ou
a n
e n
e s
ha t
Ġ p
Ġ g
Ġ l
Ġa nd
Ġo f
a r
a s
Ġ in
Ġ n
Ġ I
o m
a t
Ġ he
o w
Ġ h
o t
Ġ ha
' s
v e
l e
Ġ it
Ġt h
a y
e t
Ġt hat
Ġ on
i c
u s
Ġb e
g h
i d
l d
u t
Ġ e
Ġw e
Ġw as
a l
Ġ is
o o
i m
' t
k e
a c
v er
Ġ re
gh t
Ġf or
l y
. .
a d
s e
r i
en t
i r
Ġs t
i on
Ġ u
Ġd o
ou t
a m
Ġ k
Ġm e
it h
s t
T he
r o
â Ģ
Ġw ith
Ġ Ċ
Ġ M
he r
Ġa n
Ġ S
om e
Ġa s
a ll
ou ld
Ġs e
Ġn ot
e a
Ġw h
Ġl i
Ġ A
c h
Ġg o
Ġha ve
u r
i ll
Ġa t
a nd
t er
Ġ C
Ġk n
c e
Ġ B
Ġth is
us t
i f
e ll
Ġh is
Ġ H
an t
Ġhe r
Ġkn ow
Ġa re
c t
Ġ Ġ
Ġthe y
Ġha d
i l
Ġ j
Ġ r
Ġs o
u n
a in
Ġs he
Ġyou r
Ġu p
Ġn e
Ġm y
Y ou
Ġon e
Ġ T
.. .
o re
oo k
Ġd on
Ġc an
p p
i e
Ġa ll
Ġthe re
Ġs a
Ġw hat
ou r
t h
Ġ "
i ght
Ġh im
ea h
Ġs h
u m
g e
r om
Ġw he
Ġb ut
Ġd e
Ġa b
o p
oo d
a b
Ġ out
Ġ W
Ġli ke
r y
ar t
es s
in k
ac k
u l
a ke
Ġ P
ver y
Ġ D
' re
c k
re d
e l
o l
ha n
Ġg et
Ġf rom
Ġwe re
' m
Ġs u
q u
Ġa l
Ġ The
Ġse e
Ġn o
Ġp l
Ġd id
es t
Ġo r
ri ght
Ġ G
on e
at ion
Ġthe m
in d
er s
i g
Ġ F
it t
ou nd
Ġ J
Ġab out
o s
Ġ L
am e
- -
Ġb y
Ġsa id
x x
is t
r a
Ġw ould
on g
all y
ar d
Ġj ust
Ġth ink
Ġw or
Ġs ome
Ġc om
re s
Ġ us
Ġ R
i ve
Ġ 1
as t
Ġhe re
n t
Ġg ot
Ġc on
Ġw ant
Ġ if
ow n
Ġs p
a k
' ll
at e
n a
Ġe x
Ġ N
o h
Ġan y
. "
I t
Ġl ook
Ġwh o
Ġ v
a p
e m
im e
ic h
v en
or t
f e
Ġm an
ou gh
Ġw ill
Ġ E
Ġ er
e p
Ġwhe n
he re
ic e
âĢ Ļ
o d
ou s
Ġs ay
h ing
Ġ O
ic k
Ġ right
âĢ ľ
ot her
Ġin t
y ou
Ġthe n
Ġn ow
e ar
itt le
Ġbe en
Ġt w
a g
us e
Ġp ro
Ġc ould
ĠĠ ĠĠ
t her
in e
l f
w ay
Ġt ime
H e
âĢ Ŀ
id e
, "
' ve
a re
Ġa g
Ġl ittle
Ġl o
n o
Ġb o
b er
W hat
h i
k ay
Ġb ack
Ġt r
Ġ 2
A nd
Ġ very
w hat
Ġwh ich
Ġd own
Ġgo ing
Ġg ood
Ġ qu
i es
ac e
e nd
Ġto o
o se
Ġo ver
a use
Y eah
Ġa r
Ġm ore
Ġof f
Ġthe ir
Ġc l
it e
re e
O h
ĠH e
Ġha s
Ġf e
it y
Ġth ing
a u
Ġo ther
Ġa f
o st
] .
N o
re at
u re
Ġ ro
w e
y eah
Ġc ome
Ġtw o
Ġp ut
Ġb r
ou ght
Ġl e
m ent
c ause
Ġp e
al k
Ġg r
Ġa m
om et
is h
Ġb l
he d
W e
f t
xx x
Ġint o
u d
on d
ur n
Ġw ay
is s
Ġh ow
Ġt han
ĠI t
e ct
a ge
as e
h y
b le
t y
Ġ [
Ġ (
u h
t he
t hat
Ġag ain
Ġ K
v ing
u ck
T hat
Ġ en
as s
u ch
W ell
op le
u e
se lf
Ġt ake
s o
Ġm ake
Ġwe ll
B ut
on na
Ġc o
ad e
Ġwor k
Ġs omet
or n
Ġd ay
Ġwhe re
Ġme an
v ed
Y es
Ġsh ould
Ġt ell
Ġ our
i re
ir st
Ġpl ay
at her
ac t
p t
Ġg onna
Ġ2 0
v es
p s
p l
h o
m y
Ġpe ople
Ġm uch
i an
Ġl et
re n
f ore
u ll
b e
ou nt
Ġne ed
h is
ĠM r
Ġu n
Ġ '
Ġaf ter
Ġe very
Ġc all
Ġ1 9
res s
w n
Ġha nd
is e
nd er
Ġdo es
Ġb et
H I
Ġon ly
ar y
Ġp art
y es
th ing
c i
Ġf irst
? "
p er
i le
t e
ha r
f f
ad y
Ġp o
at er
Ġf l
ab le
or d
Ġth r
Ġp re
Ġg u
an g
Ġre ally
Ġdid n
Ġ U
Ġy ear
Ġsomet hing
ac h
c c
Ġp r
Ġbo y
t ing
Ġs c
n g
S o
an ce
ir l
ar k
' d
Ġm ade
Ġl ong
Ġm o
i a
Ġbe fore
Ġc ar
Ġha pp
Ġd is
ou se
Ġ xxx
Ġa d
l es
Ġt alk
Ġ im
Ġne ver
Ġas k
Ġ ke
Ġu nder
in t
r u
i z
n e
oo l
Ġthe se
Ġre m
Ġth ought
Ġs m
ĠS t
Ġa way
Ġse c
Ġbe cause
od y
Ġo ld
Ġw ent
g et
m er
Ġw r
Ġp er
e w
c l
d ay
Ġg irl
Ġt e
en ce
Ġc ame
Ġf o
f ul
Ġcom p
at ed
Ġs ha
or y
a v
Ġc hi
he n
Ġm ust
i ed
H E
g g
Ġe ven
Ġg reat
ion s
w ard
p e
Ġa pp
a h
Ġa ct
Ġhe l
ri ed
t ain
ic t
w here
¿ ½
ï ¿½
Ġth ree
ri end
Ġth ose
Ġchi ld
d o
Ġm ay
ĠS he
â Ļ
at ch
k s
Ġlo ve
Ġt urn
Ġh ome
Ġdo ing
i ous
he s
Ġthing s
u b
âĻ ª
Ġc h
o b
i x
a ve
o kay
Ġf ind
au gh
Ġ Y
O T
Ġthr ough
Ġne w
o y
i ly
Ġg ive
S he
on s
en s
The y
Ġhe ad
Ġ V
. âĢĿ
o ck
Ġl ast
le ase
Ġst ill
ĠĠĠĠ ĠĠĠĠ
a it
an na
Ġs l
Ġc r
Ġl ea
Ġre s
Ġh ouse
m an
Ġb ig
or s
Ġhel p
Ġst art
Ġ âĢľ
Ġer m
Ġm ight
Ġdon e
I N
Ġt ry
Ġ You
Ġb it
i p
Ġbe l
T his
m ed
ing s
Ġn ight
en ed
Ġc han
Ġfe el
ig n
o g
u nd
a ir
at h
E R
ak ing
h m
Ġm other
Ġan other
m s
b ut
Ġcon t
The re
i gh
n y
o ld
Ġman y
os s
Ġal so
Ġb u
x t
one y
Ġc our
Ġo wn
Ġha r
a il
an s
i ld
Ġf riend
l ing
Ġk ind
b ody
Ġm in
u ally
Ġ .
a w
Ġw on
Ġn ame
Ġli fe
H ow
ul t
Ġu h
Ġsu ch
e ver
or ry
t here
Ġc he
Ġs er
ĠI n
ar s
Ġst r
Ġd if
Ġg l
Ġwh y
Ġsh ow
way s
Ġpl ace
Ġf ound
Ġl ot
Ġbet ter
u p
Ġsu re
I f
ĠC h
C HI
e e
Ġbe ing
Ġm om
Ġke ep
Ġat t
Ġo p
ab y
Ġw anna
Ġyear s
Ġc are
Ġany thing
d y
Ġm ost
i v
Ġb ook
Ġe nd
an c
p ort
Ġre c
Ġc ha
0 0
l ed
Ġd es
o ve
s ide
I n
Ġsu pp
Ġus ed
Ġto ld
w ell
D o
l i
ak es
Ġcom m
ot h
Ġc ount
re st
Ġe at
n ing
! "
Ġwh ile
c ome
Ġar ound
. ]
ch ool
Ġe l
, âĢĿ
y s
Ġs ame
-- --
im es
Ġcall ed
le t
Ġit s
r ow
W hy
y e
Ġal ways
em ber
al s
n ot
A N
an k
re nt
at ter
p le
Ġf our
l and
Ġo kay
Ġf ather
Ġro om
Ġqu ite
Ġle ft
ut e
Ġwor d
Ġr un
or m
c an
O U
Ġf ar
han k
ĠThe y
Ġs et
Ġy es
n ess
p ect
at es
s s
ation s
N ow
Ġy eah
Ġhar d
Ġa cc
Ġne xt
Ġm en
Ġm oney
it ion
in ce
u c
Ġe ar
Ġsa w
Ġcour se
id ent
Ġf ace
Ġc le
A T
O kay
au ght
Ġtoo k
l augh
Ġn ice
ic al
Ġp res
Ġb re
D on
Ġw ater
n er
re t
Ġbe g
Ġm on
Ġb us
Ġf in
Ġe ver
Ġis n
pp ed
un g
Ġs chool
Ġ _
Ġdoes n
Ġs it
Ġb aby
Ġp ol
h uh
Ġ20 1
Ġw ait
Ġel se
Ġs w
Ġen ough
ou n
ct ion
re am
Ġwe e
ĠB ut
Ġask ed
Ġa c
Ġo b
Ġup on
b ab
ĠB r
Ġpo int
Ġpre t
ĠU n
Ġg i
l ook
o c
ĠA nd
ĠT HE
Ġth ough
p h
Ġu nt
Ġd ist
d er
Ġdif fe
t a
Ġyou ng
Ġre al
Ġs ur
Ġw ar
n ow
orn ing
Ġre ad
Ġin d
Ġw om
Ġfe w
Ġp ass
Ġbel ie
Ġd r
C ome
Ġcom ing
an e
Ġe yes
Ġhe ar
it ed
ĠF r
Ġf am
op e
ver s
ll ow
Ġp ers
i ble
Ġm ind
Ġnot hing
Ġre t
Ġs orry
Ġw alk
E r
on t
ve l
ot t
h ow
ea k
Ġus e
Ġdo or
Ġs ide
ĠMr s
Ġst ay
L et
Ġf un
Ġlook s
get her
Ġm orning
ĠW hat
M OT
I s
Ġp lease
le ep
is hed
Ġf ell
Ġg one
Ġb est
O N
Ġunt il
Ġf ive
Ġb ed
Ġst and
M m
l ess
out h
m e
Ġchild ren
Ġy et
Ġse en
Ġ ent
Ġhim self
re w
ĠM iss
ĠM ar
Ġt er
Ġon ce
Ġhe art
a z
Ġhe ard
IN G
Ġk ill
i red
am p
ro ss
v ent
Ġsay s
Ġ 3
Ġre st
Ġre g
U h
laugh s
Ġn um
Ġop en
in s
Ġwith out
Ġmom ent
st and
Ġkn ew
j ect
oh n
Ġlook ing
Ġd ra
Ġne ar
Ġde ar
Ġf r
A ll
o ll
M y
E S
Ġli ght
om b
um p
Ġlook ed
fe ct
w w
m b
Ġ ri
O R
Ġlea ve
u ff
Ġre l
Ġh old
Ġha lf
ow s
He y
Ġb all
ow er
Ġs ix
Ġc har
ad dy
e c
g r
N ot
m ost
Ġme et
Ġt ri
Ġs ort
e red
Ġm ar
Ġto gether
Ġso on
Ġb ad
S t
c es
Ġc ol
c le
is ter
Ġr ound
u g
Ġget ting
mer ic
ĠA l
Ġl ist
um my
Ġrem ember
Ġan s
Ġcon s
Ġhand s
s he
A R
Ġsec ond
we en
er tain
Ġm atter
Ġ ï¿½
Ġe ach
un t
d en
us h
Ġh ur
Ġto day
as ter
Ġha ving
a red
Ġa ir
as h
u res
Ġh our
Ġde c
Ġfo llow
le as
en er
m p
as on
Ġd ri
Ġwor ld
Ġb oth
ir d
Ġwant ed
Ġsha ll
it s
Ġdiffe rent
o ot
Ġas s
Ġbet ween
Ġevery thing
Ġpers on
i b
ce pt
Ġbelie ve
B e
Ġin st
m a
Ġst op
Ġ i
th is
R ight
or k
Ġs ing
t o
ĠN o
at t
m ber
Ġs ound
an y
Ġw ind
at ing
Ġgo es
i al
Ġsm all
Ġp ick
Ġagain st
ĠA meric
Ġqu est
Ġpret ty
Ġw ond
Ġday s
Ġf all
re ady
if e
c hed
Ġc ap
an ge
The n
Ġint e
J ust
os ed
L L
Ġb ro
se l
Ġm il
a ut
Ġin ter
p r
Ġp ap
in ess
Ġf act
it her
Ġg ave
âĢ ĵ
g er
Ġw atch
Ġ ,
Ġe le
Ġtalk ing
g ed
Ġh igh
ur ing
Ġhapp ened
ct or
is ed
ul ar
the y
ull y
ĠG od
W hen
Ġboy s
Ġs k
Ġunder stand
ĠW e
ĠE d
Ġli ve
Ġact ually
ĠThe re
Ġwho le
am es
el t
Ġm iss
et s
a le
r ist
Ġinte rest
Ġre d
Ġo h
Ġs leep
Ġf ire
o ke
or th
Ġad d
s h
Ġin v
in es
Ġl ater
Ġha ven
Ġknow n
bab ly
i et
âĢ ĺ
Ġ id
A re
Ġd ire
ent y
ĠT his
n ed
m m
Ġp h
ĠJ ohn
Ġs il
b r
Ġim p
Ġre ady
? âĢĿ
Ġk id
Ġal ong
E N
Ġm aking
ĠI nd
ut h
W here
W ho
u al
Ġfam ily
Ġv o
Ġp ie
T hank
Ġde p
a pp
ak en
b y
or row
Ġbo x
ĠA r
Ġsp eak
Ġto wn
Ġtry ing
Ġbr ing
t on
Ġsu b
Ġwould n
Ġp oss
i er
Ġal most
Ġwom an
g o
ent s
" .
Ġmo ve
c ed
Ġwas n
Ġm et
Ġe ight
o or
Ġ1 8
ĠN ew
Ġwond er
Ġex p
ci al
us s
t s
I S
Ġret urn
i ke
Ġfo ot
l ic
L ook
Ġal ready
Ġh ope
Ġp ay
Ġj ob
Ġst ory
o e
Ġt able
in ed
Ġdo g
ward s
ha ps
Ġdis c
D id
Ġre f
und red
Ġsay ing
Ġm us
Ġh or
Ġt ra
Ġnum ber
ĠG er
Ġ20 0
Ġs ince
o k
Ġto p
Ġgu ess
Ġc ut
Ġsee med
ter s
Ġbre ak
Ġl ar
Ġ hat
er y
Ġs ent
R E
ie ld
ation al
w ho
Ġ âĻª
a x
Ġcon f
e x
Ġt en
ĠA n
Ġs ign
Ġs ir
Ġh undred
e ed
Ġre p
Ġu m
Ġs on
Ġpl an
G ood
t en
Ġfriend s
un e
M r
Ġr ather
ĠH ar
Ġ20 2
Ġwr ong
Ġbl ack
w hy
Ġe as
Ġpro ble
re en
Ġf ull
m hm
Ġin f
a id
O n
ĠC HI
Ġex t
r ic
y ing
en se
ĠE ng
Ġcl ose
Ġa w
Ġex c
Ġc ertain
on y
Ġgirl s
Ġd ied
Ġbr ought
d on
at s
Ġstart ed
Ġ 4
is ion
Ġc ity
Ġturn ed
Ġbr other
Ġl and
ĠA s
omb a
b all
ri es
Ġpro bably
w er
C an
ent ly
Ġin c
Ġcom es
Ġcount ry
ĠT h
e b
Ġmon th
C H
Ġst e
Ġmy self
Ġd ro
T h
Ġst ate
ant s
ft a
at ive
Ġs we
Ġbe c
Ġt imes
Ġbe aut
hi p
v ie
Ġlo st
Ġvo ice
Ġg ame
Ġ 5
Ġf ine
Ġt aken
ĠG r
Ġyour self
Ġwh ite
Ġha fta
Ġs at
Ġfe et
Ġwee k
sel ves
ĠCh rist
Ġword s
Ġid ea
Ġtr ain
Ġd in
Ġan im
Ġmean s
Ġthan k
ent ion
Ġmin ute
a j
Ġf elt
iz e
ĠĠĠĠĠĠĠĠ ĠĠĠĠĠĠĠĠ
b o
Ġf ood
Ġex pl
Ġcha ir
et er
) .
ĠO h
Ġp rom
Ġpo or
I T
ou b
ou d
Ġno ise
Ġs im
on es
ess ie
ĠD e
f ully
t ed
Ġde ad
ie f
Ġp ict
ment s
Ġp ur
Ġl ad
ĠS o
Ġde al
Ġh ot
f ter
Ġab le
Ġl augh
d id
ay be
Ġst uff
c ess
h ind
Ġs y
Ġb as
ĠB en
w o
Ġdr ink
Ġt re
ĠC l
w h
ou ch
itt ing
Ġqu ick
ï¿½ ï¿½
ĠB art
Ġbeg an
Ġp op
Ġg ener
am a
ĠAmeric an
ou ble
Ġde ath
Ġco ll
Ġc ur
ut es
Ġl ess
Ġgr and
Ġc ra
u red
Ġc ase
id ed
d u
Ġte am
Ġt ill
Ġbus iness
Ġs qu
Ġsh ort
ver n
if ul
cl ud
ac es
ĠT om
c hes
is on
en e
Ġp leas
Ġquest ion
Ġ es
it ies
---- ----
Ġpap er
Ġhapp en
ĠF l
p ut
Ġw in
f ord
Ġcont in
Ġfor m
ĠB e
ĠThe n
F or
is es
A s
Ġdo ll
ate ly
Ġp ull
ag g
f or
er n
A S
Ġd ress
ĠI s
i o
Ġf ight
Ġgi ven
ke y
ĠY OU
G o
u es
Ġmay be
f ort
Ġt aking
Ġc ent
et h
and er
Ġbe hind
ang er
T ER
Ġha ir
Ġcle ar
Ġhapp y
Ġp ain
Ġgot ta
Ġw ish
Ġon es
Ġb orn
ag es
Ġle ast
Ġser v
us ed
ou p
Ġbu ild
Ġo cc
air s
Ġl ear
Ġst ra
Ġle ad
Ġmin utes
g s
ro om
Ġim port
ĠT O
he ad
Ġe v
if ic
ap e
Ġfr ont
Ġd uring
Ġag o
ir ty
Ġcould n
Ġin s
Er m
c il
Ġplay ing
a ld
Ġst ud
Ġpart y
ot e
Ġb ar
Ġsome one
it al
Ġal one
r ing
) ,
Ġher self
Ġchan ge
Ġl ady
at i
Ġpres ent
o int
Ġf ig
Ġtr ue
Ġf uck
ĠH ow
Ġgu ys
en n
Ġwant s
aught er
Ġw ife
ĠB essie
Ġre ason
le y
Ġv is
" ,
Ġtw enty
in a
Ġl ine
Ġother s
Ġf av
re et
Ġoff ic
Ġc ry
ĠJ ap
id er
ous and
He re
ic s
iz ed
You r
Ġof ten
ĠC ha
ĠB omba
Ġe ither
G et
Ġst ick
Ġgr ound
Ġ 6
ren ce
om my
l ight
li ke
ious ly
Ġgl ad
Ġ Z
er t
ain ed
ĠT hat
A P
l ish
Ġre pl
un k
m orrow
Ġad v
E D
are nt
c y
Ġe m
a im
Ġm akes
Ġro ad
f ic
ter n
re ad
Ġp ri
ol og
h il
Ġs ister
Ġm ess
ard s
Ġchan ce
ĠC ar
Ġli k
A l
Ġdra w
Ġc ir
Ġmus ic
Ġbeaut iful
Ġgu y
Ġd ar
ot s
e en
Ġf if
Ġf air
Ġ ed
ct ed
Ġstr ong
oll y
ĠUn ited
Ġex pect
Ġg un
Ġlist en
A t
ĠH is
s on
Ġpro v
ian s
Ġa ge
Ġam ong
st er
Ġ19 9
g ood
Ġ ĠĊ
L E
e ad
Ġh um
ĠI f
Ġo pp
Ġth ousand
I I
Ġd ark
O M
e y
om m
ra id
Ġ 8
Ġ Yes
et y
r ict
Ġout side
Ġh on
Ġfl oor
Ġor der
Ġb ody
Ġm ag
Ġare a
Ġf ore
Ġlar ge
agg ie
le x
Ġplay ed
Ġm outh
Ġl ay
Ġbec ame
Ġproble m
Ġp ower
Ġco ld
Ġimport ant
Ġs um
Ġp ar
Ġt ried
Ġm ine
d le
j ust
ri e
Ã ¡
Ġp ast
se e
ur y
Ġswe et
at ur
Ġm ain
Ġl ate
Ġwork ing
Ġsee ms
id es
Ġde f
i k
es e
ell o
ĠO F
Ġm ark
Ġri ver
b ed
Ġfor g
ust r
Ġche ck
m en
R e
Ġm id
ac hed
Ġp os
ĠA ll
Ġs n
Ġthink ing
Ġpart ic
Be cause
Ġbl ue
Ġsomet imes
A h
ww w
H AT
pp ing
N D
it ch
ĠM OT
Ġbl ood
Ġrec ord
Ġr an
Ġlo c
Ġac ross
O ne
it ing
ac ed
Ġin clud
ĠC har
Ġp ub
f fe
Ġb ott
Ġapp ro
o es
Ġre ce
Ġro ck
ĠW ill
ha ll
Ġhe ll
Ġin side
Ġp en
Ġaf raid
Ġhor se
Ġare n
ĠA t
Ġbo at
m ore
ĠY ork
m ing
ĠR e
Ġh uh
Ġbe ar
s ing
er ing
Ġ Yeah
ĠSt ates
Ġwr ite
Ġtr ans
Ġlet ter
Ġper haps
Ġsur pr
d e
he y
Ġs un
Ġse nd
z e
Ġcon c
ow ing
Ġse ven
Ġnew s
we red
Ġhur t
Ġdin ner
Ġm ill
Ġfun ny
un ch
Ġans wer
! âĢĿ
. '
Ġ Q
Ġst ood
Ġget s
d den
Ġm ed
Ġh o
A n
o on
Ġatt ack
1 9
Ġs ong
Ġr a
Ġf ree
T o
g in
Ġwe ar
z y
ĠW hen
Ġans wered
Ġke pt
Ġpict ure
ĠM ay
Ġpie ce
Ġ 7
um b
c ri
Ġkill ed
Ġy ell
Ġsu dden
ea red
T HE
Ġc ried
ow ed
Ġen g
Ġear ly
Ġg reen
ut ion
ĠS p
Ġknow s
Ġa in
ĠJ ane
te en
ĠM aggie
ĠA d
ill y
av id
th ough
Ġtr ouble
Ã ©
Ġw ood
Ġhour s
Ġex am
ic es
g an
Ġ19 8
Ġdar ling
p ri
Ġf ast
P lease
R O
o ber
at ure
Ġqu iet
Ġbu y
el s
id ing
Ġsupp ose
A M
Ġc at
Ġd aughter
Ġar t
u ed
âĢ Ķ
ain s
id ge
Ġcomp any
ic ally
Ġpr ot
Ġte le
Ġwhe ther
Ġd ream
Ġcan not
ĠF or
ir th
Ġgo vern
Ġwith in
n ce
Ġhe ld
Ġcl ass
Ġt y
ent le
Ġst o
Ġto morrow
Ġthem selves
Ġsome body
act ly
ac her
Ġd oub
a ul
ha m
Ġfor ward
Ġre port
Ġcar ry
Ġres p
Ġa p
Ġf ro
Ġn in
Ġli ved
r act
al ity
Ġs itting
il ity
ra p
ĠJap an
Ġc ou
Ġmo vie
t le
Ġ 9
Ġt ree
Ġw all
ĠP hil
han ks
o ver
ound s
Ġj o
ĠEng lish
Ġph one
Ġl aw
d ing
z z
Ġcle an
Ġpass ed
k en
Ġc a
er v
am ed
Ġli ving
ar a
al th
oo f
Ġcl ot
ĠP e
Ġv ill
c ol
en g
Ġc ho
H ave
Ġsee m
Ġso ld
Ġmonth s
Ġar m
Ġsp e
Ġf ear
Ġfeel ing
art ment
Ġt ouch
, --
i vers
Ġh it
ĠD on
j oy
Ġposs ible
Ġ1 0
E x
Ġc ook
b it
ud e
Ġeas y
Ġse ver
Ġ -
Ġw at
Ġm od
ĠI N
ist s
Ġt on
Ġf ish
ress ed
Ġrun ning
ĠB l
] ?
Ġf a
Ġstra ight
Ġad m
Ġd ie
Ġfin ished
S T
b ye
ĠD o
V E
S h
at or
ĠĠĠĠ ĠĠ
Ġ *
Ġf ing
Ġhe av
Ġab s
e or
n ight
E very
M aybe
oc al
Ġ ?
is m
Ġcon st
Ġ âĢĵ
Ġcol or
u ly
Ġ ill
Ġbeg in
b and
ar ch
A L
Ġn ine
Ġst ep
ĠH er
Ġd anger
ag ed
i ved
t hank
Ġter ri
it c
ch ild
Ġdif fic
Ġc orn
oun cil
ĠM ummy
Ġwor ry
Ġ ...
Ġc amp
Ġsever al
as er
Ġbe come
Ġ ve
Ġde m
Ġc ross
Ġbook s
g es
l o
Ġob ject
a ur
l er
em ent
g y
Ġwh om
no on
Ġg entle
Ġar ri
ay s
ap tain
O f
os p
Ġwait ing
p ar
i pp
ess ion
ĠP r
Ġm ur
Ġb irth
Ġlove ly
Ġst ar
W ith
Ġf ield
oo ps
l s
Ġl ow
Ġex cl
G H
Ġc or
Ġpol it
Ġcou ple
Ġm ot
Ġc os
Ġor d
gg y
c ha
ie w
i am
Ġm ist
ĠG u
em pt
Ġg ra
Ġex per
ĠEd na
Ġfor get
Ġdo ctor
Ġk iss
itt en
Ġgr oup
b les
Ġal right
c he
ep t
vel op
c ent
Ġwom en
Ġro ll
Ġb reat
ne y
Ġper fect
Ġd a
ur ch
Ġpro per
Ġc e
O W
Ġs ight
Ġli ves
Ġt ired
Ġhow ever
Ġh us
oo p
ren ch
Ġ19 7
Ġfav or
ĠC an
aj or
c o
Ġd est
har d
Ġ X
Ġmil es
Ġen joy
S ome
ang u
Ġc reat
Ġf ur
ĠB ar
or ies
ru ary
Ġd ad
st em
ce ed
Ġso ft
eb ruary
Ġt akes
al right
il t
Ġton ight
ĠJ ack
Ġm er
ĠP ro
ĠC ount
Ġafter noon
Ġsl ow
e k
Ġpol ic
Ġrepl ied
i ver
ag er
00 0
Ġt ea
Ġ ought
Ġm is
Ġh ung
Ġto ys
Ġme ant
Ġtell ing
A ny
Ġ1 7
as k
qu e
Ġv iew
Ġwork ed
Ġfell ow
ain t
Ġwhat ever
H ello
d uc
Ġdis app
Ġchar ac
Ġmar ried
Ġb ath
end ed
Ġspe cial
ha ve
Ġhis t
Ġes c
Ġyour s
ĠO n
Ġb ase
Ġl uck
Ġanim als
b s
Ġf ix
Ġpartic ular
Ġb ur
Ġab ove
Ġre qu
u ro
Ġs al
Ġsh ot
Ġevery body
Ġbl ock
Ġpro f
Ġeven ing
as p
Ġfor t
gg est
Ġwind ow
Ġkid s
aim ed
I C
ĠC ol
Ġc aught
am er
u ri
Ġf ly
Ġneed s
I D
it er
an u
le te
W h
Ġse a
d d
Ġm ad
Ġc atch
Ġsu ggest
ĠF ebruary
Ġoff ice
S ee
Ġha ng
Ġde ep
un ity
v a
Ġs har
ĠA unt
AP TER
2 0
ĠD addy
ĠL e
Ġs ick
Ġclot hes
is ing
Ġd et
Ġwor th
Ġ19 6
b l
be cause
Ġb ird
Ġsec ret
Ġapp ear
Ġcir c
re ed
anc es
Ġst ru
Ġdist rict
Ġreturn ed
ĠN ow
ĠO r
Ġdoub t
f fect
Ġr ing
ĠW hy
Ġany way
Ġar ms
ĠK ing
Ġhus band
Ġk ing
Ġe qu
ul ation
Ġbo ard
ir t
ore d
Ġsu cc
r ay
Ġb ag
Ġc al
ad a
ĠS ir
Ġsa fe
Ġtr ust
Ġ !
Ġex actly
not e
F oot
Ġd at
Ġd uck
Ġf ill
Ġl angu
Ġst ation
Ġmeet ing
CH APTER
Ġsy stem
ore nce
Ġus ually
Ġstand ing
E T
Ġd addy
Ġsp end
Ġlong er
Ġpr act
att le
Ġyell ow
Ġe ye
Ġvis it
hi le
ow ers
Ġsh oot
te red
AN D
Ġse at
Ġfig ure
ol ute
Ġpoint s
A Y
Ġto wards
Ġpos ition
Ġmil k
il ed
itt y
ond on
Ġj ump
Ġm aster
O r
Ġc ost
Ġsa ve
Ġsupp ort
Ġcertain ly
Ġc up
Ġpol ice
Ġsupp osed
Ġcount y
ist en
Ġany one
Ġchan ged
Ġind eed
n et
e an
Ã Ń
Ġp ost
Ġr ain
u ation
Ġp u
oo se
ĠD avid
Ġw ild
Ġn ur
id ence
un ic
ĠBr it
Ġcont ro
s hall
Ġs us
ĠG ood
Foot note
M ummy
Ġ est
on el
Ġsh ip
Ġdire ct
Ġa head
Ġn orth
ic ha
e al
g ar
Ġy a
Ġth irty
Ġgo ld
Ġex cept
b orn
Ġd iv
ĠChar l
Ġde velop
Ġnear ly
O K
r is
Ġf it
ĠJ oe
gr am
Ġb es
U T
c om
ight s
Ġpro p
Ġmill ion
r at
Ġ1 5
Ġp ot
Ġcom fort
Ġrem ark
A D
ĠG eor
Ġcons ider
Ġe ffect
ĠC on
f er
Ġs ad
Ġr u
ru pt
ĠW ell
Ġv ar
the n
Ġmo ved
Ġt est
ci ally
Ġdec ided
Ġs and
ĠS te
pri l
an a
Ġsh ut
Ġ âĢĺ
Ġh op
Ġfollow ed
Ġfoot ball
i um
Ġacc ount
ĠM in
l a
ĠC aptain
il ing
Ġle g
Ġsound s
ĠBr ad
ĠCount y
Ġto y
Ġsil ver
ter day
ĠA lex
ĠO ne
Ġ z
us hed
Ġkn ock
ĠGer man
anu ary
Ġ âĢĻ
ĠW ar
Ġput ting
ĠL ondon
Ġcomp lete
icha el
Ġw a
ĠA ND
r or
ĠM c
Ġbro ken
Ġre ached
itt ed
Ġp arent
f orm
m as
ĠD r
S orry
Ġquick ly
i or
uth or
Ġto ward
Ġl a
ree k
ĠInd ian
k ing
.. ..
Ġwho se
Ġt reat
Ġb ab
Ġqu ar
og n
ĠR os
Ġstr ange
Ġgi ving
Ġserv ice
Ġsudden ly
Ġgovern ment
g as
u k
Ġsp oke
Ġdri ve
Ġs ense
ri gin
Ġlear n
c use
_ ,
Ġa v
Ġm ount
ir on
ĠFl orence
Ġp ress
Ġ1 2
Ġcl im
Ġcl os
Ġlea ving
w hen
ĠM y
Ġo per
st airs
her n
Ġsp ec
Ġv al
Ġst ri
Ġco ver
ff ic
T hanks
ĠFr ank
em y
Ġwr itten
Ġexp ress
Ġb and
g ing
Ġprot ect
itc hen
Ġm ention
Ġe vent
Ġno se
Ġto t
Ġbro ke
Ġd am
Ġp age
if f
Ġb urn
ffe e
, '
Ġh ors
Ġme mber
Ġsh out
ho ld
Ġdiffic ult
om p
Ġhapp ens
Ġinst ead
v ision
Ġli e
Ġcar ried
ĠI T
igh b
Ġis s
Ġis land
Ġexcl aimed
Ġor gan
le an
ĠT r
Ġop ened
Ġac cept
ĠJ anuary
Ġtr uth
Ġheav y
Ġbirth day
Ġde cl
Ġinf orm
ic hard
Ġn amed
if t
Ġsu per
ard en
Ġfif ty
Ġc ool
Ġsucc ess
s c
ou l
Ġp ack
ri ll
Ġk itchen
Ġrec ogn
Ġwee ks
Ġcharac ter
Ġt ick
ĠF rench
mb ers
Ġcra zy
Ġr ide
Ġsto pped
m other
Ġst reet
W ait
oun ter
Ġ ice
en cy
H i
ĠP ar
Ġ19 5
do es
f ast
Ġa h
Ġim ag
Ġeat ing
Ġg all
Ġne cess
Ġcomp an
Ġser ies
' .
E L
i ent
in ation
ĠN orth
Ġbel ong
i ence
ous ly
anc y
osp ital
Ġb right
Ġc ast
g ue
Ġan n
-------- --------
t i
re r
il es
Ġevery one
c on
Ġ ]
Ġt em
Ġan g
Ġpl aces
T ell
S te
t wo
Ġc op
Ġp ig
Ġde light
A fter
s y
t ime
Ġf ail
Ġe gg
ac y
Ġ ut
ĠS c
Ġwh is
ĠT o
Ġvill age
ĠM an
Ġsome where
i ps
ber t
Ġgener al
Ġgr ow
Ġfollow ing
Ġbuild ing
Re ally
he ll
Ġ19 4
Ġfuck ing
Ġfur ther
is hing
oo h
Ġpr ison
Ġl ed
Ġst ore
if ied
Ġpub lic
T ake
Ġyes terday
Ġinterest ed
Ġb ra
Ġo rigin
Ġres ult
Ġal though
Ġb ull
Ġ1 6
Ġany body
I R
Ġle vel
Ġthr ow
res ent
Ġb ow
ĠA b
Ġmid dle
Ġte acher
Ġc ab
Ġn ational
Ġj u
ing ly
Ġne ck
Ġwar m
ĠFr ance
wh ich
sing ing
Ġsp ir
y a
am ma
ear s
Ġb ank
am b
Ġsh op
s ay
Ġl im
Ġre leas
ro p
Ġc re
Ġcomm on
F r
ĠN ove
ivers ity
C K
Ġlik es
ick s
. --
or ld
ĠG o
n es
Ġsl ight
Ġcare ful
Ġcur rent
Ġs now
Ġme mbers
Ġsing le
Ġloc al
ĠN ot
L ike
ro y
ĠS outh
ĠNove mber
Ġe mp
Ġsil ence
he l
ĠP er
Ġlo ved
Ġt ur
Ġde v
H is
y n
ill s
Ġsit uation
Ġdist ance
C h
w ork
in y
Ġb an
ĠW est
Ġwr ote
Ġdes cri
St op
Ġrece ived
w as
ĠB ob
Ġm atch
Ġcon d
Ġhum an
p ly
ĠE uro
pe cially
Ġb ought
Ġit self
Ġth ird
id ay
Ġan x
ĠEng land
Ġh ol
Ġbus y
Ġlangu age
W ill
s ome
Ġf ut
ĠS h
Ġmo ving
Ġsum mer
Ġa uthor
ct ober
ĠW h
ci ent
Ġquest ions
ar r
ĠJ im
ept ember
lean or
Ġne ighb
olute ly
Ġl ab
ph one
Ġwatch ing
Ġco ffee
Ġres pect
rie f
Ġshould n
Ġdep artment
Ġb ud
ut y
Ġde fe
ard on
Ġcom pl
Ġatt ention
ck et
au g
gg ed
m o
Ġv ol
ĠC al
Ġ202 0
ic ian
Ġc ow
Ġse lf
ĠA fter
pl ay
e ge
Ġh ospital
A LL
m on
Ġre ach
Ġse ll
Ġv ict
ug ust
S IS
res h
ĠUn cle
a i
b ing
Ġus ing
Ġm ajor
v al
Ġn or
f riend
Ġn one
Ġsub ject
Ġcr ow
Ġadd ed
Ġinc re
Ġt ape
Ġhe alth
am ent
Ġso l
as ion
Ġpro gram
Ġcontin ued
m akes
Ġfin ish
y ond
Ġc ause
ĠC ity
ĠD an
Ġmom my
. âĢĻ
Ġfor mer
Ġ202 1
Ġslow ly
G r
r al
Ġb ene
um s
Ġlo se
ĠA pril
Ġsee ing
Ġreg ion
s it
Ġd i
ĠC omm
ĠL et
iss ion
Ġch ief
Ġtre es
I GH
Ġr id
ci ous
Ġcomm and
Ġear th
r it
ĠP aul
Ġpro du
Ġpr in
Ġchar ge
Ġbott om
Ġparent s
Ġlot s
ren e
Ġreleas ed
Ġd ry
Ġbl ow
ĠFr aser
Ġall owed
ĠJ uly
Ġwalk ed
Ġinv ol
v iously
Ġ ver
ick en
Ġwonder ful
Ġfut ure
c han
Ġsh it
Ġany more
Ġapp eared
Ġcorn er
L D
le ct
Ġle gs
uh huh
Ġpie ces
Ġexam ple
Ġhors es
ĠS T
ĠW orld
Ġser ious
Ġshow ed
Ġp aid
Ġbe at
Ġlea ves
Ġbu ilt
b ers
Ġsp ot
Ġdoll ars
ĠAd am
as ed
ĠS eptember
Ġgo d
ĠR ichard
i od
i ves
Ġh oney
Ġsh oes
Ġsc ar
bab bles
Ġtele vision
L isten
Ġfar m
Ġsw im
Ġbreak fast
l ay
in ing
ĠS w
ĠO N
Ġlo ck
Ġacc ident
gas ps
h ouse
l u
v ol
ĠA m
ĠO ctober
Ġcl ub
Ġturn s
Ġgl ass
a ff
g u
ist ed
ĠChrist mas
U n
ĠP ol
pl oy
hell o
Ġse x
ant ly
Ġreg ard
Ġtr uck
S E
Ġli ft
Ġt ast
ic ed
s p
Ġto r
Ġr ad
Ġwork s
Ġhat e
Ġext ra
w ith
at he
Ġlet ters
r on
ri but
ĠB E
Ġr ub
Ġfor ce
gr ound
ll ustr
es us
Ġp ort
am und
ĠM e
Ġse ason
um e
Ġatt empt
h ood
ĠAlex ander
Ġno ises
Ġ1 1
olog y
ac hing
Ġbreat h
Ġe ff
ĠD or
med i
Ġdire ction
Ġpop ulation
y our
Ġn atur
Ġterri ble
Ġk ick
ĠB y
ĠT e
Ġhist ory
Ġc as
Ġwere n
Ġaf f
Ġdro pped
Ġbegin ning
o ff
Ġst uck
G ive
i ol
Ġn orm
Ġman ner
Ġl unch
are t
Ġhas n
Ġl ying
Ġcoll ect
Ġ $
is f
Ġc ouncil
ill e
Ġch urch
Ġent ire
ĠBrit ish
Ġv ocal
ĠA ugust
Ġj ud
ound ed
Ġty pe
M e
Ġp ati
Ġh ig
Ġha ll
Ġar r
Ġbre ad
EN T
n ect
is c
Ġn ames
ĠC hi
ce mber
Ġwor se
Ġ19 3
Ġper iod
Ġter m
ĠE l
Ġprom ise
P er
i res
Ġha st
pp y
od e
ĠGr and
. _
ll y
Ġh ous
ir m
Ġanim al
V ER
ĠG reat
Ġm ach
ĠA g
Ġpres ident
ĠEuro pe
Ġput s
Ġpre p
vie w
Ġinform ation
Ġp al
anc ed
Ġlik ed
g est
es tern
ĠS ha
Ġpri v
ri age
Ġsm ile
Ġsha re
Ġcontro l
ĠJ une
Ġ1 4
Ġwalk ing
Ġinterest ing
U m
in o
it ive
Ġp ark
Ġme m
ĠM al
Ġar my
Ġcr ay
Ġpret end
Ġg arden
a ven
is k
el ve
ut s
Ġwe l
ĠT HAT
Ġed uc
re l
Ġhe y
cl ock
Ġy e
Ġcry ing
i en
ĠS e
ĠS ome
ak er
eng th
w ould
Ġtalk ed
Ġdisc uss
Ġcrow d
om es
Ġbe yond
ĠP at
Ġcon vers
iz ation
Ġp ounds
se y
Ġsm ell
Do es
Ġdro p
in ite
ĠC o
Ġj ack
ab ly
ĠL uc
v in
Ġc amer
duc ed
B y
Ġd ance
ac ing
ĠM ark
ers on
up id
st on
w ood
om as
Ġsurpr ise
Ġrem ain
E LL
Ġs le
Ġal ive
res ident
Ġset tle
ĠGer va
U N
Not hing
Ġhung ry
Ġeff ort
W ould
ĠL ord
ove red
Ġproble ms
in ary
er ve
Ġf ool
Ġj our
Ġhold ing
ĠGerva ise
l t
ĠS und
Ġdiffe rence
A K
S omet
e ep
Ġt end
Ġneed ed
ĠGeor ge
M ar
Ġc and
Ġst ren
ast ic
Ġask ing
Ġbel ow
Ġpleas ure
ĠW ho
ul a
Ġf il
Ġbut ter
un ny
ust om
ĠP eter
Ġco ve
ĠMar ch
ĠPe ggy
Ġto w
ch n
fe rence
Ġwr iting
Ġcomp et
Ġcap t
Ġele ct
l ished
ic a
Ġim medi
ĠDe cember
E ven
S ure
ce ll
um ent
] !
Ġp ush
ig g
ĠJ ust
Ġsat isf
o f
om an
Ġlaugh ing
Ġpolic y
Wh ich
unic ip
c ounter
ĠC ome
Ġag ree
Ġob s
ĠRos amund
M hm
m it
Ġf at
Ġthan ks
Ġfin ally
ld en
art y
ap er
Ġd rew
Ġl ength
Ġj oy
un ting
Ġcour t
C E
i ers
s et
Ġd eter
ĠM ad
Ġpick ed
Ġresp ons
b aby
Ġc ru
Ġg en
Ġman age
Ġread ing
bo x
Ġg ames
ct ure
az ing
Ġinv est
Ġfavor ite
Ġf resh
as hed
pp er
Ġold er
b ur
Ġm ass
Ġf right
w ill
p ose
u ge
y l
z en
Ġre pe
Ġno body
ĠR oy
Ġun cle
Ġju ice
Ġf le
il ar
Ġnin et
b out
as hing
ĠM ary
Ġsp ent
Ġbr own
R I
p lease
u nder
Ġv iol
ose ph
Ġam ount
ĠInd ians
ha s
Ġr ul
Ġpro ject
Ġstren g
Ġw ide
ot hy
ill a
Ġposs ib
ĠW ith
Ġlike ly
ati ves
s u
bo ard
e es
ĠR uss
p es
Ġturn ing
st r
anc ing
l in
t ake
Ġe ars
ad es
pt ion
Ġes pecially
Ġfro g
Ġt all
el en
Ġfing er
in ct
Ġw ag
V ery
c er
v ious
Ġs ens
Ġg rew
Ġse par
Ġr ap
ĠUn iversity
N G
Ġd ate
Ġhe ro
ĠS ec
Ġtr ack
ash ion
Ġl oud
ad ed
il s
ĠF OR
Ġgi ves
Ġho le
n el
w ow
w ise
er ved
Ġm a
ĠI rene
ĠR ep
Ġra ised
D addy
p or
Ġcom b
Ġro se
Ġdes ign
g ot
Ġt ail
Ġe mb
ol f
ĠJ ames
ĠJ ones
Ġsp ring
Ġcare er
atur day
Ġforg ot
om ing
ĠM om
Ġsp eed
Ġfe ed
Ġexpl ain
ĠBrad ford
Ġl aid
ĠF ather
ĠIt al
Ġsk y
Ġspeak ing
i ar
Ġm unicip
al a
ĠW here
ck s
pe red
Ġhard ly
Ġconc er
Ġcamer a
M om
Ġs illy
Ġsu ff
Ġ1 3
ĠE x
Ġgr ass
Ġhand le
C T
Ġl aug
Ġthink s
Ġrep resent
Ġsim ply
I ON
Ġa ut
Ġr ough
Ġocc asion
Ex cuse
Ġw et
Ġf ol
The se
ĠS u
Ġkn ights
Ġmon key
ĠAmeric a
Ġinter rupt
Ġarri ved
ĠSund ay
Ġlaug hed
Ġwas h
al es
ĠS m
ĠT HI
Ġsp ace
Ġfl owers
Ġb ound
at ic
Ġtw elve
I llustr
c her
t r
er ry
Ġc ake
Ġh ide
ĠA f
Ġeng ine
Ġdest roy
P e
Ġb attle
Ġd ue
Ġth reat
ĠM a
ĠHar ry
U R
Ġst upid
ap s
Ġint ro
Ġocc ur
n ie
Ġs outh
Ġc ream
Ġpr ay
li er
Ġcap tain
Ġdeter m
it ions
W as
Ġte eth
Ġnin ety
Ġpu zz
om in
ĠCharl ie
L Y
Ġb rief
or a
Ġwe ap
ĠO K
O P
re m
re ct
ed er
Ġp ause
ĠM E
ĠA re
Ġcon tain
Ġset t
ĠWill iam
Ġcove red
k in
Ġgu ard
Ġ3 0
i ant
ĠMar ie
Ġbott le
C l
T wo
k y
k es
w his
Ġh y
Ġas leep
Ġway s
O ur
b es
it ude
ĠI S
Ġh ost
ell y
ĠL ady
ĠE m
Ġar rest
Ġpo cket
Ġent ered
Ġbab ies
c ul
f l
Ġ201 9
Ġhur ry
Ġoffic er
Ġgo in
Ġcall ing
Ġhelp ed
Ġopp os
A r
S p
Ġf re
im ent
... ?
Ġ201 8
Ġem ploy
Ġsurpr ised
o x
Ġv ide
Ġcl osed
ĠIs land
Ġc ard
ar i
Ġfor th
Ġlad ies
Ġopp ort
Ġfing ers
F rom
Ã ³
Ġme at
ĠM ichael
Ġr ich
ord ing
Mr s
n ers
Ġter ms
i pe
Ġ ident
if orn
ĠL ea
ĠO f
Ġstart s
k et
Ġnot ice
Ġpe ace
Illustr ation
m aybe
ra ph
Ġbr idge
Ġann oun
Ġst age
Ġpro cess
r ation
Ġcon nect
Ġsc ared
Ġfell ows
ener al
Ġcap ital
Ġinclud ing
IGH T
p han
w ait
Ġst ream
ĠS am
ch ie
Ġsim ple
Ġcab in
Ġd uty
ĠHe y
Ġpleas ed
Ġmist ake
I M
n s
it ary
ed dy
Ġu nd
Ġthere fore
hi re
Ġninet een
d in
i pped
Ġc uri
Ġe ast
Ġe ager
el est
Ġwel come
g on
us ion
us hing
Ġke y
iv id
Ġb uck
Ġth rew
Ġdri ving
Ġbro ad
Ġnecess ary
ĠCal iforn
M iss
Ġg ar
ic o
Ġfor ty
ro at
ĠM er
Ġjo in
Ġsus p
t ell
Ġnot e
Ġsing ing
Ġesc ape
ĠH all
ress ion
Ġhon est
P ro
r s
Ġg ate
ĠR E
C ould
Ġt one
Ġde li
re me
ĠM ommy
ĠL ou
Ġu r
ess or
a ves
y er
Ġt ax
Ġm amma
Ġpl aced
ĠN ational
Ġsim ilar
ĠJapan ese
inite ly
Ġp ir
ĠP resident
Ġsp ell
id a
og rap
Ġhold s
B l
M ay
c our
s ings
Ġb omb
ĠC he
itt ee
Ġsp read
Ġshow s
Ġsk in
T r
d own
Ġyou th
Ġg as
Ġn ea
ab les
Ġany where
J ohn
S ir
ell a
Ġun less
Ġpict ures
Ġstreng th
ĠCaliforn ia
M ommy
u ce
ĠD ad
Ġfam il
Ġt ight
re y
it z
ar th
Ġse arch
Ġte chn
Ġvar ious
d a
Ġs oul
ĠThe se
Ġca used
Ġp et
el ess
Ġcha p
Ġnum bers
Ġmark et
Ġstru gg
Ġcomplete ly
Ġdecl ared
Ġmach ine
Y OU
k a
o ved
Ġin qu
Ġen emy
ung le
Ġnatur al
l ine
Ġl ines
ad s
Ġst ories
ĠS aturday
Ġpart s
Ġlaugh s
Ġdress ed
Ġfa ith
k i
Ġs ize
or ing
ĠM on
Ġpr oud
Ġapp re
Ġcomm une
Ġrel ations
Ġconvers ation
it es
ce ly
hy s
uck les
Ġsc ene
Ġbas ed
Ġfill ed
elest e
ve y
ac hes
Ġhappen ing
Ġexpect ed
v ille
Ġse vent
Ġim m
D e
ar m
Ġwe ather
Ġimmedi ately
A VE
Ġsh ore
Ġ2 4
Ġco at
Ġcr ack
Ġche er
ex as
Ġcoll ege
Ġshar p
G od
Ġw it
Ġd ru
est s
Ġsp r
ub lic
Ġ202 2
Ġstep s
Ġn ature
Ġde b
Ġtw ice
Ġour selves
ail s
Ġreg ular
Ġdraw ing
Ġwood s
Ġremark ed
Ġang ry
Ġspir it
C eleste
f ield
Ġhad n
Ġch icken
Ġeas ily
Ġaw ful
Ġprom ised
Ġvocal ises
i ving
Ġw est
Ġof fe
ĠC ent
ĠH ouse
ĠG O
Ġear n
Ġph ot
Ġsqu are
Ġinvol ved
I L
b oy
w orth
Ġw and
Ġ2 5
ens ion
col m
Ġfa ult
Ġro le
N ever
in i
Ġp at
Ġsa ved
Ġoff er
Ġref er
Ġgentle man
ĠF red
Ġcon side
uck er
ĠCha ir
Ġconside red
at o
Ġfl at
Ġact iv
g ive
Ġc rew
Ġp un
ri an
Ġli ps
ĠB ill
ive ly
Ġperson al
ĠChrist ian
Ġmess age
Ġt our
en ing
Ġall ow
el p
Ġsu it
Ġpl ain
Ġper cent
Ġkeep ing
ĠAl bert
Ġmention ed
A U
ha ha
Ġp an
ot ion
ian ce
Ġcir cle
ha nd
Ġm m
Ġm at
ar ry
ĠT ur
em s
ous in
gg ie
A ye
f ather
an ny
Ġp ath
Ġst ro
Ġus ual
Ġcar s
Ġcomp ut
Ġcr it
Ġsupp er
Ġadd ress
Ġfight ing
Ġlear ned
Ġbes ide
Ġr ate
ĠD O
Ġen v
Ġplay s
Ġper form
Ġstr uck
ĠQ ue
Ġabs olutely
p ret
Ġ et
Ġ ide
en ces
Ġbl ank
Ġdis p
Ġact ion
igh s
ott en
Ġth ou
ant ic
Ġmiss ed
Ġfig ures
1 0
Ġal b
Ġsp ort
ĠInd ia
Ġegg s
u el
ur al
Ġear lier
Ġfall en
ustr al
Ġ &
Ġc ell
Ġd read
ĠM ex
ig er
ra ft
Ġap art
con om
C he
d om
Ġj ungle
Ġpl ane
ĠJ esus
Ġdanger ous
ĠDor othy
G ot
O L
f ace
y le
Ġd en
ĠC reek
Ġquar ter
if y
Ġad vent
Ġjo ined
Ġwat ches
Ġblock s
Ġemp ty
Ġcray on
b ack
Ġ =
Ġb other
Ġth ick
ĠM att
ĠP l
ĠJ enn
ok en
Ġpolit ician
r im
Ġt ou
ĠR am
ĠK itty
Ġun c
Ġpull ed
oint ed
R em
m ommy
w ant
Ġm ix
ci ence
oss ible
B ye
g ress
w r
Ġh i
ĠL em
Ġluck y
Ste ven
Ġmunicip ality
" )
Ġb ang
it a
as ure
al t
ĠW AS
Ġmiss ing
! '
. ,
Ġb le
ĠO kay
ens us
Ġbig ger
Ġche ese
Ġac qu
Ġstud y
Ġgra ve
o om
Ġt ears
or ough
Ġsp l
Ġbl ess
Ġco ach
Ġshould er
ĠTh omas
Ġperfect ly
I E
Ġbe ll
id s
th ree
Ġcal m
i que
Ġag reed
Ġwat ched
Ġmot ion
ĠAf ric
Ġvide o
N e
a f
j a
Ġd are
Ġf ashion
an ch
ant on
Ġor ange
Ġgr own
be red
Ġexper ience
Ġtot al
Ġbra ve
f ive
et t
ĠS chool
Ġpl enty
Ġpro ceed
Ġgr ad
Ġcent ury
v ies
ce nd
Ġ2 1
au d
Ġdes p
H er
_ .
or ks
Ġp ink
ar ily
Ġend ed
Ġcomm unity
Ġocc up
e er
f our
Ġr isk
so ci
ens ive
Ġstart ing
On ly
Ġpur pose
Ġhot el
ï¿½ï¿½ ï¿½ï¿½
Ġwin ter
Ġmur der
Ġpract ice
Ġimag ine
G u
ru ction
Ġanx ious
C os
Ġst at
Ġsa il
Ġexc ited
E leanor
Ġe p
out hern
act ion
Ġsm oke
iv il
as ons
Ġh iding
Ġth roat
Ġre se
Ġgun s
Ġcho ice
Ġbird s
Ġd irty
en ry
Ġst one
ĠC ouncil
ĠL o
ĠR iver
Ġtr ick
Ġbl ind
A g
W ow
u ke
in al
it or
ĠF ort
Ġlo ves
Ġfav our
Ġsand w
r an
ve ll
Ġde lic
Ġpl ans
ĠE ve
Ġopport unity
Ġr ace
Ġfif teen
1 8
K eep
b ell
c ue
Ġ vers
Ġpleas ant
OM E
i ally
ro ad
ĠD id
ĠQ u
Q u
l or
p ed
y ep
Ġf irm
oo s
Ġst orm
ĠM other
ur s
ĠJ oseph
Ġ( "
Ġpr ice
ĠSt reet
ild a
led ge
Ġiss ue
Per haps
O oh
z a
Ġ )
Ġb ill
ĠA ustral
Ġhead s
mp ions
I F
Ġl oss
Ġre vol
ĠT exas
Ġsa ke
ĠF rom
ĠU S
Ġrem em
Ġinf lu
Ġexc use
Ġbas ket
Ġev idence
Ġwe ak
Ġre ck
ee ch
Ġsold iers
ĠMal colm
ĠM art
uh oh
aster n
Ġev ident
Ġwor ried
Ġfam ous
Ġclear ly
Ġfly ing
Ġhig her
w ing
Ġh uge
and a
ict ion
U S
u gg
Ġm ud
Ġnot iced
Ġplay er
ĠSt ate
B omba
O D
ic ro
ĠS er
ĠS ch
Ġtr ad
Ġen er
Ġass ist
Ġdem and
Ġcirc um
Ġnur se
Ġtem per
B r
D ad
Ġt ong
Ġd ig
Ġp a
os ing
ĠN e
ĠHe re
Ġcare fully
ober t
, âĢĻ
ha l
Ġup stairs
Ġrem ained
Ġhar m
L ES
c ries
w atch
ot ed
ĠT hank
ĠP ark
Ġper m
ĠMar g
Ġimp ro
Ġhous es
T H
w est
Ġhe at
ot te
Ġfor med
Ġso cial
Ġne ither
Ġafter wards
Ġfin al
Ġdec ision
Ġfall ing
Ġdog s
Ġoffic ers
* *
Ġw ake
le cted
ĠB ur
ĠH igh
Ġeight y
Ġprep ared
G E
r ain
Ġc hat
Ġv an
Ġsc r
Ġmo on
Ġpop ular
Ġjour ney
Ġst ock
ĠM ac
ĠM ama
ĠG eneral
Ġatt ract
e re
k iss
Ġp in
le m
ic le
Ġst ret
ĠB ert
ol a
-- "
Ġfair ly
Ġorigin al
Ġbud get
B RO
R A
id den
Ġst ars
ĠA lf
ist ic
Ġro b
Ġf und
Ġn et
le br
Ġ2 3
end ing
Ġsha d
us es
Ġde g
Ġwill ing
Ġback ground
Ġimp ossible
w anna
er m
ur ity
ĠR ob
Ġsc ream
Ġmo vies
Ġsm art
Ġcle ver
Ġgener ally
arent ly
or ter
ar ah
Ġex ist
Ġcl oud
IN V
Ġind ivid
Ġwear ing
Ġconcer ned
ct ions
Ġsome what
as y
ci ety
1 7
G reat
v ocal
Ġt iny
Ġc ustom
ar ies
ar row
Ġin j
Ġr ab
Ġser ved
Ġob viously
Ġcol onel
b a
u x
ĠYou r
Ġyoung er
Ġsleep ing
Ġut ter
Ġt it
Ġf aces
Ġl atter
st op
Ġare as
ĠT ed
ĠR ed
no ise
ĠK e
Ġlisten ing
Ġdevelop ment
Ġav ail
Ġnorm al
C ar
F irst
F AT
Ġp hys
ur ry
Ġknow ing
ĠE ast
IT H
Ġfix ed
b ly
Ġ iron
Ġf em
ld er
Ġwe ight
op h
ort hern
Ġcreat ed
Ġprof ession
Ġn aught
ir ing
Ġ19 2
Ġ5 0
Ġed ge
Ġest ab
S ay
Ġ ign
Ġa ud
Ġm ut
ĠJ ul
Ġte ach
Ġdire cted
Ġtra vel
aur a
Ġcomfort able
Ġspec ies
H old
P oss
as c
ĠS id
ĠH elen
Ġr oof
âĢľ âĢĺ
Ġtri p
n on
y al
re g
Ġm ir
ĠC ass
Ġne g
Ġwhe el
Ġent er
Ġmar ry
Ġtast e
Ġbe ha
Ġsh ips
od ay
Ġmed ic
Ġscar cely
Ġcircum st
Ġp ound
Ġon to
Ġe conom
ak ed
Ġair port
Ġpur ple
Ġhon or
Ġpriv ate
ĠChair man
H a
he art
ĠL ittle
Ġdefe nd
F uck
s pect
he t
Ġh ill
Ġh unting
Ġwas te
Ġop in
Ġblood y
ograp hy
A m
T O
s es
Ġ ir
Ġm ater
Ġto wer
Ġth us
Ġsp oken
AN T
Ġtown s
A d
j o
is hes
Ġd ouble
ĠT ucker
Ġcom ment
ĠCh ic
Ġlight s
Ġdef initely
W E
c raft
re es
Ġe mer
ent ed
ist ory
Ġwor st
Ġmean ing
Ġsett led
5 0
Ġb ite
Ġl ap
am n
ĠH i
ĠR and
pl es
Ġmost ly
Ġmil itary
ĠJenn ie
t urn
ĠM Y
ĠE ll
Ġele ven
ĠHow ever
Ġvict im
ish ment
iv al
Ġsur r
Ġind ic
Ġparticular ly
Ġru le
v o
Ġt eddy
Ġat e
um ber
ab r
Ġpen cil
Ġappre ci
m in
us ing
Ġpl ant
Ġpl ate
Ġqu ality
Ġbr ain
k ed
er c
Ġrel ig
Ġexc it
H uh
M um
e h
f it
g en
n al
ch i
ĠW E
Ġar row
Ġdri ver
Ġstate ment
ĠBob by
an ning
ve re
ĠA N
ĠA lden
Ġbring ing
Ġdisc overed
Ġeduc ation
Ġalb um
es sel
oo per
all as
Ġcall s
Ġact or
Ġres ol
E d
Ġp ony
st it
ĠB oy
Ġaf ford
Ġcond ition
cell ent
Ġb oss
Ġm um
at ors
Ġdo c
Ġ1 00
Ġgr owing
Ġrem ind
Ġcont act
Ġsw ing
Ġwall s
ĠGu y
Ġrap id
p en
Ġt aught
Ġw ed
Ġthe e
Ġsp eech
Ġsus pect
U ST
d ra
ou red
Ġf ond
Ġhe aven
st ood
ĠA h
ĠH E
our s
Ġv ac
ĠSp an
ĠDon ald
Ġwag on
J ack
Ġc art
ut en
Ġst aff
Ġr ail
ag o
ĠIn tern
Ġsil ent
Ġcontin ue
d s
i ot
is y
Ġo dd
Ġn on
Ġst airs
Ġsu c
ber ry
Ġgood ness
M an
p aper
Ġt ask
Ġs ides
Ġv essel
Ġbed room
Ġtri es
Ġpick s
Ġbrother s
Ġce lebr
Ġbur st
Ġstru cture
Ġmount ain
Ġtong ue
Ġsuc ceed
h ost
k ins
Ġf ru
se qu
Ġdo zen
ur t
ES S
Ġoppos ite
Ġcomput er
h in
u ps
Ġ #
Ġbe ach
ĠT wo
ĠF enn
Ġcl ock
Ġco ast
Ġsecond s
Ġpap ers
aj est
ific ation
c ar
p a
Ġc ong
Ġc ult
ĠD ist
ep end
Ġserv ices
Ġr ange
Ġtell s
Ġfind ing
Ġfeel ings
Ġsur v
fort un
ĠGo vern
G l
Ġ ..
Ġf ancy
Ġp ill
Ġg ro
ac he
ĠH enry
ond ay
Ġstr anger
Ġob l
Ġlaw yer
Ġinvest ig
Ġpossib ly
A bout
Ġt ap
ut ch
Ġr ow
Ġtr oops
Ġsha pe
Ġch oose
ON E
ĠAn ge
g l
Ġl ower
Ġkn ife
Ġcon du
Ġsix ty
ĠCol onel
ĠLou is
f all
i us
Ġw rest
ick ed
ĠSt one
Ġte xt
ĠGer ald
Ġprov ince
ĠLuc y
Ġdeterm ined
I LL
out s
Ġme al
fe ction
iz es
Ġcont ract
Ġpres ence
Ġcra w
Ġord ers
Ġsuggest ed
Ġrad io
Ġexcit ement
' ?
C hi
S e
c ast
h od
le nd
ab ri
Ġfeel s
Ġwait ed
Ġind ust
Ġhell o
Ġprin ci
Ġc ensus
Ġe h
al ed
Ġst re
ĠL aw
Ġ2 7
Ġthought s
Ġreal ize
Ġadd ition
Ġinclud e
Ġcas es
ĠA ir
ter ing
Ġv ote
ord er
Ġpre fer
ou ps
Ġp air
Ġha m
Ġtr oub
Ġbelie ved
Ġlar gest
Ġcent re
1 5
Ġt ar
Ġc red
Ġknow ledge
Ġdes k
Is n
Ġmatter s
Ġener gy
is a
ĠK ore
Ġcour age
ult an
Ġaw are
Ġste al
Ġforg otten
Ġmod el
Ġord ered
Pe ople
C on
M ama
a ign
k n
v i
Ġb al
im ate
Ġme re
Ġan t
Ġbut ton
ul ous
em an
ĠE very
Ġ2 6
Ġapp le
Ġcor rect
ĠSte ven
Ġpati ent
Ġrepe ated
Ġoffe red
C har
N OW
P ut
ĠW ind
Ġcon v
Ġthr own
HE R
Ġcr ime
Al right
Ġpolit ical
o id
s n
Ġman aged
Ġcl aim
ĠIt s
Ġmag net
Ġpre vent
Ġopen ing
Ġext reme
Ã º
ĠC up
iz ing
Ġdec ide
Ġcarry ing
Ġfright ened
Ġnaught y
D r
H O
Ġd ancing
an ing
ĠD em
Ġ2 8
Ġgr ab
Ġstay ed
Ġinst ant
Ġwind ows
Ġappear ance
ĠLea gue
l ie
Ġh m
Ġfor ces
ĠN or
Ġaf fect
Ġstay ing
Ġrep ly
T w
Ġth in
ic y
ict or
ĠĠĠĠĠĠĠĠĠĠĠĠĠĠĠĠ ĠĠĠĠĠĠĠĠ
rill iant
Ġarr ange
Ġtow el
Poss um
Ġ --
Ġd ying
Ġf urn
ke ep
ly mp
ĠS E
look ing
Ġcompan ion
c ut
d ie
Ġp ool
Ġp sy
Ġfor ced
ĠThe ir
Ġ2 2
ok ing
Ġlead er
L e
b ook
v an
Ġsh irt
Ġde ck
os h
be y
HI NG
Ġpre vious
Ġ201 0
ĠRep ublic
Ġreck on
? '
p ro
s ha
Ġs na
er o
Ġb are
Ġm or
at oes
Ġh omes
Ġdo ors
ather ine
Ġhelp ing
Ġexpl ained
bur g
1 2
r in
ĠS an
ch ief
Ġeas ier
Ġrock s
AM Y
Ġproper ly
iron ment
omp any
Ġsusp ic
r id
is her
ĠR o
Ġmot or
ĠCharl otte
Ġrul es
Ġf ully
Ġn arrow
Ġkn ees
Ġsh own
Ġ2 9
ord s
Ġ201 2
Ġpass ing
ĠFr iday
Fr aser
Ġmem ory
ĠQue en
Ġet c
B art
f le
o ly
Ġc ivil
Ġl ake
Ġwh ist
ĠA my
ĠT V
Ġsh ook
Ġam azing
Ġmo ves
tain ed
og er
Ġpub lished
Ġhist or
Ġpal ace
Ġwit ness
b re
s ed
am m
Ġpart ner
Ġpre par
Ġpr im
Ġsm iling
P E
Ġl iter
ad emy
ĠA T
ur a
ĠH AVE
Ġshe ep
ĠP ort
Ġsp lend
Ġqu eer
Ġgr oups
Ġshould ers
Ġsl aves
Be fore
Ġplan ning
Ġmod ern
ĠSm ith
Ġopin ion
a ed
p ardon
us ic
ĠG l
Ġright s
Ġpro duced
Ġsur face
Ġfore st
Ġannoun ced
Ġc ro
Ġr out
Ġsh ock
ĠJ ean
Ġsp oon
Ġex ec
Ġpro gress
Ġtr unk
Ġdes per
Ġrequ ire
3 0
T ilda
b its
c ould
e very
s m
ĠC oll
ĠR obert
uck y
Ġfl ag
Ġele ction
Ġadv ant
ĠTHI S
Ġcircumst ances
ro ll
ch o
ĠĠ Ġ
Ġsa f
Ġby e
Ġsha ke
Ġstand s
Ġpap a
k er
p oint
Ġm ate
ĠH ER
ĠD ick
Ġhur ried
Ġsing er
Ġlead ing
ĠOr der
ĠSte ve
Ġclos er
Ġexpress ion
Ġcop y
M a
a ult
le ar
ol ars
Ġtr ade
ect ive
per ing
az ed
Ġshout ed
Ġpuzz le
T om
Ġc ott
Ġex erc
ĠO lymp
ud d
Ġgreat est
Th ose
Ġquiet ly
A ct
Ġg ift
ri ble
Ġup set
Did n
Ġesc ap
Ġhang ing
B E
O H
m und
r am
Ġw ished
Ġth y
pl ace
Ġfl o
gg ing
app y
ĠGerman y
Ġslight ly
Ġswim ming
D S
g n
o oth
ĠS ing
Ġsh o
end s
Ġgreat er
Ġremem bered
b on
l ow
Ġs ac
ur ance
ul f
ĠL O
the se
Ġschool s
Ġ201 1
Ġdire ctor
Ġresp ond
ĠBar ry
Somet hing
Ġp ad
Ġas ide
ĠC or
ĠP arty
ĠL aura
Ġsp o
Ġpro ve
ĠCh urch
br other
Ġadv ice
Ġval ue
Ġtot ally
f a
w hile
it i
Ġf ought
ĠD allas
os aur
Ġsc rew
ib ility
Ġwonder ing
Ġbath room
Ġwhis pered
Ġjud ge
Ġrelations hip
Ġc ad
ĠD E
Ġpr int
Ġsm iled
Ġball s
" ?
a e
k o
Ġf ra
Ġp le
Ġin no
ĠR em
Ġrun s
19 9
ĠSec ret
ajest y
D avid
ha ppy
it ation
ĠPro f
S ince
Ġwe ird
Ġshe l
Ġcl own
Ġdis m
Ġfo x
Ġgl ance
Ġ201 6
Th ree
Ġcamp aign
Ġfort une
Ġdam n
Ġavail able
aed din
i j
Ġb od
Ġf ile
Ġy ards
Ġn ap
ent h
ĠO ld
Ġdream s
Every thing
Ġneighb or
Ġw estern
et ch
ĠC H
Ġj oke
ĠT H
Ġsome how
Ġsc ore
Ġele phan
Ġbeaut y
Ġdisapp eared
ĠMin ister
athe red
Â ¶
Ġt ie
Ġa chie
Ġs our
Ġc ards
Ġst yle
ea ks
ur b
il ver
Ġr om
Ġde l
Ġfl ight
Ġcont r
Ġshow ing
laugh ing
iet y
Ġstra w
Ġcru el
Ġc ousin
ĠS ea
Ġper for
Ġact ing
oc rat
Ġtri be
Ġgentle men
Ġknock ed
r ick
Ġw id
Ġm ult
Ġd un
Ġhe sit
Ġh unt
ĠM id
ĠW il
ĠG ra
Ġsent ence
asp ed
Ġevent s
C all
a res
Ġw ine
ĠH ay
ĠD olly
Ġdown stairs
Ġchan ges
Ġche m
ES T
Ġ18 7
II I
Ġrece ive
Ġfol ks
Ġsandw ich
U CK
p ers
r ate
Ġg ir
ĠM or
ĠS us
Ġsh oe
ĠP olly
ol an
ĠJ o
Ġag ed
Ġmiss ion
Ġfil m
Ġprofession al
I V
N ice
ĠM at
il ian
Ġevery where
Ġunder stood
Ġdes ire
Ġent ertain
ĠAl aeddin
Ġsong s
B en
L ea
M other
in ting
ent al
ro st
ĠM o
ch uckles
ul ty
ough s
Ġfe at
aw s
az y
Ġcol ors
uten ant
M AN
M ichael
] ,
c ing
Ġt a
Ġm ort
ic an
ĠM onday
ell e
ĠT y
ul ations
ap a
Ġkeep s
ĠMar illa
Ġdep art
Ġdrink ing
wh oops
Ġpri ze
Ġdirect ly
Ġhol iday
Ġnea rer
Ġmedic ine
S c
Ġ ess
Ġo w
ed s
Ġp ale
Ġl ion
ĠM aster
Ġman ager
hi ps
OU LD
Ġeight een
ĠFl or
Ġev il
Ġbar n
Ġcho col
Ġenv ironment
ĠSpan ish
Ġobl ig
Ġt im
he st
Ġb oo
Ġf al
Ġp ra
ĠA c
ĠB O
ĠH y
il ities
ge ant
ĠR y
ĠN OT
ĠE ven
are n
Ġar g
the w
Ġcount ries
Ġbene ath
Ġsaf ety
Ġp ushed
Ġst ir
Ġkn ee
ĠB ro
Ġcar riage
Ġpower ful
ĠChar les
Ġeng aged
ĠBl ack
ĠRam sey
C ause
M ad
is ions
oo ke
ent worth
Ġst ates
ess ed
ĠE n
ĠK en
Ġfo ld
Ġbit ch
Ġrec ently
Ġdist ribut
Ġpay ing
ĠItal ian
Ġep is
w ater
ing u
um ents
Ġbu ried
Ġmove ment
ĠBart y
Ġcontin ues
ĠYOU R
---------------- ----------------
r ant
at ory
Ġre asons
ul ated
Ġsc he
Ġ201 7
Ġsmall er
Ġ18 6
Ġproper ty
Ġearn est
F ine
ĠB at
Ġne at
Ġsu gar
ĠL ook
Ġacc ording
Ġtrain ing
Ġforg ive
Ġrequ est
ĠMarg aret
p al
un s
ock s
Ġmon ster
Gr and
ĠDist rict
A IN
Ġc ute
Ġo il
Ġf ishing
ĠC at
ĠL ab
ĠN ed
Ġcomm ittee
Ġdra wn
Ġtra il
Ġmag ic
Ġsuccess ful
Ġgall ey
Ġfail ed
Ġprodu ct
Ġwed ding
A B
m ake
Ġa ver
ĠT ony
ĠL a
Ġgr ate
og raph
Ġche ek
Ġjob s
Ġins pect
Ġcast le
Ġauthor ity
o le
s hip
Ġw ha
Ġb atter
Ġf ier
Ġto ast
ad ing
ust ed
ab oo
ines e
Sh ut
ĠPar is
Ġentire ly
Ġtou ched
ĠLo ire
p et
t ry
u ous
ke nd
ĠB el
ĠB ra
ĠH al
ĠE leanor
anna h
Ġmag n
Ġw ound
ĠC our
Ġj ail
ĠW entworth
ep ing
Ġthr owing
Ġact ress
Ġdark ness
e g
s orry
Ġa im
Ġg ang
ĠI I
ĠF anning
ĠR uth
act ually
Ġapp arently
Ġser ve
ĠCh ris
Ġ201 4
Ġdr unk
Ġter ror
app ing
Ġ200 8
Ġcent er
Ġprop os
Ã ¤
Ġm icro
Ġo x
Ġf aint
Ġg host
et ter
im a
ant a
th ose
ĠG old
Ġbr ush
ish op
ER S
kn own
b ow
Ġg athered
ch ing
Ġr ushed
Ġcan cer
ĠP et
han g
Ġmar riage
Ġmag az
Ag ain
Ġsplend id
b ig
Ġp red
ain ing
." ]
ag ing
Ġfo c
Ġpain t
Ġhon our
Ġfore ver
Ġsoft ly
Ġclim b
r ot
ĠM um
ĠM any
ĠB ern
Ġshe ll
ink ing
ĠG et
ĠR oman
Ġbo ats
Ġplay ers
Ġneed ta
Ġbit s
Ġwar ri
Ġord inary
Ġtar get
Act ually
' ,
K E
Ġl one
Ġfor ms
ĠH ave
ĠW in
ĠP al
Ġother wise
Ġ201 3
Ġf art
ĠS ultan
ĠA ward
li ament
to gether
Ġste pped
Ġdro ve
Ġsold ier
Ġpress ure
H istory
y m
as ing
om en
Ġh ook
ĠH aw
ĠT own
ck y
ol es
ig s
Ġpro ced
Ġshow er
ĠCl a
Ġenjoy ed
Ġobs erved
Ġfru it
A lex
I A
N O
u le
Ġn ative
Ġbe ast
Ġse ction
and y
ĠH am
ĠO k
ĠO x
Ġpo et
Ġsha me
ans as
Ġind epend
Ġrel ated
Ġoffic ial
Ġappro ach
ĠDo ctor
ĠPat ty
Ġweap on
Ġspr ang
z es
se mb
Ġdo in
am ing
am my
ĠA LL
op en
ĠW ITH
ĠD av
Ġfriend ly
ĠUn ion
Ġent r
ĠMiss ion
Ġair craft
ĠCass on
P aul
on ed
us hes
ent ial
Ġas soci
il a
il ty
um n
ang ed
Ġatt end
Ġwalk s
Ġfall s
oint ment
ĠWh ite
Ġincre ase
C ha
Ġs ch
Ġd ise
Ġp ant
ver t
Ġst ones
ĠA B
ĠC amp
Ġde re
ol s
Ġpro duc
Ġtr uly
Ġwee kend
Ġhear ing
Ġdra gon
On ce
Ġinclud ed
Ġcuri ous
Ġrese arch
Ġindivid ual
w in
Ġs oup
Ġm ail
Ġd im
Ġf an
Ġre lease
ĠH ad
ap t
ond er
Ġen cour
Ġsit s
AR D
Ġchocol ate
y o
on a
Ġp it
Ġl ord
Ġl oose
as m
ĠM ed
Ġr ush
Ġr iding
ate g
ĠN E
Ġv ent
Ġuse ful
ĠĠĠĠĠĠĠĠĠĠĠĠĠĠĠĠ ĠĠĠĠĠĠĠĠĠĠĠĠĠĠĠĠ
Ġcra ft
Ġadvant age
s ure
on se
Ġm ile
es ides
ĠB ull
ie l
Ġche st
Ġret ired
ĠEd mund
Ġinc red
Ġbec oming
Ġdiffic ulty
Ġlift ed
2 00
e ff
s how
Ã ¼
er able
Ġn erv
ĠM ore
ĠM ost
her ry
Ġli ber
Ġsa ving
ĠF a
os en
Ġcom ed
ĠR ush
No body
Ġfl ower
ĠSt an
Ġsec urity
---- "
sh ould
Ġkid ding
Ġconc ern
1 6
g ency
s omet
Ġf ired
Ġg ather
ir gin
ĠE li
Ġsure ly
ĠZ eal
Ġtele phone
cha ir
Ġinflu ence
I nd
he w
Ġw ore
Ġb unny
Ġl ack
ot o
ce an
ĠB er
Ġpl at
ĠL ee
Ġcon ce
Ġbr anch
ott ed
Ġinst ru
Ġexc iting
Ġsn ake
Ġintro du
P l
Ġso re
Ġsa v
ck ed
em ies
Ġ( )
uch i
Ġheart s
Ġbad ly
Ġlist ened
Ġsign ific
ĠHar old
Ġfair y
Ġmed ical
ĠBrad ley
ĠAg nes
Ġrespons ible
Ġoccur red
Ġcred it
f ish
on ly
Ġc ities
ĠM el
ĠS arah
ab eth
ĠW olf
Ġag ent
Ġco al
ĠV ictor
Ġsign al
Ġgovern or
Ġburn ing
Ġide as
ĠAlf gar
S u
d addy
y ell
Ġa unt
in c
Ġp ants
Ġe lder
Ġre act
ĠB o
Ġbut t
ĠR ight
Ġkind ly
Ġlad s
Sh ould
Somet imes
Ġfre qu
Ġfem ale
ĠFlor ida
E n
Ġs cient
Ġb at
ac hel
Ġan cient
ct ors
ĠD ep
ĠJ www
uh uh
ang le
Ġad op
Ġsl ave
Ġkind s
Ġpres ently
Ġtrans fer
Ġra ise
O ther
U L
Ġa ston
Ġc ash
ĠI r
al y
ĠM os
ĠS en
Ġpl ants
Ġqu al
Ġrem oved
Ġown er
Ġser iously
Ġreg ret
Ġgrand ma
Ġap olog
ĠGreat er
ĠProf essor
i est
l ock
u f
v is
Ġt ough
Ġd well
an o
an other
ĠC r
Ġj eal
Ġinv ited
Ġdin osaur
ĠCar l
Ġve h
Ġiss ues
Ġrecogn ized
Ġelect ric
itz er
abri ella
1 3
b u
Ġw ave
Ġs ite
Ġb rilliant
ing er
ro l
if fe
Ġex cellent
we y
Ġfour th
Ġinter view
Ġadm in
Ġvers ion
H elp
I G
R Y
i als
ĠM ike
ce l
um mer
ĠK NOW
Ġpre cious
St ay
Ġsign ed
Ġdat a
Ġdevelop ed
Ġresult s
Ġfamil iar
ĠAustral ia
Ġw ounded
Ġg ently
ĠH im
Ġr ings
Ġsu ffe
Ġcon sequ
ĠN at
Ġqu it
Ġgu ilty
Ġcr im
OU T
Who a
Ġcross ed
ĠGeor g
mpions hip
ĠMart in
Ġrab bit
L ove
T ry
ĠS y
el come
ĠJ ew
Ġcomp ar
hm m
Ġreal ized
Ġhor rible
Ġsy mp
Ġmad am
Ġcompan ions
Ġsepar ate
Ġweap ons
Ġappreci ate
1 4
Å į
Ġt un
Ġa id
Ġc ave
Ġf uss
Ġin n
Ġst ern
and s
ĠT ri
ĠL at
Ġresp onse
Ġstri ke
Ġdescri bed
Ġlone ly
d at
l aw
u ght
Ġw an
Ġf ant
Ġf reed
ll a
Ġp ension
Ġl in
Ġst ol
all ed
ĠC O
ĠB ig
ell ig
ie ce
ĠL ake
ep s
Ġint ended
oc key
Ġhands ome
Ġstop s
go ing
Ġ200 6
Ġlar ger
Ġmount ains
L O
g ate
p os
Ġt id
Ġt ied
Ġp atter
Ġre ve
ri ff
um ed
um ble
op s
ĠR oger
Ġen emies
Ġprov ide
Ġpos itive
ĠCour t
f ers
p ir
s ighs
Ġb i
Ġy o
Ġvo ices
Ġprov ided
Ġart ist
H mm
Ġd ust
Ġp ity
et te
Ġkn ight
ĠD ar
ĠD ay
ĠD utch
Ġsu ffic
Ġsp are
Ġlo g
Ġapp l
ob ile
Ġkind a
az e
Ġtri bes
Every one
Ġsettle ment
igg les
ĠRuss ian
Lea ve
itzer land
S it
g a
Ġc it
Ġl id
om a
Ġth orough
Ġbe e
Ġal together
ag u
Ġgreat ly
ĠCh ina
Ġ4 0
Ġinc ident
ĠDe wey
Ġlear ning
Ste ve
ĠSw itzerland
Ġsle pt
Ġaut om
Ġinqu ired
ĠMex ico
Ġevident ly
ĠIntern ational
Ġjeal ous
d is
g i
Ġt ear
he e
ll en
en ny
as es
Ġli es
Ġr ise
ĠN ight
av al
Ġact ive
Ġcr ash
Ġdes er
Ġdr own
Ġteam s
Ġaccept ed
ĠJim my
ĠRoy al
Ġstre ets
Ġbod ies
R os
Ġp our
ĠM ic
Ġmy ster
... "
iz abeth
Ġsl ipped
ĠCh inese
Ġwond ered
ĠAr ab
Ġ200 9
Ġconst it
Ġexper ien
Ġjump ed
Ġprison er
ĠPer haps
Ġprogram me
Ġaff air
M ove
[ .
or se
Ġp ile
Ġp ump
Ġg ained
om pl
Ġme l
ĠS im
ĠB ible
Ġr are
Ġso ciety
ĠT ra
ĠF rost
Ġconf idence
Ġsend ing
Ġhop ing
Ġspec ific
ĠEurope an
ĠTur k
Ġdeg ree
f ly
r idge
t in
er al
Ġm ap
ĠM ajesty
ea ble
Ġbit ter
anc hes
Ġeat en
IS T
Ġ200 7
ĠRe g
ĠBl ue
Ġdelic ious
e at
y ear
Ġt ent
Ġs orrow
Ġp up
Ġha bit
Ġsee k
ree ks
Ġbl ame
Ġbet ray
ile en
oc r
Ġri fle
AR T
Ġsqu ee
ĠCar ol
Any way
Ġnur s
Ġtit le
Ġrapid ly
Gl ory
ĠZeal and
Ġs cience
ha b
Ġb ike
Ġbe nd
ri a
Ġno vel
ĠR el
ĠK at
Ġres our
Ġ201 5
Ġrel ax
Ġsign s
Ġpur su
Ġobject s
ĠCan ada
Ġbes ides
Ġdelight ed
Ġsatisf ied
ashing ton
olars hip
ocrat ic
Ġaver age
l ong
Ġt v
Ġt iger
Ġb oun
Ġf ac
Ġh idden
ĠB u
ack s
ĠD el
Ġsp ite
hi b
Ġsm ooth
Ġact ual
Ġend s
Ġmoment s
cept ion
Ġcreat ure
Ġrecogn ize
Ġsho pping
m es
n ic
Ġha ha
ic les
Ġre jo
Ġan ge
ber g
Ġch osen
ail ed
aw a
AT ION
Ġbre aking
Ġsw itch
Ġrest aur
Ġtrans port
Ġkiss ed
Ġtend er
T HAT
l im
Ġw ra
Ġy ard
Ġp il
om ach
Ġse vere
ĠC han
Ġr ising
Ġus es
ast y
Ġam b
Ġun fortun
Ġbeg ins
Ġtri al
Ġstud ents
Ġcook ing
AK E
Ġarrest ed
Rem ember
M ake
W hile
b el
d ad
m om
m aking
Ġs in
Ġb ark
Ġd ea
en a
al ent
ad o
ĠS ee
Ġgo al
ind a
ĠE X
Ġcl ient
Ġgr ace
Ġcomm unic
Ġhigh ly
Ġext ent
Ġdoll s
Ġap artment
Ġmur d
Ġdam age
Ġtur tle
Ġperform ance
Ġmir ror
O F
T e
W atch
c r
i ation
Ġw ise
Ġf ate
Ġn ic
ge nd
Ġour s
Ġres ist
Ġroom s
Ġsw ift
St ill
Look s
Ġdestroy ed
eder al
ĠAfric a
Ġestab lished
Ġnerv ous
F l
H urry
g ly
k now
om ed
ĠM ot
ĠM ont
ĠM ajor
all ey
ill ed
ĠL i
Ġv ain
ick ing
ĠĠĠĠ Ġ
Ġbre ast
Ġsoon er
IS S
Ġshoot ing
Ġnorm ally
Ġpir ates
Ġelephan t
Ġsuffe red
" '
S m
e ks
g ues
ha h
en ger
Ġg ay
Ġn ation
Ġn orthern
ri er
ĠM ount
ĠS el
Ġsh r
Ġlo ving
Ġsc reen
Ġpoint ed
Ġpick ing
Ġform ula
Ġsevent y
Ġdru gs
Ġsport s
Ġnurs ery
1 1
_ _
h us
l ings
re al
re ally
Ġb ent
Ġb orrow
Ġo we
al ph
st ead
ĠH ello
Ġr ang
um an
Ġgu est
Ġbig gest
Ġnorth west
Ġpa used
N A
U M
b ark
h un
ar ly
Ġin vent
Ġh orn
Ġdo ggie
am s
ĠA ct
ĠT hanks
ĠP ak
Ġbo ot
Ġbo ots
Ġchan ging
ĠFr anc
ĠHar ris
Ġrecord s
Ġve get
Ġequ al
Ġtreat ed
Ġav oid
Ġfle w
Ġeager ly
Ġdeli ver
B ob
I ES
Y ep
a fter
m ark
u gh
Ġc aut
Ġp ow
ĠC ross
ĠG reen
ian o
Ġch ums
Ġop ens
Ġpass ion
Ġmet hod
Ġcut ting
olog ical
Ġdiv or
Ġmajor ity
Ġblank et
Ne xt
Ġmater ial
T oday
n ine
en ced
ĠC ON
Ġde lay
ab ility
Ġcom r
Ġpro ved
Ġpo ison
Ġfound ed
Ġsort s
Ġstud ied
Ġloc ated
umb led
ĠFa ith
Ġs outhern
Ġp or
st ery
ĠA RE
ell ed
ore s
ĠF in
iz za
Ġstr ing
Ġrec omm
Ġacc ompl
Ġrel ief
Ġclose ly
orks hire
Ġexerc ise
Ġgrate ful
, ]
A ha
W HAT
l ers
Ġs en
ha med
ir teen
Ġun us
Ġpre gn
Ġwr iter
ĠBr own
Ġpain ting
Ġpartic ip
Ġroll ing
Ġprop osed
Ġrespons ibility
ĠAc ademy
ĠOx ford
F ather
J oe
m at
Ġb ast
Ġm ig
Ġm ale
st e
ĠM i
Ġgo dd
ĠC ong
um ps
lf riend
Ġbr anches
Ġad ult
ign ed
ĠAn n
Ġplan ned
Ġadv ance
Ġadv anced
pri ate
Every body
Ġfamil ies
Ġescap ed
c are
l ittle
s ix
an ed
Ġk itty
Ġcan non
Ġv ot
ost a
ost on
uc ed
Th ink
Ġcent ral
Ġnews paper
ĠX X
Ġlock ed
Ġeffort s
Ġmat ches
Ġtrad ition
Ġshad ow
Ġfart her
A H
Ġc ig
Ġse es
ĠB ay
Ġup per
ab out
ĠL ong
ist an
ag n
Ġtalk s
Ġcomp let
ĠY orkshire
iv ity
Ġdes ert
Ġhard er
Ġele cted
Ġtre m
Ġconc ent
ipp er
iam ond
Ġhop ed
Ġadvent ure
is n
Ġh ut
ĠM ill
ĠM il
Ġmin or
Ġfar mer
Ġcol our
Ġinst ance
Ġcheck ed
ĠRuss ia
F OR
O ver
g ent
p ress
w yn
Ġw ire
Ġst omach
am in
ĠA yl
ĠP orter
ĠF re
ĠR ock
Ġcon clud
Ġv ast
ose ly
we et
Ġun f
Ġpr on
ĠSt anton
ons ense
Ġhouse hold
Ġdist inct
Ġpers ons
Ġcons ult
Ġpull ing
Ġmur m
Ġbow l
Ġjack et
Ġsuff er
Ġdread ful
ĠAyl mer
A C
A CK
M ore
i ge
Ġb ump
ar ing
ĠO UT
What ever
Ġbr ings
pl ane
Ġfield s
Ġfort un
Ġpir ate
ĠChic ago
Ġsurr ound
ĠRo ad
z ing
Ġs ang
Ġc y
le ction
um a
Ġal arm
ĠJ er
Ġgr ant
Ġdes erve
Ġpers u
Ġter rit
Ġkill ing
Ġinter n
ĠPe ople
ĠPr ince
Ġequ ip
Ġinno cent
Ġdun no
ĠBat ala
N ew
d ro
n ament
p o
r ough
Ġto m
Ġg e
Ġu gly
ĠC OM
ĠT im
ol ic
so ft
Ġpre m
ah ul
Ġamong st
Ġburn ed
Ġvict ory
Ġcompet ition
Ġmanage ment
Ġoblig ed
Ġadmin ist
o very
Ġc ents
Ġd ish
ic ated
ĠC AN
th ur
um m
ĠW ashington
ĠL os
Ġwor n
ĠR alph
Ġcl oth
Ġro pe
ĠK im
Ġpre c
ĠSt ep
Ġfour teen
ĠAn ne
Ġgrand father
eth ro
bl ue
Ġfle et
Ġexec ut
B UT
Ġa ward
ot a
im it
Ġcon qu
Ġag re
Ġar med
Ġaf fection
Ġpart ly
Ġmark ed
Ġadm it
Ġspir its
Ġstrugg le
Ġbal ance
Ġstol en
L uc
s a
s ilver
w are
Ġb one
Ġb ones
Ġo oh
ĠM ax
Ġshe et
ĠP o
ĠL ike
Ġwhen ever
Ġgu ide
eak ing
Ġstand ard
Ġref used
ative ly
Ġattack ed
ĠAdam s
Ġhig hest
ĠItal y
Ġemer gency
Ġdise ase
A G
n i
Ġthe ory
Ġb on
Ġd iss
Ġf aster
Ġp ure
Ġe astern
st ers
ĠM ur
Ġshe d
ol ph
ĠJ erry
os ity
act or
Ġpr ide
Ġcont ribut
Ġ200 5
Ġserv ants
Ġsister s
Ġheav ily
Ġrequ ired
arr ass
Ġdru g
Ġcit iz
h ta
Ġw ow
Ġb ot
Ġo o
Ġd ump
Ġto ss
Ġl ately
ĠS H
Ġas hamed
ĠA ny
Ġdes cend
Ġexp ensive
Al though
Ġsuff ering
ĠSecret ary
P oor
b ie
t w
Ġb unch
it ure
an cial
ic ing
am ie
Ġse lected
ĠC ast
ĠH a
ĠP ays
Ġsp eaks
Ġex ha
ven ue
ĠE arth
Ġhand ed
Ġhel ps
Ġche ap
Ġcha in
ĠBe cause
Ġmain ly
Ġprot est
Some one
Ġspl it
Ġperfor med
ĠHay den
Ġsche me
Ġmagaz ine
p ot
v est
is ha
or med
ro se
ĠP L
ĠP lay
Ġbo ld
Ġdis hes
do or
Ġthrough out
Ġche eks
ream s
ont in
Ġinst r
Ġaw ake
Ġpri or
Ġoper ation
Ġcre ate
Ġcapt ured
oph ie
ĠRem i
T urn
f rom
re ls
Ġf ed
Ġl osing
ĠS omet
ĠA ust
Ġr hy
Ġso cks
un ning
ĠW HAT
ĠE r
ang ers
Ġke en
Ġcont ent
ĠCh ief
Ġdr ama
stand ing
Ġdri ven
Ġ18 8
Ġcirc us
Ġcurrent ly
Ġvol ume
Ġintro duced
Ġperm ission
Ġdoc ument
Ġgir lfriend
Ġentr ance
E P
a a
d r
u ction
Ġb en
Ġto ile
om s
at hy
ic ide
ly n
Ġan no
ĠA ileen
el ia
ĠG ames
Ġsp in
Ġsp ect
cc a
Ġcr own
Ġres cue
Ġmin ister
Ġmark s
Any thing
bs olutely
ĠMc Glory
ĠKore a
Ġdesper ate
ĠDav is
w ar
or ge
Ġp ardon
ri g
am ps
ĠB oston
Ġj ew
Ġpl us
ĠF R
land s
Ġball oon
Ġsix teen
Ġid iot
Ġsub st
ĠTh ree
Ġdro ps
Ġgrand mother
Ġsto le
Ġspend ing
ĠBrit ain
Ġneighbor hood
b ird
m et
u ated
Ġb ub
Ġto es
Ġin cl
et ty
am ily
ĠM osely
ĠS ara
Ġse ats
Ġnot es
Ġso fa
th ink
rom er
ĠL I
ĠR es
ud ge
ĠV an
How ever
Ġset ting
pect ed
Ġbas ically
Ġpull s
An other
ĠSp ain
Ġdem on
ĠCan ad
Ġdisapp ear
rat ulations
Ġscr atch
U p
c oughs
o llow
z ed
he ast
Ġp ages
Ġl it
ĠA S
ĠD ON
ĠL ilian
Ġgot ten
Ġqu een
Ġlet ting
Ġgu ests
Ġsha king
ĠYou ng
Ġsw ord
Ġless ons
ek aboo
Ġpolic eman
Ġepis ode
B oy
b b
e v
m ond
t ure
Ġt u
ha d
Ġf ence
Ġp ushing
ri f
ĠS ure
ĠA nt
ĠL ie
ous ers
Ġar ch
Ġfl ung
Ġfl ash
ĠU N
Ġgi ant
ib i
Ġbox es
Ġtra vell
Ġpur cha
Ġwin ning
Ġadm ir
Ġdisapp ointed
ĠGeorg ia
Ġequip ment
A meric
g ment
g iggles
Ġ Ã
Ġb ay
Ġp owers
ic ulous
ĠS a
ĠS qu
ĠB est
ĠH ill
Ġsa le
ack er
ho le
Ġthr ows
Ġrem ains
ĠV irgin
Ġsw all
Ġ199 0
Ġ198 0
Ġfail ure
Ġregard ed
Ġemb arrass
Ġactiv ity
ĠColl ege
H as
L ast
O ut
ed ing
Ġg le
ke ys
ĠS oo
Ġse m
Ġse ized
ĠB illy
ĠW al
ĠL E
Ġ20 00
Ġcountry side
Ġexpl an
Ġtre mb
Ġpresent ed
Ġty p
Ġmis erable
Ġtick et
Ġincre ased
Ġbrief ly
Ġimpro ve
b ar
Ã ¨
ou g
Ġm ouse
ing le
ac le
ly ing
ĠB ed
ĠB rian
ĠH ome
ĠH olly
ĠW OR
Ġpl astic
ĠG reek
ĠL ight
ra w
Ġun e
Ġboy friend
Ġapp ointed
Ġbel t
Ġown ed
Ġacc ess
ĠAr my
Ġchair s
Ġprom pt
Ġreport ed
Ġvill ages
Ġmicro phone
F our
M ost
at a
Ġwe alth
se ll
ĠP re
ĠP ir
ĠD iv
ĠD ada
ort ed
od d
ia lect
âĻ «
Ġwar ning
Ġrel ie
Ġhur ts
Ġdec or
Ġsub m
Ġsweet heart
Ġprotect ion
Ġhol es
Ġarr anged
Ġsucceed ed
E l
e ys
t ic
u a
it ar
Ġm ood
Ġc ats
Ġd oo
Ġg reet
Ġwas hed
ĠB on
ĠT w
Ġab and
ĠF irst
Ġsec ure
Ġgl anced
Ġdist ant
Ġposs ession
Ġless on
Ġbull et
Ġprodu ce
Ġhous ing
Ġcand y
Ad am
I AN
Ġb ore
Ġwas hing
ĠM us
Ġas h
um ph
ĠF ar
Ġgr at
ĠK elly
pl ess
Ġun able
Ġun com
ĠU P
cc ording
int end
ĠY e
Ġnight s
Ġbus hes
Ġï¿½ ï¿½ï¿½ï¿½ï¿½
Ġmus ical
Ġland ed
Ġbec omes
Ġem otion
Ġreport s
Ġbase ball
Ġpill ow
Ġfal se
2 2
F in
S er
c ies
i pping
z o
ĠM ia
ĠS C
ink y
ĠJ ake
ĠL ove
Ġpart ies
ĠU h
Ġsc are
ne ath
ĠBe fore
ĠĠĠĠĠĠ Ġ
Ġconst ruction
gy pt
Ġarri val
Ġcompan ies
Ġdelight ful
cul iar
Ġconnect ion
c orn
Ġm aid
or ious
Ġp itch
Ġg ri
Ġth irteen
id ays
Ġre ar
Ġan ger
ĠS av
ea v
ĠC atherine
ĠW ood
Ġgr ay
int on
ĠY ear
Ġmight y
Ġmind s
ertain ly
Ġappro ached
Ġfro gs
Ġroll ed
Ġcharac ters
Ġwa ves
Ġpig s
Ch rist
Ġprin cess
Ġextreme ly
S ha
c ase
Ġt ip
Ġw ipe
re k
on i
Ġb order
Ġd ialect
Ġl t
im p
Ġre nt
Ġme as
Ġan ti
Ġj oint
Ġcom mer
iss a
Ġgu id
ru b
Ġcomp os
Ġch oo
Ġcont est
Ġcomm un
Ġent hus
ok i
ĠWill ie
AM E
Ġbene fit
Ġglass es
ĠBert ha
ĠTurk ish
Ġenthus i
b elt
u it
Ġs igh
Ġd er
Ġf est
es h
Ġli br
Ġde but
ul ate
ĠD uring
Ġcon cl
Ġex ceed
ĠE gypt
Ġpe culiar
Ġhapp iness
Ġim pl
Don ald
Ġcons cious
ĠAmeric ans
Ġbas is
Ex actly
Ġda ily
Ġconsider able
ĠSc ott
Ġsell ing
ĠRichard s
ĠChi ld
Ġfol k
Ġadvent ures
Ġmix ed
J esus
S hall
b ury
c od
p hew
r ison
Ġbe er
il ight
Ġr ank
Ġam end
ne w
Mm m
less ly
Ġexcept ion
ALL Y
Ġcollect ion
ĠSch olarship
ĠMat thew
ĠLab our
Ġfreed om
Ġtoile t
D ear
Ġw icked
Ġf acing
en ess
Ġin come
im me
ĠH art
Ġwhe els
ĠL ola
ive red
em on
Ġpro spect
Ġun it
Ġch ose
Ġcomm itted
not hing
Ġmet al
Ġtre asure
Ġstick s
Ġwat ers
Ġ196 0
Ġinterrupt s
ĠBur ton
C aptain
H ar
L ittle
Ġt ale
Ġw ishes
Ġc oun
ll ed
Ġp ressed
Ġp iano
Ġn omin
ac ious
se c
um es
ĠP an
ĠL in
ib ly
Ġsound ed
âĢĺ _
Ġph r
Ġph il
ĠAr t
Ġtra ffic
Ġ200 4
who a
Ġpur s
Ġrepl aced
Ġstrong er
Ġbear ing
ĠEl izabeth
ĠAfric an
urs day
Ġcloud s
Ġunus ual
A ren
B ack
D amn
a ft
u ries
Ġt empt
Ġn uts
ri al
Ġse ated
Ġsh y
ĠP h
ĠD et
ĠN ick
ĠE mp
ĠO ther
ag ue
Ġlo ad
Ġbeg un
Ġsw ept
ĠBe cky
Ġthousand s
Ġinclud es
eng ers
Ġdet ails
Ġpot atoes
Ġorigin ally
Ġcond itions
C om
E M
r as
Ġc ounter
Ġd uh
an ks
Ġn est
Ġh ills
ĠS A
ĠC om
Ġher s
ck ing
Ġtr ousers
we re
Ġapp eal
Ġsl ip
Ġ3 1
bo at
ĠAt l
Ġlangu ages
lem n
ĠAnge les
Ġcondu ct
Ġindust ry
$ =
l ict
o ons
Ġw re
Ġw ings
on ies
Ġth rill
Ġre view
Ġfor b
st one
ro s
ĠS un
ĠS anta
Ġso lemn
ĠP ers
Ġjust ice
res p
Ġus eless
Ġsp ark
Ġro de
Ġbl owing
Ġch ick
anc he
AN K
Ġpass age
Ġste el
Ġstud ent
Ġty pes
Ġarri ve
Ġdeb ate
Ġrevol ution
Ġachie ve
Ġincred ible
w a
y ard
Ġa ye
Ġd ull
ir a
ĠB ord
ĠG irl
use um
Ġun ex
Ġke ys
Ġold est
Ġrec ent
OU R
Ġac id
Ġrep ro
IT T
Ġsqu ir
Ġtrans l
Ġsal t
Ġgold en
iff s
nes day
Ġnea rest
Ġtroub les
Ġshel ter
Ġfeat ures
Ġmyster ious
Ġpregn ant
B ig
E m
O pen
b our
Ġf etch
ing ing
Ġre aches
ĠB aker
il i
ĠP lease
Ġlo ft
Ġbr ace
Ġle gend
Ġdis play
Ġsl ide
IN D
Ġsw ear
Ġfr ame
Ġimp ression
ok es
Ġste ady
umb ling
Ġsatisf action
Ġpsy ch
Ġrom antic
ĠCamp bell
" ]
M ark
R OU
W elcome
g t
g abr
Ġ x
Ġd iamond
Ġp izza
Ġin ha
Ġit ems
ver ing
Ġst out
ĠM u
ĠS U
Ġli qu
ĠC ons
ĠH annah
Ġr at
Ġab ility
Ġal tern
Ġint ense
Ġhel pless
IN E
Ġsupp l
ger y
go es
ĠGr an
Ġdiv ision
Ġleg al
ĠSc ot
Ġaff airs
UN T
Ġrefer red
Ġoccup ied
Ġwhist le
Ġrestaur ant
4 0
F ive
S O
T ON
s an
t ies
u y
Ġb att
is er
Ġp ipe
ay ne
ĠB a
ĠN O
ven ge
âĢĿ .
Ġun ion
Ġdis ag
Ġcha se
Ġlad der
Ġdoll ar
Ġcook ies
Ġill ness
Ġda wn
Ġcal cul
Ġz oo
Ġbelong s
Ġban ks
Ġsour ce
Ġresour ces
A pril
d ale
i ents
m ine
Ġs am
er k
Ġb isc
Ġc anton
en ne
Ġl amp
al i
Ġk m
Ġne phew
ĠW as
Ġcon vin
ud den
pt ions
hes s
Ġ200 2
Ġdet ect
Ġnecess arily
Ġrid iculous
Ġinterrupt ed
Pro bably
Ġmurd ered
Ġintern ational
A bsolutely
o v
Ã ±
he red
Ġa rose
Ġs ink
Ġg ain
ic hes
Ġre ward
Ġst iff
The ir
ĠS al
ĠS erv
ĠA wards
ĠC reeks
ain e
Ġmy stery
ĠP ri
ĠG il
ĠG abriella
ĠR od
Ġfe ver
ren ces
ĠCl ar
Ġappro aching
Ġappro priate
ipp i
ĠMex ican
Ġmut tered
Ġrelig ion
B Y
E h
o ves
p ush
w alk
Ġt rop
Ġb id
as a
ĠS outhern
Ġas semb
Ġr is
Ġr ag
Ġr ude
ĠF ire
ĠF air
Ġsp osta
be cca
ne e
Ġfind s
Ġatt itude
Ġsupp ly
Ġthank ful
Ġexpl os
Ġcra p
Ġdress ing
Ġlead ers
Ġexpect ing
Ġfore ign
Ġrecord ing
ĠKing dom
Ġclim bing
Ġlim ited
Ġplat form
ĠIr ish
2 5
G O
P re
f oot
s que
t alk
Ġt ack
er ous
al ing
ĠC ompany
Ġro les
Ġro yal
Ġunder neath
HE N
Ġcr is
Ġcha mp
Ġnice ly
Ġfin ancial
unt s
Ġ200 3
Ġbuild ings
Ġsal es
ean while
Ġproceed ed
Ġmere ly
Alex ander
Ġbast ard
Ġlibr ary
S C
b ling
r ated
Ġw ard
Ġb in
ar l
ro g
ĠS ummer
ĠW ed
qu ar
Ġno ble
the less
Ġwork ers
Ġsomet hin
Ġpr oof
Ġass ured
Ġland ing
Ġvis ited
Ġdiv ided
Ġdesign ed
Ġble w
ĠGovern or
Ġpow der
ĠVirgin ia
b an
c ream
n ice
Ġt ummy
Ġl amb
ĠS and
ĠS pr
Ġj un
pp le
ig an
ĠO ur
ĠO ak
Ġint ellig
iss ippi
Ġkind ness
Ġdra g
Ġchar ges
Ġimp ati
Ġexp ed
fort able
Ġlaw s
Sh it
omp an
Ġbelong ed
Ġviol ence
Ġcheer ful
ĠEli ot
ĠFranc is
Ġunex pected
c a
g bark
n or
w an
z er
Ġw itch
ut ies
ĠM all
ĠT er
Ġpl ot
ĠJ ess
Ġv ig
Ġle ather
Ġ( ;
Ġun if
Ġun happy
ru ct
pe cial
Ġapp les
Ġch uck
Ġfollow s
Ġdri ft
Ġconf ident
Ġcur tain
Ġauthor ities
Ġver b
ĠWilliam s
Ġdemand ed
Ġphys ical
ĠGovern ment
Ġfoc us
Ġpron oun
D uring
J im
W ant
e ight
p ing
u ct
Ġt ank
Ġa st
Ġs ought
her s
ĠA sh
ĠW ould
ard o
Ġcon ference
Ġen c
Ġsc hed
ip ina
Ġpol ite
Ġele v
Ġexc han
Ġtrain s
ik ander
Ġshout ing
Ġremain ing
ĠBra z
ĠRel iance
Ġcig aret
g reen
u able
it able
Ġm ama
es cue
ad d
Ġst ove
Ġme asure
th row
ĠR ay
ak a
Ġv ic
Ġgu ards
Ġacc ord
Ġfun eral
Ġreturn ing
Ġtra ve
Ġimport ance
Ġclean ing
Ġappear s
Ġcost s
Ġprison ers
Ġteacher s
Ġprodu ction
Ġdiscuss ion
Ġintrodu ce
6 0
n am
p ull
t oo
t oy
re nd
Ġb ul
Ġto oth
Ġp ic
Ġl at
Ġh ug
ĠM ass
Ġse qu
ĠH on
Ġr ust
Ġr ider
Ġde er
ry ing
hi a
ne ver
gg er
ars on
let on
ues day
Ġ6 0
An ne
Ġcreat ures
Ġmer ry
Ġviol ent
Ġgar age
ĠMer rim
ĠWind ows
Ġrout e
Ġarg ument
ĠCong ress
Ġcomplet ed
L ife
c les
s qu
Ġt in
Ġc ouch
Ġd ug
Ġbe lly
Ġe re
ea u
ĠC romer
Ġr age
ĠW estern
ĠD is
ig ger
Ġen qu
Ġun known
Ġdis g
Ġfact s
ĠAr thur
Ġwin ner
Ġsweet ie
ĠRe ally
ĠPro v
Ġbur den
ĠComm ittee
Ġextra ord
ĠGrand ma
point s
Ġchem ical
ĠSus an
ĠLat in
, ...
[ $=
Ġw ret
re fers
Ġc ord
hat i
Ġg rey
Ġst ared
Ġme chan
ĠG ar
ĠF oot
Ġint ention
Ġco ck
Ġ19 0
Ġpo inting
Ġmo b
Ġmust n
Ġeat s
ĠMiss issippi
ï¿½ï¿½ ï¿½
Ġmid st
Ġconst ant
Ġmer cy
ĠOn ly
IC E
dd ed
Ġring ing
Ġorgan ization
Ġcand id
Ġwarri ors
Ġindepend ent
b oo
w ick
Ġp ond
ĠI m
at re
Ġhe ight
Ġdo ctors
âĢ ķ
ĠT an
ĠW acker
ĠD a
ĠJ UST
ĠJ ethro
ĠE ric
Ġlo ver
Ġcl ap
Ġreal ity
Ġdr ank
Ġconf usion
Ġserv ant
Ġmist aken
Ġdistrict s
Ġcompl ain
Un cle
Ġport ion
Ġpossib ility
het ti
Ġrelig ious
Ed na
ĠMic key
Ġconclud ed
ĠCanad ian
B C
I X
L ING
b i
c ow
Ġn onsense
Ġan al
ĠS ob
ĠT ell
ĠF e
ĠN et
ĠO nce
ag le
We re
iss ed
Ġco vers
Ġhead ed
ret t
Ġob tained
Ġbelie f
Ġret ire
Ġdec ent
sh ine
Ġimp ress
Ġext ended
ĠGr ace
erv ation
Ġabs ence
Ġvisit ors
Ġlim it
Ġcow boy
Ġcray ons
ĠSu per
Ġcrit ic
Ġuncom fortable
H ang
T ime
f in
Ġp ace
Ġl ink
Ġth ief
all s
ĠC ho
ĠW hile
ĠD un
ĠD ever
ind er
ĠSt and
av y
Ġapp lic
Ġend eav
Ġcomm ander
Ġdra ft
put s
ĠJap azy
com ing
Ġpack ed
Ġfool ish
mit age
Ġthreat ened
rem ember
whis pering
ĠCent ral
Ġpun ishment
igs aw
Ġpatter n
Ġinha bit
s ar
w en
w ers
Ġd om
ĠI ll
ut ation
Ġre v
ak i
ĠN as
ĠN ever
Ġnow here
Ġsm iles
Ġte aching
Ġact ed
Ġlea f
Ġbu ying
AT E
Ġair plane
Ġjump ing
Ġclim bed
Ġtor n
AU GH
Ġresol ution
ĠLaw rence
Ġveh icle
C C
D O
H OR
M any
Ġw oke
Ġb ishop
Ġc ode
Ġo cean
se ven
ĠA li
il st
Ġr ac
ĠP ac
Ġwant ing
ĠE v
Ġun iversity
Ġthr ust
Ġstr ict
ĠAr mitage
Ġsub s
Ġattack s
uri ous
Ġtrack s
Che ck
ĠAB OUT
C ol
S ec
X X
n ge
o is
u ate
Ġd umb
Ġl ou
Ġbe gged
ac ity
Ġst able
Ġnot ed
ĠA D
Ġer r
Ġfl u
Ġchi ps
Ġchild hood
Ġch um
Ġdra gged
Ġconf ir
Ġhundred s
Ġfriends hip
Ġpain ted
Ġins isted
Ġstud io
Ġrecord ed
Ġest im
ĠWar ren
uk i
kiss es
vocal izes
udden ly
B ER
B ring
C o
T ony
b ud
b age
g iving
l am
n is
Ġw ip
Ġm ast
Ġc reek
Ġd ies
ad ies
ĠS how
Ġli f
Ġsh ining
ĠP en
ĠL it
od es
end ous
Ġpr ince
Ġcha mber
Ġind ign
ĠEd ward
Ġsleep y
Ġadd ressed
Ġconf used
CH AR
ĠCl ub
ĠCar ter
Ġmid night
Ġbreat hing
Ġ197 0
ĠSw ed
Ġham mer
ĠDem ocratic
Ġcott age
Ġcomr ades
2 4
B oth
E arly
S uch
a way
Ġs ank
Ġf eared
as ant
Ġha l
le g
Ġit em
ĠH end
ain ted
Ġno dded
ĠG arth
ĠR ose
em e
Ġro ast
Ġatt ached
let s
Ġob st
OR T
AR Y
ĠAs ia
Ġsto pping
asp berry
Ġeffect s
Ġtreat ment
Ġtick le
ĠNot hing
Ġhol idays
play ing
Ġnatur ally
Ġfaith ful
Ġamend ment
ĠDever ing
2 3
H appy
M aggie
N E
U E
h um
er am
Ġm ac
Ġc am
Ġy er
Ġy um
Ġth irst
am an
ĠH ol
os op
ĠL ower
ĠK y
Ġrem ove
Ġcap able
Ġkid na
Ġaw ait
Ġdin ing
AS E
Ġeng ines
ĠPar liament
ĠAb out
Ġanx iety
Ġconnect ed
Ġgrad ually
Ġinj ured
Ġcult ure
Char lie
Ġfurn iture
ĠRuth ven
Ġapolog ize
Americ an
2 1
; "
B R
J ane
R un
U nder
W ar
f ire
s w
ou ri
Ġf are
Ġhe ap
Ġha y
ac on
ĠM et
ĠM ars
ĠS ince
ur bed
ĠB aby
ig hed
ian a
Ġpo le
Ġpass engers
Ġdisc over
Ġhor ror
Ġsy mb
ĠPr ime
Ġdeep ly
Ġsafe ly
Ġprep are
Ġcapt ure
oos a
Ġassist ant
Ġinvestig ation
bre ak
k rain
n ut
p art
s k
Å «
Ġt ables
ea ut
Ġwh ilst
ĠA be
ĠR ec
ĠR olan
Ġcon ver
Ġsp ots
Ġany how
ap h
age ment
ass es
har t
ens es
Ġob vious
Ġsum m
Ġadm itted
Ġce ased
Ġpolic ies
IC K
Ġking dom
Ġwhis per
Ġbud dy
pret end
Ġrespond ed
ĠGold en
yell ow
Ġthorough ly
Ġmig ration
Ġterrit ory
C omm
H oney
O S
P hil
W ELL
_ ;
p icks
r ul
s l
s ho
Ġw olf
Ġc ows
Ġto x
et a
Ġbe ars
al m
ĠC L
ĠC ath
ĠB ook
Ġj olly
Ġyour selves
Ġup side
Ġde ce
ĠL ang
ĠR ich
can ora
Ġpres ents
Ġfr ank
Ġass ume
Ġfact ory
Ġplan et
ĠAs ian
ĠTom my
ĠIs a
Ġshar k
Ġlevel s
ĠDan ny
ĠON E
stit ute
Ġextraord inary
P ol
S am
V I
t op
v ant
y y
y ay
Ġs ings
Ġc akes
Ġd u
Ġp ud
Ġg azed
Ġl ic
Ġh un
et tle
Ġre ference
ir ts
ĠA L
ĠG ET
Ġtr ace
Ġun its
HI S
Ġfl ood
Ġsc en
ĠSt ill
ict ure
ump y
Ġmar ch
ĠAr m
Ġexp ressed
Ġref ers
Ġdef ence
Ġprof essor
Ġworth y
ĠDan iel
Ġkick ed
Ġmem ories
Ġbuck s
Ġstro ke
ĠFort escue
Ġstret ched
B essie
C are
e ven
i ries
Ġ 0
Ġs ons
Ġs well
on ia
Ġm al
Ġg rief
Ġg abr
if ts
ĠD es
ĠF ox
Ġv oy
hing s
te xt
ĠU p
Ġim it
Ġcomm it
Ġacc ompan
Ġob tain
Ġdist ingu
Ġret reat
Ġwood en
Ġstar ing
Ġquar ters
Ġpack age
Ġlab our
Ġhealth y
Ġrepresent ed
Ġign or
Ġaffect ed
Ġwra pped
Ġphr ase
ĠBord en
: --
A F
B ill
G R
P L
P ardon
f irst
g irl
t es
Ġb ord
Ġp ist
om i
Ġth under
Ġbe ating
ac co
ur d
ol k
Ġen orm
int s
Ġsm oking
Ġcomp lex
Ġatt ended
Ġcons ist
Ġred uced
Ġins ist
iver se
Ġdescri be
Ġhast a
ino is
ustom ed
Ġphot o
Ġarrow s
keep er
Ġsignific ant
Ġpil ot
ĠPak istan
ĠWed nesday
b ro
g ie
m aster
v iet
Ġw ars
Ġs ession
Ġm ental
Ġd irt
Ġg ym
Ġl aughter
ĠA ri
un te
ĠL u
ĠR ome
ĠN ancy
ous ed
Ġback wards
ĠU rs
Ġch im
Ġlea gue
Ġbus h
Ġwar n
Ġass ault
Ġdep ends
ĠAs soci
Ġste am
Ġroad s
Ġprov ision
Ġ199 7
Ġroll s
Ġru ined
Ġpig gy
Fr ank
Ġneighb our
ĠCent er
spect or
dra w
ĠOlymp ics
ĠWil son
eaut iful
2 6
B LE
C ong
E CT
I nt
c at
m ate
he ther
Ġd ared
Ġf ires
ar ant
Ġre nd
ĠM ag
ĠM olly
ĠS O
ĠS ax
ĠC am
ĠP ipina
ol i
ol and
ra h
nt il
Ġbl ows
ĠBr ooke
Ġbed s
Ġchar ged
Ġgener ous
Ġlead s
Ġpen ny
Ġterri bly
Ġtem por
Ġannoun ce
Ġtechn ology
ĠSer geant
Br other
Ġaud ience
rin ini
Ġproduc er
Ġcomed y
Ġsuffic ient
ĠSob rinini
ĠHend erson
! âĢĻ
A pp
b or
Ġb ond
it ched
Ġc ries
Ġl ux
Ġn atives
om er
ic op
Ġk il
ĠS har
ak in
Ġsc ri
Ġmo le
Ġcomp ared
ons cious
Ġchan nel
Ġche w
Ġear ned
Ġins urance
Ġfif th
Ġloc ation
Ġart icle
Ġconsider ation
Ġgrow th
ĠCo ch
Ġsepar ated
Ġfier ce
ĠPac ific
J oseph
M Y
e z
k ind
l ah
t t
in ity
nd ed
Ġo bey
oo ja
ĠH ond
Ġr ice
Ġr ug
ab el
ink ie
ĠP ost
ĠP oint
Ġpro s
ĠV is
row s
St and
Ġ18 4
ĠSo ciety
Ġ199 9
Ġclass es
Ġill ustr
Ġexper iment
Ġrain ing
Ġwa ist
Ġcow ard
Ġsol id
Ġbene f
ari us
Ġdesp air
Ġrecomm end
Ġsen ior
ĠCast le
Ġash ore
V EN
r ound
Ã ¶
Ġt ide
Ġm our
Ġd ough
Ġp ier
ar med
us ie
ĠA ng
ur g
Ġat h
ĠC y
ĠĠ ĠĊ
il ton
ĠT ake
Ġno isy
est ion
ĠF ield
Ġex act
Ġag es
Ġlo yal
Ġtr actor
Ġgood bye
Ġfe e
Ġgr im
Ġbl ast
Ġpart ners
Ġsc ale
pe ople
Ġsl a
ret ty
Ġsit es
az z
unt ed
ĠJohn son
Ġ200 1
Ġshort ly
Ġreason able
Ġstrong ly
Ġrecord er
de rer
Ġbag s
AY S
Ġpu ppy
ĠLuc as
Ġloud ly
Ġcontain s
Ġsevent een
Rem i
Ġtemper ature
ĠDep artment
Ġconvin ced
Ġinhabit ants
O k
S ix
b in
i ven
u als
ĠC ooper
ĠB Y
Ġr ushing
ĠD u
ĠD en
Ġcom ments
Ġv irt
ĠE lo
ĠO ver
ag ain
Ġ[ ?
ĠK night
Ġwhere ver
uc lear
Ġcle ared
Ġinst it
Ġinst inct
Ġimp ressed
Ġspeak er
Ġ199 4
col n
Ġtouch ing
Ġsuggest ion
Ġla un
sc reams
Ġut tered
ĠSha gbark
ĠEll ie
Ġcad ets
Ġenvironment al
Ind eed
uf act
3 5
G e
I VE
o ard
p ur
r d
r ots
Ġl os
ad al
ĠM aybe
ĠT all
Ġcan oe
ck ets
ĠG un
ist ics
ĠN orthern
Ġman ufact
per or
Ġrec all
aught ers
Ġfun ction
Ġri vers
Ġunderstand ing
Th omas
Ġbas ic
AS T
Ġfig ured
Ġ199 5
ĠMay enne
Ġcross ing
Ġjour nal
Ġpray er
Ġacqu aint
Ġdeg rees
Ġsurr ounded
Ġhesit ated
ĠEmp ire
ĠIll inois
2 7
9 9
D ada
E X
H al
R el
j ac
l ast
Ġt iss
Ġw oof
Ġc age
Ġd ude
ar se
at tered
Ġhe e
Ġhe els
im ately
ĠS l
Ġsa uce
ul se
ĠP enn
ĠD ire
ĠR us
ag ger
ci pl
ĠU krain
ĠMiss ouri
amp ed
OR Y
Ġdep end
RE AM
Ġsun shine
ĠPhil ip
Ġtick ets
Ġstore s
ĠPat rick
Ġfirm ly
ĠAustral ian
icy cle
ocr acy
Ġcitiz ens
Ġunif orm
ĠNas canora
E F
P eter
c est
d ri
n ame
v y
y ed
Ġt ha
in ated
Ġw ing
it an
it ors
Ġf aced
Ġg est
Ġh om
Ġgo sh
ĠC T
ĠC hat
Ġmy th
ĠT uesday
pp ose
ĠW omen
Ġpl ung
ĠF il
ag hetti
Ġfe ather
ĠK ansas
hen s
Ġmother s
Ġgl orious
fect ure
OR E
Ġperson ally
Ġposs ess
cri pt
Ġgreen belt
Ġabs olute
Ġmis chief
Ġshar ply
ĠJoe y
Ġimag ined
Ġsol ution
ĠRand olph
Ġinstru ctions
Ġcrim inal
ĠLI KE
ĠLie utenant
Ġexplan ation
Ġbrace let
ĠElo ise
C ertainly
T oo
g un
t om
Ġb ored
Ġg rie
im um
ri ger
Ġso ap
os ition
ĠO ff
Ġqu ant
ree ze
Ġpe ep
uck ing
Ġday light
Ġsc rap
Ġcar pet
Ġdis aster
OU S
Ġdoor way
Ġele ment
ĠEd ric
EN D
Ġcut s
Ġtrain ed
ĠSo viet
Ġstud ies
Ġho ly
Ġclot hing
With out
Ġsupport ed
Ġhop es
Ġval uable
Ġevent ually
hel p
Ġdescri ption
Ġvol unte
Ġrub ber
whis pers
Ġcad et
Ġsymp athy
Ġtrem endous
5 00
C I
M art
U P
j ack
r ont
Ã ¦
in ate
Ġb und
Ġd uties
Ġy ield
Ġn ut
ri ly
am as
st ill
st ick
ĠB ear
il k
Ġj igsaw
qu es
ĠO ut
Ġbr icks
Ġ[ _
ew is
Ġte en
ict ed
Ġch in
Ġchan ces
Ġsur gery
Ġdec isions
Ġinst antly
did n
Ġconst antly
Ġmist ress
Ġsal ary
Ġpu pp
athe tic
Ġhast ily
Does n
Ġbutter fly
Ġdelic ate
Ġscream ing
Ġexist ence
Ġaddition al
Ġdistribut ed
Ġbatter y
Ġadop ted
Ġange l
cod ile
nge un
H y
S how
u j
u its
Ġw ander
re c
Ġb ust
ll ie
Ġp ed
Ġha ul
Ġe cho
im m
ĠM AN
ĠM obile
ĠS P
ĠH IM
um ption
ĠD ave
ĠL isa
hi gh
HE RE
Ġcha llen
ĠBr id
Ġent ering
Ġans wers
AR S
Ġinterest s
Ġ18 5
Ġdisc overy
Ġhat ed
ĠHar rison
ĠTh ursday
Ġste ad
AP P
Ġsn akes
Ġcook ie
Ġenjoy ing
Ġest ate
Ġgod s
._ ]
Ġphot ograph
Ġvessel s
Ġprinci pal
Ġsav age
Ġfant astic
Ġconfir med
) }
A unt
C L
Y S
b al
b ag
j amin
l ove
w orks
Ġc ors
Ġf asc
or i
Ġhe n
Ġbe w
ad or
ĠT IM
pp ers
el ing
ĠR ad
Ġfe ast
Ġro ar
Ġgr in
pt on
Ġun like
ci a
Ġfl esh
ĠU nder
Ġres ident
Ġbel oved
og ue
ER E
Ġcount ing
ys is
ĠTHE RE
Ġcol ored
Ġref lect
ĠHar wood
Ġstick ing
OM AN
Ġcheck ing
Ġmed ia
Ġ9 0
Ġterri f
Ġsecret ary
Ġclos ing
Ġban ana
ĠPol ice
Ġoccasion ally
ett ie
Ġestab lish
ĠAir port
Ġmurm ured
ĠStep hen
Ġguid ance
Ġdisg ust
' ...
H ad
M on
U D
d i
d uck
he m
in em
Ġl an
ir y
ĠS ol
ĠC ad
ĠH IS
ore n
Ġsh ift
um per
ĠW all
ĠW ANT
han e
ĠL ife
ap ers
ĠE aster
Ġle aning
ud dle
Ġpo ckets
Ġcr ick
Ġstart led
ail ing
Ġcount ies
Ġsw ung
vent ion
RE E
Ġdoll y
Ġmur derer
ĠGu adal
Some body
Ġcatch ing
Ġpot ato
Ġrepe at
Ġwag ons
Ġnet work
Ġarrange ments
Ġbare ly
ĠHER E
Ġmagn ific
Ġnomin ated
ĠFoot ball
9 0
B etter
R S
f ind
n ope
p ick
w ind
{ \
Ġ :
Ġ eth
er g
is l
Ġc ough
es ome
Ġg a
Ġh id
Ġh ired
ic ip
ĠH ot
Ġr aid
ĠT W
ĠP apa
ĠG e
ĠG all
Ġcon ven
Ġv en
ĠK ang
Ġlet s
Ġhel icop
Ġsl ipp
Ġrec overed
Ġwar rant
ĠAl ice
ĠAn other
Ġswe at
Ġmain tain
ĠIN V
Ġbreat he
Ġbur nt
Ġsystem s
sy l
ĠRep resent
Ġbless ed
Ġfund s
Ġtroub led
Ġearnest ly
Ġdemon str
ĠCath olic
J ul
T en
s ung
u ing
Ġt ub
ou gl
Ġb ars
Ġd aughters
Ġf ake
Ġf ederal
Ġre in
Ġas pect
ĠB ye
ĠB esides
ĠD uke
ck er
ĠF ore
ist ry
ĠN a
Ġwho a
Ġbr and
Ġgr asp
Ġam us
ĠK as
te acher
Ġgu arant
cl ose
Ġapp ointment
AN G
can al
Ġnum erous
Ġalong side
Ġtra p
Ġstuff ed
Ġpain ful
Ġisland s
Ġincre asing
Ġbell s
Ġvan ished
Ġproced ure
ste in
Ġexped ition
ĠCoch ran
N or
N at
m ar
w art
Ġd ign
Ġto e
Ġth umb
al so
ĠA le
ĠH oll
el ine
ĠG ord
ĠL ar
ĠR oss
ĠR IGHT
Ġgood s
Ġbr ick
Ġun ple
ĠSt r
do g
ĠV er
Ġgl oom
Ġsk ill
Ġref use
Ġdeal ing
Ġ199 6
Ġopp osed
ĠJack son
Ġbull ets
Ġdefe at
mo ans
ĠTe am
Ġcontain ed
Ġdeb t
Ġeconom y
Ġprepar ing
ker chief
agu ar
ĠLi ber
ĠGuadal canal
ougl as
. =
A GE
N one
R o
i pt
Ġa x
it o
Ġp oo
Ġp ushes
Ġh its
Ġst or
Ġst ated
Ġse as
ĠT a
qu ick
ĠJ an
Ġneed n
ĠU pper
Ġunder t
Ġres c
Ġbu g
up on
Ġ3 5
ins on
mb re
Ġrel ation
ĠAl an
ĠAl though
Ġinf ormed
ĠChrist ians
Ġ199 2
omm od
Ġho llow
Ġequ ally
Ġpract ically
Ġcover ing
ĠDan es
AK ING
Mad am
Ġexperien ced
bel ie
Ġdivor ced
ĠFre ud
Ġconcl usion
F O
b ang
g one
h u
k ward
m ove
en o
Ġg ard
Ġn ations
im ents
ver se
Ġre aching
Ġfor k
se x
Ġj oking
Ġr um
Ġso b
ul s
ĠP RO
ĠJ ung
ĠL ane
ĠR om
ud y
ĠK i
iz z
Ġcomp osed
Ġact ions
ĠEd die
Ġguess ed
Ġdef ense
ask a
ĠCol in
ĠCon f
Ġpuzz led
Ġactiv ities
Ġtour nament
Ġfavour ite
Ġeconom ic
Ġdel ivered
Ġinn it
Ġrelie ved
Ġaccompan ied
B esides
C ON
P r
c oh
m ates
er ves
Ġb ol
Ġm ummy
Ġc ups
Ġo ption
Ġd art
or al
Ġp oured
Ġan ch
ea ven
ill ing
Ġr acing
Ġab oard
ab s
Ġpl ates
ĠL ara
ĠE st
Ġad vert
ĠSt ar
ever al
OU N
Ġacc ommod
Ġdist ress
Ġlight ed
Ġinter fe
sh it
br ush
ĠNew man
Ġhor rid
Ġconf lict
Ġaw kward
ĠGr oup
Ġpoor ly
for ce
Ġvis ible
olog ist
Ġ199 8
Ġfore head
THE R
Ġcolor ing
ĠDr usie
Ġshop s
IGH S
cher s
Ġident ified
Ġpursu it
resp ond
Ġpic nic
B el
H on
P H
T alk
n at
t ick
Ġ Â
Ġs ack
Ġg asped
Ġin ner
Ġbe ard
ir k
ĠM oon
qu et
ĠG ive
Ġv ision
ag raph
ĠHe e
Ġsc ary
irl ing
Ġask s
Ġwr ites
Ġhead ing
Ġlast ed
Ġbu ff
Ġgl ory
Ġgl oves
Ġkill er
Ġrel ative
Ġimp act
Ġaw fully
Ġcoll ea
ĠCha mpionship
Ġ198 5
Ġ198 8
Ġkiss ing
Ġmer chan
ID S
Ġdirect ions
Ġneighb ors
Ġlab el
Ġkick ing
VER Y
Ġsettle ments
Ġsens ible
Ġstret ch
ĠRand all
ĠRepublic an
Ġsuspic ion
ĠTy ler
Ġproced ures
Ġben ch
ĠBed rul
sque als
ĠAssoci ation
N K
P lay
b ara
c ount
g ro
h ot
i os
m ight
w ha
w estern
Ġc ooper
Ġbe ans
ir s
ĠM ich
Ġan cest
Ġgo ver
ĠC ont
ĠB ang
ĠH ind
ĠT or
Ġsu icide
Ġal oud
ast e
ĠO R
Ġpe as
ci p
ĠY et
ĠV ic
Ġchar ming
ex cuse
Ġten nis
Ġ198 6
Ġdet ective
Ġduck s
Ġvisit or
Ġclos es
ĠEm ily
Ġcuri osity
Ġplain ly
wr iter
Ġstat us
Qu ick
Ġant icip
Ġfrequ ently
iffe rent
ĠMerrim an
bud our
lah oma
ĠBedrul budour
2 8
J ean
P S
c ur
Ġt ires
Ġm ars
Ġc ateg
or ous
an i
Ġg re
Ġg al
Ġk ings
ĠM au
Ġas hes
ĠT ib
ood y
ĠD ID
Ġget tin
ĠG ot
ĠF our
ĠF el
ĠF ord
ĠJ enny
ĠL es
ĠL and
Ġint r
Ġle ans
hed ral
Ġun s
Ġrec on
Ġrec over
Ġacc ustomed
Ġmon keys
ĠAr k
Ġrep utation
Ġste amer
ĠBen jamin
Ġdrink s
Ġsn eak
cri ption
Ġview s
Ġclos et
Ġorgan is
Ġgall eys
Ġslight est
vol ution
Ġcrowd ed
Ġbroad cast
Ġrevol ver
Ġhistor ical
Ġwid ow
Ġmult ip
somet hing
Ġinstr ument
Ġsubst ant
" ).
4 5
L a
O ld
R ichard
p oor
re land
Ġm orn
Ġc ri
Ġc ared
Ġu lt
ĠM m
ĠC elia
ĠB road
ĠP a
Ġint end
Ġlo ads
Ġdis gr
Ġsha red
Ġapp ly
Ġwar ned
Ġlight ning
Ġri b
ned y
Ġsil k
Ġsqu ad
Ġpar rot
Ġmed al
Ġca uses
Ġpolit ics
Ġpot ential
Ġhop eless
Ġz ero
Ġcop s
Ġcre pt
Ġmass ive
Ġstrugg ling
Ġgrave ly
Ġattract ive
lem me
Ġutter ly
Ġsurv ive
Ġsteal ing
care ful
Ġtremb ling
Ġcommer cial
ITT LE
ĠMall ory
Ġvoy age
B ro
U RE
V ID
v ior
ha mm
Ġp oop
Ġl emon
Ġin iti
Ġn asty
ĠI reland
ld om
Ġwe ary
al o
ri gg
Ġu mbre
ill er
ĠC ur
ĠC ap
ink le
Ġno on
ĠR ahul
ĠN ich
Ġlo b
ĠSt op
Ġwr it
Ġinv ite
Ġhum ans
Ġdisapp ointment
ĠLe on
bl ack
Ġlie utenant
Ġsuper ior
does n
Ġlab or
Ġregard ing
Ġhast e
Ġsle e
whis pered
Ġcabin et
Ġvictim s
ĠOk lahoma
ĠMission ary
Ġunfortun ate
ĠSel wyn
ĠIsa ac
K en
M eanwhile
b ish
g ain
h ous
i i
i ography
p re
p ired
Ġto ols
Ġn om
ĠM O
ĠS em
Ġj ar
ook ie
ĠD od
Ġsee king
ĠJ eff
ĠR achel
ĠN ettie
Ġpe an
Ġfl ed
Ġfl ow
Ġfl our
Ġres ign
ĠAnd y
ĠTHE Y
Ġdep th
Ġdep ression
Th ough
ĠCl ara
Ġev ol
Ġra ising
ĠMay or
Ġ197 9
Ġremark able
Ġtest ing
Ġshout s
Ġ195 0
Ġdev oted
Ġpati ents
Ġeduc ated
Ġemploy ed
ĠSE E
Ġcott on
ĠOlymp ic
199 9
ĠStan ley
Ġbutt ons
Ġtransfer red
ĠReg ion
Ġexha usted
ĠSomet imes
Ġaband oned
Ġunple asant
O w
e le
n in
p ent
r ace
Ġc ure
Ġd ed
Ġto ps
Ġg orge
Ġh ockey
ot ing
et ime
ac ement
Ġst ack
Ġdo ggy
Ġsh ove
ge on
ĠD arius
ck now
Ġal coh
ra el
em ic
te enth
Ġpo ll
ach us
Ġim per
Ġstr ateg
Ġacc used
Ġacc ompany
Ġ3 3
AR E
sh h
Ġconf ess
ĠAn na
Ġcry st
Al so
Ġlay ing
Ġca res
Ġsex ual
Ġide al
vocal ization
Ġcraw l
ĠLO OK
Ġfortun ate
rif ice
ĠBon net
quar ters
. [
A w
M at
i able
m ade
n amed
p ack
Ġt une
on ce
Ġo ven
Ġf its
Ġn ick
Ġn ails
im er
Ġst air
Ġst oop
st an
âĢ ²
ĠS ikander
if ully
ĠH AD
ol ine
ĠN ob
Ġbr u
be e
Ġsc rub
Ġdis cipl
OT H
Ġhelp ful
Ġcha mpionship
Ġset s
Ġacc ur
Ġdri ll
sh outs
Ġoffic ially
Ġpri zes
OM ET
RO W
Ġdest ruction
Ġmount ed
rem ony
Ġchap ter
Ġrail way
Ġmagnet ic
Ġliter ally
Ġcontr ast
ĠKen nedy
ĠCla vering
somet imes
ĠBraz il
Ġlaun ched
hamm ad
B ar
P erson
S ame
c os
m ind
Ġc ert
Ġf itted
ĠI II
le ment
al ie
Ġse ldom
Ġso il
rom ise
ink s
ul u
ĠF le
ĠL ewis
Ġaf t
Ġbr ide
Ġsc attered
ne ed
Do ctor
St art
cle ars
Ġele ments
Ġposs essed
Ġdro pping
Ġstud ying
Ġprop ose
ffic er
van ia
Ġmor al
Â¶ Â¶
Ġpra ise
Ġproduct s
Ġpor ch
Ġphil osop
ĠProv ince
Cong ratulations
ĠHond ura
1 00
C or
E nd
K e
M ia
O b
P retty
c omm
l ots
Ġs out
an n
Ġn a
ĠM amie
You ng
ĠW es
ĠP R
ĠD ear
ĠD og
ĠD ouglas
ĠF amily
ĠR h
Ġcon text
ĠN OW
Ġv alley
Ġcl ients
Ġpre viously
Ġcomp ound
ĠV iz
anc er
li est
Ġcons cience
Ġinter pret
ĠEd ith
Ġhor iz
Ġhat h
Good bye
Ġaw hile
Ġill eg
Ġcor respond
Ġce remony
Ġmeant ime
Ġremark s
Ġru in
ĠAb bey
Ġbeat en
ĠMe g
Ġproject s
Ġhonest ly
Ġdeli ber
Ġsandw iches
ĠKe ith
Ġprim ary
ĠSen ate
Ġtun nel
Ġbee f
Ġagre ement
ĠLin coln
ĠPers ian
Ġenorm ous
syl vania
2 9
A lf
C ut
m osp
Ġs ou
on ge
Ġc attle
Ġc herry
Ġg ates
ĠI V
et ts
Ġe ld
Ġre venge
ri fic
ent on
Ġst ress
Ġst ations
ĠW ILL
ĠD own
ig ator
ĠL uke
ĠR oll
ĠE ach
Ġtr amp
Ġam used
Ġpr ime
Ġdra wer
Ġmar ched
Ġcap acity
Ġexp and
ĠCl inton
For get
Ġground s
Ġ198 9
Ġexcl am
OW N
Ġdet ail
Ġpract ical
Ġsad dle
ĠTr ump
Ġpati ence
ĠSec ond
ĠIsland s
Ġident ify
ĠGO ING
Ġcrit ical
ĠRob in
Ġcustom er
ĠKore an
Ġwha le
ĠVictor ia
Ġnic er
Ġarch ite
CHAR LES
ĠCT X
ĠMich igan
G eor
J o
L ara
Y ES
g onna
u an
Ġd omin
ar ian
le ave
Ġre fe
Ġre action
ad i
ĠS ub
ĠS orry
ĠC ind
ĠB oth
ĠH ugh
ĠW ait
ĠD eb
ĠJ r
ag ers
ect ion
be fore
get s
Ġapp et
Ġlea ped
Ġend ing
Ġind ul
ug s
Ġwind s
ĠAr chie
ĠNew s
enn es
Ġtele gram
bye bye
Ġterri fic
Ġclim ate
Ġoper ations
Un less
Ġfeed ing
Ġdesp ite
Car l
Ġdoc uments
Ġwrest ler
ĠPort ug
Ġdea f
Ġincl ined
Ġtiss ue
ĠTIM E
A my
A ccording
J www
J eff
M ust
d es
g reat
m ag
v ia
Ġo ars
Ġd ashed
Ġg it
Ġl un
.. "
Ġme als
st eps
ter y
ĠC all
un o
Ġdon key
ĠW ick
ĠF A
ĠL ITTLE
ĠN eram
Ġbo b
av a
look s
Ġmeet ings
Ġsk ull
Ġred uce
Ġland s
Ġquestion ed
Ġ8 0
19 8
Ġsecret s
Ġsad ly
Ġaccount s
Ġorgan ized
Ġann ual
Ġut most
Ġcommon ly
Ġgen ius
Ġcomb at
ida e
elp hia
Ġsail or
Ġbill ion
Ġassist ance
Ġvac ation
ĠBu ild
Ġveget ables
Ġsurround ing
riger ator
3 8
T hings
r ants
Ġt alent
Ġm ath
Ġg ap
Ġn ail
Ġre he
Ġre pt
ad ium
ent ions
ĠS ay
ĠS ally
ch in
ĠC ould
ĠW ater
ĠP ope
Ġsu ck
ĠJ un
Ġcom in
Ġwho ever
Ġv ague
uck s
Ġpre y
Ġcont ents
Ġown ers
Ġser ving
AT IA
ON G
Ġchar ity
St ep
ug o
Ġass urance
EN CE
ĠHow ard
ĠCar r
Ġ199 1
ĠRe becca
Ġmill ions
Ġ198 7
Ġexper t
bl ows
Ġnur sing
ĠEm ma
Ġunc onscious
Ġutter ance
Ġbeha lf
ĠAN Y
Ġspo il
Grand ma
Again st
Ġaston ishment
Ġvot es
ĠJer sey
ĠAtl antic
ĠDis ney
Ġamus ement
Ġumbre lla
7 0
C O
E llie
M c
t ree
v able
Ġb ills
Ġc ush
Ġf iring
an im
Ġp atch
Ġin ch
Ġn uclear
ĠI llustr
Ġe ase
Ġe ffic
Ġre ign
ad elphia
ĠS OME
Ġwh ip
ĠA ggie
ĠB os
Ġshe ets
Ġsa us
ĠD al
Ġal ter
ĠJ oy
ĠL ater
res ently
ĠR hod
end er
Ġoff ering
act ory
Ġhand kerchief
Ġstr ain
anc ies
Ġdist urb
ING S
Ġnear by
gr and
ged y
br idge
Ġdep os
Ġreturn s
ĠAn nie
Ġste ep
Ġfood s
Ġtre as
Ġprov in
Ġ198 2
Ġru ins
Ġprotect ed
Ġang le
Ġjud gment
OP LE
Ġresol ved
Tw enty
Tom orrow
Ġsac rifice
Ġdwell ings
Ġwre ck
ĠLang ridge
D es
S ounds
h h
p icture
w ide
Ġt al
in n
Ġs ke
on ing
Ġb oring
Ġf iles
Ġf iction
ed ge
an as
en ra
Ġp eak
Ġg inger
ĠM aced
ĠB ell
if ying
ĠH or
ct s
Ġj am
un ks
ĠT RI
Ġsa iling
ab or
ĠG R
ĠF anny
ĠJ on
ĠJ ob
ate gy
ĠO VER
Ġag ony
Ġbo om
ber y
ud dy
Ġun ivers
Ġun iverse
per haps
Ġfl ashed
man n
Ġstr ategy
Ġdist ract
Ġrel atives
Ġass ure
IS H
ĠAs hati
Ġev ac
Ġobject ion
ĠPr in
Ġdifficult ies
IR ST
Ġself ish
Ġimmedi ate
ĠTHI NK
Ġdeli very
Ġpan el
stit ution
ĠGra ham
ĠHaw kins
Ġpoet ry
Ġconce aled
Ġscient ific
Ġtid y
Ġsquee ze
ĠServ ice
Ġexchan ge
ĠPenn sylvania
ĠNich ol
B O
B S
C DS
D own
G er
G irl
M P
M usic
S ho
S uddenly
e enth
p op
t it
t les
Ġw ounds
Ġs han
on ent
Ġf uel
or us
as hes
Ġbe have
Ġe jac
Ġre ject
ĠM ask
ĠS i
ĠS HE
Ġli p
if ted
ĠH un
ĠW ERE
Ġsp y
Ġcl aimed
Ġfe ature
ĠK o
orn ey
ang led
ne xt
Ġfo e
ĠBr other
ĠAnd re
Ġ3 6
sh ot
br ooke
ĠHar vey
Ġ5 00
ĠDe v
Ġdress es
Ġdraw s
ĠAunt ie
Ġdoubt less
ĠCon way
Ġla wn
ĠFrank lin
Ġhors ie
Ġcre ep
Ġanx iously
Ġattempt s
ĠAg ain
Ġpriv ile
Ġdiscuss ed
Ġimm ense
Ġperm itted
Ġimpro ved
Ġexist ing
Ġneg ative
Tw ilight
Ġprint ed
Ġpropos al
ĠPet ers
Ġassoci ated
Ġsaving s
Ġresist ance
__ __
Ġadmir ation
ĠSqu are
J ames
S H
S IGHS
f at
p her
| |
Ä ģ
Ġ ing
Ġa pt
in ating
nd a
Ġb er
Ġm ister
Ġd ating
Ġd anced
Ġf ab
Ġf urious
as ions
ĠI ran
at ched
Ġh itting
ut ter
ĠA F
Ġne got
ge e
Ġde y
Ġab road
ab ama
ĠP oor
ĠL oren
Ġman ners
ag on
Ġcl ip
Ġam az
ia h
Ġcar rots
Ġchi p
ob y
ult ural
Ġcomm ission
Ġdist urbed
Ġhur ting
IT Y
Ġclear ing
Ġpar agraph
Ã¡ n
ĠOF F
Ġappro ved
Ġfree ly
THE RE
Ġdev il
ĠWest enra
Ġsens itive
Ġrough ly
wr ite
Ġexecut ive
Ġfest ival
ĠHart ley
Ġtrop ical
Ġplung ed
G ra
W on
g al
s ong
is se
Ġl ung
ar o
Ġh oo
ut ions
Ġu na
ĠM usic
ĠB ank
Ġj us
Ġr ates
Ġde ed
Ġab und
ĠW ork
ĠP E
ĠD ream
el f
Ġcon cept
the m
ress ing
Ġfl ames
Ġtalk in
âĻª âĻª
Ġrest rict
Ġtri umph
ĠGer hart
ĠTh ose
Ġmess ages
Al ways
ĠBl ake
Ġabs or
Ġdem ocracy
ÃŃ a
Ġbelong ing
Ġdefe ated
Ġpresident ial
Ġbuck et
cour se
Ġpan ic
Ġble eding
Ġshad ows
ĠJul iet
Ġbeha vior
ĠHad ley
ĠCOM P
ĠPre fecture
ĠPir ate
ĠDiv ision
ĠFrancis co
Ġpud ding
Ge ography
3 2
E ng
M ike
S arah
Y E
r its
s har
u zz
v als
y um
Ġs unk
Ġc ust
Ġc uddle
Ġl y
ar in
ot ions
ve t
id ers
ĠS aint
Ġgo at
Ġgo als
ĠH an
Ġpl ains
ort heast
Ġlo aded
Ġfl ame
Ġlong est
ĠSt ud
Ġstr angers
Ġcount ed
oc a
Ġpass es
vel ope
Ġstay s
Ġinv itation
Ġpur se
Ġpain s
Ġrepl ace
Ġrece iving
Ġanswer ing
Ġtrust ed
Ġstri p
IR L
Ġcommand ed
athe mat
Ġinvest ment
str ong
ĠTur ks
Ġcelebr ate
UCK LES
ĠHy un
Ġliber al
Ġelder ly
ĠCarol ina
Ġgodd amn
Ġexceed ingly
Ġliqu id
Ġbisc uits
Hal f
ĠDire ctor
Ġterrif ied
ĠArk ansas
achus etts
ĠRhod es
B aby
T AIN
d ire
Ġa cknow
in ent
Ġthe atre
re nder
Ġs ung
is hi
ing ton
Ġto mb
Ġy ummy
Ġin se
Ġha mb
us ter
Ġst ake
Ġse asons
ĠA R
Ġat mosp
ĠC ousin
ĠB attle
ĠH ard
ĠT em
ĠW HO
Ġal ike
os is
em ploy
ĠE the
ĠHe ad
Ġpe ekaboo
Ġafter ward
ah hah
ens ions
Ġcont empt
Ġdr um
ok yo
Ġhat s
Ġinc hes
ĠGr ant
ĠBe ach
Ġfuck in
Ġstick y
Ġart ists
ĠPr ot
Ġ196 9
Ġband age
ĠAg ent
Ġmem or
Ġpretend ing
ĠEx press
Ġur ged
Ġsuit able
Ġtou ches
Ġinj ury
heart ed
Ġprinci ple
Ġwarri or
Ġpup il
Ġswift ly
Ġgrant ed
ĠDet ective
ĠScot land
Ġdisag re
Ġsam ple
Ġlou der
Ġbenef its
ĠRepresent atives
rits ar
M ENT
R ed
S on
e f
n uts
p an
t is
v ous
on ation
Ġd ick
Ġf ulf
Ġl end
ut ed
ke l
ĠM ir
ĠS ophie
Ġkn ot
ĠH ank
ĠH oly
ĠP ie
ĠG OT
ĠL ine
ĠN an
Ġv oc
ous ins
ear ly
Ġcl ay
ree ce
Ġpo em
Ġad just
Ġper il
Ġsha de
ĠIn ter
ĠCh in
ĠAnd rew
Ġlight ly
ump ty
Ġcol umn
ĠIs rael
Ġpri est
Re ady
ND ER
Ġstar red
Ġmist akes
Ġkiss es
Ġce iling
Ġcontro lled
Ġeffect ive
Ġtest s
Ġoper a
Ġoper ating
ĠTr ans
Will iam
Ġhy m
Ġimm ig
Ġsuspect ed
Ġfold ed
Ã¤ s
Ġdrown ed
tw enty
ĠFR OM
ĠMu hammad
ĠMass achusetts
Ġlan tern
c row
h oo
j u
l ar
l ife
t ch
Ġw ins
Ġb ade
Ġo k
Ġd ried
Ġf res
ot ic
Ġan k
ur ger
ĠB ry
Ġso le
Ġshe lf
Ġsh rie
Ġab rupt
ĠW OULD
ĠP ooja
ĠG reece
ĠL ast
ĠL augh
ĠE nd
Ġtw ist
ber ries
Ġro ots
ord an
cc er
Ġim age
ĠCh ick
OU GH
Ġyoung est
Ġsur f
Ġball oons
Ġmar vell
Ġinte gr
Ġsk ills
Ġmove ments
ok ed
Ġ4 5
As k
Ġmess enger
Ġsum mon
Ġdream ed
erv ative
Ġcor por
Ġfill ing
Ġvar iety
Ġdev ice
Ġcompl icated
Ġsol ve
Ġrub bish
Ġattempt ed
Ã³ n
Ġrefer ring
Ġrab bits
ĠChic asa
pro bably
Ġentertain ment
Ġconsequ ence
Ġconstit ution
Ġcaut iously
Ġaccompl ished
Ġtradition al
Ġexplos ion
ĠDun can
? âĢĻ
A b
D et
E ight
H L
H ard
I RE
R ob
b ear
w oman
Ġ /
Ġs ed
Ġb ows
Ġf id
ing o
or por
Ġg um
Ġl ick
ay lor
ac les
st art
ĠM en
ĠA ss
ĠC herry
ĠB or
Ġr ot
Ġso ck
ĠT ime
ĠW alk
ĠW ales
est ed
ĠG i
Ġus eta
ĠR O
Ġsp aghetti
Ġex isted
ure au
Ġle cture
Ġsc ored
iz ations
Ġch rist
Ġgl imp
port s
ĠAl abama
Ġconf irm
Ġswe ep
Ġanim ated
Ġdead ly
Ġins ult
Ġed itor
Ġ199 3
Ġpar liament
ik i
ĠPhil ipp
Ġla unch
ĠAm ritsar
ĠMad am
Ġcomb ined
Ġindivid uals
Chi ld
Ġcontr ary
Ġcheek y
Ġshell s
ĠMos cow
ĠSim on
Ġpup ils
Ġunfortun ately
Ġjew els
Ġprompt ly
intend ent
HOR ATIA
Ġglimp se
3 7
B illy
B iography
F ollow
K ING
P ER
S im
S ea
l isten
m outh
s chool
w l
Ġs ust
Ġp ine
Ġn aked
Ġhe d
ad u
st ar
ĠS ix
ĠC OULD
ĠH ockey
ct ures
Ġso da
ĠP un
ĠP ear
ĠO s
Ġback s
Ġtr ay
Ġover come
Ġbr id
be ep
ĠU K
Ġlea p
Ġbu zz
Ġent ry
Ġrest ing
Ġlight er
ĠJohn ny
Ġhope fully
Ġmus cles
Ġdar ing
Ġsurpr ising
Ġexam ination
itc ase
ĠGu ard
Ġ197 6
Ġwild ly
Ġtur tles
ĠComm ission
Ġtast es
Ġdiscuss ing
Ġelect ron
Ġcomb ination
Ġtechn ical
Ġsuspic ious
every body
Ġprec ise
Ġgrat itude
Ġenthusi asm
Ġwret ched
Ġbew ild
Ġhelicop ter
Ġalcoh ol
, .
B L
C lear
D E
D an
F ire
P ar
W ork
] ...
f ight
Â °
Ġt uck
Ġw ool
ow l
Ġst ares
ĠM ISS
ĠS ur
ĠB ACK
ell ow
Ġr att
un a
ab bit
ĠP ot
Ġal p
ĠE astern
au nd
Ġle aned
ile y
Ġdis gu
ĠV alley
und e
Ġheart ily
Ġsix th
Ġcol on
ĠAr ch
Ġbreak s
Ġexpl ore
ĠBe cket
ĠCha mpions
Ex cept
Ġstar ring
Ġdest iny
ask et
Wh oo
Ġdirect ors
Ġstri king
Ġiss ued
Ġrepresent ative
Ġhy dro
Ġtax es
Ġscr amb
Ġneg ro
fortun ately
Ġinspect or
Ġbetray ed
Ġcommunic ation
soft ly
Ġgri p
Ġsched ule
Ġfare well
Ġsymb ol
Ġinterfe re
Ġmerchan t
Ġdisgr ace
OMET HING
. )
3 6
4 7
4 8
F F
H arry
M ary
N ING
U ntil
b reat
c ray
g imme
m ay
p ill
r un
s ound
s pecially
Ġt um
Ġs way
Ġb um
Ġp iss
Ġg aze
Ġl est
at han
et ween
ke e
Ġse lect
Ġgo lf
ĠC as
Ġr ural
Ġsa iled
ab a
ab in
ĠW HI
ĠL y
Ġer ror
Ġpro b
Ġtr ash
Ġen velope
Ġun ique
Ġim pr
og ne
Ġpass enger
Ġperson ality
Ġadd ing
Ġrep air
Ġexc ess
Ġgener ation
Ġgra ph
ID E
Ġdecl are
Ġtur b
Ġfarm ers
Ġsmell s
Ġcompet ed
ĠChe ro
Ġsearch ing
AU SE
Ġcro codile
Ġnap kin
Ġaston ished
ĠJew ish
Ġreve aled
Ġpour ing
ĠKat ie
ĠAust ria
Ġbub bles
Ġaltern ative
Ġcris is
Ġchamp ion
Ġlat est
Ġmob ile
Ġmagnific ent
ĠIllustr ated
C HE
S ophie
f olk
m iss
w ash
Ġs an
Ġb os
Ġd ial
Ġf er
Ġp uss
Ġg on
ar ms
as ks
Ġbe ings
am i
ĠB re
ĠB ir
ĠH itch
Ġsh ield
est ic
ĠF ive
Ġpro port
Ġtr icks
Ġqu ack
Ġover board
Ġcl in
Ġbr ook
ĠK han
Ġsomet ime
ho e
Ġgu itar
int o
Ġper man
cl ass
Ġapp arent
Ġch op
Ġcr ab
Ġtry in
Ġser geant
Ġcha sing
Ġel bow
AN S
ph ones
ĠMar ion
Ġ3 2
Ġrel uct
app le
Ġref lected
Th irty
Ġocc asions
Ġoffic ials
Ġfast ened
Ġmod est
Ġgra pe
Ġregion al
ĠAm anda
ĠPol and
ĠTe le
Ġ193 0
Ġmach ines
tr unk
Bl ack
Ġbless ing
Ġindust rial
Ġliter ature
Ġrequire ments
Ġmort g
ĠClar ice
Ġcigaret te
Ġpist ol
Ġscri pt
Ġcrick et
ĠGord on
Ġanch or
ennes see
Ġatmosp here
A y
F ind
L AUGH
V II
Y o
c hard
h im
j ump
m usic
Ġw rap
Ġm ax
Ġc ub
ar io
ri ve
Ġst ab
ĠB L
ĠB as
ĠH as
ĠH orn
ĠT ennessee
Ġout er
ĠP op
ĠD aw
ĠD uc
Ġal ert
Ġno d
ra ge
pl aces
Ġper ce
Ġmay or
ĠV iet
Ġdes ired
Ġbre ach
Ġpol ar
Ġelse where
Ġac ademy
Ġreg ister
Ġtri gger
Ġsk ipper
Ġ18 9
RE AT
Ġsim pl
wh ose
AS S
Ġdef in
Ġpub l
ĠCon st
some body
Ġprogram s
Ġmunicip al
Tr ust
Ġbang ing
Gu ess
Ġswing ing
Ġprepar ations
Ġdepart ure
bu ild
Ġappl ied
Ġchick ens
Ġsuppl ies
Ġimpati ent
Ġthirst y
ĠUrs ula
ĠUkrain e
ĠBrid get
hous es
Mat thew
ĠMaced on
3 9
C r
H Y
J ess
M M
Q U
b ot
g asp
i ently
p iece
t akes
u be
Ġ vel
Ġt ones
Ġw is
Ġw ives
it ter
or ange
an z
Ġst ub
Ġdo d
ĠS on
ĠS AY
ch oo
ĠC ivil
ĠB R
ĠB ax
if ty
Ġso ot
ĠT urn
ĠJ ac
ĠL au
ak s
Ġtw isted
Ġag ency
Ġro ot
ĠK aren
ĠĠĠĠĠĠĠĠ Ġ
ĠIn spector
Ġfr act
Ġlist ed
CH UCKLES
Ġpar lor
THE Y
Ġesc ort
Ġprof it
Ġshar ing
Ġsle igh
Ġcand le
Pe ggy
Ġdig ging
ĠCor por
Ġess ay
Ġvent ure
Ġgather ing
Ġadop t
Ġassemb led
Ġacquaint ance
Ġchallen ge
Ġgard ens
Ġgover ness
ĠViz ier
D ON
Y et
g row
p ha
p ol
p ass
Ġt ire
Ġt ales
in ea
Ġb ail
Ġb reeze
Ġd ing
Ġf ury
Ġin k
Ġn erve
Ġre new
Ġme nd
ĠS ar
ĠS uch
Ġas cend
Ġse ed
ĠC are
ĠH eaven
um bo
ul ting
ĠP il
el a
Ġor phan
Ġcon vey
Ġsp ray
ĠN ap
ick y
Ġtw ins
ĠK eep
Ġpr ices
do ll
ĠV ER
Ġche ering
ING ING
Ġreg ist
Ġri g
Ġtri but
ĠAl b
Ġ202 3
Ġ4 8
ĠTh us
wh ines
Ġvis iting
ĠCha p
Ġbott les
Ġappro val
19 6
Ġ198 1
ĠFor ce
Ġ9 9
Ġgra v
che ck
Ġmer ged
Ġfort night
IC T
Ġwa ving
Ġimag ination
ĠMad ge
Ġengine er
ĠGO OD
Qu ite
IF A
Ġmater ials
urt is
ĠMid dle
Ġliber ty
Ġadult s
Ġcy cl
Ġtom ato
ĠMus lim
ĠYe on
Ġtack le
Ġannounce ment
Ġrehe ars
pher d
" --
7 5
A V
A W
B I
H ome
H all
M olly
l ace
l ady
p ic
t il
w he
Ġc ousins
Ġto ol
ll ing
Ġp uff
Ġg azing
as ha
Ġin it
Ġst y
Ġst im
âĢ İ
ĠS ER
ĠA IR
ĠH appy
Ġj ury
Ġcan al
ĠD OWN
Ġsu p
Ġsu itcase
ĠF riend
na h
em ents
Ġro d
iss ors
Ġfl ies
ru ce
ĠSt ation
Ġper mit
Ġcomp re
Ġcomp elled
ens ity
ĠV ery
ĠV aug
ult ane
bab bling
Ġsur vey
Ġmiss us
Ġdisc har
eter a
Ġpop s
Ġem otions
Ġ8 5
Ġsum mit
ĠWill is
Ġpen et
ĠPhil adelphia
Ġfear ful
Ġabs ent
Ġ197 5
Ġmer c
Ġ196 8
Ġboard ing
Ġknock ing
Ġemp has
Ġsubject s
Ġcas ual
Ġdisp osed
wr iting
Ġcalm ly
Ġir rit
Ġindic ate
Ġprefer red
Ġtim id
En ough
Ġconsequ ences
Ġdeser ted
Fl orence
Ġaward ed
Ġtravell ing
Ġwip ed
Ġkil omet
Ġmultip le
Ġstrateg ic
. !
E at
E ver
K at
L ater
M orning
P at
P resident
S w
S end
T HIS
a unt
e ch
h ur
m ot
t ur
t hanks
Ġt ag
er a
Ġb ri
Ġm ammy
Ġm athemat
Ġg ifts
Ġl od
Ġl azy
ar ched
Ġin her
Ġn arr
Ġwe b
ĠA z
if ies
pp a
Ġall ows
Ġsh ots
Ġwor ship
ĠN avy
Ġag ric
Ġlo gs
Ġqu e
Ġam id
Ġam azed
Ġ( ,
uck le
Ġwhere as
ci ed
So on
Ġcar rier
Ġsec ured
Ġsha kes
pe ekaboo
ĠV aud
Ġmin es
Ġchar t
Ġred uction
br ing
ĠAr gent
Ġref uge
Ġinf l
ĠCl ark
Go ing
read ing
Ġ198 4
Ġspe cially
Ġdeep er
Ġ196 6
ĠMc Donald
Ġdam aged
Ġ194 3
ĠPer cy
Ġtur key
Ġrul ed
Ġoppos ition
Ġident ity
Ġstat ue
Ġbasket ball
Ġcondu ctor
sn iffs
ij i
Ġpropos als
Ġdea rest
ĠSA ID
Ġbatt les
Ġintellig ence
ĠOff ice
Ġstead ily
nat ured
Ġrib bon
Ġgorge ous
Geor ge
B OTH
F ort
G AS
R oy
t own
Ġ ÃŃ
Ġc oo
Ġf ret
Ġf ert
Ġto ler
Ġg ent
Ġl ane
om y
at ically
us ive
Ġk ettle
st ra
ĠM useum
ĠS k
ĠS PE
ĠA M
ĠA venue
ĠB ird
ĠH istory
ĠT re
ie ve
ĠW alt
qu is
ĠG reg
ĠG ulf
ist ling
oh oh
Ġcl o
Ġbr isk
Ġpe e
Ġen sure
Ġfl ushed
ang s
Ġrem ote
Ġfo g
ob b
ĠYou ngeun
Ġmin us
Ġacc ent
ream ing
St r
Ġdeath s
Ġbar rel
ring ton
Ġforg iven
Ġ7 0
Ġyell ed
ĠEnglish man
Ġclean ed
Ġfear s
Ġ197 7
Ġmis under
ĠCol or
Ġconsider ing
Ġpress ing
Ġlim bs
Ġformer ly
Ġcollect ed
Ġfat al
Ġgen u
Ġaut umn
Ġbomb s
Ġcraw ling
Ġclaim s
Ġsna p
Ġhistor ic
Ġflo ating
Ġfra ud
ĠBO Y
ĠWin ter
hab et
alent ine
Ġdistinct ly
Ġdescend ed
ĠSpr ing
Ġcollea gues
4 4
B ern
C our
C han
F e
L ong
M att
S a
e rest
f are
m ill
s or
s illy
Ġa y
Ġa er
in ter
Ġw o
Ġs ighed
is ure
or ters
Ġp onies
Ġof the
ar ling
ow nt
ow ary
ay a
Ġe agle
Ġnot ion
ĠB ox
il ence
Ġj elly
Ġr ack
th m
ĠP arson
ĠF er
ĠR on
ĠR oland
ak ers
ĠE rin
no ck
ĠU s
Ġsc an
Ġsc old
Ġthought ful
Ġch ill
Ġhead quarters
Ġcr imes
Ġlea k
OU ND
Ġsur render
Ġread ily
Ġreg ions
ec il
Ġtri angle
Ġlive ly
ĠInd eed
Ġspeak ers
Ġexp osed
eb ra
Ġthank ed
Ġvis its
atur al
Ġrece ipt
Ġra ft
Ġ197 3
Ġwa ved
Ġbab e
rop ol
nes ota
Ġtor ture
Ġgen us
Ġspell ing
Ġden y
Ġunc ertain
ĠSer ies
TH ANK
Ġattract ed
Ġdism ay
Ġdistribut ion
Ġinspect ion
Cha ir
Ġfan cied
Ġfrequ ent
Ġgodd ess
Ser iously
Ġjun ior
ĠWick ham
ĠLoren zo
ĠDuc hess
ĠVaug han
A X
D ER
L adies
P P
T E
V III
a ah
c ool
c rying
f ix
f ashion
h or
i as
l ines
m are
n els
r ad
r ane
u gged
w on
w ari
it als
Ġc her
Ġto re
es cend
Ġhe ars
im s
ro d
ĠS n
Ġnot hin
th ony
um i
Ġde e
op her
ĠF isher
ĠF ederal
itt s
ĠN ice
Ġwho lly
em en
Ġint ake
Ġcl a
ĠK ent
Ġfl av
Ġcr ashed
Ġdr am
az a
Ġchar m
ĠAl so
pr ise
mm m
Ġexp enses
Ġref rigerator
Ġcoll ar
Ġins ane
Ġpos itions
Ã© e
Ġce real
Any one
Ġleg isl
Ġ195 7
Ġgall op
ĠPol ish
bur gh
Ġsens ation
ression al
Tr ans
Ġtight ly
Ġbother ing
ĠEll en
ĠBoy s
sn ame
Ġmult i
ĠChan nel
Ġdivor ce
Luc y
ĠGran by
ĠOak dale
âĢķ âĢķ
Ġlif etime
Ġhal ted
Ġignor ant
Ġbund le
ĠTib bits
ĠMask oki
Ġnegot i
G eneral
H aven
M ind
M AR
N a
R ahul
b orough
c up
f s
j ab
m ilk
p ool
t ape
w hel
w hee
ha w
Ġc rest
Ġd ess
Ġd ates
Ġf ug
Ġg ens
Ġwe bs
Ġre ci
Ġre ception
st ay
st ep
ĠM ouse
Ġse al
ĠA G
ĠC ray
ĠB UT
ĠH ills
Ġj e
Ġso ber
Ġshe riff
ab e
ĠP leas
Ġthem e
ig a
ĠF IFA
ĠJ O
ĠE N
ĠO cean
Ġgr ade
ond isse
ĠK ong
ire n
ho ibi
Ġun employ
Ġper pet
Ġcomp ens
Ġhome work
ĠV al
Ġres umed
Ġ3 00
pr on
Ġtra pped
don ald
ĠMay a
Ġconst ru
Ġcorn ers
Ġsal ad
Ġ196 4
ĠCon ference
Ġav o
Ġemp ire
ĠWh ich
Ġthreat ening
pret ty
Ġplant ed
Ġveh icles
hun ters
Ġconcent rate
Ġtyp ical
anche ster
Ġbord ers
Ġchim ney
Ġpros per
Ġgest ure
ĠTW O
Ġhoriz on
Ġamaz ement
Ġgenu ine
C OME
E ach
J ECT
N Y
S OP
S PE
d am
e qu
f aced
m amma
p at
p ie
u i
w ah
x ed
Ġa wards
ou ched
it age
Ġp y
Ġg rap
ar c
Ġn it
ĠI F
Ġh ire
ic ians
Ġbe am
Ġst ool
am en
ĠA pp
ĠA cc
ĠC ape
ĠB ol
if ford
ĠH ap
Ġj ingle
ĠT okyo
um in
ab led
ĠF E
ist or
ast on
ĠN ative
Ġdis ple
cl ap
OT HER
ĠV in
Ġres ent
ign ment
Ġcont ented
Ġhar sh
In stead
Ġsw am
Ġdiffe rences
Ġreal ise
Ġ3 8
Ġcons pir
ma id
Ġ18 0
ĠHar rington
Ġbeaut ifully
Ġpop corn
ĠZ oe
Ġsun set
Ġconc ert
Ġabs urd
Ġ197 2
Ġsupport ing
ĠMin nesota
Ġband s
ti ves
Ġver se
igg le
ĠJust us
Ġgar bage
Ġur ban
Ġden ied
ĠKe vin
ĠJul ie
Ġstraw berry
ĠSea brooke
Ġinvent ed
Ġadminist ration
Ġdiss ol
Ġpurs ue
Ġtrave ling
ĠHon or
Ġretire ment
Ġscen es
Ġath let
Ġprovin ces
) ;
C alm
D is
E asy
P inkie
S ub
S aint
S weet
i per
j i
m ust
p arent
v ation
w oof
Ġw ages
Ġthe rap
re p
Ġm ic
Ġm uff
Ġd iver
Ġto b
Ġp ha
Ġp anc
ĠI nt
le vant
id o
ut tering
Ġe e
Ġwas ted
Ġwh irl
Ġli ed
and al
ĠC ub
ĠH ye
ĠH AM
Ġr uff
Ġr asc
Ġso ph
ĠT imes
Ġcan n
um ing
ĠW el
ĠW ild
ĠD ie
ol ar
ĠG U
ĠL im
res ents
Ġsp an
ĠN ic
ĠN ord
Ġlo an
Ġar gue
ĠHe alth
Ġle an
Ġco inc
Ġsc ra
Ġsc issors
Ġhapp ily
Ġwr ist
Ġsl im
Ġsl ate
Ġcare less
ĠBr ook
Ġinv al
Ġcur ly
ific ations
Ġmusic ian
Ġprov iding
Ġhum ble
de f
Ġart icles
Ġfro zen
Ġca using
Ġcreat ing
ek le
ĠOr ton
Ġrecogn ise
Ġgall ant
EL Y
aret to
eder ation
Ġindic ated
Ġrail road
ĠRy der
-------------------------------- --------
-------------------------------- ----------------------------------------
ĠPet e
Ġbeast s
Ġexperien ces
Ġtoss ed
Fin ally
Ġsla very
Ġejac ulated
ĠHitch iti
C LE
K im
L ou
R ep
R obert
b am
d ed
f ound
z ie
Ã ¢
Ġ eter
he ro
Ġm ild
Ġc unning
Ġd ash
ed ale
an net
ĠI ce
Ġh ither
us a
ac o
ac ter
Ġst amp
ĠA pal
Ġr aw
ook ed
ĠW als
ĠP ayne
Ġal t
ĠF IRST
ĠJ ud
ĠL ion
Ġtw in
Ġqu id
Ġcl am
Ġbr ains
ĠK aw
ps on
ang ar
Ġunder ground
ru nd
Ġsha pes
pe ed
Ġhead ache
Ġrun way
Ġent it
Ġheart y
Ġrest ed
Ġdifferent ly
Ġass hole
Ġfire place
Ġdep ressed
Ġtra gedy
Ġconf ront
Ġplan es
Ġext ract
Ġborn e
Ġsn ack
Ġexam ined
Ġarm our
Ġcook ed
Ġmod e
Ġcor rupt
asp ing
ĠCol umb
ĠLe ices
Ġcompl iment
Ġrub bing
Ġoccasion al
Ġpray ers
Ġacqu ainted
Ġheat hen
Ġcustom ers
vo ice
Ġshock ed
Ġple be
ĠRy edale
Ġbatter ies
Other wise
Ġbend ing
Ġpurcha se
Ġune asy
Ġguarant ee
Ġdiscipl ine
Ġtob acco
L AND
R olan
b ott
b etter
c ill
d ate
i rie
k ers
l iness
m ont
m ission
t an
v as
Ġ âĻ«
ou st
Ġm os
Ġm ask
Ġm useum
Ġf isher
Ġp ets
Ġp unch
Ġh oof
ac hi
ad er
Ġst ew
ĠS her
ĠA br
ĠC orn
ell ing
Ġj aguar
Ġr attle
ĠT aylor
ie ves
Ġ" "
Ġsh one
ab outs
ul ance
ĠP ooh
ĠD ale
ĠD oub
Ġsee ming
Ġsp ared
Ġv ice
od ed
Ġbo ast
Ġover whel
Ġcl asped
ĠK ar
Ġco ff
Ġwhere upon
har m
ĠU FO
ne cess
Ġsm ugg
cl osed
cl aps
Ġact s
ĠY ang
ĠV I
Ġmon arch
Ġfr own
mb ass
Ġcap tives
ĠNew ton
Ġaw esome
Ġexpl ains
ted dy
At l
ĠRe v
Ġlow ered
ĠFrank y
Ġbull shit
ĠComm ander
ĠPaul ine
chan ts
ĠDor a
ĠEx cuse
Ġtax i
Ne ither
Ha ving
Ġcong rat
Ġwitness es
ĠGra eme
Ġepis odes
ĠHam ilton
Ġdom estic
Sec ond
GR UNT
Ġmanufact ure
ĠÂ £
Ġappet ite
Ġalp habet
fashion ed
; âĢĿ
A ub
B ra
C oming
M ight
b oth
c ontin
f unny
p ath
r ical
r aspberry
t able
u ations
z ona
Ġt act
Ġt roll
Ġb owed
Ġm ing
Ġd iet
Ġg oose
Ġh ipp
ot ty
us k
Ġk it
ĠM ull
ĠM AKE
ĠM ORE
ĠS ant
ĠS OMETHING
and om
ĠC le
ĠB EL
ĠB etty
ell er
ĠH AS
Ġj erk
ĠT ELL
ĠT igger
ĠW itch
ĠP ur
ĠP art
ĠP ony
ĠD ra
ĠJ en
os ure
ĠL www
ĠR im
ear ch
Ġover all
ĠK ath
ress es
Ġpart ed
Ġsc al
Ġsc rat
Ġfo es
Ġcomp ass
Ġhel met
Ġel im
ple te
ĠBr idge
Ġass ess
Ġhigh way
ĠFl o
head ed
Ġins pired
Ġstick er
Ġem ig
ĠRe volution
.' "
19 2
ivers ary
Ġnecess ity
Ġcop ies
ĠGrand pa
Ġwide ly
Ġconcer ning
Ġwand ered
Ġenv y
ache te
ĠWind sor
amm ar
Ġrequire ment
Ġsac red
Ġghost s
Ġpit ched
Ġpersu aded
Ġpurs ued
Ġelev ator
Ġcandid ate
DO OR
War ren
Ġresc ued
ĠColor ado
" ;
L ee
T is
W hether
a ffe
p apers
r ating
t ub
u z
Ġ `
Ġt ut
in als
Ġs inking
on ight
er ving
Ġm ant
Ġm achete
Ġc ul
Ġo d
Ġo l
Ġd yn
Ġf ist
an oke
Ġp ip
Ġp enn
Ġg reed
Ġl aund
Ġh int
us ions
id re
ĠS ky
ĠC f
ĠC ru
ĠC HE
ĠC urtis
ĠB ishop
ĠH old
ĠH ung
Ġso ccer
Ġ" _
ĠW y
han t
ĠF at
ĠL ib
ĠE ver
od s
ag a
Ġqu ote
Ġoff ers
Ġcl ue
Ġbr on
Ġbr ute
Ġbl own
Ġbl oke
Ġen able
Ġen counter
Ġpre ced
ons on
ons ider
Ġmother f
Ġwon t
Ġatt ic
Ġcomm enced
Ġunt o
Ġcons ent
Ġaw oke
ĠTh ough
Ġstate ments
Ġchair man
agg ing
ĠIs lam
ĠZ ekle
Ġmess ed
Ã¡ t
Ġcheck s
ĠAll yn
Ġappro x
Ġpen gu
Ġjo ining
Ġ194 0
Ġneighb ours
ĠPol icy
Tr ue
Gu ys
Ġstock ings
Ġmir acle
Ġcomment ed
Ġremind s
ĠIntern et
Ġcong ressional
Ġtap es
ONE Y
Ġrom ance
Su ppose
Ġecho ed
Ġdign ity
Ġsubstant ial
Ġilleg al
ĠChero ki
A in
D eb
E ve
G ee
J uly
K now
K itty
L ady
b read
l k
s ur
y ama
Ġt ons
Ġt att
Ġc inem
Ġo ak
Ġf itting
Ġl es
Ġl ump
Ġh ood
Ġh ind
Ġon line
im et
Ġre tain
ad ays
Ġk ite
Ġme ad
ĠS ong
ĠB oss
ĠB udd
ant hoibi
Ġout fit
ol ate
ĠG re
ĠG al
ĠF ame
ĠL ind
ĠR en
Ġint im
Ġqu ot
Ġcl ick
Ġco b
Ġco ax
ĠU r
ru p
ER ING
Ġatt orney
Ġacc us
Ġfin est
Ġbelie ves
Ġri val
ug ar
Ġfact ors
Ġele g
Ġtop ic
ony m
ĠSo cial
Ġdeal t
ene z
put ting
io let
Any body
Ġbab a
Ġice cream
Ġ194 6
Ġneck lace
Ch ief
ĠSec urity
Ġcontain ing
Ġhost ile
ĠSam uel
cour t
Ġblank ets
Ġspl ash
IF E
OD Y
Ġcelebr ated
Ġconv iction
Ġsac rific
ĠLO VE
Ġfra g
Ġdism issed
ĠMel issa
ĠCO VID
Ġautom obile
ĠThanks giving
Ġcaut ion
Ġunf air
Ġswall owed
ĠSax ony
ĠChat ah
Ro anoke
Ġexclam ation
3 3
7 6
8 0
G old
N umber
P h
Q ue
R ec
T y
d one
d ig
g ers
i ac
re fe
Ġs hat
Ġd ip
Ġl ame
ar oni
as per
Ġha bits
Ġth read
us cript
Ġbe ads
ent ially
ĠM oo
ĠM em
ĠS ean
Ġse arched
ill es
ĠC oosa
ĠC aretto
ĠB ea
ĠB BC
ant ry
Ġhad ta
ain ts
ĠT R
ul ating
ĠP ower
ĠD oes
ĠG ro
ĠJ os
ĠJ ason
ĠJ ordan
Ġwor m
ich i
Ġman if
od o
ĠO UR
Ġbo iling
Ġover head
Ġbr ass
Ġun necess
wn s
Ġhand y
Ġlong ing
ĠSt irling
ob al
og y
Ġbu ggy
Ġgl ue
ĠCh uck
AN CE
AT H
Ġsur ve
ĠMar ia
Ġï¿½ ï¿½ï¿½
Ġdri ves
ĠNo el
EN S
ĠBe lden
enn is
cy cle
Ġmess y
ĠQ U
ĠFor rest
Ġ197 1
Ġ196 7
ĠGerman s
sc ape
Ġlim its
some one
Ġrub bed
Ġcand les
Ġcompet e
whis per
Ġcell ar
Che ers
ugg ing
Ġremind ed
Con nor
Ġarrange ment
Ġprepar ation
ĠEn ter
Ġcompar atively
Ġpersu ade
Ġprem ium
Ġbot hered
ĠArm strong
Care er
Ġjournal ist
ĠFil m
ĠHoll and
ĠEst her
Person al
Ġhamb urger
Ġabrupt ly
A II
B re
C AUSE
F T
G HING
H OW
P ull
R es
d ling
h r
o ch
r ous
u er
u ating
u ously
he astern
Ġw oo
Ġc ater
Ġd ot
Ġd orm
Ġd ancer
or gan
en cies
Ġp ear
Ġg ear
ar n
ay e
Ġbe ats
Ġre b
se cut
all el
Ġse eds
Ġwh ipped
ĠA ms
ch icken
Ġsa ils
ge red
Ġout ta
ink ling
ĠD NA
qu estion
ĠG eno
ĠF L
ĠL ily
ĠN ak
Ġv est
ĠE p
Ġer a
Ġar ts
Ġpe pper
Ġgr asped
Ġco pper
iz zy
Ġthought fully
Ġcr ush
Ġres erve
ult ure
ĠIn c
ĠBr uno
amp a
Ġfr ustr
St ar
Ġround s
Ġsmall est
Ġfact or
IS E
Ġ4 4
Ġexpl o
ĠDe rek
Ġgrand pa
Ġsqu eal
ĠIs n
Ġoffic es
Ġadv ised
Ġ7 5
Ġcat ches
entle men
Ġ197 8
Ġdest ination
ĠJack ie
Wh ite
Ġcup board
Ġz one
Ġstrange ly
Ġval ues
Ġbow ling
Ġdi agn
Ġinvol ve
Ġtruck s
Ġpark ing
Ġwel com
Ġfil ms
Ġuncle ar
De ath
chi at
Ġexec ution
ĠNE W
ĠBer lin
Ġelectric ity
ĠCarol ine
Ġinstr uments
Ġsquir rel
Ġris en
ĠJess ica
Ġcurtain s
Ġpronoun ced
Ġtrave led
Ġapplic ation
Ġfrank ly
ĠDod ds
Ġtreas ures
Ġmarvell ous
? ]
A nt
A IR
A CE
F red
I Z
M al
W in
W OMAN
a ise
c ont
g ian
h ome
i ary
i ency
j ud
m ir
r ors
r ained
w ich
Ġt ch
Ġw har
Ġw ishing
Ġb un
Ġo ath
Ġo ptions
Ġp athetic
Ġl ur
Ġn iece
Ġwe igh
Ġre bell
ĠM RS
Ġli ar
ĠA ld
ĠH ong
Ġr ans
Ġso ci
ĠT our
ĠT AL
ĠL isten
Ġby eb
ard ed
It s
Ġman uscript
ĠO fficer
Ġag ents
Ġevery day
Ġfl ats
Ġthr one
Ġch lor
ix on
oy o
ĠV alentine
ĠV enez
Ġsl ope
Ġnight mare
Ġdes erved
let ta
ye h
AT HER
Ġsw ords
uff y
Ġmar bles
Ġcons isted
Ġdri vers
Ġsil ently
Ġsqu eak
Ġform al
Ġadv ise
Ġdream ing
Ġadm ire
Ġcor re
Ġ197 4
ĠBar bara
Ġmis ery
Ġ17 9
Ġsick ness
Ġnur ses
Ġdiv ide
Ġtest ed
ĠMc C
Ġpack ing
Ġpack et
Ġcond em
ĠST ORY
Ġsex y
rel ative
Would n
Mar illa
Ġhero es
Ġdeterm ination
fl ies
Ġprocess ion
Ġpet ition
Ġcrack ed
ĠAnge l
Ġmort al
Ġstir red
Ġrequest ed
Ġcomed ian
Ġpurcha sed
ĠWal ter
Ġconscious ness
ĠChild ren
Ġforb idden
Ġstrict ly
Col onel
ĠPen elly
ĠRus sell
Mart in
belie vable
Ġlaund ry
ĠAms den
A IT
B eautiful
E specially
H ope
M o
S low
] :
d ear
d ies
p ink
t oday
Ġb ury
Ġb apt
Ġm ike
Ġl ing
Ġl oop
Ġbe gging
Ġst adium
am il
ro ar
ĠS M
ĠA uthor
ĠA ccording
and o
ĠC a
ĠC omp
ĠB RO
Ġj er
Ġj unk
Ġj umper
ĠT oby
Ġall oc
ab by
ĠD oto
Ġal armed
ĠG ang
ig o
ĠJ e
ĠJ in
Ġv ib
ĠO P
ite i
ud der
Ġfl ock
cc ess
Ġnever theless
Ġcomp are
Ġfin ishing
Ġob sc
unt ary
pr ints
Ġph ones
Ġmet h
Ġexp ense
uss on
Ġsent ences
Th ought
Th rough
Ġsy m
Ġtre acher
Ġgrand son
Ġfight s
Ġrock ing
Ġeng agement
Ġmod els
ĠHer o
Ġcamp ing
Ġoper ate
Ġann iversary
Ġ194 5
Ġrespect ed
ĠComm un
Ġlock s
Un fortunately
with standing
Ġcollect ing
elen a
Ġguard ian
Ġemploy ee
Ġpeace ful
Ġchap el
Ġcomput ers
Ġinvestig ate
Se ems
Ġachie ved
Ġscient ists
ĠNat alie
Ġfant asy
pos es
Ġdelay ed
Ġvot ing
Ġadminist r
ĠPL AY
ĠSomet hing
Ġcoun sel
ĠEv ans
ĠSwed en
Ġdistingu ished
Ġtempor ary
shar p
Ġproport ion
Ġdefin ition
Ġentit led
Aub usson
' !
) :
3 1
A lden
B JECT
D ave
N ope
R est
T ra
W HI
e em
j e
l on
m ummy
p ow
y gen
Ġa u
Ġa we
in ction
re te
re fer
on et
Ġm ales
Ġf ame
Ġf ans
ĠC ro
ĠB our
if er
op y
ĠF orm
ĠJ ill
ak ened
ĠN orm
ort s
od ern
ĠO b
ag i
Ġag g
Ġbo il
Ġtr ump
Ġle isure
Ġgr acious
Ġbl oss
Ġbl azing
Ġthr ong
ang ing
Ġchild ish
ks wari
Ġmin i
ĠIn stitute
Ġcount s
Ġob ed
ĠTHE M
me al
Ġent ers
Ġass umed
any thing
Ġdep uty
Ġhat es
Ġconf ession
Ġ4 9
Ġprom ises
ĠSo f
Ġlarge ly
Ġpar cel
ik o
ĠPr ice
Ġforget ting
Ġsecret ly
Ġeye b
ĠMin chin
Ġprotect ing
Ġ194 8
Ġtast ed
ĠCo ast
Ġviol ently
Ġsens es
Cl ose
ĠEm peror
Ġopport un
Ġur gent
Ġstrugg led
Ġcheer fully
boy s
AU GHING
Ġdisp osition
Ġinj uries
ĠCass owary
Ġencour age
ĠTri pp
ĠZealand ers
Ġsevere ly
omed ay
ĠMount ain
Ġanno ying
Ġdialect s
Ġaccord ingly
ĠSwed ish
Ġrend ered
Ġslipp ers
Ġaccur ate
YE AH
ĠViet nam
ĠVER Y
rund y
Atl ant
Ġbyeb ye
ĠVenez uel
B ad
B est
D un
D ude
G annet
K S
R oger
T er
U se
f old
g ic
g raph
p ea
t Ã©
u is
Ġb ass
Ġb ait
Ġm art
Ġm ush
Ġd um
Ġd amp
Ġp ills
Ġg b
Ġl ace
Ġin fect
ver ty
st ream
ĠS hi
ĠA C
ĠC OME
ĠH OW
Ġj est
Ġr ats
Ġr aces
Ġup right
ĠT op
ĠT ower
um er
ge ance
Ġab use
ĠP ut
ĠD oc
ra it
oh ra
em ois
âĢĿ !
Ġag gress
hi o
ĠK al
Ġco co
Ġneed le
Ġpo verty
Ġfl ows
Ġpre v
Ġhapp ier
Ġsl ap
Ġrest rain
Ġrel atively
Ġsing ular
Ġinter ior
Ġinv asion
app ie
ok er
Ġcut ie
ĠAs semb
Th row
Ġswe eping
Ġbar gain
At t
Ġsend s
child ren
Ġarri ving
Ġmot ive
che e
Ġdest ro
ĠBar letta
Ġsuggest ing
Ġ196 2
Ġcirc les
ĠMin nie
Ġspec im
Ġsuper intendent
Ġwhis pering
ĠMan ip
Ġ194 2
ĠSh ut
ĠWh it
Ġvol can
Gr ady
Ġscar ce
ĠBE EN
Ġhurry ing
IL TON
Ġaddress ing
ĠQue ens
ĠEve lyn
Ġweak ness
ĠJean nine
ĠMur ray
ĠHolly wood
intend o
Ġemotion al
Ġsuppl ied
Ġrag ged
Ġerr and
Rel ax
Ġwander ing
Ġdisagre eable
Ġdess ert
SOP HI
ĠHAM ILTON
emois elle
4 6
A A
B less
B AR
G abriella
L F
b uh
c ro
h ol
j an
k ets
s i
s hi
s pl
t uce
y ummy
z burg
Ã §
Ġs or
Ġb om
Ġb ib
Ġb icycle
Ġm arty
Ġn erves
Ġn ortheast
Ġbe es
ut ive
Ġk itten
ant e
Ġso d
ĠT es
ie ge
Ġall owing
op ard
ĠW ars
ul es
ĠD am
ĠD art
ĠG us
os a
ĠL ead
ĠL arry
Ġsp ill
ĠN ations
ĠE lf
Ġtr ot
Ġar oused
ĠU m
Ġsha llow
tain ment
do ing
ĠY E
air y
ĠIn f
Ġrec ess
li ver
Ġear liest
Ġ4 00
Ġquick er
Ġform ing
Ġnews papers
Ġmed ium
Ã© sar
Sh h
Ġce re
ĠCol omb
amer on
Ġmaster s
Ġrain bow
Ġest imate
AD E
Ġquar rel
ĠRos a
Ġ195 2
Ġ195 4
Ġ195 5
Ġ195 6
rer s
Ġtem ple
Ġcre ation
ENT S
._ --
Ġphot os
Ġcell s
Ġgrad uated
Gu y
Ġgrab s
Ġfurn ished
Ġforest s
Ġpra irie
Ġsch olars
Ġintrodu ction
ĠJew s
ught y
Ġmethod s
Ġsurround ings
ĠRay mond
ĠHot el
Ġconven ient
Ġphilosop hy
Ġperman ent
Ġwelcom ed
5 6
A dd
C OL
E v
M el
N ESS
O ff
P ORT
S HE
U s
W onder
c ross
c alled
e ating
f ood
f les
g ies
l ap
m ail
n ity
o cc
r r
t ra
v ard
y up
Ä ĩ
er ted
Ġm oo
ing e
es y
Ġl ions
Ġn aval
at ures
Ġha w
oo g
im al
Ġre li
ri ved
Ġst all
st ri
ro be
ĠS ilver
ĠA y
ill o
ĠB id
ĠB all
Ġr andom
ain ty
ĠT eddy
ĠT oday
ul gar
han ie
Ġsu its
ind ing
ig en
ig ers
ĠR ub
Ġex ists
ĠN HL
Ġtr aces
Ġover se
Ġcl er
Ġcl apping
Ġun lock
Ġfl ashing
Ġcar go
Ġcar bon
ub b
ĠY uchi
ĠV ol
Ġown s
Ġrec oll
Ġpret ended
ĠAl aska
Ġmet ers
Ġref lection
Ġrep resents
Ġpur poses
wh ite
Ġbusiness man
ues e
Ġev al
Ġopp onent
Ġmag ician
Ġpar allel
Ġrock et
Ġhorse man
ĠAt t
ze ch
cri bed
lo ad
co at
hold s
ĠPol ulu
ĠMe itei
ĠRuss ians
Ġengine ering
Ġemploy ment
ĠMon ster
Fuck ing
Ġdesper ately
Ġdepart ed
Ġess ential
ĠCla ire
Ġconcern s
Ġsav ages
Ġqual ified
Ġlin er
Ġswall ow
Ġsem i
Ġsubm ission
Ġmeas ures
Ġanal ysis
Ġhun ter
ĠRad io
Ġdisgust ing
cur rent
ĠBroad way
tit les
ĠPE OPLE
ĠWals all
ĠChatah uchi
ĠAssemb ly
" ..
/ /
B u
C ool
D in
D ick
F R
F ar
H it
P o
P ost
S ur
T ur
l Ã¡
Ġ {
Ġ ----
Ġw i
ha ired
Ġc f
Ġd ated
Ġf aded
or ation
or ial
Ġp ul
as hi
Ġhe nce
Ġh osp
im ming
ĠM AR
ĠM icro
her lands
ĠS no
Ġse ctor
ĠA st
ĠH ur
Ġj aw
Ġr am
ĠT iger
our ing
th y
Ġsp it
ĠN ame
ĠN umber
ĠN intendo
Ġv ivid
Ġv ault
ort ing
Ġro pes
Ġpe ac
so ever
Ġpo ems
Ġfl ights
Ġpre cip
ach t
ĠSt u
Ġwr ath
Ġper f
do ors
ons ie
ĠV en
ĠCh ow
ee k
Ġpres erve
Ġbed time
Ġ3 7
gr unts
Ġmar ble
Ġmar vel
cle ver
ĠAn thony
Ġinc orpor
Ġswe ater
Ġcent uries
ey ed
Ġpar ade
ik es
Ġsun ny
Ġexam ples
Ġmod er
che ster
Ġenjoy ment
Ġsucc ession
Ġdev otion
Ġ193 9
ien na
Ġfle e
tr uck
Ġdeterm ine
fl ower
Ġsusp ended
Bl ue
Bl oody
Ġactiv ist
Ġperform ing
Ġrese mb
Ġwrest ling
ĠEvery thing
Ġetc etera
Ġflo at
Ġow l
Ġfaint ly
Ġpant ing
Ġsuffic iently
Ġdeser ves
Ġamb ulance
Ġexecut ed
Ġprior ity
Ġrhy thm
bb ons
Ġtu be
Ġgreet ed
Ġcommun ities
ROU ND
dri ver
imm ock
Ġcors airs
ĠPortug uese
angar oo
Ġcoff in
) .]
A CT
I CH
L ord
M arch
N ick
i ques
o ft
p ig
s uch
s kin
he ld
re ll
on om
Ġd ainty
or ms
ic ate
ic als
id y
Ġwas ting
im b
ac ha
Ġre nder
ir it
Ġk in
ro it
ĠM ess
ĠM amma
ĠM anchester
ĠS AME
ĠS pecial
ĠC ensus
ĠC LO
if ting
Ġr ic
un ty
ĠT en
ĠT erry
ĠW on
ĠP att
ĠP ier
ĠP ART
qu ack
ĠG ina
itt in
ĠJ osh
ard ines
Ġcon vention
Ġlook in
Ġright ly
Ġover t
Ġtheir s
Ġcl iff
Ġbr ut
Ġgr ows
per t
Ġsha wl
ĠĠĠĠĠĠĠĠ ĠĠ
Ġgl ancing
Ġdes cent
AN Y
Ġsw amp
Ġret rie
Er ic
ont o
ott ie
Ġdear ly
Ġcons ol
Ġass ass
Ġinter nal
ale m
Ġfoot steps
Ġpay s
Ġdisc ount
Ġmus cle
Ġste pping
Ġfuck ed
ĠAll ied
Ġappro ve
Ġpen al
Ġfro ck
Ġvill ain
Ġ196 1
Ġconsider ably
Ġeffect ively
Ġquar ry
Ġ195 1
Ġ195 8
Ġang rily
Ġ194 7
ĠSe oul
Ġfat ig
aps ed
Was n
Sp eaking
Could n
Ġdread fully
US IC
** **
Ġchat ter
ere lla
Ġign ore
Ġwrest lers
Ġconv ince
Ġrout ine
every thing
Ġhunt ed
Ġox ygen
Ġindepend ence
Ġencour aged
Ġvent ured
Ros a
po inting
Ġwealth y
Jim my
Ġimpress ive
ĠAli bam
pur ple
Ġfeather s
ĠConf eder
ĠNob ody
ĠPrin cess
Ġank le
ĠLaugh s
cray on
Ġpuss y
Ġmortg age
ĠMcDonald s
ropol itan
ĠMoo re
ĠGeno a
refer ring
! --
" ),
5 5
A men
H o
N OT
T V
b us
b ble
c us
g ins
h ors
s wer
s ounds
u v
Ġw ires
it ated
Ġm akin
Ġc el
Ġc able
Ġd ummy
es c
Ġl orry
ar ia
Ġhe ns
Ġh ip
Ġha n
Ġha z
ic ations
Ġe y
al most
Ġre ins
se en
ir cle
ĠM UST
ĠS now
ur se
ĠB and
ĠB ab
ĠB unny
ĠH ospital
ĠH OME
ĠH uns
il ion
Ġcan vas
Ġsh h
ry n
ĠD oug
ĠD immock
Ġpl acing
ĠG IRL
ĠR eb
Ġsp ider
ap se
ĠE le
ĠO re
ĠO pen
Ġlo af
ho en
Ġun ions
Ġmo ist
ict ures
Ġch orus
Ġcont em
Ġsur geon
Ġstand ards
Ġfr idge
Ġtri ps
Ġcons umption
Ġsk irt
Ġunderstand s
oub ted
Ġdef ined
ĠAll ah
Ġsn iff
Ġfix ing
Ġpot ty
Ġknock s
Ġdescri bes
mo ves
Ġver d
Ġtor ch
ribut ed
Ġcapt ive
Ġguard ed
Sp eak
Ġstream s
ĠBert ie
Ġbeha vi
Ġsurv ived
Ġprinci ples
Ġprim arily
Ġspo iled
Ġprint s
Ġinno c
Ġelephan ts
ĠNE VER
ĠMore over
Ġrare ly
hib ition
Ġbark ing
Bob by
Joe y
Ġconsult ation
rig ade
ĠEgypt ian
ras her
Ġcigaret tes
Ġestim ated
ĠRec ords
Ġtox ic
App arently
Ġinstit ution
Ġquant ity
Ob viously
dire cted
ĠEthe l
Ġhed ge
escend une
Ġapprox imately
Atlant ique
Ġbom ber
A LE
N ame
P age
W HO
a ire
c ups
d les
d ey
m ad
m un
o qu
p erson
Ġt aps
Ġa uth
Ġa ught
in er
Ġw ww
Ġthe ater
Ġm ÃŃ
Ġp uma
Ġg ig
Ġn ay
Ġhe m
Ġh oll
et ing
id ency
Ġe c
se m
ri ft
Ġst atic
Ġdo l
ĠA v
ĠA ma
ĠA CC
ĠA escendune
Ġr idge
Ġr aspberry
ĠT alk
ĠT ai
Ġsh ru
Ġbut cher
ink led
ĠD omin
Ġsu nd
ĠG aston
ĠF arm
ĠJ udge
ĠR F
ĠR u
Ġv oted
em et
fe el
Ġwill n
ĠO hio
ag les
Ġtr oop
Ġro ses
ud es
ĠK ap
act ive
Ġhand ful
ĠU NDER
Ġim ple
ĠSt ory
Ġact ors
ĠY an
Ġnew ly
Ġsl ack
oss y
Ġche at
Ġche aper
Ġgl ove
Ġrec overy
Ġsit uations
Ġread ers
Ġret orted
Ġtri ump
Ġsecond ary
Be ing
Ġinter ven
Ġsleep s
ters hire
ĠTh rasher
Ġprom otion
Ġquestion ing
Ġadv is
Ġed ition
itch ing
âĢĶ âĢĿ
Ġfro st
Ġobject ives
ĠPro bably
Ġappear ances
Ġdoubt ful
ET TER
Ġvar i
ĠDr ake
Ġstri pes
Ġgrow led
Ġresult ed
Ġban anas
Ġaccident ally
Ġtor ment
Ġviol in
Ġcuri ously
ĠRE ALLY
May a
Ġcruel ty
Ġgir affe
ĠBern ardo
ĠCla us
Ġreact ing
Ġtear ing
Ġfac ilities
Ġrejo ined
Ġaccompl ish
ĠMax well
Ġcontribut ion
Ġspect ators
Ġembarrass ed
Ġconver ted
ĠAri zona
Ġpupp et
Ġestablish ment
Ġven geance
Ġsout heast
LAUGH S
ondisse ment
Ġgrap es
, ,
H ear
H enry
L ar
L em
L augh
M amma
P art
S y
T ommy
V ictor
b urn
c all
c atch
f ine
l ater
l ord
m ie
p ost
Ġw ist
Ġo pt
Ġf et
an es
ĠI ng
id able
Ġwe lf
ac ie
st ate
ĠM s
ĠS andy
ĠS everal
ĠA pple
ce ler
ĠB og
ct op
Ġso lo
ĠT oy
Ġcan s
Ġwhat soever
ĠP H
ĠP ra
ĠD er
qu al
ĠR ect
ĠR ES
Ġex ert
ĠN i
Ġv ine
ĠE VERY
ĠO wen
ick ers
Ġoff ence
we e
ĠK ir
Ġco ke
Ġun w
Ġun kind
ĠSt ri
cl ing
Ġhead hunters
ĠV e
ĠV o
ĠV ill
Ġcr ushed
Ġres erved
ĠIn stead
AN E
Ġfather s
ĠAnd erson
Ġtri fle
St ation
pr oof
ĠThere fore
Ġadd s
ier ra
Ġsign als
eed s
Ġ4 6
ĠTh ink
ĠDe f
Ġshort s
Ġ6 5
Al most
Ã¡ w
Ġ198 3
che on
Ġroll er
Ġprof ound
Ġtrust ing
Ġcost ume
AD Y
Ġtast y
sp eaking
Ġtor t
Ġ193 1
ĠSe ven
Ġremain der
ĠWith out
ĠTHI NG
Ar t
Ġfre ight
Ġspread ing
Ġalb ums
Ġtrad ing
Ġmoon light
vocal ize
Ġfem ales
turn ed
min ist
Ġodd s
Ġsurv iv
Se ven
Ġscrew ed
Ġconstit u
Ġshr ine
Ġsquir rels
ĠPri ze
Ġpolite ly
Ġvic inity
ĠNet herlands
Ġmac aroni
ĠKy ung
Ġlux ury
Ġdart ed
rigg s
Ġdisgu ise
Ġstub born
Chair man
ĠAG AIN
Ġconspir acy
cill or
onsie ur
oubted ly
G erv
I O
L o
L ight
M ic
P olly
T ri
U gh
U ARY
d ist
g ard
m oon
r ich
Ġt asks
Ġw ob
ha ra
ha lf
er red
Ġc ore
Ġc udd
Ġd ict
Ġd ense
Ġf ir
Ġf iled
Ġp av
Ġp unk
ar ter
as ia
Ġin ev
Ġn g
Ġhe el
Ġwe ars
im an
Ġre verse
ĠM as
ĠS il
ĠS we
ĠC zech
ĠB C
ĠB ush
ĠH APP
Ġr oo
... !
Ġcan e
Ġde eds
Ġde leg
ĠW ay
art en
ul ars
ĠP y
ĠD in
ĠF ur
ĠL yn
ĠL ena
Ġwor ms
ĠR a
Ġsp ons
ĠN isha
Ġv ary
ap oosa
Ġnow adays
are r
Ġbo ards
ud ed
ark er
ub l
Ġhar ass
oun ge
Ġac he
ott o
Ġ3 4
Ġrest less
Ġri pped
Ġsort ed
Ġï¿½ ï¿½
Ġhur led
ib a
Ġhigh light
app ro
Ġsub sequ
Look ing
ĠTh om
Ġdeal er
ĠBart ow
for med
ĠIs abel
Ġlear nt
ĠCha kswari
Ġstick ers
ĠZ en
tern al
Ġyell ing
AM P
Ġclass ic
itc her
Ġve ter
iver ing
ĠLe g
Ġequ ation
Ġcre eping
Ġgod mother
Ġlift ing
Ġrad iation
isc her
Ġpal m
Ġsle nder
Ġobs ervation
yl via
Ġspeed ily
Ġthreat s
kes pea
Ġcrack er
ĠJul ia
Ġconv oy
Ġpsy cho
Ġsuspic ions
ĠJo el
Ġaim ed
hang ba
Ġmagaz ines
ĠHaw ai
Ġfac ility
Ġtom atoes
Ġaffection ate
Ġcitiz en
Ġrepro du
SC REAM
Ġenqu ired
ĠShar ston
Ġhaul ed
Ġax e
Ġlemon ade
Ġpean ut
Det ective
Ġprecise ly
ĠTele vision
Ġmunicipal ities
Kat ie
Ġcoinc idence
Ġcinem a
Ġopportun ities
emet ery
Ġwelf are
! _
A ah
A IL
C AN
F L
J ap
L isa
M ur
M ax
U H
W est
W AS
b ad
b one
b ian
l is
r ome
t ri
Ġ âĢĶ
he im
Ġa uction
Ġb a
Ġm ajesty
Ġc ot
Ġd ub
ll is
en ance
Ġp aw
Ġp ork
Ġp ige
om ers
Ġre ass
ad ise
ĠM ove
ĠS IS
ĠA ut
ter m
ĠB ack
Ġr owed
Ġr ays
Ġall igator
Ġsa fer
Ġsh orter
ĠW onder
ul ed
ĠP rem
Ġal tered
Ġor gas
ĠF all
ĠF ree
itt ens
ard i
ĠR ail
Ġsp otted
ĠO t
Ġint imate
ag ne
hi es
Ġco ats
Ġun su
Ġpo ly
Ġpo pped
Ġpr ow
Ġad apt
Ġsha ken
ub by
ĠV ienna
Ġsl ain
Ġres idence
og ers
Ġhar vest
Ġche wing
Ġgl ow
AT ES
Ġpres um
Ġri p
Ġri bbons
Ġfollow ers
Ġinter cept
Ġpay ment
ric s
ĠEng ine
ball s
aj amas
ĠDe ath
ik a
19 7
Ġexam ine
Ġdoub ts
Ġwall et
eng u
AL S
ĠFrank ie
ighb or
sc ar
ĠDan ish
Ġhero ic
Ġpun ish
ĠLem uel
Ġsail ors
Ġtit les
Ġcult iv
Ġgro cer
Ġsour ces
Ġhesit ation
Ġox en
Ġautom atic
ĠFrost y
Ġconqu er
Ġdump ed
Ġexha ust
Ġtremb led
Ġï¿½ï¿½ï¿½ï¿½ï¿½ ï¿½
Ġintellig ent
ĠTer rit
rend an
Pol ice
bro ken
Ġobey ed
Ġmour n
ĠDen ver
ĠTall apoosa
Ġevol ution
Alf gar
Ġsou ls
Ġeld est
Ġwhar f
ĠAlibam u
2 20
C ho
G ET
J ung
J une
M er
M AY
R achel
W AY
Y e
d led
n um
s ays
w ent
w all
Ġw ider
Ġb acon
Ġm att
Ġc aval
Ġd ive
Ġd itch
Ġd ances
Ġf i
en ri
hat tan
le e
Ġth ro
Ġth ieves
ic it
ic ation
ut ches
ad ad
Ġst are
am ar
am off
ĠM and
Ġse lection
ĠB uck
ĠB alt
if le
if teen
ĠH orse
ĠH ugo
Ġj okes
Ġshe er
Ġ" '
ĠP ass
ĠP hoen
ĠP ictures
qu iet
Ġor chard
os hi
Ġcon j
Ġex it
Ġman s
ĠE mer
Ġint ent
you ng
Ġback ward
Ġover time
Ġgr ain
Ġam use
Ġam bit
iss y
ĠK atherine
ĠU t
Ġlong ed
Ġmo ck
get ting
Ġsha ped
HE Y
Ġlea gues
Ġhar bour
Ġmin imum
Ġche ers
iv a
Ġend ure
Ġrec ru
ĠMar ine
Ġ3 9
uff er
Ġtri ang
Ġsk ip
ĠEd uc
Who ever
uss ian
Ġtra itor
Ġconf eder
ric ane
ĠTh rough
CH O
ĠChrist opher
Ġprom inent
Ġcur se
Ġform at
Ġlik ing
Ġhum or
ĠAd vent
Ġcat hedral
Ġap ology
ipp ie
Ġ196 5
Ġpost ed
Ġcomfort ably
ĠCon stitution
la f
Ġorgan izations
Ġsuccess fully
Ġ195 9
ĠAb ino
ĠTe chn
off s
off ice
Ġeduc ational
Ġmass es
Ġhide ous
Ġappre hens
Ġregular ly
hand ed
Ġdread ed
Ġchat tering
Ġrob bed
Ġcustom s
ĠRand om
Ġcorrect ly
OH N
Ġentertain ed
Ġsignific antly
Ros amund
Ġamb ition
ĠSel by
ĠFair view
Ġfee ble
ĠKnight s
EX P
Ġdeliber ately
Ġcush ion
ĠPear l
ĠChampions hips
Ġscramb led
Ġrasc al
Que en
Ġmush room
3 4
? --
I m
P apa
U CH
V D
W HEN
W HERE
c al
c ake
c ular
e ye
l asses
m us
n an
s pr
u ish
Ġ ze
he nd
Ġs i
Ġs ul
Ġs ultan
Ġs ardines
ha ir
ha les
it us
Ġm i
Ġc ope
Ġd angers
or ig
at an
al ion
am el
Ġme ek
Ġwith draw
ell ect
ĠH oney
ĠH aut
ĠH EL
Ġup ward
th irty
ĠD IS
ĠD enton
qu er
Ġpl ug
ĠG ame
ĠG ard
ĠF C
ĠR aj
Ġsp ear
Ġsp illed
na p
ĠN one
ĠO BJECT
Ġcl ung
Ġro ared
ud ent
ĠK a
Ġco ins
pl ing
pl ain
be at
Ġun ac
Ġpart ial
Ġdis like
Ġrem o
Ġsha ft
ĠY am
og an
Ġche ating
Ġcha lk
Ġpres erved
Ġac celer
ĠFr itz
OR D
RE T
Ġ4 2
ĠTh ousand
Ġbar r
Ġage nda
Ġdef ensive
Ġattack ing
Ġcho ke
Ġfear ing
Ġsoft ware
ĠPro ject
Ġsuggest s
Ġdet ailed
Ġban quet
Ġprin ting
ĠAm ong
Ġjud ged
got ta
Ġoccur s
Ġsouth west
ograp her
Ġpun ished
iction ary
ĠRob inson
ĠLouis iana
Ġpsy chiat
Le ft
Ġmotor cycle
Ġspo ons
Ġ187 0
Ġmission ary
Ġsche mes
Ġfoc used
Ġdwell ing
Ġstern ly
ĠArab ic
ĠMount ains
Ġhorn s
ĠCON T
Ġcy cle
Ġanno yed
bird s
sec ution
Em ily
ĠRich mond
Ġneighbour hood
Ġbol t
ĠLes lie
Ġsaus age
Sho ot
Ġimpr ison
Cour se
Ġcompens ation
donald s
Ġsym pt
ĠBour g
Gerv aise
: //
B er
B oss
C e
I BLE
K ing
M O
P ass
R F
T im
W N
b ound
c hat
m oo
n ings
r ons
s aid
s itting
w oo
w ear
Ġt art
Ġt umble
Ġs ne
ha ven
Ġb unk
ed e
Ġl ounge
om on
ad der
am o
ĠM www
ĠM iles
ĠM aud
Ġan aly
Ġse w
ĠA w
ĠC ow
ĠC ry
Ġkn ives
ĠB us
ĠB ase
Ġr ains
ĠT ry
ab l
ĠThe od
ĠG ary
ĠF O
ĠL or
ĠL ow
ist a
Ġwor ries
ĠR ain
ĠR ick
ĠN ine
Ġv ow
Ġman agers
Ġback ed
Ġar gu
Ġcl an
Ġcl ar
Ġaf ore
Ġro aring
Ġplay in
pl ed
Ġun will
Ġfl owing
ord in
Ġgu ilt
ach ment
Ġsm ashed
Ġeven ings
Ġch illy
ans y
Ġmin ing
Ġser ves
Ġgl ances
Ġatt ending
Ġcha ins
oun ce
ĠBr and
vers ed
Ġfell a
Ġrest ored
Ġcol ony
Ġcons ists
mp oo
Ġimp ulse
Ġref res
Ġref orm
Ġsince re
Ġsign ature
Ġ4 7
Ġste ering
Ġprom oted
Ġbas kets
Al an
Ġprov isions
Ġho arse
Ġfree zing
Ġcho king
velop ment
Ġ17 0
Ġdirect ory
Ġ15 0
Ġz ebra
Ġval ent
hold ing
Fr anche
ĠPer ry
mon key
ĠON LY
Ġclub s
Ġbreath less
Ġcourt esy
ĠMary land
Sp ike
Ġident ical
phan t
worth y
Ġremem br
ere my
Ġpin ch
Ġign ored
Am ong
Ġvac ant
Ġcelebr ation
Ġwhist ling
Ġarg uments
Ġpred ict
Ġscient ist
Ros y
Ġpump kin
Ġbitter ly
Ġcomr ade
Ġembarrass ing
Ġtempt ed
Com tÃ©
Ġbisc uit
ĠGil roy
Ġkidna pped
Ġawait ing
Hy un
ĠLiber al
Hon est
Ġslee ve
Ġdepth s
Ġsummon ed
ĠBor is
Ġwis dom
ecil ia
Ġwebs ite
Ġreci pe
ĠCray le
Ġpha se
ĠDoub s
ĠMull ins
Ġtatt oo
refe rent
Ġunnecess ary
kespea re
ĠBourg ogne
5 9
6 6
D el
D AR
J an
M en
R ay
S n
S an
T HING
c over
h ill
h uman
n est
r ise
s en
Â Ļ
Ġ ou
Ġt umbled
Ġw are
Ġs iege
Ġb ung
it ia
Ġm ice
Ġm hm
Ġd ent
Ġf ain
or ay
an ese
Ġp p
Ġp ave
Ġp ots
Ġin fection
ic ious
Ġbe gg
ld on
ac r
Ġme lt
ĠS up
ĠS hane
Ġas c
Ġli ver
ĠA ce
ĠA ud
Ġgo ss
ĠC AR
ĠC hile
Ġkn e
ĠH u
Ġde em
ab ove
ĠP ad
ĠD ong
ĠF BI
ist inct
ĠR as
Ġsp ur
ĠN ana
Ġlook out
Ġv ital
Ġint onation
hi er
Ġam using
be an
Ġ19 20
Ġsc ul
Ġsm ack
ĠSt arr
Ġsha res
pe ech
ĠY outh
Ġres igned
Ġcha sed
Ġac ad
ĠTHE N
Ġkill s
Ġï¿½ ï¿½ï¿½ï¿½
ib ilities
Ġsub stitute
Ġdisc our
bo ards
Ġbas ement
wh oo
for ward
ĠCha mp
AP TAIN
Ġrepl acement
Ġadv ancing
Ġem pt
men io
Ġsn atched
An ge
Ġarm ies
Ġobject ive
Ġrequ ires
Ġdiv ine
Ġ194 4
ĠNot ting
ĠWh istling
gu ard
ĠWho a
ĠMad die
Ġcru iser
Ġhy p
ĠCent re
Ġdisp ute
Ġstat istics
Ġstret ching
Ġ192 9
Ġcondu cted
bre vi
ĠMor gan
Ġneat ly
Ġtrail er
Ġmagn ets
ĠWin nie
cel ona
Ġcompar ison
pir ation
Ġspecific ally
ĠMot or
Ġpainting s
Ġconqu ered
Ġprotest ed
Ġsubm itted
Ġcompos er
Ġrevolution ary
bour ne
Ġdisplay ed
Ġsequ ence
ĠFore st
ĠKas hm
Ġancest ors
Ġrept ile
Ġalter ation
Ġinse cts
Ġagric ultural
ĠPleas ant
Ġcater pill
Ġauth ors
' -
C ur
D or
I d
P ick
P LE
T Y
T onight
W ater
b ia
d ah
j ingle
o i
t ail
v ag
Ġa irl
Ġa pron
in ja
Ġw aking
on ica
er ness
Ġc one
Ġc od
Ġo wing
or rect
Ġp ajamas
Ġg ut
Ġg aining
ĠI MP
le ans
et ta
ic ine
Ġst amps
ro chee
ĠM ah
ĠM AT
ĠS ho
ĠS alt
Ġse ctions
ĠA www
ĠC D
ĠB ud
ĠH mm
ct ive
Ġne ut
ĠT E
ĠT AKE
Ġsa uc
Ġsh ine
ĠW ol
ĠW HEN
Ġpl uck
ĠF est
ĠF ound
ra zy
Ġjust ified
ĠR ory
ak u
Ġv it
ort ion
âĢĻ ,
Ġtr icycle
Ġbr ushed
Ġam mun
Ġbl ink
Ġbl ah
ĠK ay
be ing
Ġpart ing
Ġfl ip
Ġsc orn
ĠSt umpy
cl oth
ĠY az
Ġsl op
Ġbit ing
Ġche f
me red
Ġri fles
Not e
Ġass ail
ĠWe re
br own
Ġconf essed
Ġten ant
Ġrep ublic
Ġland scape
ĠTh or
bo om
Ġcontin uing
Ġed ges
Ġlay er
Ġmain tained
ĠAll en
Ġconc rete
Ġ9 8
Ġworry ing
Ġstar ving
Ġpolit icians
che ese
oop ing
Ġpost s
Ġwhis pers
Ġ194 1
Ġlim b
Ġvol umes
Ġdi aper
Ġchief s
Ġterm inal
Per fect
Ġhast ened
Mar g
ĠJust ice
Ġsatisf actory
Ġbound ary
Ar ound
Ġemploy ees
Ġpercent age
ĠTur key
Ġreck less
Ġscream s
Ġphys ician
vere nd
Ġfru its
Ġcraw ls
ĠCH AR
Ġscore s
Ġfeat ured
Ġox ide
Pl us
ĠDar win
Ġborrow ed
dr ink
Ġjew el
Ġtravell ed
Ġimprove ment
Ġune as
ĠChild sname
Ġsolemn ly
Ġleaders hip
GO OD
Ġtank er
Ġbul k
Ġcommit ment
might y
Ġcryst al
ĠJun ior
Ġcust ody
ĠChin aman
Ġchrist mas
Ġbewild ered
Ġmax imum
ĠEnter tainment
mir al
Ġaggress ive
ĠManip ur
onom ous
ĠOre gon
Ġammun ition
, [
C ER
C oll
C atherine
D ead
F all
L aura
M in
M aster
S ighs
S everal
W r
W ITH
b asket
g od
h ums
p ower
w i
x ide
y an
z i
Ä į
Ġt ame
Ġt ies
Ġw ax
Ġc ant
Ġd il
Ġp issed
Ġg imme
Ġl ined
ĠI D
ĠI an
ĠI van
Ġhe ed
ot y
ve mber
al ysis
Ġre n
Ġre ly
Ġre un
ri ving
Ġst ing
Ġdo omed
ĠM IN
ĠS cience
ĠC E
ĠC OUR
ĠB ate
ĠH at
Ġr amp
ĠT un
th rough
Ġsh rill
ĠP G
el uj
ĠF uk
Ġus er
ĠR ow
ĠE mm
ĠE VEN
Ġer ase
No vember
Ġbr ake
ĠK E
ĠK ha
ĠK id
ĠK am
Ġco in
Ġwork er
ho oray
Ġlet tuce
Ġun in
thing s
ord ingly
ia o
Ġdis pl
Ġcr ooked
Ġhouse keeper
Ġdes ir
Ġsupp orters
ank ing
Ġfar ming
Ġbelie ving
Ġfell as
ON NA
Ġrest ore
Ġhalf way
gr im
Ġinter vals
Ġmiss iles
sh ut
Ġsub mit
Ġwonder fully
Ġdisc om
Ġsent iment
ĠHar court
Ġste er
Ġbar rels
Ġsn atch
Ġran ks
ming ham
umb les
Ġeng age
Ġcho ked
Ġve ins
Ġmot ions
ĠGu inea
ĠCount ry
Ġdecided ly
ĠMan hattan
hell e
cient ists
Mar ie
Ġtall er
Ġvide os
Ġpat rol
af ed
Ġexcited ly
IF F
ĠMart ha
Ġfund ing
Ġscream ed
Ġneg lected
Ġgrab bed
ĠBO OK
Ġstir ring
Ġfier cely
ĠPal mer
Ġassoci ation
Ġdim in
Should n
En joy
ĠSy d
Ġyo gh
ocr ats
Ġrelax ed
Ġange ls
Ġrecomm ended
FOR E
Ġagre eable
Luc as
ĠPlay Station
Ã¨ re
Ġmeas ured
ROU GH
Ġdisag ree
ĠSand ers
add ressed
Ġimit ates
Ġconsist ent
ĠHind u
Ġlun cheon
ĠBos well
Ġprivile ge
Ġperce ived
Ġregist ered
ownt own
ĠWel sh
ĠAbr amoff
Ġeleg ant
ĠCommun ist
Ġeyeb rows
Ġdestro ying
ĠMicro soft
eluj ah
- ,
4 2
A CH
A ugust
B arry
D ec
D rop
E ither
O VER
S EL
T ot
W ha
b od
b ah
b ased
c ala
d uh
m i
r g
s weet
Ã ª
Ġ |
Ġt ips
in ations
re na
ha st
Ġb ureau
ll er
Ġg er
Ġg ale
Ġl ugg
Ġhe ck
Ġbe an
Ġwe ed
ri ers
ri go
am ble
Ġk angaroo
Ġan te
ĠS out
ĠS ang
ĠS hall
ĠS unny
and ra
ĠC ALL
ĠC lear
ĠB und
ĠB rett
ust y
ĠW ow
ess a
ul ator
ĠP hy
ĠD ak
ĠG a
ĠG iant
ĠR ober
Ġex clud
ĠN ong
ĠN ag
ĠN ora
ĠN IGHT
ap o
Ġman ual
ĠE agle
ĠO oh
ĠO THER
ag uchi
Ġbl o
Ġhow l
Ġ( ),
Ġco aches
ren ches
ci ously
Ġyear lings
int ed
ied er
ĠShe pherd
ens ed
ĠV ig
og a
Ġhar mon
Ġstr ained
ĠCh uckles
Ġcha ps
Ġcount enance
look ed
Ġent reat
Ġdra gging
ec utive
Ġlist s
Ġair field
Ġdec re
Be en
Ġinter rog
Ġmiss ile
ĠInd ones
Ġdep ending
Ġhat ch
Ġconf ined
Ġten ants
Ġsim ultane
ĠCl ass
TER S
Ġbar ge
Ġglad ly
Ġdef inite
Ġtrans ition
Ġprot ests
Ġbreat hed
oop y
bl ock
Ġcirc uit
Ġnorth western
ĠCon nect
.... ....
Ġgall ery
ĠCo ach
yl um
Ġamount s
Ġsepar ation
Ġrepresent ing
ĠAre a
Ġstream ing
Ġstrugg les
Ġacqu ired
ĠNe xt
ĠAlf red
Ġburst ing
Ġsna pped
isher s
ĠBo ard
Ġpatter ns
hab ited
Ġboun ce
Ġboun ces
Ġbold ly
ĠAust rian
Ġdecor ation
Ġdebut ed
Ġliqu or
Ġenqu iry
Ġlic ense
Ġhun ters
Ġgym n
tick le
Ġcateg ory
Ġfab ric
Ġhym n
Child ren
Ġtuck ed
ĠDaw son
Jess ica
âĢİ .
ohoh o
Ġconstru cted
Ġming led
Ġreli able
Ġdol ph
Ġpav ilion
" ...
4 9
C ont
C omp
D AY
D AD
H oly
I an
M ed
M ine
N ah
S S
V as
W ake
Z oe
b ra
c har
c hen
c akes
h our
l oy
l oud
o be
p ite
p apa
r m
r um
t em
y ers
he never
Ġw ol
Ġw ig
re pe
Ġs omeday
er ie
it ches
Ġm ates
Ġc ass
Ġo ar
Ġf ax
Ġf ries
Ġp and
Ġp ins
Ġl em
Ġl ass
Ġn igh
Ġn oun
at ers
Ġha e
Ġha mm
Ġth ump
id ly
ut a
Ġwas her
Ġre named
Ġre levant
ri k
Ġst ag
Ġst umbled
am ous
ĠS ak
ĠS ierra
Ġse ize
ĠC e
ĠC un
ĠB av
ĠB elle
ĠH uman
Ġr otten
Ġr oused
ĠT unde
op l
op les
ood le
Ġout rage
ĠW ON
ĠP S
ĠP ick
ĠD AY
Ġpl ac
ĠL IGHT
ĠR AD
ast a
ĠE arl
Ġsay in
ĠO per
Ġpro long
Ġgr ammar
ass an
ren ched
Ġun re
Ġsc oot
Ġcar rot
Ġsm ash
do ggie
Ġsl ice
Ġcr ashing
ans ion
Ġkind erg
Ġfound er
Ġfound ation
Ġsw ings
Ġdist inction
Ġpers ist
Ġfell er
ins ula
ject ion
Ġcap s
sh op
Ġid le
uss ia
Ġext inct
Ġcoll apse
Ġcontin uous
Ġbar rier
Get ting
Ġ6 6
Ġ6 8
Ġmouth s
Ġpar am
Ã¡ l
Ġ7 6
ĠSp irit
Ġclass ical
Ġfa iries
Ġhung er
Ġsuggest ions
Ġcontro vers
Ġtreat y
Ġcast ing
Ġfail ing
Ġcompl aint
Ġsol ved
Ġ193 3
Ġ193 8
Ġtow ers
Ġfre ak
Ġspell ed
Ġpun ct
Ġ192 8
Ġdefend ant
Ġrepeated ly
ĠNor man
Grand pa
ĠCat al
ĠCat hedral
Ġhook ed
Ã¼ r
Ġqual ities
ĠTra il
Ġmap le
ĠPak hangba
Ġpassion ate
Ġparticip ated
ĠSav annah
Ã± ora
Ġassemb ly
Ġvig or
Ġapplic ations
Ġindign ation
Ġignor ance
Ġgloom y
Ġbuff alo
ĠBang l
ĠDID N
Ġnom ination
Ġstair case
ĠCind erella
ĠNichol son
Ġacknow led
ĠBry ant
Ġsup reme
Ġtherap y
Ġinval id
Ġscrat ched
ĠPLAY ING
ĠVenezuel a
Ġbehavi our
ĠTerrit ory
ĠPhoen ix
Ġsympt oms
Ġgoss ip
Ġscul pt
ĠKashm ir
" "
A ss
B ELL
G entlemen
H igh
L ie
M ISS
N ay
P T
S et
V ED
d aughter
g uh
g ently
j our
k ids
p in
s ince
s leep
t han
u ffe
Ġ Å
Ġthe ft
Ġs ulf
ha i
Ġb uh
Ġc oughs
Ġf ried
Ġto il
Ġp airs
Ġl ang
Ġin ex
Ġh oss
Ġha il
Ġha lt
Ġon ion
Ġbe ep
Ġwas hers
Ġst ur
Ġst ables
Ġdo ck
am used
ĠS ad
Ġse aled
if th
un es
pp led
Ġde als
ĠW oo
ĠW oman
ĠP resently
ĠD arry
Ġpl under
ĠG ene
ĠG REAT
ĠF ederation
ĠF ischer
ĠJ ol
ĠJ essie
ĠJ umbo
ĠL ock
ĠR at
ĠR ic
ĠR ud
Ġex quis
Ġwhen ce
Ġint ellect
He e
no ld
hi bit
Ġtr im
Ġcl aws
Ġbr ow
Ġbl unt
Ġbl ues
ĠK irk
Ġen chan
ass et
pt ic
Ġhand ies
ci ences
Ġim ages
Ġper ple
Ġch ur
Ġch ron
Ġcr ouched
Ġstr ings
Ġcha mpions
Ġcomm ence
rest ling
Ġhard est
bab ble
Ġread s
Ġread iness
Ġdr ain
Ġreg ards
Ġfact ories
sh irt
Ġext ensive
Ġinc on
Ġexpl oded
Ġcur led
fort une
Ġem peror
Al bert
Ġdraw ers
Ġpar ish
Ã¡ k
Ġill um
Ġcamp us
lo v
Ġcor p
Ġdevelop ing
ĠWar ner
Ġaccept able
Ġwarm ly
Ġsnow ing
Ġjud ges
Ġ193 2
Ġpark ed
Ġsatisf y
Ġdestroy ers
ĠMa isy
Ġpuzz les
OP E
Ġemploy er
ĠLou ise
ĠChe ster
De f
Ġtour ist
ĠDO OR
Ġmotion less
Ġproceed ing
ĠEve rett
Ġneg lect
ival ent
fall en
abri el
Ġliter ary
asm ine
Ġcommunic ate
ĠSav i
ĠScott ish
Ġforb id
Ġcalcul ated
Ġbid ding
nee zes
Ġvic ious
Ġcomplain ts
NE W
Ġphotograph s
Ġfasc inating
ĠCad et
Bel ieve
PH ONE
ĠVic ar
ĠFel gate
Ġresign ation
Gra eme
ĠCommission er
Ġprob able
Ġgrav ity
Ġgreed y
Ġmarty r
Ġimple ment
Ġtriump hant
) ]
H and
L I
W alk
a ired
c mon
d el
d rew
i ors
l ist
m ist
r aced
s im
w s
w ord
in ia
Ġb usted
Ġm aps
Ġc hess
Ġto ken
Ġy acht
or ah
Ġp ulse
Ġp itcher
Ġg or
Ġg out
Ġg own
ar ation
Ġin ward
Ġn ah
Ġhe a
ow a
Ġha h
ic cups
Ġwe eds
Ġwe ighed
al ways
Ġis ol
ac re
Ġre tained
ri ot
Ġst alk
st ru
ĠM ack
ĠM USIC
ĠM UCH
Ġan arch
ĠS aul
ĠA ra
ĠB ad
ell i
ĠH it
ĠH omer
Ġj aws
Ġr ows
Ġall ey
th ou
ess ions
ul um
ĠP inkie
ĠD onson
el son
qu ake
ĠG and
ĠG ONNA
ĠJ ay
ĠL IFE
ra ham
Ġsome place
Ġwill ingly
ĠE agles
Ġar d
Ġcl erk
ĠK in
Ġun ited
per ial
Ġgu er
ang es
Ġunder take
iz en
cl ed
og s
up in
Ġmon ot
Ġmon sters
Ġpol es
ĠBr ace
OR TH
Ġworld wide
oot s
Ġass igned
Ġsing les
Ġwind ing
pr it
ĠAr ts
Ġguess ing
ĠAn cient
Ġrep ay
ric ia
ĠGr anny
Ġprom ising
ĠDe an
Ġsy ll
wh ining
An swer
Ġ7 7
Ġ7 9
Ġcho ir
Ġheav ier
Ġconst ruct
Ġve xed
lo at
ĠBar celona
iver pool
Ġbath tub
Ġprof its
amer a
Ġshar ks
ĠLe o
net te
Ġfootball er
ĠRos ie
Ġrecogn ition
Ġ194 9
Ġwarm th
Ġdi ary
ĠComm on
isc asset
Ġ193 6
ĠSm ur
Ġgar ments
Ġproud ly
Ġsevent h
Ġspirit ual
Ġstro kes
Ġdisp os
Ġoccup ation
Ġtrick y
ĠMarg ie
Ġdefend ers
Ġpill ows
Ġcontract s
Ġcraw led
Ġprevent ed
book s
Ġflag s
Ġhurried ly
Ġple aded
ĠJo han
Su per
Ġpension ers
LO OK
Ġdrown ing
Ġmel ody
Ġbump ed
Ġgle am
ĠPh one
ĠDet roit
ĠOther s
Ġtransl ated
Ġloft y
ĠCons ervative
Ġdrift ed
Ġsequ el
ĠNever theless
Ġestim ates
ĠCam bridge
ĠRom ans
Ġlob by
Ġshove l
Ġcert ific
ju ice
ĠPhilipp ines
ĠCare y
Hall o
ĠSER IES
rane an
Ġdram atic
Ġhoof s
Ġpengu in
Ġrans om
Ġremembr ance
Ġexquis ite
ĠSavi our
% .
A be
A side
B ert
N ER
P resently
S aturday
c ook
d ers
f ell
h ide
h orse
l est
l ance
n orm
p osed
v ich
Ġt renches
he ard
Ġw al
on ents
Ġb ully
Ġf u
Ġf oul
Ġy ah
Ġp anda
Ġp aws
Ġl as
Ġn i
ĠI mp
ĠI DS
at meal
Ġst am
Ġu no
am y
ith s
ro ck
ĠM ap
ĠM ister
ĠS ister
Ġas ylum
Ġse wing
ĠA ction
ill son
Ġkn elt
ĠB U
ĠB et
ĠB urn
Ġr ational
Ġcan cel
Ġall ies
ab i
ĠW ayne
el and
el ines
Ġsu cks
Ġsu llen
ĠL is
ĠL inda
res pect
ĠN ort
ous y
Ġtw inkle
ag ram
Ġlo vers
Ġtr act
Oh h
Ġbl aze
Ġen velop
Yes terday
Ġcar ries
Ġdis order
Ġper fection
Ġmust ard
do lly
ĠShe ila
Ġsl id
IN ESS
OU SE
Ġsw itched
Ġwar fare
me ans
Ġlight house
uff s
Ġrel ate
Ġmar ching
Ġbad ge
ĠAl ready
att ed
Ġinter ference
Ġsub urb
ĠAs her
Ġ5 1
ĠBen gal
Ġbar bar
ĠJap s
Ġprov ides
Ġhum ming
Ġ8 2
Re al
Ġsun light
umb ers
Ġcat al
irth day
Ġadm ired
AL IAN
iam i
Ġce ase
ĠOr leans
Ġoper ated
Ġorgan ism
Ġrecogn ised
Ġbright ly
Ġbra kes
Ġmembers hip
mo ving
ĠSw iss
Ġattempt ing
ĠSha kespeare
rel ated
Ġtend ency
igg ling
Ġtail s
Ġexplain ing
ĠLea ve
Ġund oubtedly
Ġinqu iries
ĠChristian ity
Ġopin ions
Ġir re
Ġindic ation
ĠSpan i
Char les
ĠĠĠĠĠĠĠĠĠĠĠĠĠĠĠĠĠĠĠĠĠĠĠĠ ĠĠĠĠĠ
ĠĠĠĠĠĠĠĠĠĠĠĠĠĠĠĠĠĠĠĠĠĠĠĠ ĠĠĠĠĠĠĠ
Ġow ed
Ġtim ber
Ġconce al
ĠNat han
Love ly
Ġsquee zes
Ġresour ce
Ġgrace ful
Ġanno y
met ic
ĠAnt on
ĠNet work
Ġflu id
hum ming
girl s
ĠPost man
Ġvolunte er
ĠJan et
Ġmorn ings
ĠCur ly
Ġwrit ers
Ken zie
Ġnick name
Ġstoop ed
Ġexpand ed
ĠCOMP ANY
ĠBir mingham
Ġclin ic
Ġemphas is
Ġforgiven ess
Ġshat tered
ĠPleasant ville
ĠBate man
ĠBangl ades
uffe ur
Ġincon ven
ĠBrace well
8 9
D a
D anny
E dd
H an
I rene
M EN
P atch
S P
Y a
b ug
c ap
d ust
e ous
f y
h op
i ens
l an
p hy
s ame
t ier
y on
z ens
Ġ ;
Ġt an
Ġa e
ha pp
er ation
Ġb ald
it ory
Ġc m
Ġo ctop
Ġd ensity
Ġto ot
Ġp all
Ġp iled
Ġg ross
ar ming
Ġn appie
ĠI ra
ĠI ND
Ġh ull
Ġth res
Ġth ither
Ġdo se
ĠM ust
ĠM ONEY
ĠA ff
ill ery
Ġat om
ĠC art
ĠB ow
ĠH and
ĠH aven
ĠH ilda
ĠT al
ĠT ae
ab b
Ġout line
ĠP ubl
ĠD re
ĠF ALL
ĠJ ose
ĠL ive
Ġcom ic
Ġ1 20
ĠE ND
ĠO l
âĢĿ ?
no se
And y
Ġqu aint
end y
reat h
Ġbr ack
ĠK yle
ĠK arl
Ġday time
Ġmean while
Ġhand led
ff er
ang o
ne ighbor
Ġapp oint
Ġch ir
Ġch urn
Ġsl ay
Ġsl iding
IN T
Ġcour ty
Ġmin ers
ars en
ee z
Ġdes e
Ġsupp lement
atter s
AT ED
Ġmon itor
Ġsit uated
oc har
Ġfew er
Ġdr ums
vent h
Ġfr antic
gr ade
Ġdri pping
Ġinter net
Ġfire works
Ġaw akened
Th us
Ġ5 5
Ġ5 7
ĠChrist ow
IT E
Ġsy n
ĠBart ol
Ġgener osity
Ġform idable
Ġhair y
Ġfore cast
Ġdoub ted
Ġ9 5
Ġproper ties
Ġmis fortune
ĠLe v
Ġ196 3
Ġstru ctures
oose vel
ĠIT ALIAN
ĠTr acy
Ġdecl ined
ĠPar menio
ya wns
Ġemp hat
Ġban ned
chan ge
Ġcamer as
Ġelect ions
Sure ly
Ġbrief case
din ner
Ġcrack ers
ĠCent ury
Ġcrew s
Ġrese ar
Ġemer ged
Ġresol ve
ĠNor way
sha w
ĠGl en
Ġadvant ages
Ġexerc ises
Ġscrew driver
ko v
ĠMor ris
ĠBro ck
ole on
ĠHal f
ym ph
Ġsch olar
Ġproduc ing
Ġencour aging
ĠMed ical
ĠMos es
Ġmurd ers
ĠMont real
Ġveget able
Ġhousehold s
Ġbon us
Ġsubst ance
Har vey
ĠGirl s
talk ing
ĠStand ish
love ly
Ġpean uts
Ġpoll ution
Ġmath s
ĠJoy ce
ĠGR UNT
Ġunivers ities
Ġreject ed
____ ____
Ġabsor bed
ĠGi ants
ĠBax ter
Ġrehears al
ĠArgent ina
ĠColumb ia
Ġpenn ies
Ġobed ience
Ġfatig ue
ĠEduc ation
ĠNotting ham
ĠFest ival
Ġyogh urt
Ġkinderg arten
Edd ie
B rian
D ay
G ary
M ac
N orm
N ana
R ock
S al
S ue
T A
U C
c ock
e als
f r
h on
r us
r ary
s light
y ah
Ġt ad
in ha
Ġs ins
Ġb orough
Ġb aked
Ġb acter
is ons
Ġc ured
Ġo le
Ġd ivers
Ġd owntown
Ġl ingu
as aki
Ġin aud
ic ut
ic ity
ĠS W
ĠS uk
ĠS IGHT
ĠS ighs
Ġwh im
ĠA ge
ĠB an
ĠH o
Ġr ape
Ġso aked
un ned
ook s
Ġall eg
Ġde le
Ġout ward
ĠP itts
el ed
Ġpl ough
Ġpl ural
ig her
ĠF RI
os es
ĠL iverpool
Ġthink in
res a
ĠR un
Ġcon vert
Ġsp onge
ate ur
Ġv ir
ĠE ls
Ġar ise
Ġgr an
iss ions
ĠK ate
ĠK end
ĠK now
pl om
Ġsc ent
Ġsc ound
av ier
Ġapp rent
ĠShe riff
Ġlea ping
hm en
Ġbu gs
Ġcour te
Ġrec alled
Ġdes ires
ident ly
Ġsw orn
Ġsur m
Ġread er
Ġind uce
Ġpers isted
Ġfun ctions
Ġdra ught
Ġmeet s
Ġbro om
Ġsk ies
Ġred und
iet h
Ġimp art
ual ity
Ġdep ended
Ġsent enced
ex cept
ex cellent
Ġland lord
Ġsy nd
Ġgrand mamma
Ġpleas ures
Ġfight er
ĠTO O
Ġpen is
Ġsurpr ises
Ġfree ze
Ġ7 2
Ġtele graph
Ġjo ins
erv ations
ĠPe ace
Ġmer rily
Ġappear ing
Ġtest im
ĠIndian a
Ġrecogn izes
amb ling
arr ondissement
Ġcompl aining
ĠComm unity
Ġlift s
Ġcas hier
Ġrespons ibilities
Ġrepe ating
Ġrul ing
Ġcomb ine
tr ain
Ġsett ling
Ġeager ness
Ġshore s
Ġspr ings
Ġcrit ics
ĠDO ES
ĠPl ace
Ġmix ture
Ġbrave ly
Ġoccup y
ĠFort ress
Ġdig ital
** *
ĠKe ene
Ġgro aned
Ġflo ated
Ġpad dle
Ġchem istry
Ġentertain ing
Ġess entially
Ã¤ ÃŃ
ĠBern ard
Ġtarget s
yell s
achel or
ĠSen ator
ĠDar ling
Ġappl ause
Ġautom atically
ĠFin ally
Ġrhy mes
El izabeth
Ġtempt ation
Ġris ks
zer b
ĠMars hall
Ġsumm ons
Ġdistingu ish
Ġtempor arily
Ġgrim ly
Ġyield ed
Ġslipp ery
mind ed
Ġeffic ient
ĠJon athan
Ġlung s
Ġabund ant
uzz le
Dan iel
Ġinher it
ĠKent ucky
SPE AKING
ĠDie go
Ġassess ment
Ġbron ze
Ġcorre cted
Ġcere mon
Ġretrie ve
Ġverd ict
Ġorgas m
ĠHEL P
Ġbarr acks
Ġargu ing
Ġbung al
" _
B ull
C ount
C ES
H ot
H ell
I mp
J anuary
K o
K ill
M S
M i
S us
T em
a ver
c s
d iv
i u
i oca
j um
k ia
m oney
n ell
v ance
in clud
it ations
Ġm rs
is ible
Ġd w
Ġd izzy
Ġy onder
en cer
Ġp ies
Ġp ens
Ġg room
Ġl ent
at us
Ġhe aling
Ġre ef
Ġfor wards
st ret
Ġwith drew
ĠM eanwhile
Ġnot withstanding
ĠC iscasset
ĠB ess
ĠH elp
Ġher itage
Ġr ides
ĠT res
Ġsh udder
Ġab st
Ġab brevi
ĠW AY
ĠP O
Ġpl um
Ġor nament
ĠG ri
ĠF ine
ĠF ull
ĠJ es
-- âĢľ
ist les
Ġjust ify
ĠR INGING
ĠR ogers
Ġsp aces
Ġex agger
Ġman ned
ĠE s
ĠO p
ĠO liver
Ġpro cl
Ġtr unks
Ġqu oted
Ġcl ips
ĠHe art
we gian
Ġbl ond
iss ing
the ir
Ġpre jud
Ġpr am
Ġsc am
Ġsc andal
ĠSt acy
ful ness
ĠV ice
Ġsl aughter
ign s
In spector
Ġmen u
oc o
Ġpass port
ĠFr ont
omb s
Ġball et
ĠAl ger
Ġremember ing
Ġass ets
Ġcap ability
Ġhigh chair
Ġinv iting
Ġid i
Ġid ol
ĠAn laf
ten ance
Ġcountry men
ĠGr ammy
Ġweek ly
IT NESS
ĠSo on
Ġsy nt
Ġbusiness es
Ġpaper work
Ġwin ners
head s
Ġdark er
Ġ8 3
Ġpast a
ĠSp eak
ĠAd miral
Ġdisapp oint
Ġprof ile
Ġequ als
Ġcal f
Ġcontro ls
ĠMc donalds
Ġstri kes
Ġwhis key
Ġbank rupt
ĠSh into
Ġcompl ained
Ġincre ases
Ġchief ly
Ġscar f
gu ess
Ġtor rent
ĠMe iji
Ġperiod s
ĠGrand ad
ĠSha wn
Ġfright en
Ġsepar ately
UR N
ĠME AN
Ġund o
ico le
Ġinqu ire
ĠMon ica
Ġrelations hips
Ġimm ort
Ġdeb ts
Qu iet
ugg a
ĠBert ric
Ġrob bery
reg ular
Ġbeha ved
Ġdefend ing
Ġant el
ĠNor folk
sha kes
Ġsna il
every one
Ġsore ly
Ġtid ings
Ġpoison ed
imit ating
Ġbub ble
ĠWOR K
Ġmaid en
Christ mas
Ġspark ling
ĠFair y
Ġdough nuts
Ġloyal ty
Ġcors air
Ġeth nic
Ġrein force
ĠTor onto
Ke vin
Ġrept iles
Ġtal ented
ĠNichol as
Ġinit ial
Ġdiagn osed
Ġadministr ative
ĠElf wyn
ĠColomb ia
sem ble
ĠKap oor
ĠHawai i
Ġconfeder acy
ĠSup reme
Ġstag gered
Ġstur dy
oosevel t
A UT
B A
B on
B it
B et
C ap
F ore
G RO
G osh
H am
J ake
O ctober
P R
P il
T eddy
U r
W HY
_ ,"
b by
b bing
c ard
c ery
f ree
h ou
j ay
k nock
m itted
n oo
n atural
p arty
r abbit
t ip
t che
v r
Â ¡
Ã £
Ã ´
Ã ł
Ġt anks
Ġs aints
Ġs ittin
er als
Ġb ah
Ġb ounds
Ġm all
Ġm ol
Ġm oss
Ġc rop
es ter
Ġp ard
Ġl uc
ar act
Ġha ck
ve red
Ġth ud
ay ed
et ti
Ġon ions
al al
im ore
ly mouth
ri ages
Ġst ink
ion a
Ġdo zens
out ing
ĠM ake
ĠS han
ĠS ylvia
Ġse aman
Ġwh oles
ĠA k
ĠA p
ĠC re
ĠB ASE
Ġher d
ĠT est
Ġsh irts
Ġsh ifted
um ns
op hy
Ġout l
ĠW r
ĠW arden
ĠP U
ĠP in
ĠP ER
ĠD i
ĠD onna
ĠD ark
ĠD ennis
Ġal umin
Ġpl ight
ĠG ippie
ig ation
ig ators
ĠF ood
itt ees
ĠL F
ĠR i
ĠR oc
own ed
ĠN az
Ġany time
Ġv on
ag ged
Ġpro bab
Ġpro dig
Ġover sp
Ġfe es
Ġro sy
Ġbr ows
Ġgr id
Ġbl amed
ble m
Ġmake up
ho ven
Ġun gr
wn ing
Ġhand ing
Ġfl ick
Ġcar ved
Ġcar av
ne g
Ġhome less
Ġsl am
Ġcr utches
man y
ĠIn s
ĠIn vest
Ġgl owing
Ġgl obal
Ġel abor
atter ing
uc ing
Ġpres ume
ret ion
Ġwar mer
ĠMiss us
oll en
Ġmar gin
Ġinst all
Ġwond ers
Ġimp et
ĠAr cher
Ġexp end
Ġref resh
Ġinf er
ats on
Ġtre ason
ĠCl amp
ĠCl aud
Ġgener ations
Ġcontin ually
Ġform ally
Your s
ĠCha d
ĠZ oo
ĠZ ohra
Ġmess ing
LE T
Ġ8 6
Ġhon ored
Ã¡ s
ik h
Ġmed als
ĠSp y
Ġart ific
zz o
col or
Ġexper ts
Ġmer ger
bl ow
Ġstation ed
Ġpract ise
Ġorgan ic
Ġsuper st
Ġbull ion
Ġhuman ity
ĠSh ort
Ġprogram ming
Ġearth quake
ĠST ART
Ġ193 4
Ġ193 7
Ġemb ark
ĠIS LAND
Pro f
ĠRE PORT
Ġbomb ing
Ġtechn ique
Ġtechn iques
Ġimm une
Ġoffe nd
Ġfault s
Got ta
Ag ent
Ġpa using
Ġattract ion
Ġindic ates
Ġheaven s
Ġsurv ival
fall s
Ġcro ps
Ma isy
ĠChurch ill
ĠRy an
Ġdise ases
ĠMel bourne
Ġrejo iced
ĠPo acher
Ġaband on
Ġpsych ological
Ġdetect ed
Ġcris p
tt p
Ġinstit utions
Ġlos er
Aunt ie
Ġmars hal
Ġcateg ories
Ġarchite ct
Eng ine
Ġelectron ic
fight er
breat hes
Ġbail iff
Ġdischar ged
ĠBox er
Bre ak
ĠForm ula
ĠQueens land
Ġsod ium
Tur k
ĠVe gas
ĠUt ah
ĠDak ota
Ġcourty ard
zerb ai
4 3
B ALL
B ODY
F riend
F amily
J on
L ondon
L IE
M s
M uch
M akes
N orth
N eed
P op
R oland
S ikander
W ARD
b red
b eautiful
c ough
c ade
k u
l ich
r ina
t ries
t rees
Ġ iv
in ence
Ġw ink
Ġw ailing
er r
Ġm ent
Ġm ound
Ġd uke
Ġf ry
Ġf el
Ġf rench
Ġto ads
or f
or in
es pecially
Ġhe ating
Ġha unted
ut her
al gi
se ction
Ġst eak
ĠM orning
ĠM abel
Ġse als
Ġwh ore
ĠA P
ĠC air
ĠC www
ĠB ruce
ĠH ir
un ction
ĠT ina
Ġcan cell
Ġall e
Ġsh iny
Ġde cks
ĠW restling
ĠP ublic
ĠP iper
Ġal as
ĠJ i
ĠJ ed
ĠJ ared
ra v
Ġsp lin
na ughty
ĠN elson
ĠE arly
ep h
od ox
ĠO ri
Ġtw inkling
Ġback up
Ġtr am
what ever
Ġar ray
Ġcl icking
Ġcl inging
Ġpe ered
ĠK um
orn s
Ġtell y
pl o
Ġsc ree
Ġdis k
Ġfo am
Ġfo lly
Ġcomp act
Ġhead phones
ĠV III
ĠV iolet
man s
but ter
Ġche ered
Ġkeep er
Do or
Ġfar ms
AT ER
Ġmon ument
Ġmind ed
Ġri bs
OR K
Ġcol ours
ĠAl c
AR O
Ġsk etch
Ġmiss es
br aska
Ġrep ent
Ġrep aired
Ġplan ets
Ġext ension
Ġ4 3
ĠCl ay
ouch ing
ĠBart ram
Ġcur ve
Ġform ation
ĠCar ib
Ġ8 9
Ġpast ure
de al
Ġclass room
Ġnin th
Sh r
Ġconst able
ĠPro du
20 20
Ġexcept ions
form ation
Ġclim bs
Ġtick ling
Ġdev ices
Ġrespect s
Ġcommand s
ĠAm az
AK ES
Mar gie
Ġbutter flies
RI G
under current
su it
ĠSm all
Ġbound aries
Ġhy ster
ĠPl an
Ġharm less
Ġdefend ed
Ġmum mie
Ġvac ancies
Ġcart oon
Ġcong ratulations
Ġant agon
ĠDem ocrat
rid or
Ġple bes
Grand father
ĠNE ED
Ġinstru ctor
ĠDep uty
Ġreve al
Ġincident s
OF F
mark et
Ġparticip ate
ĠSH OULD
ĠHa ving
Ġrelie ve
Ġachieve ment
Ġrepro ach
Ġward robe
Ġcandid ates
Ġindign ant
Ġaccommod ation
ele phant
ĠRh ines
Ġeld ers
Ġarchite cture
ĠBuild ing
ĠAF TER
ĠLeices tershire
Ġsqueal ing
Dun no
Ġvolcan o
ĠCLO S
minist ration
Ġsurviv ors
Ġveter an
Ġunsu ccess
ĠPhy llis
ĠConnect icut
8 8
A f
B uy
D allas
F rench
F ebruary
G as
G il
I P
J enn
J UST
L u
P romise
R ead
S and
S aid
b rilliant
h t
h urry
i ate
l it
m ama
m icro
n ation
p m
t im
t aking
y u
Ġ q
ha fta
Ġb ough
it imate
Ġd war
an se
Ġp ose
Ġg uts
Ġl amps
ar ound
Ġn av
ĠI d
le en
ic ab
Ġwe aker
Ġst amped
st al
ĠM ix
ĠS ue
ĠS elena
Ġnot icing
ĠA na
ur ation
ill ings
ĠC os
ĠC arson
ĠH istor
ĠH assan
Ġj et
Ġr g
Ġr az
Ġr iches
ĠT it
ĠT at
ĠT oll
ĠT odd
Ġsh rim
Ġsh ifting
op ot
ab ul
ĠW right
Ġlike wise
ul ah
ul ner
ĠP LE
ĠD uck
qu ite
ĠThe atre
Ġno ds
ĠG en
ĠG riff
ig i
ĠF ern
ound ing
-- âĢĿ
ĠR est
ĠR AF
Ġsp ed
Ġsp ears
Ġint entions
Ġbo iled
Ġqu ad
Ġoff ense
Ġpe ek
Ġam ple
Ġco c
ount ain
Ġfl ush
Ġfl owed
Ġpre lim
Ġcar ing
Ġcar pent
Ġte ase
Ġsha bby
ĠV II
Ġsl ipping
man ces
Ġhar ness
iv ia
Ġrec y
Do c
Ġpres idency
oun ced
Ġpret ti
Ġbest owed
Ġfr anch
fect ures
Ġtri bal
Ġcol umns
Ġsub du
Ġmet er
Ġmet res
uss ion
Ġtable ts
Ġtra uma
Ġtra gic
ok a
ok o
Ġ5 9
Ġprom ote
ĠDe velopment
Ġtre ad
wh im
Ġcoll abor
For give
Ġ6 3
Ġstrong est
Ġ8 4
Ġlay ers
Ġhorse men
ĠRe ich
Ġart illery
Ġlaw yers
ĠIN TO
cha l
Ġdisapp ro
Ġbur gl
Wh ose
Ġz ip
Ġz oom
uk es
Ġpack ages
Ġbra very
ĠAb raham
work ing
Ġban ner
Ġsol itary
ĠST R
Me et
Ġarr anging
Ġhast y
ĠSe o
Ġcapt ivity
Ġjoy ous
Ġjoy fully
Ġdesign er
Ġmarket ing
Ġoffe nded
Ġproceed ings
Ġgrad uating
Ġloss es
Ġdemand s
ĠEll a
uten berg
Ġcult ural
Ġstre ak
ĠDem ocrats
rid ges
Ġcivil ian
ĠDE AR
ij ay
AB LE
try ing
Ġox id
Ġpant ed
Ġcrim son
Ġcrim inals
ĠSy stem
ĠSy ria
Ġtun a
Ġmel ted
Ġrestaur ants
dro ps
Ġrhy me
Ġcrown ed
ĠÃ ¢
Ġcompos ition
Ġenthusi astic
Pre viously
Ġimpati ently
ĠBraz ilian
ĠIm perial
Ġcam el
ĠRome o
ĠVis it
ĠVis hal
Ġaspect s
Ġseas ide
Ġadvert ising
Ġrecon cil
Ġslee ves
Ġded icated
Start ing
Ke ith
grand ma
Ġdepos it
Ġfiction al
Ger ald
Ġacknow ledge
Ġimmig rants
Ġsole ly
ĠEnd ers
Ġclo ak
Ġavo ided
Ġtroll ey
Ġscal p
Ġfrag ments
Ġmanif est
Mal colm
ĠLead er
igen ous
Ġbrut al
Ġpsycho an
Ġcaval ry
ĠSyd ney
Ġdw elt
ĠTres ham
Ġpretti est
! !
A cc
C OM
C opy
F ree
G ina
H elen
K ar
K ind
M E
M ain
S l
S TER
S OME
V er
b at
b ub
b ank
c ons
c ony
d ened
e ffic
g or
g han
k un
k itty
l orn
m ic
m aker
s igh
v ar
Â Ń
Ġt ents
it ness
is ation
Ġd ashing
Ġf oss
Ġf iance
Ġy ay
en burg
Ġp ia
Ġp ail
Ġp omp
Ġp ensions
Ġg au
Ġl ousy
Ġn anny
at on
le a
Ġit ch
et e
et ic
Ġe f
Ġre vel
Ġre venue
st atic
ĠM ember
ĠS leep
Ġwh ining
ĠA ROUND
ĠC ups
ĠC APTAIN
ĠB ooth
ĠH ope
ĠH OL
Ġj umps
Ġr it
Ġr ation
Ġso lic
ain es
ĠT rees
Ġall iance
Ġsh udd
Ġsh illings
ood les
ry s
ink er
ĠP lymouth
ĠD VD
Ġsu cking
ĠF itz
ĠL ot
ĠR ing
Ġsp here
ĠN aval
od or
Ġbl uff
Ġen s
Ġplay ground
Ġhand ling
Ġpo ke
ĠU ntil
Ġad equ
ru ff
Ġsha mpoo
Ġch icks
ob a
ĠV OT
ĠĠĠĠĠĠĠĠ ĠĠĠ
There fore
Ġche ery
port ant
Ġcha os
let t
let ons
ple nd
Ġac res
ĠUn ivers
ĠTHE IR
Ġdist ressed
ĠWhat ever
Ġreg iment
gr own
ush ima
Ġass ented
Ġinst ruction
Ġfire man
Ġinv isible
Ġexp osure
Ġref ormed
ĠGer da
Ġten se
Ġsign ing
Ġext end
Ġtre nd
Ġcur ls
for ced
Ġstra p
light s
unk er
Ġ8 8
Ġmain tenance
Ġpub lish
An n
Ã© s
Ġexam ines
Ġdem ocratic
Ġmot iv
Ġfavor ites
ĠX IV
Ġblock ed
Ġhang ed
Ġequ ivalent
Ġpost p
onel iness
Ġvar iable
ĠMin ardi
Ġcharacter istic
was n
ĠSh ould
Ġinvol ving
off at
Mar ion
Ġjoy s
Ġdesign s
Ġaut onomous
Ġoccur rence
cul es
Ġoppos ing
ĠRE AL
Ġur ge
Ġtechn ically
ĠMon te
pret ends
Ġacqu is
Ġgrad uate
ĠDid n
urs ed
Ġinflu enced
ĠMarg ry
Ġenter prise
Ġcircumst ance
turn s
Ġafford ed
ds hi
ĠAnge la
Ġlower ing
ĠTH AN
Ġhesit ate
ograph ical
Ġpropos ition
ĠPal ace
Ġsch olarship
Ġproduc es
ĠStan ard
ĠCr us
bu ilt
Sm all
hun h
ĠMil fort
Ġminor ity
ĠRock y
Ġfortun ately
Ġterrit ories
ĠLight ning
ĠSC REAM
Ġcommun ist
Ġthrill ed
ĠServ ices
Ġchuck led
omi ya
rec order
Ġunlike ly
Ġstor age
uls ive
CON T
Ġult imate
ĠCind y
Ġcush ions
Ġsaus ages
Ġunivers al
Ġconstitution al
Ġturb ochar
Ġvel vet
Ġsoot hing
Ġaccus ation
Ġau ber
ĠPra gue
ĠThom pson
engu in
Ġmans ion
Ġdent ist
Ġacad emic
ieder ik
Ġchur ches
ĠPitts burgh
ĠAlc inda
micro phone
A c
A le
B o
C ontin
F a
H ye
I mag
K aren
R et
R IST
S ing
S ally
T op
V is
V ENT
b un
j ah
p aste
t ha
u ary
w ake
Ġt apping
Ġt angled
he ka
Ġb ake
Ġb agg
Ġm as
is ode
Ġd ung
Ġf ishes
Ġg ull
Ġl am
Ġn appy
Ġh ush
ot es
et ies
et to
Ġbe ad
Ġre ct
ĠS is
ĠA WAY
ill ance
ĠB owl
ĠH O
ĠH ook
ĠH afed
Ġr av
ĠT ha
th ren
th odox
um at
ĠW atch
ĠP el
ĠP atch
Ġsu ited
ĠG as
ĠG reeks
ĠF ATHER
ĠJ uan
os ph
ĠL A
ra g
ĠR ifle
Ġex ult
Ġv ows
ĠE ight
ĠE conom
ĠO w
ĠO LD
Ġint ol
Ġpro ves
Ġoff ensive
Ġpe oples
Ġbl iss
ud er
the ned
ĠK az
ass ium
ount ed
Ġun believable
HI P
ci ation
Ġcar n
ru g
ĠSt re
ĠSt ock
cl own
Ġte asing
Ġsha dy
ens on
Ġsl ing
old s
Ġbu rial
ail or
ars ons
CHI NG
Ġrec ession
Ġel astic
Ġear ning
Ġreal izing
Ġind ifferent
Ġside walk
ON T
me an
Ġtri als
Ġsk i
sh ore
Ġph oned
br umm
ĠInd epend
Ġdisc o
Ġhat red
Ġste alth
Th ird
ĠDe idre
Ġbas es
ĠCl are
Ġsqu ash
AS H
Ġcent res
gs on
Ġins ign
ĠCha nd
Ġorder ing
ĠMOT HER
ĠRe ady
Ġ7 1
umb ent
âĢĶ âĢĶâĢĿ
,-- "
oop ed
ĠBar ney
uri ously
Ġshut ting
Ġband ages
Ġbright er
Ġdev ast
Ch uckles
Ġdescri bing
arr ison
Ġrespect able
ĠEl isa
Ġpriv ately
Ġpark s
Ġfil thy
ĠMad ame
Ġgen ie
Ġrul er
Ġconcer ts
tr ack
Ġhost age
Ġwest ward
Ġstro de
Ġfashion ed
ĠAlf ie
Ġ192 7
Ġtravel ers
vi Äĩ
Ġbal cony
Char l
ĠĠĠĠĠĠĠĠĠĠĠĠĠĠĠĠĠĠĠĠĠĠĠĠ ĠĠĠ
amm ie
Ġcontr ad
Ġperfor mances
Ġow es
Ġpra ised
ĠLab or
ograph ic
Ġfier y
ĠAB C
UL T
Ġsymp at
Ġappl ies
Ġjealous y
Ġpil ots
ĠMill er
Ġcontribut e
ĠAny thing
Ġgle e
Ġtyp ically
Ġprospect s
ĠPan jab
Ġappeal ed
Ġsam ples
ĠRod rigo
Ġrust ling
Ġdough nut
Ġlos es
Ġpeep ed
Ġgrin ned
Ġresident s
Ġresident ial
ĠNa omi
Ġanticip ated
Ġorganis ation
Ġcri b
ĠPa heka
Ġbru ised
Ġinterpret ation
ĠBrother s
ishi ge
Ġsust ain
ĠCorpor al
ĠCorpor ation
Ġrenew ed
Ġcla pped
Ġunemploy ment
ĠCub a
Ġsoph om
ĠBrook lyn
ĠLion el
GRUNT S
Bra vo
ĠNak tche
Ġfrustr ated
ĠStu art
Ġinev itable
Ġpige ons
Ġpresum ably
ĠBalt imore
Ġasc ertain
ĠFound ation
ĠSunny side
Ġwol ves
ĠJol iffe
Ġdele gate
Ġtestim ony
Ġbungal ow
6 5
B us
C ass
D eep
F ant
G ro
H ands
K a
K ay
L and
L aw
M oney
N ord
S outh
S ex
S eptember
T a
T exas
c u
c ame
c ott
c ulation
c rit
e yes
e ges
m el
p res
s un
s ort
s hire
v or
Ġt enth
he h
Ġw akes
Ġw its
Ġthe at
Ġs aint
Ġs izes
Ġs arc
er ies
Ġb ould
is ive
Ġc oup
Ġd re
Ġd ictionary
Ġf ainted
ed ro
es ame
Ġg asp
Ġl ac
Ġl umber
om ot
Ġh ob
ic he
ic ular
us ively
Ġbe hold
Ġfor lorn
ri ous
ent e
Ġst ain
Ġdo do
ro gate
ĠM iami
ĠM offat
ĠS in
ĠS weet
ĠS CHO
all ow
Ġse izing
ĠA ctor
ĠA unty
ĠC op
Ġkn ots
ĠH op
ĠH ons
ĠH ans
ĠH unting
ĠH OUSE
ant ing
Ġj ug
Ġr ay
Ġr owing
un ge
un ately
Ġup wards
You ngeun
ĠT sar
Ġsa bot
ight ed
ĠW atson
ĠP UT
ĠD aven
ĠD illson
Ġpl ank
ĠG rundy
ĠF oll
ĠL en
ĠL iz
ra zzo
ĠR ita
ĠR oosevelt
Ġman ly
here nt
ĠO scar
Ġtw ent
ag s
Ġpro secution
Ġback ing
end ix
Ġcl icks
ost er
Ġro be
we alth
Ġgr ub
Ġbl ade
Ġbl oom
ft en
Ġ( ï¿½ï¿½ï¿½ï¿½
ĠK enn
Ġen abled
self ish
Ġco arse
ian e
Ġun con
Ġgu ided
ang ling
Ġsc ant
ne ys
Ġcr ust
Ġchan nels
Ġcour ses
ling ton
Ġser ial
AN GE
Ġbus es
Ġret iring
ĠMar low
az ar
Ġlight ing
gr oup
Ġtri pp
Ġinst ances
Ġsing ers
att ie
pr ot
Ġdisc on
ats u
Ġcoll ision
Ġless er
Ġsqu ares
Ġreason ably
Ġ6 4
fic ial
ster dam
Ġsweet est
atur ally
de re
Ġgovern ments
Ġ9 2
zz a
erv atives
ĠIN TER
Sh ort
Ġcor ridor
ĠCan ute
angu age
Ġmis chie
ĠOn line
Ġspend s
Ġpost er
Ġest eem
Ġval id
Ġcover age
sc reaming
Ġang uish
Ch uck
Ġhospital ity
Ġdi plom
ĠRichard son
Ġaccident s
Ġrad i
Ġrad ius
Ġcouncil s
Ġvocal ising
Ġpretend s
Ġconvers ations
ĠSund ays
ĠJust in
Ġobs erve
ĠMom ma
ĠEx ecutive
Ġthreat en
arth y
field s
Ġpat ron
Ġpath s
Ġcrit ique
ĠPl at
lor ia
Br ad
ĠPark er
reg ation
Ġeconom ics
min ute
Ġgro ve
ĠEvery body
ĠNor wegian
sm all
roll ed
Ġflo ors
rick et
Ġarg ued
ĠBat man
ĠMission aries
Ġincred ibly
Ġsymp athetic
ĠTri p
Ġconsult ed
ĠLE ON
ĠWOR LD
ĠLight on
Ġexceed ing
Ġdiamond s
ĠBa ek
Ġrag s
Ġexchan ged
Ġawait ed
OS S
Ġtox in
Ġscen ario
Ġbond s
Ġvirt ue
tom orrow
Ġvolunte ered
Ġcough ing
Ġstor ms
Ġnom ine
ĠFle ming
ĠWes sex
Ġcorrespond ence
Ġske leton
âĻªâĻª âĻª
ĠHorn er
Ġfug itive
Ġpanc akes
Ġhither to
Ġmos qu
Ġtut or
Ġquot ation
Ġcob alt
Ġchlor ide
Dave y
Ġcoco a
ĠWars aw
Ġperf ume
Ġey el
ĠRu pert
ĠHAPP EN
ĠTheod ore
Honest ly
Ġpave ment
Ġbegg ar
Dor othy
Ġvigor ously
Ġprobab ility
ĠClamp ett
opot am
Ġsubdu ed
B as
B etween
C arry
D D
G B
G reen
J e
K i
M ont
N ine
S leep
U rs
W ind
b et
c ry
g ium
h it
i qu
j asta
l av
m oor
n ia
r ust
r ide
s ized
t ically
Ġt rench
Ġa int
in omiya
Ġw iser
Ġb rigade
is ms
Ġd usk
Ġf lex
Ġto ll
ll eng
Ġp hen
Ġg ait
Ġl oo
ĠI X
at isf
Ġhe ir
Ġh orm
ut o
im o
ad ers
Ġk etch
ro pe
ĠM are
ĠA mb
ur red
ĠB ajor
ĠH el
ĠH ast
ĠH ud
ĠH OR
Ġj ur
ĠT hy
Ġall igators
th ird
Ġab ilities
ĠW WE
ĠP arsons
Ġno is
Ġpl aster
ĠG em
ĠG arden
ĠL oki
ĠL adies
ĠL AUGHING
-- '
ĠR ider
ĠR over
Ġcon ting
Ġsp ee
Ġex hibition
ĠN ature
ĠN ights
Ġv ia
ĠE mbass
Ġover fl
Ġcl utch
Ġaf loat
Ġbr andy
ĠK ings
ĠK ISS
Ġtell in
ire ct
irst y
ho g
Ġun selfish
Ġpart ially
cc oli
av or
oy s
Ġcha lleng
Ġcomm otion
Ġacc ursed
Ġyoung sters
Ġreal ised
vel ina
az ine
ject ed
Ġri ot
gr abin
Ġcons ervative
sel s
Ġsk irts
EN G
Ġmet eor
Ġdisc rim
ĠTh ird
Ġ5 6
ĠGr acie
ĠCl ifford
Ġgrand dad
Ġsqu aw
Ġcontin ent
ĠBe at
TER ING
ĠZ e
Ġdef ine
Ġmark er
Re becca
Ġra is
ham pton
Ġ9 6
ding ton
Ex cellent
ĠHer stan
Ġmer it
bl ocks
ĠOr gan
Ġwa ff
Ġtreat ing
Ġgrow ling
Ġled ge
ĠWh itt
Ġvol s
with out
your s
UN G
Ġfool s
igg ers
Ġcru cial
Ġspring ing
ĠSu pp
Ġsett lers
Ar thur
ĠSam my
Ġeast ward
sings ong
YOU R
De rek
Ġallow ance
wr ong
IE VE
Ġvers us
Dad aw
ĠNe il
Ġchat ting
RA FT
Ġmut tering
Ed ward
dra wing
Ġtap ir
ĠRem ember
ĠJo an
Ġdepart ments
Ġattend ant
Ġpant ry
Ġdim ension
Ġcompar ative
Ġlog ical
ATION S
Ġ188 0
Ġdisappear ance
ĠTw ilight
Ġjoint s
Ġder ived
Ġfest iv
Ġrat io
Ġchamp agne
Ġvig orous
Ġtooth brush
ĠProv idence
Ġlink ed
aph ne
Ġswell ing
Bill board
Ġillustr ations
ĠSol omon
ĠAle c
Quick ly
ĠMau grabin
ĠFour th
Ġmorn in
Ġult imately
Ġdistract ed
Girl s
Ġber ries
arin en
ĠMuhammad an
Ġpubl ishing
ĠJac ob
ĠNap oleon
ICT OR
Ġsty les
Ġcompre hens
Pat rick
Ġbrisk ly
ĠVin cent
Ġresent ment
ĠTAL K
Ġbapt ized
SOPHI A
Ġhosp itals
Ġinnoc ence
Ġunwill ing
SEL F
stret ched
ĠCair o
ĠCarib bean
abul ary
Imag ine
ĠFoll ies
ĠHud son
Ġspee ches
- .
B orn
B arty
E vent
F E
F ight
G onna
S ister
S ara
T R
T ill
T ING
V ic
W omen
f ar
i at
k h
l ies
m al
n umber
p age
p itched
s hed
s ugar
Ġt el
he ar
Ġw ilt
Ġw iggle
Ġs ly
er os
Ġb ash
Ġb aa
Ġy ucky
ed y
ed ged
Ġp harm
Ġl s
Ġl av
ar on
as ingly
Ġin habited
Ġh ugging
le gged
Ġth ine
et ah
us alem
Ġbe in
Ġbe llow
Ġbe held
Ġwe as
Ġwe eping
ac s
ac ies
Ġre build
ir o
Ġst ages
Ġst ored
ĠM P
ĠM ick
Ġan ten
ĠS it
ĠS ound
ĠS eth
ĠS uddenly
Ġwh iz
ĠA th
ĠA zerbai
and ro
ĠC R
ĠC ir
ĠC ra
ĠC rim
ĠB ent
ĠB ond
ĠB ath
ĠB apt
if i
ĠH enri
Ġr ash
ĠT u
ĠT ar
ab ab
ab ella
Ġout come
Ġout stretched
ĠW ald
ĠW OMAN
ul ously
ĠP ress
ĠD L
ol o
Ġsu e
Ġsu ite
ĠG L
ĠG ill
ĠG az
ers ed
ĠF ight
ĠF IND
ĠJ u
ĠJ am
ĠJ oon
ĠJ asper
ĠJ asmine
Ġsp okes
ak h
ĠN ik
ĠN atives
ĠN iger
ĠE ston
od us
Ġback pack
we ight
Ġle ctures
ĠK r
ĠK or
ĠK IND
Ġen force
ass i
Ġco aching
Ġwhere abouts
act ions
be c
Ġun l
ress ive
Ġpre fectures
Ġyear ling
ia ow
int ellig
iz ard
Ġte ased
gg s
Ġhel m
do gs
Ġlea pt
Ġuh oh
Ġgl im
Ġatt ent
Ġeat in
Ġhard s
Ġbre eding
Ġbre thren
Ġpol ish
Ġsw ollen
Ġind uced
ĠFr ances
cle an
Ġdec ides
Ġpick le
ĠEd wards
ale nd
Ġeight eenth
Ġref urb
Ġ5 2
ĠBe ing
Al ice
Ġhum ili
Ġ8 1
Ġ8 7
Ġfore most
Ġdef erred
Ġpartic ulars
ĠRe verend
Ġstraight ened
ST AND
Ġarri ves
ĠPr ison
With in
Ġpolic emen
Ġ17 8
Ġstru ct
ĠKing ston
Ġsupport s
Ġcomfort ing
Ġsad ness
la pped
Ġdecl ine
Hi ya
Fr ance
Ġsnow y
Ġdescri ptions
ĠWh ig
ĠComm and
Ġinvol ves
Ġver anda
lect ric
Ġswim mer
Ġninet eenth
Ġproject ions
por ary
Ġcontain er
Ġtax icab
hand le
Ġstro lled
anch oly
Ġinflu ential
Ġmud dy
ĠNe braska
Ġpin ned
Ġfem in
Jack ie
Ġcelebr ating
Ġwrest le
Ġaffect s
Ġlack ing
IG N
Ġpositive ly
Ġboun cing
Ġrejo ice
Ġcig ar
Ġprem ises
Ġconqu est
Ġbon net
Ġpure ly
ĠPir ates
Christ ian
Ġcoun cillor
ĠSpr ings
Ġvig il
toy s
Ġcritic ism
Ġdraft ed
Ġindign antly
sho es
Ġimit ate
Ġconsist ing
Ġpupp ies
CL A
ĠDeb bie
ĠPortug al
Ġdepos ited
ĠIran ian
song writer
Ġly rics
Ġhym ns
Ġfres hmen
OUGH T
ĠTurn er
Ġque ens
GAS PS
ĠJO E
Ġdisple asure
hero e
ĠKath ryn
imet res
Ġdorm itory
Ġtrump et
ĠKal yal
Ġpenal ty
ĠRect or
ĠVo ice
appro priate
Ġmatt ress
Ġambit ious
Ġtriang les
spr ing
Ġcaterpill ar
Ġneut ral
Ġsimultane ously
loy d
ĠSpani ards
Ġfranch ise
Ġpia zza
' '
5 3
A ir
A sh
C D
C al
C ross
F ound
F air
G U
H aw
H ush
M ajor
N ight
N ancy
R en
R oss
S ave
S pecial
V an
W oman
_ ,--
f als
f ering
f ifty
g b
g d
g osh
k la
l eness
m ith
m arsen
p ast
p ence
p oles
r ine
r ings
r aint
t ad
w ife
z in
Ã ¥
Ã «
Ġ +
Ġt ab
he a
Ġa ired
Ġa ided
in ery
Ġb atch
Ġb ounded
Ġb uns
it os
Ġm amm
Ġc ement
Ġc emetery
Ġf ero
Ġp aces
Ġin put
Ġhe ated
Ġhe aps
ow een
et een
id dle
Ġe rect
al in
al though
Ġfor ks
Ġfor cing
ad le
Ġst em
Ġst unned
out ed
ro ach
ĠM is
ĠM OR
ĠS aw
ĠS ports
all ing
Ġnot able
ĠA ub
ĠC age
ĠC Ã©sar
ce ls
ĠB ureau
ĠB ulgar
ĠB rendan
ĠH ou
Ġso vere
ĠT F
ĠT oo
ĠT ip
ook er
th s
op sy
ĠP anthoibi
ĠP ansy
ĠJ orge
ĠJ aguar
ĠJ udy
os er
ĠL al
ĠL ost
ĠL uck
ist ical
ĠR oom
ive k
Ġsp ank
ĠN BC
Ġany ways
Ġv au
Ġv amp
ich inomiya
Ġman gan
âĢĻ .
ĠO il
ĠO rigin
ĠO cala
Ġlo ll
no body
Ġover night
Ġar se
Ġpe ach
Ġgr anny
Ġbl ades
Ġen closed
ps y
Ġdis in
Ġrem n
Ġwr ought
Ġcomp romise
Ġch ugga
Ġhead long
ĠV ar
ys s
let ter
Ġrun away
ner gy
Ġsit com
Ġpol ished
Ġac ute
ĠUn it
oc ity
Ġdist ur
Ġreal m
ON Y
ĠMar ines
Ġrel ates
gr ad
St an
Ġcons pic
Ġass isted
Be cky
Ġred oub
app er
Ġbox ing
Ġsub way
Ġtra iling
Ġext ending
Ġmonth ly
ĠĠĠĠĠĠĠĠĠĠĠĠĠĠĠĠ ĠĠĠ
ones ome
wh oop
Ġcur sed
Ġfight ers
ĠYOU NG
Ġ6 2
ĠZ orin
Ġdraw ings
Ġsn ug
An na
ĠSp otty
ĠAd d
Ġreport ing
Ġap iece
Ġ9 7
Ġ10 1
ĠBl ood
Ġda isy
ĠX II
iter ranean
Ġcirc ular
ĠOr ange
Ġshoot er
Ġbes ie
Ġconsider ations
ĠTr uman
ĠTr inity
Ġ195 3
ĠSc ar
Ġgrow l
Ġrespect ive
Ġcommand ing
ĠAm elia
ĠAm sterdam
Ġport ray
ĠAg ency
Ġshare hold
Ġfright ening
Pro duced
Ġyouth ful
Ġinqu iry
De cember
hand s
ĠDO ING
Che er
Ġbang s
ĠMac le
kiss ing
Ġappreci ated
ĠLaw yer
sha ped
Ġcivil ization
Ġwhist led
ĠTH REE
Ġdrunk en
ERS ON
ĠPal est
NO CK
Ġbat hing
Ġmel ancholy
Ġsorrow s
Ġnovel s
cr ash
UM B
ĠFin n
Ġmurm ur
Ġprec aut
imit ates
Ġgreet ing
ĠSA W
Ġtroubles ome
ĠBa iley
ĠPri x
Ġunexpected ly
Ġsched uled
Ġwret ch
ĠStand ing
Ġflu or
Ġrecommend ations
ĠUkrain ian
ucking ham
Ġaccommod ate
Ġgal ax
Ġorganis ations
ĠWes ley
ĠTRI BE
Ġing en
Ġperil ous
Ġcolon ial
Ġunemploy ed
Ġathlet es
Ġscra pe
Ġeter nal
bott le
Ġoverwhel med
Ġcul prit
Ġmead ow
Ġrecoll ect
Din ner
lÃ¡ ko
ĠmÃŃ ko
Ġopt im
ĠStri ke
Ġremo ving
ĠTun is
Ġdesir able
Ġcorp se
Ġisol ated
Ġthres hold
ĠKend all
jum ma
ulner able
Ġbagg age
Charl otte
ĠSCHO OL
Ġphen omen
5 7
5 8
B AB
C onsider
C razy
E va
F ifty
J ethro
K ids
L ola
M ag
M ER
P ooja
R od
R ub
R IGHT
S U
S ean
Y ang
[ "
a el
c old
d um
f ed
i ber
i Ã¡n
j in
j ing
k ok
l ion
p ter
p ies
r ations
t ea
v ate
Ġ Ã³
Ġt ac
Ġt ug
Ġt ended
Ġt umbling
in us
ha ving
on ic
on gh
Ġb ak
Ġm im
Ġc uck
Ġo ri
Ġf ri
Ġy ep
an ie
en ched
Ġg ains
Ġl akes
Ġl icked
Ġl icking
Ġin doors
Ġn ie
Ġh oe
Ġbe ck
id d
Ġre app
ad vant
Ġst er
ĠM ail
ĠS ung
ĠS cientists
ch urch
ĠC ook
ĠH AND
un less
ĠT ige
Ġsh rew
Ġwhe at
Ġde port
Ġab ol
ab ilities
ĠW R
ul i
ĠP CI
ĠD ance
ĠD rew
ĠD over
ĠD ana
Ġpl edge
ĠG ab
ĠG ros
ĠF ollow
ĠL AUGH
ĠL ONG
ĠR idge
ak ia
fe rences
other wise
Ġint ently
Ġtw e
Ġpro c
ide o
are well
Ġtr otted
Ġar rog
Ġro gue
Ġam p
ish ly
ud ence
ue y
Ġday break
pl ate
Ġun b
Ġun anim
Ġ19 18
Ġpr ick
Ġmo aning
gg ling
Ġhel per
ĠShe ldon
ĠV i
Ġcr ater
und ay
Ġhar bor
ever ly
ars ity
In tern
Ġword ing
Ġfin als
Ġwait er
ĠTHE SE
Ġround ed
ĠAl pha
Ġhur ricane
elt on
ale b
Ġinv aded
Ġmet als
Ġdisc retion
RE D
ĠHar vard
ball oon
Ġstate ly
Ġ5 4
Ġanim ation
Ġexpl ode
ĠFl at
put er
read s
Ġmusic ians
Ġopp ose
OM EN
Ġorder ly
Ġrece iver
Ġclean er
col ored
Ġtouch down
lo aded
ĠPr oof
Ġcor ps
Ġgra vy
ĠX I
ĠJack y
Ġrequ ests
Ġfort ress
Ġmad ness
ĠLe ima
Ġbird ie
Ġcirc ulation
net ic
ÃŃ n
Ġdiv isions
ĠMc Queen
Ġoper ator
Ġorgan ize
ĠPar ish
Ġang les
Ġpublic ity
Ġextra vag
Ġpati ently
VER N
ĠEurope ans
ĠSome one
ĠCo le
AK S
Ġcapt ors
ĠMad emoiselle
Ġpossib ilities
Ġhero in
ĠRep ort
Ġintro duc
Ġpray ing
Ġhost ess
Ġemploy ers
Ġbomb ers
Ġbomb ard
Ġskin ny
John ny
Ġearn ings
Ġstro ve
Ġbless ings
Ġvers es
Ġrevol t
Ġtong ues
ĠHigh way
ĠHigh ness
Ġphys ically
Ġ192 3
Ġtravel s
Ġwaste basket
Ġir regular
ĠDist ributed
Ġgro cery
cast le
Ġwitness ed
Ġprim itive
Ġfra gr
Ġshel tered
Ġfox es
Ġchem icals
ĠSus ie
Ġtim ing
ĠBO YS
Ġ186 1
ĠMed iterranean
Ġpursu ing
Ġpursu ers
ĠEX P
ĠEX PL
Ġconcent ration
Ġfortun es
Ġspin ning
sec ond
Ġbatt alion
Ġere cted
fin ish
Ġkidna pping
Under stand
ĠMet ro
Phil ip
Ġdece ived
Ġlic ence
Int erest
Ġmour ning
Ġath lete
Ġsla pped
Ġsob bed
Ġanticip ation
Ġlob ster
Ġlabor atory
Ġrefe ree
ĠHugh ie
Ġbrid ges
Ġhydro gen
Ġbos om
Ġinit ially
ĠFriend s
Ġkilomet ers
Ġmathemat ics
Ġnarr ative
ĠAz ad
Ġprosper ous
ĠAcc ordingly
ĠFE EL
Ġmanufacture r
contin ues
Ġsurve illance
uer to
Ġtreacher y
Ġbloss om
ĠYE ARS
ĠInf antry
FR OM
Ġincorpor ated
Ġmoder ate
hors ie
Ġcel ery
ĠSwe yn
Ġgrocer ies
Ġvalent ine
Marg aret
ĠVig il
Ġlem me
Ġstam mered
ĠAff airs
ĠPubl ishers
Ġelabor ate
ĠAmaz on
ĠEmbass y
3 00
5 1
A Z
B all
B ell
B ird
C a
C la
D ID
D arling
I LD
I OUS
J enny
M ill
M AG
N onsense
N isha
O OD
P ir
P IR
R ose
R ather
S en
T ed
W ay
W anna
b led
c ers
d ow
d ough
d amn
d ifferent
e i
f i
f u
f ull
f ront
f iller
g ives
h urt
h oles
l ate
l ia
l iffe
p unk
r Ã©
s is
s neezes
z el
Ä «
Ġ ia
Ġw reath
Ġb ind
Ġm and
Ġm entions
Ġc alend
Ġo ops
Ġd airy
en ig
Ġg oo
as is
Ġn ug
ĠI ove
Ġh ugged
ot hes
Ġth irt
et o
ic ating
id i
id dy
ac c
se a
ri or
Ġk ittens
ĠM R
ĠM es
ĠM ain
ĠM aine
ĠM ICH
Ġwh ites
Ġli z
ĠA then
ĠA mbass
and ed
ĠC ody
ĠC ock
ĠC ontin
ĠC ecilia
ĠB oo
ĠB il
ĠB ren
ĠB orough
ĠB IG
ĠB etween
ĠB arker
Ġknow ed
ĠT ree
Ġsh ifts
Ġde fect
Ġde fic
ack ing
ĠP as
ĠP ic
ĠP oly
ĠP uerto
ĠD I
ĠD ig
ĠD AN
ĠD odd
ĠG ate
ig oo
ĠL eb
ĠL iving
Ġwor shi
ĠR ab
ĠR ead
Ġman aging
od ge
ĠO WN
Ġpro str
Ġqu art
au c
we ed
Ġpe ering
urn ame
hy l
Ġ( ï¿½ï¿½ï¿½
ĠK an
ĠK ane
Ġneed ing
ĠU ru
ark s
Ġbefore hand
ru gs
ne cked
Ġsm oot
gg ies
pe x
ict ory
Ġch ug
Ġstill ness
Ġlea ked
Ġlife boat
ung a
bab a
OR S
OR RY
Ġchar ter
Ġchar ging
Ġlist ens
Ġcons on
Ġcons umed
Ġass umption
any a
Ġred ucing
ĠAr ound
ĠAr men
Ġsent in
Ġeas iest
Ġext rem
Ġsat ur
Ġhot els
Ġgener als
Ġcur ric
Ġpain ter
Ġ6 7
Al pes
Ġfif teenth
Ġexpect ation
Ġhon oured
Ġsn ugg
Ġbear ings
Ġtrans mission
Ġart istic
Ġfro cks
Ġ9 3
ĠX III
Ġtea pot
Ġblock ing
asp berries
ID ENT
Ġequ ations
Ġprop osing
ĠMin or
ĠWar ford
Ġcop ied
Ġbra ves
hel m
ĠPer ri
ĠSh ir
Ġlock er
Ġport s
Ġport rait
ĠTe acher
Ġhall way
Ġ193 5
Ġjoy ful
Ġcru ise
Ġgen es
Ġemb race
ala is
ION S
Ġpray ed
fl akes
Ġcard board
ĠRE M
Ġacqu ire
Ġstat ues
Ġvers ions
ĠUS A
ĠNe ither
Ġnet works
ĠRed ding
Ġphys ics
Ġiron ing
Ġmut ual
Ġmarry ing
dra wn
ĠHE AD
Ġcong ress
Ġgro an
Ġconv icted
Ġhistor ians
ĠAT T
Ġrout es
Ġbod ily
ĠMid d
Ġ187 8
ĠJo jasta
Ġwha les
Ġsignific ance
ĠCr own
Ġdinosaur s
Ġdust y
hib ited
Ġtender ly
Ġshr ink
Ġconcent rated
Ġconcent rating
ĠRes earch
Ġguid elines
Ġchoo sing
ĠPh ill
ira ffe
Ġintense ly
ĠGil bert
ĠRod ney
walk ing
Ġjun ction
Ġdrag ons
ruct ive
nam ents
Ġmechan ical
Ġrug by
ĠField s
Ġdepend ent
Ġgrie ved
ĠDave y
bag s
ĠWall is
Ġconven ience
Ġdemonstr ation
Ġdign ified
Ġsob bing
Bar bara
Ġfab ulous
ĠStud ios
ĠProt heroe
Ġcolon ists
Ġsan ct
Ġreluct antly
Ġfract ure
Ġcycl ist
Ġcompre hend
tur tle
Ġinfl ation
Ġflav or
Ġconfront ed
Ġfisher men
ĠDra gon
Ġdyn asty
ĠCru z
Ph one
ĠAuthor ity
opard y
Ġcler gy
Ġwist fully
ĠZen ana
ĠOt to
Ġassail ants
ĠCun liffe
Ġgor illa
ĠSmur f
Ġinaud ible
ĠTest ament
Ġartific ial
ĠDaven port
ĠBajor um
" :
' ?"
4 1
9 8
C U
D em
D ouble
E ast
G ame
G ER
J ump
K ang
L es
L ots
M il
M ade
M ister
N ELL
P ur
P anthoibi
S N
S R
S chool
T F
b ike
c ond
c amera
e ur
g ag
h oney
m uch
m ons
n vr
o a
o il
p are
t ie
t rochee
w re
y i
y oyo
z an
ģ Ħ
ou ches
Ġw rench
Ġthe ore
Ġthe ories
re ction
on er
Ġb ir
it is
it ives
Ġm c
Ġm ature
Ġm aker
Ġm uzzle
Ġc j
Ġo min
Ġf ists
ing ham
Ġy arn
or ia
en aw
es ar
Ġg arrison
Ġl ust
Ġl oos
Ġl umps
Ġl oneliness
as cha
Ġn ets
ĠI ike
Ġha iled
ve land
le aves
ay o
ic ans
ke red
Ġre cl
Ġk a
ith metic
st reet
ro c
ĠM od
ĠM aur
ĠS acco
ĠC rest
ĠC uth
ĠC over
ĠC OL
ĠC BS
ĠC ameron
ĠH ood
ĠH uh
ant ed
ĠT reat
ĠT RA
ĠT RY
Ġsh illing
Ġout break
ul in
ĠP am
ĠD imit
Ġpl ague
ĠG abriel
ĠJ ura
ĠJ eremy
ĠL av
ist le
ra ight
Ġus age
Ġv ap
ĠE xt
od dy
ous ing
au x
iss ance
Ġ( ï¿½ï¿½
Ġplay offs
Ġun ite
Ġhand writing
Ġpre st
Ġdis li
Ġdis abled
Ġdis advant
Ġad ap
ne z
ne um
Ġrem oves
Ġcomp r
do is
Ġch ol
ĠV iv
ĠV ik
Ġsl umber
IN AL
up iter
Ġsupp ressed
Ġel oqu
ss i
Ġbre ed
Ġfin ance
Ġyoung ster
Ġhear th
Ġbest ow
oll ey
Ġrel ating
Ġcol oured
ug u
ĠAl most
unt il
Ġair s
Ġperson nel
Ġwatch man
Ġsk ate
oke y
Ġph osph
Ġexp ansion
Ġrep orter
Ġext ends
Ġcertain ty
Ġswe ets
ĠCl iff
Ġgener ously
Ġcoll eges
Ġgrand daughter
Ġpresent er
Ġ6 1
ĠCar rie
Ġ8 00
Ġrock y
Ġ7 4
over lapped
Ġca ves
eng ine
Ġstraight forward
Ġsoft ened
Ġought a
Ġview ed
Ġsal aries
ĠLe ft
Ġworth less
Ġrain y
Ġcomfort ed
ĠWell s
Ġstri ving
Ġstri ps
ĠTr ust
Ġinform ant
Ġsuccess or
Ġbelong ings
Ch ic
ĠWest on
Ġcompl iments
Ġcompl ications
Ġvict ories
ĠComm ons
Ġtor to
ĠBE CAUSE
ino le
ĠCo x
Ġprocess ing
ĠMer c
ĠHall oween
Bl ake
Never theless
Ġtour ing
US ED
Ġpopular ity
ĠMac Kenzie
Ġrob ber
ĠKe ys
Car oline
Ġ192 6
Ġpencil s
Ġvac u
Gl ad
Ġclaim ing
ĠSE C
Ġhomes ick
PE OPLE
sm ith
Ġescap ing
ĠLa iren
ĠBel gium
ĠBern ice
ĠĠĠĠĠĠĠĠĠĠĠĠĠĠĠĠĠĠĠĠĠĠĠĠĠĠĠĠĠĠĠĠ ĠĠĠ
Try ing
Ġlin eman
Ġtid ying
Ġbi ological
ĠDel hi
ĠCON F
Ġwire less
ĠFre ya
ĠStep hanie
Ġben ches
ĠVan marsen
Boy s
ĠSa arinen
Ġrent ed
Ġwre cked
Ġthrill ing
bour g
ĠSU RE
Ġdrift ing
Ġast ron
Ġaccord ance
pull ing
ĠMerrim ans
Ġerr ors
Comm ander
ĠMag ic
ĠJeff erson
Ġsout heastern
Ġeffic iency
Ġabund ance
Ġfulf ill
ĠPun jab
Ġascend ed
ĠChap el
hur st
Ġbri be
Str ange
Ġavo iding
Ġdisple ased
Ġwhirl ed
Ġcorrupt ion
Ġhipp o
ĠJen kins
Ġrebell ion
Ġprev ailed
Ġspecim ens
Add ons
Ġunlock ed
ĠYan kee
Laugh ing
ĠKir by
Ġwob bly
ĠAdvent ure
Ġpsychiat rist
Ġunre ason
Ġcertific ate
ĠMap le
Ġceremon ies
Ġcarav an
Jenn ie
ĠAub rey
Ġvau dois
Ġshrew d
ĠAmbass ador
' "
A uthor
A EL
B at
C amp
D ra
E le
E xt
F ur
F ish
G reg
H C
H ur
H AL
H AVE
I LE
I LY
J osh
L ive
M onday
P en
T ook
U LL
V al
W henever
X T
b uck
f lu
g ra
g rap
h n
h Å«
i antly
l our
m orning
p ay
r uns
s ilence
t v
t ow
t ouch
â ģĦ
Ġ ic
Ġ 000
Ġt ension
Ġt akin
in ch
Ġw rigg
re ens
er ick
Ġb itten
it udes
Ġm es
Ġm irth
is ers
Ġc ork
Ġf ib
an ut
Ġp als
Ġg ee
Ġg hast
Ġin aug
Ġn ought
Ġn avy
at in
ot ine
le ft
Ġon ward
ut t
ut ory
Ġfor ci
ri l
ri ans
Ġst ump
ion ed
Ġk ung
st orm
ĠM oor
ĠM AX
ĠM onsieur
Ġan th
Ġan them
ĠS ab
ĠS ard
ĠS ep
ĠS AT
ĠA CT
ch io
ur u
ĠC ard
ĠC hen
ĠC LE
ĠC inc
ĠC obb
Ġkn ob
ĠB aboo
ell ite
ĠH in
ĠH es
ĠH ick
ĠH umph
Ġj ab
Ġj azz
ĠT el
ĠT ory
ĠT ex
Ġ" ".
ĠW ELL
ĠW hether
ĠW ii
ĠW eek
ul ch
ĠD oo
ĠD AR
ĠD umpty
Ġor bit
ĠG ob
ĠG ib
ĠG host
ĠF ab
ĠF AM
ĠF LY
ĠL loyd
ist ol
Ġcom a
ĠR aven
Ġ1 000
Ġhere by
Ġsp elt
ĠN ash
ĠN icole
Ġv a
Ġv irgin
ap y
em p
Ġgr ind
Ġam ateur
ĠK on
ĠK urt
so le
ps hire
ian c
ount ered
his m
Ġfl uffy
Ġpre acher
ru ly
ĠSt aff
Ġapp endix
Ġdoing s
hes is
Ġch ina
Ġch uckles
OT T
Ġsl ips
Ġcr ane
Ġstart ling
og en
Ġgl are
Ġend less
Ġcomm a
Ġcomm ittees
let cher
AN N
AN ING
rent ly
Ġrun ner
AT ING
ph us
Er in
vel s
rew s
ĠMar se
Ġchar ts
Ġtri pped
ĠAl mighty
Ġcons ented
Ġass ignment
any way
Ġbro ker
bo ats
ĠCl oth
Ġgrand children
ĠBe yond
Ġpresent ation
ĠCar m
ĠCar roll
Al ready
Ġpar aly
Ġdef iance
Ġpartic le
ĠRe al
de ep
Ġ7 3
Ġexam ining
arch y
Ġobject ed
Ġlow est
Ġexper iments
Ġda res
Ġfavor able
ĠX VI
Ġcreat ive
Ġsal oon
Ġcal culation
Ġwild erness
com es
Ġprop he
ĠMin istry
Ġbab ble
Ġquar re
Ġclos est
Ġburn s
Ġdecl aration
Ġcharacter istics
Ġtick les
Ġcab bage
amb a
Ġneighb oring
Ġsol ar
Ġdry er
ĠSw an
Ġregard less
sp eak
ĠTe ch
Ġjud ging
ĠEl vis
ĠGrand father
ĠSha k
ĠPat ricia
Ġfool ed
Ġcompet itive
RI L
Ġrepresent ation
ĠSu ppose
Ġengine ers
Ġhy pot
Ġhost ages
ĠEm my
fl owers
Ġund ressed
back s
Ġthick et
alt ies
Ġmotion ed
Ġfashion able
Ġoccup ants
Ġtrad er
Ġharm ony
Ġbudget s
min ster
Ġheaven ly
Ġbedroom s
Ġtap ioca
gl ass
Ġfurn ish
keep ing
oly n
Ġcivil ized
PE CT
Ġshel ves
Ġaim ing
ĠEli jah
Ġapolog ies
Ġfuss ing
Ġbi ology
Ġsquee zed
Ġwise ly
ĠMi yama
EP S
sell ing
itar ian
Ġgrat ified
Ġgri zz
ĠArt ist
Ġstout ly
ĠSal zburg
nee ze
Ġconfident ial
Ġenc ountered
ĠTan ishige
BER T
Ġretreat ed
ez vous
Stand ing
Ġvirt ually
Ġpossess ions
Ġteen ager
ĠFore ign
Nat alie
quick ly
Ġundert aking
OUN T
ĠSem inole
Jo el
Step hen
inn ati
ĠHun ter
ĠOFF IC
Ġsung lasses
ĠTem ples
ĠWalk er
ĠConst ant
ĠConst able
Ġcasual ty
Ġkilomet res
Ġgent es
Ġnegoti ate
Ġje ans
Ġathlet ic
parent s
Ġmic row
ĠBEL IEVE
Deb bie
Ġling ered
Att ention
ĠPH ONE
Ġreprodu ctive
ĠMove ment
ĠTechn ology
orig inal
ĠBus iness
Ġdiscom fort
ĠBav aria
Ġperple x
Def initely
ĠBartol ini
Ġbacter ia
ĠClaud ia
Ġcancell ed
Ġprelim inary
Ġshudd ered
ĠEston ia
Ġfero cious
ĠProof reading
ĠCinc innati
. ?
6 2
6 4
C AR
C HER
D one
D ig
E K
F ig
H m
H ank
J un
J ones
L ind
L au
L ead
L ucky
M ING
M ex
N in
O ICE
P RO
R om
S har
U sa
W orks
Y up
_ :
b ase
b ob
b ones
c am
c aster
d sh
f rog
g ame
j un
l ot
o bey
p it
p ants
p icking
r ac
r ice
r ance
s er
t u
t ical
w ants
Å ¡
Ġ ion
Ġ 00
Ġa venue
re ars
Ġb ree
it tering
Ġm otto
is ie
Ġc odes
Ġd ah
Ġd iam
Ġp ac
Ġp am
Ġp ry
Ġl onesome
as g
as al
ĠI by
at ar
Ġh ips
ot ch
et on
ic eless
id ated
ut ched
im eter
Ġre igned
ri ver
Ġk icks
ĠM un
ĠM ater
ĠM OM
ĠM arty
ĠM agn
ĠS L
Ġse amen
Ġnot ices
Ġwh it
Ġwh oo
ĠA PP
ch ick
ĠC ell
ĠC ab
ĠC ob
ĠC hel
ĠC ookie
ĠC ARE
ĠB adu
ĠH ell
ĠH um
Ġj og
Ġr he
un cle
un ciation
Ġup date
ĠT s
Ġthere in
Ġsh uff
Ġsh oved
ĠW ITNESS
ĠP edro
ĠD oll
ĠD yn
qu est
Ġal ien
Ġpl ump
Ġpl unge
est ead
ĠG an
ĠG ail
ĠG wen
ĠF uck
ĠF OUR
ĠJ ar
ĠJ ove
ĠJ amie
ĠJ UD
ĠL as
ĠL ina
ĠR ap
Ġsp itting
Ġex ternal
ĠN am
Ġv owed
fe et
ĠE velina
Ġint act
Ġint ending
Ġthen ce
Ġag in
Ġar ithmetic
Ġar rears
Ġcl iffs
ud a
pl us
pl anes
ach ine
Ġpr ote
Ġsc ales
irl ines
Ġmo ons
Ġdis obey
iz er
Ġsha ky
HE LL
gg les
Ġgreat ness
ub ber
ĠV alais
Ġlast s
Ġsl ower
Ġcr adle
Ġres ort
ors hip
og o
Ġbu oy
Ġdif fer
Ġend ured
AT AL
ĠBut ter
Ġpret tier
oc ation
oc ese
Ġreal istic
Ġpers pect
Ġreg ain
ES BY
Ġsort ing
AR ED
Ġdec iding
Ġass uming
Ġi amb
Ġinter course
EN NY
Ġvo iced
Ġeight h
Ġhope ful
Ġconf using
Ġrep airs
Ġinf ant
ĠCHI LD
ĠCHI EF
Ġ5 3
wh istles
Ġcur l
ĠFl ossy
Ġvis ual
aim ing
Ġexpect ations
Re g
umb s
cri ber
ĠAd ministration
Ġdoub led
Ġfear less
Ġadm ission
ĠHer itage
Ġobject ions
cha ft
Ġgra vel
che stra
Ġsight s
ĠBar ing
Ġpract ices
Ġpract icing
Ġcontro lling
rat ic
ĠCon nor
Ġaccount ed
ĠBrad shaw
uk u
Ġexpress ions
ĠTr ade
Ġaccept ing
Ġwhis ky
ĠMan ning
rop he
rop ical
Ch ris
Ġbud s
Ġvol untary
Ġver ge
Ġver bs
Ġscar let
ĠBE FORE
ĠDor chester
Ġlunch time
ĠGrand papa
ĠSe ason
Ġconvers ion
Ġobs essed
Ġfresh man
Ġrul ers
CT OR
Ġprocess es
ĠMer cia
Ġsusp ense
De idre
wr itten
af ety
Ġtrad ers
ĠMac Donald
Ġpin ched
istic ated
Ġindic ating
Ġcontact ed
Ġcoast al
Se vent
Ġfurn ace
Ġhistor ian
Ġsplend or
Ġfra il
Ġfal tered
ĠBra hm
Ġterror ist
Ġencour agement
ĠĠĠĠĠĠĠĠĠĠĠĠĠĠĠĠĠĠĠĠĠĠĠĠĠĠĠĠĠĠĠĠ Ġ
show s
yell ing
Ġconsequ ently
Ġlog ic
ĠMic helle
Ġtransport s
Ġinvent ion
Ġconsult ant
ĠJer usalem
ĠKim ber
Ġspect acles
Ġenthusi ast
Com plete
ĠAtl anta
Ġreview s
ĠPers ians
ĠAsh ley
Ġelev ation
Co ach
ĠMet ropolitan
Ġdece ased
Pol it
Ġflood ed
Ġpist ols
bro ke
Ġchim ed
Ġexperiment al
Ġpier ced
urg ers
Ġmyth ology
Ġga ily
Ġdemonstr ate
uls ion
Pr ince
Ġcooper ation
ĠSem in
Ġber th
Ġliberal ism
Ġvoc abulary
start s
Follow ing
Ġsust ained
Ġtum ult
hoe be
Ġpubl isher
ĠMacedon ian
Ġmathemat ical
Ġcoo lly
Ġfert ile
Fe el
Ġalt ar
ĠLeices ter
GRUNT ING
Ġtact ics
ĠHung ary
Ã¡t chi
ĠMem orial
Ġlur king
Ġcondem ned
Slow ly
Ġmini ature
ĠSof ÃŃa
Ġspecim en
spl ash
gard e
ĠLyn n
Ġsubsequ ently
SCREAM S
Ġmeek ly
ĠHaut es
ĠBase ball
Ġdeem ed
Ġempt ied
Ġlugg age
Ġacknowled ged
Ġlang ue
ĠAra os
ĠLis bon
Ġantel ope
Shr ines
Ġraz or
CONT ENTS
Ġinsign ific
ĠWhitt aker
ĠAzerbai jan
Ġconspic uous
gag aa
ĠCuth bert
ĠIby n
' ."
6 9
A way
C ad
G ab
G AN
H or
H op
H ouse
K NOCK
M B
M OR
N on
P ay
P ING
S ch
S ort
S ign
S anta
T all
T unde
_ ."
b able
b ath
b ys
c oo
c ope
d ead
d ada
e lection
f act
g room
i age
j uss
m ast
n n
p hal
p gd
s aw
s ky
t ract
t iger
u pp
v on
w y
w orld
Ġa venge
Ġw ot
Ġw oe
re z
Ġs ar
Ġs ip
Ġs essions
Ġb ou
is i
Ġc av
Ġo atmeal
Ġd ime
Ġd anc
Ġd ots
Ġf uriously
an za
Ġp neum
Ġl inger
at hed
ow ler
Ġh ose
le ms
le iman
us ually
Ġe yed
ly de
ad illo
se ver
Ġdo om
am oto
st uck
ĠM mm
ĠM AY
ĠM odern
ĠM ADE
ĠS ide
ĠS IR
ĠS oto
ea e
ĠA ur
ur ring
ur bs
ĠC it
ĠC AT
ĠC aval
ĠB M
ĠB right
ĠB AR
ĠB anks
ĠH ang
ĠH etty
ĠH umpty
Ġr ouse
Ġne uro
ĠT am
ĠT ER
ĠT uk
ie ls
Ġde mer
ĠW at
ĠW AR
ĠW ENT
ĠP AR
ĠD F
ĠD ur
ĠD ane
ĠD ec
ĠD oor
ĠD AYS
Ġsu cked
Ġal iens
Ġpl a
est one
ĠG osp
ĠL ex
ĠL AST
ist ent
ĠR et
ĠR aff
ĠR abbit
Ġcon es
ak ut
ĠN ation
ĠN av
ĠN eed
Ġv ag
Ġv ulnerable
fe w
ĠE un
ĠE nergy
Ġpro x
He ad
are l
Ġback yard
And re
Ġover take
Ġover throw
Ġar cha
Ġbr im
Ġle e
Ġpe g
Ġam er
Ġ( ).
Ġco effic
orn e
act ed
Ġ19 10
Ġfl own
Ġsc out
Ġdis qual
Ġad orn
Ġad vers
Ġad rift
Ġunder wear
Ġsm oked
ĠSt at
Ġper ched
pe ep
ĠShe ll
ub a
ĠV as
ĠV ivek
Ġsl o
Ġsl ung
Ġcr iter
Ġres olute
Ġbit es
Ġchan ced
Ġbu gger
up ree
ee red
Ġbook ed
In c
row ing
AN UARY
ss is
Ġcle arer
Ġbre w
Ġbus ily
Ġsw ore
Ġsw ap
Ġreg ained
Ġopen ly
uff ed
ows ki
Ġtri o
ĠNo kia
Ġsk ating
Ġinv ade
ĠInd ust
ĠInd ies
Ġsub tle
oor ay
Ġdisc ont
Ġblack s
Ġinf lict
ric o
Ġexc used
Ġexc urs
Ġ5 8
Ġexpl oring
IT ED
Ġbas in
Ġcur ling
for mer
AS EL
fort y
Ġhair cut
Ġins piration
Ġpresent ing
AP RIL
ĠCar n
Ġmag ical
Ġpar adise
Ã¡ m
see ing
Ġsweet ness
Ġmain land
Ġdef ences
Ah h
Ġconc ussion
Ġsong writer
Ġ7 8
ipp y
Ġgra il
co ff
Ġdest ined
Ġcreat es
ĠCount ess
Ġ17 7
See ing
ÃŃ ta
Ġbes eech
ĠCon c
Ġvar ied
Ġsand box
ĠSte el
Ġstri pped
Ġtick ly
Ġimag inary
ĠMan n
Ġbull do
Ġnational ism
Ġdev ote
Ġlab els
ĠLet itia
gu ay
Un ited
Ġelect rical
cell or
Ġpush chair
Ġfol iage
ĠSu leiman
ĠAf rik
Ġdestroy er
Ġforth coming
Bl ood
ĠSaturday s
Ġphot ographer
Ġaddress es
ĠJenn ifer
Ġmix ing
Gu ard
Ġremem bers
Ġscr ut
Ġrob bers
Ġshad es
Ġhonor able
het ic
vo icing
pen ny
Ġmodel ing
ĠĠĠĠĠĠĠĠĠĠĠĠĠĠĠĠĠĠĠĠĠĠĠĠ ĠĠĠĠĠĠ
Ġprogress ive
Ġpad dling
Ġdism iss
ĠTH ROUGH
Sc ott
Ġfold s
Ġ186 0
ĠCat aract
Ġpred ec
Ġpred icted
ĠRoman ia
Ġassoci ate
Ġdere k
Ġweekend s
Ġconce ived
Other s
ĠMos lems
ĠCr ime
Ġtun nels
Ġfuss y
Ġlin en
ĠDel ta
Ġshr oud
Ġunus ually
Ġpregn ancy
Ġbast ards
ĠXX X
Ġcomplet ion
Ġsuffer ings
ĠCOM ING
Ġdocument ary
Ġminister s
ĠAS K
rif ied
ĠSure ly
ĠSqu ad
Ġprompt ed
ĠFar mer
Ġconcl usions
Ġrank ed
Ġcalcul ations
ĠClar ke
Ġexplos ive
Ġsales man
Ġrust y
Ġbelief s
Ġroast ed
Ġsymb ols
Ġbord ered
Ġrecommend ation
ĠSl inky
ĠRus so
UP P
Ġped est
Ġchallen ged
ĠMO ST
ĠNob el
ĠDear ne
ĠDown es
ĠRoll o
Ġevac uated
ĠTrans port
Ġcorpor ate
Sim on
Ġratt ling
Ġsway ed
Ġadopt ion
ela ide
Ġdischar ge
Chan ge
Ġscan ned
Ġdissol ved
Ġalt itude
Ġcongrat ulate
Ġmarvel ous
ĠConfeder ate
ĠGIRL S
Ġmoist ure
Ġtort ured
ĠChamp ion
ĠKE EP
Ġblo oming
norm al
ĠBanglades h
Ġscound rel
Ã£ o
Ġwholes ome
ĠPU BL
Ġexpend iture
ĠChad wick
Ġauber ge
Ġdung are
ĠRifle man
ĠHons hÅ«
Ġmischie vous
Brad ley
ĠTrip oli
fals etto
Ġnie ces
Intern ational
ĠUru guay
Ġcurric ulum
ĠSemin oles
pgd p
6 8
; /
A igoo
B B
B a
B aker
C le
C ons
C www
C romer
F il
F ull
F ifteen
G ar
K ate
M RS
O GE
P ast
T C
T ha
T ouch
T igger
U NDER
V ill
Y uki
b ite
b ows
b lo
b bles
d ong
d irty
f rey
g abby
g iraffe
h orn
k ick
l as
l ad
l ass
n ons
o ine
r iment
r inder
v ised
v ironment
z he
Ä ĥ
Ġt its
he alth
in side
in ement
ha y
Ġb out
Ġb ount
Ġm int
is le
is ley
Ġc ello
Ġf ountain
Ġto ad
Ġy oyo
ed ia
or able
Ġp ans
Ġp ouch
Ġp iling
Ġg iv
Ġl ining
Ġn oodles
Ġh uts
ot ox
Ġha vin
le igh
le uth
ut ing
ut ton
Ġe uro
oo oo
Ġre ared
ad ada
ir ot
Ġu ric
Ġk i
st s
st ruction
Ġan ts
ĠS op
ĠS atan
Ġnot eb
ĠA in
ĠA irlines
ĠB end
ĠB etter
ell s
ĠH ON
ĠH ARD
ĠH ollow
Ġher bs
il and
il iation
Ġj ohn
Ġr ises
Ġmy st
ĠT han
ĠT aka
pp o
Ġall erg
Ġsa p
Ġwhe e
Ġab ode
ĠW Ã¼r
ĠW endy
ĠP res
ĠP oy
ĠP once
ĠD R
ĠD iana
ol as
Ġno ses
Ġpl ums
ĠG AS
ĠG www
ĠG aines
ĠF o
ĠJ ama
ĠJ OHN
ĠL ist
ĠL unga
ong a
ong s
ĠR ound
ĠR ice
ĠR iding
Ġsp ar
Ġsp ade
ĠN une
ime h
Ġman ip
ĠE L
ĠE VER
Ġlo lly
Ġtr ades
Ġcl enched
Ġbr at
Ġbr ood
ĠK ill
ĠK ind
ĠK ah
so on
Ġco ordin
Ġneed les
Ġun ification
te rest
har kov
Ġpo pping
Ġfl aming
Ġfl uttering
Ġsc or
Ġdis respect
pe c
do ck
Ġch imes
ob ject
ix t
ĠY oon
OT S
Ġnew com
She riff
Ġnight time
und ered
Ġche ated
Ġstr aining
iv ic
Do lly
Ġacc um
Ġfin ishes
Ġschool room
Ġbaby s
ĠBr isc
oc ol
Ġwar med
ON ATH
me aning
Ġreg ulator
Ġri pe
ister t
AR LY
Ġdec isive
Ġworld s
Ġpick les
ange l
Ġinter val
Ġinter face
Ġinter pre
Ġsk il
ĠEd ge
ĠEd gar
sh ort
Ġkid ney
Ġ18 50
Ġfoot age
lic ting
Ġsign ifies
Ġste aming
Th ursday
Ġdeal ers
du ction
Ġpleas antly
Ġes pecial
ĠFl int
good bye
Ġpar ap
Ġpartic les
cri be
erv o
ĠPe pper
Ġfear fully
Ġcook s
Ġstar ved
ept une
Ġsight ed
co ffee
ĠBar bie
20 17
ĠLe gend
Ġboard ers
Ġcost ing
Ġcost ly
Ġcost umes
ean ing
ris ford
ĠWar rinder
Ġval ued
Ġdam ned
Ġbright ness
Ġneck s
Ġauthor ized
cket t
Ġvol t
off er
Ġmach inery
Even ing
has hi
Ġstreng then
Ġstreng thened
Ġfinger prints
Ġemb ro
Ġemb ass
ĠAf ghan
Ġident ification
Pro per
Ġpictures que
ĠGO VERN
Ġpat ches
Ġflat tered
Ġsport ing
Ġble nd
ĠSer bia
Ġdemand ing
ĠBur t
Ġrob ot
Ġtit led
Ġ192 4
Ġaud ition
Ġpound ing
ANT ING
ĠMY STER
dra ul
Ġpool s
ĠPort land
Ġscrew ing
ĠTH ANK
Ġwid th
ĠTy re
Sc rew
ĠHam pshire
ĠMed ia
Pl ot
agu ars
Ġsmooth ly
Ġtender ness
Ġamb ass
Te acher
Ġpor ridge
ĠCOM M
ĠTim othy
Ġprem ie
ĠMur phy
Ġspect acle
Ġexplan ations
ĠTw enty
ĠWood y
Har old
ĠArt uro
Ġtempt ing
Ġcalcul ate
Ġdetect ives
Ġassured ly
ĠAsh ton
ĠFe ld
CHAR LIE
Care ful
Int o
ĠSax on
Ġacquaint ances
Ġhom estead
Ġstor my
ĠTa ens
Ġsack ed
Ġcollea gue
Ġorganis ms
Ġing red
ĠIsrael i
Ġshrie k
Ġintegr al
ĠWHI CH
Ġdial ogue
Ġguitar ist
ĠNap les
Ġtribut e
ĠMuslim s
Ġinher ited
Bern ice
ĠRon ald
Ġlegisl ation
Ġfug itives
Ġcann ons
Lou is
Ġeter nity
ĠApal achi
Ġcompass ion
uz zy
Ġdyn am
ĠFat imeh
Ġpreced ing
Ġmotherf ucking
ĠRen Ã©
onym ous
Ġsacrific ed
Ty ler
Ġmart ial
ĠTes co
ĠUNDER STAND
Mic key
Ġmourn ful
Ġsincere ly
DAR ESBY
Ġware house
Ġvit amin
Ġjewel ry
ĠBOOK S
ĠIndones ia
Ġcass ette
Ġpand emic
ĠRAD IO
Ġparam et
Ġintellect ual
ĠHit ler
Ġoctop us
Ġatom ic
Ġtad poles
Ġimmort al
Prof essor
ĠPLE ASE
ĠHast ings
ĠMidd leton
Ġghast ly
ĠHumph rey
Ġdiam eter
ĠBrisc oe
( #
( '
5 2
6 3
; &
; '
? [
A ng
C old
C ooper
D al
D ist
D ep
D ora
F enn
F UL
G one
H ay
H im
J ANUARY
L www
M em
N urse
R ing
S A
S qu
T aking
T old
T ax
V ES
Y ea
b rew
b ump
b idden
c amp
d ated
f orth
g uns
h ope
h iccups
j or
k at
k no
l aughter
m umm
m akers
n early
p ox
r unning
w ine
x ious
Ã ī
Ġ ions
Ġt et
Ġa z
in stead
Ġw art
Ġw ick
Ġthe rm
Ġs id
Ġs ib
on o
Ġb am
Ġb red
Ġb ony
Ġb rill
Ġb achelor
it ate
it ably
Ġm it
Ġm uck
Ġm oust
Ġc yl
Ġd azz
Ġd renched
Ġf ianc
en ch
en cing
Ġp ion
Ġp est
Ġp od
Ġp atted
Ġg rill
Ġg ifted
Ġg asping
Ġl f
Ġl ain
Ġl ament
as i
as ium
Ġn ests
Ġh u
Ġha ird
Ġbe fallen
Ġre pr
ri bly
Ġst if
st able
st raw
ro gen
ĠM ong
ĠM ason
ĠM eth
ĠM ik
ĠM andy
ĠS K
ĠS end
ĠS www
ĠA ye
ĠC row
ĠC raw
ĠB uc
ĠB less
ĠB unker
if ference
ĠH AR
ĠH urry
ant ics
il in
il ized
Ġr ally
Ġr aging
Ġr aspberries
Ġshe pherd
ĠT ak
ĠT ham
ĠT hings
ĠT URN
our ces
th ought
Ġsh iver
Ġout standing
ĠW he
ĠW IN
ĠW elcome
ul atory
ĠP ied
ĠP icture
ĠD ES
ĠD AD
ol ks
Ġor al
ĠG ret
ĠG IVE
ĠG utenberg
ind y
ig ious
ĠF u
ĠF iona
ĠJ upiter
os o
ĠL ammie
ra its
ast ics
nt ario
ak awa
na e
na il
Ġv om
Ġv ines
fe ld
ĠE D
ĠE P
ĠE va
ĠO ntario
Ġright eous
He h
He art
âĢĿ --
Ġtr aced
Ġqu iver
Ġcl ad
Ġcl utched
Ġaf ar
we ek
Ġgr umpy
Ġgr unted
omet er
ĠK it
ĠK ello
act ic
act ivity
be gins
Ġun p
Ġun pack
Ġun seen
te le
ady s
Ġfl an
Ġfl ute
Ġfl att
Ġyear ly
Ġdis band
Ġad jo
Ġim itation
ĠSt alin
cl ub
Ġte e
Ġcomp ounds
Ġcomp onent
Ġsha ve
Ġhome ward
ob ed
Ġres isted
ee ze
Ġcare lessly
iv ism
In ter
li hood
Ġcomm end
---- âĢĿ
ition al
AT T
Ġbus iest
ĠBr on
Ġbed side
St one
ister s
ĠAl ber
ener y
sh rie
Ġsub urbs
Ġmet ropolitan
Ġmus lin
Ġmus cular
ĠHar low
Ġinf inite
Ġinc umbent
ĠTh irty
ĠĠĠĠĠĠĠĠĠĠĠĠĠĠĠĠ ĠĠĠĠĠĠĠ
Ġpict ured
Ġcoll apsed
ĠFl ower
ern ation
Ġbuild s
ĠTO LD
ĠCha mber
Ġpri ory
olog ies
ĠCar risford
Ġhon ors
Ã¡ ti
Ġmark ets
Ġloc ations
Ġpen it
Ġpen rod
Ġtrans actions
ĠSp onge
RO OGE
erv atory
Ġstraight en
ST E
Ġconst rain
Ġill usion
ĠHer mann
ĠPro vin
uri a
Ġdeep est
reed om
Ġdoubt fully
Ġtrust ees
Ġdat ab
ÃŃ k
Ġest ates
Ġship wre
Ġpot assium
Ġcomfort s
Ġexpress ing
ĠTr ue
Ġtem p
Ġreleas ing
Fr iday
Ġtur ret
some where
ĠSh rek
Ġtape recorder
.âĢĻ âĢĿ
ĠPaul a
Ġver te
ĠST OR
ĠST ILL
lu a
Ġcollect or
isc ons
ĠSha ft
ĠSe lden
Ġjack ets
Ġobs erving
su per
Ġtall est
Ġtrack ing
Ġemb raced
Ġaut o
Cl ub
Ġhost ed
ĠMon k
Ġmat ched
Ġunc omm
Ġrisk y
Ġstat utory
bell s
ĠQu ick
Ġinflu ences
ĠNe v
ĠNe ville
LES S
Ġimpro ving
ĠRob bin
Ġairport s
Ġappreci ation
Ġcontact s
UST R
ESS IE
Ġgro ans
Ġtap ing
Ġindust ries
Con f
Ġconv ict
Dr ink
ĠĠĠĠĠĠĠĠĠĠĠĠĠĠĠĠĠĠĠĠĠĠĠĠ Ġ
Ġreckon ed
Ġescap es
BE CAUSE
IV ING
Ġfal con
Ġterror ists
ĠĠĠĠĠĠĠĠĠĠĠĠĠĠĠĠĠĠĠĠĠĠĠĠĠĠĠĠĠĠĠĠ ĠĠĠĠ
Ġbend s
Ġbreast s
Ġdeliver ing
Ġpoison ous
Ġdescend ants
Americ a
Ġdecor ated
Ġtransl ator
Ġlegend ary
Pre par
pull s
Ġtooth paste
Ġcord ially
Ġrev ised
ĠEv il
Ġsubs id
Sec ret
XX X
Ġwip ing
Ġobst acle
sho ot
Ġrend ezvous
ĠMag azine
Ġpartners hip
Ġgest ures
Ġhom icide
ĠKas i
ĠLar ita
CON D
Ġwrit ings
ĠLeon ard
Ġcryst als
Ġdeliber ate
Ġtramp oline
Ġexclam ations
ĠDeb orah
Ġindul ge
Ġuna ware
Eng lish
ĠEthe ling
ĠMir pur
Ġshrie ked
Hard ly
Ġfid dle
Ġratt les
ĠPot ato
CHE ERING
pol is
Ġpenet rated
Ġmisunder standing
Ġcher ries
MAR CH
Ġmanuscript s
ĠOP EN
BAR A
cro codile
Ġsor ce
Wonder ful
Ġsund own
Ġvary ing
Ġcultiv ated
Ġimprison ed
Ġrefres hing
ĠAud rey
ĠCOUR SE
Ġenvelop es
ĠSIGHT INGS
ĠGri gson
Ġreinforce ments
ĠCrus oe
Ġcarn ival
ĠHou ston
Ġmangan ese
Ġdistur bing
Ġcalend ar
Ġcriter ia
nons peech
ĠWÃ¼r zburg
ĠPoy nings
ONATH AN
ĠTham es
' _
4 00
A ut
C APP
C Ã©sar
C ameron
F orm
G G
H undred
H uman
H eaven
J O
L in
L ights
L AUGHING
M I
M aking
N ear
P ri
R a
R ad
S un
S ol
S aw
S uk
S unday
T ELL
W ord
[ Â¶Â¶
c oll
g am
h iding
i y
i ated
l oo
l ene
m ire
m ile
m ese
n ies
n ods
o ow
o inting
r ade
s low
t or
t ons
u ctions
v ial
w ipe
z ip
Ġt har
Ġt ying
in ny
re f
Ġs ash
Ġs omers
Ġm ould
Ġm orrow
Ġm ounds
Ġd ine
Ġd otted
Ġf ade
Ġf ished
Ġf ences
Ġf ading
or is
Ġp ence
Ġp iles
Ġg in
Ġn an
Ġn eared
ĠI owa
Ġh obb
ot ter
Ġbe et
al b
im my
ke rel
Ġre versed
ri z
Ġst unt
am ount
am ples
Ġk ha
Ġk ah
ĠM ort
ĠM Ã©
ĠM unicip
ĠS ty
Ġwh ither
ĠA ren
Ġat tain
ĠC ut
ĠC her
ĠC reat
ĠC ord
ĠC oun
ĠC roat
ĠC ertainly
ĠC AME
ĠB al
ĠB att
ĠB US
ĠB uckingham
ust ered
Ġr aced
Ġso bs
ĠT us
ge nder
Ġde w
ĠW ard
ĠW HERE
art a
ĠP C
ĠP ap
ĠD C
ĠD ub
ĠD ays
ĠD amn
ĠG ors
ĠJ our
ĠJ etty
ĠL er
ĠL ear
ĠL iter
ĠL ET
ĠR oo
ĠR ights
ĠN ep
Ġman e
od a
Ġint ensity
ag her
Ġag encies
Ġqu ivering
Ġover looked
Ġoff spring
ĠHe ath
au e
Ġgr ampa
Ġ[ !
Ġ( _
irst en
pl ings
pl ays
Ġ19 15
Ġfl apping
Ġfl utter
Ġpr udent
Ġad ject
ru it
ĠSt ay
Ġper ish
Ġper ils
Ġsha ck
gg le
pe ek
Ġch ubby
ons ay
Ġcr us
Ġcr ushing
Ġres ulting
Ġcour ts
Ġhar p
aw ar
aw right
Ġser pent
Ġstr ay
Ġstr icken
Ġatt ach
iv or
Ġdes olate
In side
li b
land ers
ON D
ON S
Ġreg ulations
Ġhold er
St ick
St acy
Ġround about
Ġsecond ly
unt arily
Ġdec ade
ener ation
Ġinst alled
Ġsound ly
Ġinter vention
Ġsk illed
Ġinv ari
Ġdep ot
go at
Ġeight ies
oe uv
Ġsent ry
ĠAn z
Ġaw aken
oub t
Ġcur ved
ĠFl orry
AS ES
Ġhair s
Ġ6 00
ĠZ ach
Ġadv oc
Ġpri ests
Ġhum our
Ġpar cels
Ã¡ p
ik au
Re ception
Ġloc ally
Ġho pping
Ġra ises
ĠSp ot
Ġfast en
RO SS
Ġcat ast
ĠFor ces
Ġclass ified
over lap
Ġconst ernation
Ġve x
Ġstar board
Ġexcl usive
ĠX V
Some where
ĠBar on
Ġmer its
ĠPro gram
Ġesc al
Ġprof ess
Ġshoot s
Ġgold fish
rat ors
Ġtest ify
Ġleg itimate
Ġmount ing
Ġsuper market
rer as
Ġpublic ly
amb led
ĠPer u
ĠWest minster
was her
Gr ant
Ġdi agram
Ġrid ers
chan ged
Ġhorses hoe
Ġhoney moon
sp oken
Ġcollect ions
Ġbread th
ĠEl ms
Ġpriv acy
Ġcrowd s
Ġsmell ed
Ġtend s
Ġcompet itors
igg ins
Ġlength s
ĠMad rid
Ġgen ial
Ġmass age
Ġbrown ie
olf ini
Mom ma
ĠMa ori
UR Y
Ġfre aking
Ġund e
ĠRE C
Ġur ging
Ġspell s
Ġgas oline
Ġpet ty
vey ard
ĠFred dy
Ġbother s
oos es
Ġfund ament
Ġ192 1
Ġaud ible
Ġaud io
Ed mund
Ġcart ridges
kn ife
pro v
ĠPort sm
ĠTH OUGHT
Â¶ ]
Ġdel usion
Ġstraw berries
UCK Y
Ġ186 8
Ġhook s
Ġpant ies
Ġreact ive
En ter
Ġbat hed
Ġaston ishing
Ġregret s
ĠArab s
Ġnic est
Ġscreen writer
ĠAct ress
Ġcaut ious
ĠGreen e
Ġpron unciation
ĠSH OW
Ġspin ach
Ġscratch ing
ĠÃ ģ
ĠSa hib
ĠDiv an
ĠSC ROOGE
ĠWood s
Em ma
Ġreward ed
Ġverb al
Co ffee
Ġswell ed
Ġmal oca
Ġwars hips
Ġmole cules
Ġillustr ated
Ġmanufact uring
Ġquant ities
ĠGe off
Ġrum ors
Ġtires ome
Ġindul ged
Ġbob ble
Step hanie
ĠANY THING
Des pite
Ġevac uation
ĠPear son
Ġbrid le
Ġscramb ling
Ġstab bed
Ġdod ged
Ġconvey ed
Ġtribut ary
whe el
Ġmerc ury
Ġmisunder stand
Ġaer opl
ĠSn oopy
Ġpy ram
Ġseeming ly
Ġsmugg lers
ĠCle veland
ĠCHE ST
ĠUr du
ĠBea uty
Ġreb els
Ġexplo its
Ġsoci eties
Ġtreacher ous
pow ered
ĠSof ia
Ġrestrain ing
Mel issa
Post man
Ġec st
ĠPrem ier
Ġkne eling
Ġgymn asium
Ġcourte ous
Ġblond e
ĠShan non
ĠBASE BALL
Ġinfer ior
Ġment ally
Ġcoc aine
Ġcarpent er
Ġrit ual
ĠChand ler
iche ver
ĠGem ma
ĠAth let
ĠMacle od
Ġgalax y
Ġadap ted
ĠCarm ichael
Ġmicrow ave
Ġperspect ive
Ġpneum onia
UPP LES
draul ic
ĠKello gg
Ġflan nel
iscons in
CAPP IE
[Â¶Â¶ Â¶]
ĠPortsm outh
' --
5 4
A llow
A www
A part
C am
C ry
C OP
C ookie
D en
D ar
D og
E st
F re
G rundy
H annah
J ason
K id
L im
L iving
M R
O ppa
S W
S hi
S ON
T W
U sed
W ish
W AYS
b reed
c onscious
c orrect
d ry
d ress
d ee
e ers
f amily
g ence
j andro
k ip
n Ã©e
t old
w ed
Ã ¬
Ġt s
Ġt ed
Ġt il
he nded
in stein
Ġs ighs
nd on
Ġb art
Ġb raid
Ġb aff
Ġm oth
Ġc amps
Ġd ye
Ġd agger
Ġf erry
Ġy uck
ed uc
or g
an ikau
es bury
Ġp ent
Ġp int
Ġl ime
ĠI mm
ĠI da
le ading
Ġth orn
Ġbe ams
ut er
im bab
Ġfor s
Ġst inky
out e
ith ium
st ones
ro ars
ĠM M
ĠM S
ĠM ans
ĠM uss
ĠM UR
ĠS om
ĠS my
ĠS ony
ĠS hang
ĠS ugar
ĠS ciences
Ġas pir
all ied
Ġli l
ch oc
ĠC oming
ĠC ombs
Ġkn uckle
ĠB ach
ĠB IR
ĠH oo
ĠH uck
Ġare na
ĠT on
ĠT ate
ĠT ines
ĠT RE
ĠT roy
ĠT HO
ie nd
Ġsh ipping
Ġsh ivering
um as
Ġbut chers
Ġde lete
ĠW or
ĠW AL
ĠW isconsin
ĠD J
ĠD ixon
han ging
Ġal oft
Ġno stri
ĠG rey
ĠF N
os lav
ĠL OT
ĠL ETTER
ĠL eeds
ĠL upin
ist ant
ĠR io
ĠR ey
ĠR LF
ate ful
Ġex cell
Ġex hibit
ĠN ar
Ġv i
Ġv s
Ġv as
em a
Ġman kind
ĠO g
ĠO ppa
ick i
ear ing
ag en
Ġpro secut
ace y
Ġover ha
Ġover heard
Ġmore over
Ġcl aw
ĠHe ather
No v
Ġro bes
uck ily
ren cy
Ġun intellig
Ġpo ker
Ġfl ap
Ġfl akes
Ġpre ference
cc ane
Ġpr isons
Ġdis obed
Ġunder cover
ool s
Ġthought less
ĠSt odd
Ġper p
pe e
Ġapp ar
ob iles
ĠY ep
oy al
ĠV a
oss ibly
aw are
ult s
Ġche que
Ġgl itter
Ġshow ers
Ġatt ire
Ġatt ribut
Ġrec re
Ġcha gr
Ġroom mate
Ġcle ars
Ġbaby doll
ĠBr ing
ĠBr ice
ĠBr istol
Ġdiffe red
Ġsur ge
Ġind igenous
ĠFr an
me ow
Ġnum bered
Ġcol onies
ug hes
Ġlist ener
att empt
Ġsound ing
Ġwind mill
pr int
ctor al
ĠWe b
ĠEd ition
br ook
Ġmet aph
Ġ18 32
Ġpay ments
Ġdisc ern
Ġref uses
Ġconf ounded
ĠAn im
Ġblack ened
Ġinf antry
Ġsat ellite
ĠChrist ina
ĠBen ny
Ġdress er
ĠTO P
Ġfav ors
ĠZ ack
Ã¡ ya
ik uchi
ĠAll ies
Ġsn eaking
Ġfree zer
Ġyell s
ĠSp ider
ĠSp encer
RO D
RO AT
AM ES
ham mer
Ġ9 1
ĠBl ues
Ġve ctor
Ġstar ve
Ġgra veyard
che t
Some how
Ġspecial ist
Ġsal mon
IC AL
bl ank
ĠOr thodox
Ġboard ed
Ġcal am
Ġpract ised
Ġpract iced
Ġseat belt
Ġdirect ing
Ġya wn
Ġdevelop ments
UT H
Ġtreat s
Ġval iant
ffic ial
Ġprotect ive
Ġdecl aring
Ġcool er
sc rew
Wait ing
Ġcab ins
Ġspir ited
Ġlim p
rop hy
Will ie
Ġcompl ac
Ġsell s
Ġdry ing
Ġscar ing
medi ately
ĠSha dow
Ġ14 0
Ġgarden ing
wood s
Ġtow els
Ġsouth ward
ĠWilliam son
kin awa
Cl ass
ĠHall elujah
Ġpet rol
Ġcrack ing
Ġpat ri
Ġapart ments
Ġble ed
Ġdesp ised
Ġblind s
Ġdig ger
Ġstock s
ba a
Ġ192 2
Ġmedic ation
Ġhonor ary
Am azing
ĠHi iu
Ġcong regation
Ġinvestig ations
Ġtext ure
ĠEvery one
sn iff
ĠĠĠĠĠĠĠĠĠĠĠĠĠĠĠĠĠĠĠĠĠĠĠĠ ĠĠĠĠ
ĠGl adys
ĠSing leton
Ġjudge ment
ĠDE C
Ġple ad
ĠTH ROAT
ĠMat anikau
ĠMo ors
Ġta vern
Ġfold ing
ĠĠĠĠĠĠĠĠĠĠĠĠĠĠĠĠĠĠĠĠĠĠĠĠĠĠĠĠĠĠĠĠ ĠĠ
Ġbat tered
bu zz
Ġmyster iously
ĠArab ia
Ġboun cy
Ġparticip ants
ĠMi y
ĠXX I
Ġdish on
ĠPo irot
Ġcontribut ed
Ġtoss ing
Ġdescend ing
ĠYe ong
Ser geant
Ġcompos ite
Ġexception al
Ġappeal ing
Mark us
ĠCons ervatives
Ġdawn ed
Ġmechan ism
Ġanal ogy
BR UARY
Ġsumm ary
sl ide
ĠRich ie
yy y
Ġcomplex ion
tom atoes
Ġgrin ning
ĠLiber ty
Ġintr uder
Ġevol ved
Ġaccompany ing
Cor rect
Ġinterpret ed
Ġowners hip
Ġdisturb ance
ĠHor ace
Ġexplore r
Ġfer vent
ĠPil ot
ĠChap ter
Ġcasual ties
stra ight
inter rupt
Ġprosper ity
Ġruff ian
Ġsoph isticated
Ġelim inated
Ġol ive
Ġmotherf ucker
ĠBudd h
SOPHI E
ĠDart moor
Ġrecoll ection
Ġpeac ock
Ġconvention al
Light ning
Tri pp
Ġze al
ĠRain bow
Ġsauc er
ĠYaz oo
Ġuneas iness
ĠMIN UT
Ġprolong ed
Ã¡l gi
Ġpunct uation
Ġdispos al
Ġabst ract
ĠOri ental
Ġantagon ist
whim pering
Ġfoss il
ĠHOL INESS
Fant astic
ĠKenn eth
Urs ula
FE BRUARY
Ġstruct ural
tad ah
ĠAthen s
Ġdisli ked
zhe imer
ĠNune ham
Ġadjo ining
ĠGors wen
ĠElms lie
imbab we
ĠTHO SE
6 1
; .
B oom
C A
C ou
C atch
D F
E p
E nt
E yes
E uro
F eb
F unny
G un
G ord
G UN
J in
J erry
K A
M AX
N IE
O fficer
P ush
R ain
R ich
U ES
W HIS
X AND
b il
b ul
b unny
c omb
c ircle
d al
d ance
e ast
f air
f ires
h igher
l ength
l aps
m ers
m uh
n ames
p oo
p our
p ound
p iring
s ets
s peed
t chi
u ana
w ords
Ġt uh
Ġa le
Ġa ching
Ġw age
on str
Ġb umps
it he
Ġm ah
Ġm ashed
is en
Ġc ords
Ġd azed
Ġf us
Ġf ath
Ġf ern
Ġf rying
ed ed
Ġp onder
Ġp ottie
Ġn at
Ġn im
Ġn un
Ġn ort
Ġn uis
om atic
ow ls
Ġh ides
Ġh ounds
Ġh ilar
ot as
et ed
et ry
Ġbe f
Ġbe aming
Ġbe eps
ac iously
Ġre el
Ġre cept
Ġst ap
Ġst ip
Ġst itch
Ġu l
Ġdo le
Ġdo gged
am ine
ĠM uch
ĠM ang
ĠM oll
ĠM aid
ĠS ale
ĠS ok
ĠS aid
ĠS eb
ome o
Ġas semble
Ġwh oops
ĠA way
ch t
ur ic
ur st
ill ion
ĠC old
ĠC abin
ĠC aleb
ĠC lyde
ĠB i
ĠB AB
ĠB everly
ĠH il
ĠH IGH
ant ically
ct odus
il ocks
il awar
Ġj ing
Ġr uddy
Ġso ak
ĠT ouch
ĠT owers
ĠT ales
Ġab ide
ĠW inton
ĠP ill
ĠP ink
ĠP ig
ĠP age
ĠP owers
ĠP ERSON
ĠD ame
ĠD ob
ĠD isc
ol ite
Ġor anges
ĠG I
ind s
ig ible
ĠF ly
ĠF uj
ĠF letcher
ĠL am
Ġus ers
ĠR af
ĠR iley
ĠR ooker
ast ard
Ġcon sole
ak o
ĠN ortheast
Ġv olley
ĠE ph
ĠO H
ick ory
Ġtw ilight
Ġtw itching
Ġpro g
Ġpro pri
Ġbo ll
ber punk
hi ko
Ġdown s
Ġcl ause
Ġcl uster
Ġro ars
Ġput tin
Ġpe er
Ġgr udge
ving s
Ġen han
Ġen light
onna ise
ian jin
ull ah
Ġ19 14
ci als
Ġfl or
Ġfl are
Ġfl aw
ĠU EF
Ġsc enery
Ġdis put
Ġunder brush
iz ers
Ġsm ashing
ĠSt iles
ĠSt ella
Ġsec uring
get ic
Ġwr inkled
cl im
cl iffe
Ġsha m
pe cies
ĠShe l
ĠY un
ĠY ears
ons ciously
ĠV ijay
Ġlast ing
Ġcr ank
Ġcr ude
Ġres id
Ġres olutely
man ship
ĠIn st
Ġgl or
Ġgl am
up ied
ee e
Ġend orse
Ġrun g
Ġacc use
Ġmen op
Ġmon aster
Ġpass ions
ĠMar in
Ġnum b
Ġri gged
Ġri gging
Ġrel ent
Ġball ot
Ġsix teenth
Ġtri ple
St ory
ĠAl ong
ĠAl zheimer
she ll
Ġdec ades
leas ed
Ġass ent
ĠGod d
Ġimp ose
ced es
Ġtra versed
ex pl
Good ness
ĠGr ay
ĠGr ady
Ġdin ners
ĠĠĠĠĠĠĠĠĠĠĠĠĠĠĠĠ Ġ
ĠDe ad
Ġsy rup
wo ah
Ġgrand parents
Ġsqu id
Ġins cription
Ġbar red
Ġreason ing
Ġem ail
Al as
Ġexpect s
Ġlisten ers
Ġfore ns
Ġcold er
Ġappro aches
de h
Ġsun rise
Ġeng ra
ĠAd air
ĠFor ster
ĠPe isley
ĠDon key
ipp in
Ġexcl usively
Ġda is
Ġsal uted
Ġshot gun
IC ALLY
Ġdet ained
bl ast
ĠGood bye
born e
Ġremark ably
Ġsense less
ĠMy stery
ĠFrank en
Ġimag in
sy ch
Ġbow ls
Ġju icy
Ġsol itude
Ġdi ving
Ġdi apers
Ġrid den
Ġearth ly
rit es
rit ers
Ġprin ces
ĠST OP
Ġfarm house
aff y
Un like
sp oon
Ġport ions
Ġpal ms
would n
Ġdiscuss ions
ELL Y
Ġfool ing
Ġfil ming
Ġcru c
Ġfright ful
Ġdesign ated
Ġsuff ix
ĠSu z
Ġinterrupt ion
Ġhost s
Ar ctodus
Ġstream ed
din osaur
ĠChe ers
Ġpet t
eless ly
Ġspr ung
IL A
Ġunc onsciously
Ġbang ed
Ag reed
ĠQu am
oph one
Ġir res
Ġtowns hip
WE ASEL
Ġspeech less
Ġvac c
Jack y
Ġcult ures
Ġinvestig ating
Ġmor on
Ġdesper ation
could n
BE CC
ĠLO ST
Ġscrew s
Ġfra gment
Ġple a
ĠCH RIST
Ġmult itude
Ġdun geon
Ġhesit ating
Ġ187 7
ĠMor se
olan i
ĠTy phus
ĠEn vironment
Ġ186 2
Ġgang s
ĠHaw k
ĠDav y
200 7
Ã¼ h
Ġinterview ed
Ġbitter ness
ĠReg iment
ĠChan cellor
mom ma
cr ack
hun m
ĠFranc o
ste ady
Ġprec inct
Ġkeen ly
lyn n
ĠRes erve
Ġgle eman
Ġgle aming
Ġsem antics
ĠPir ah
Ġscare crow
Ġcommer ce
Ġphr ases
ĠCom pton
Ġtrop hy
ĠFire man
ĠIrish man
Pre pare
Ġmechan ic
ĠDa wn
ĠCho ice
Ġendeav our
ĠMars h
ĠBaby lon
aph one
ĠArm adillo
Ġobtain ing
Ġlux urious
Ġpros ody
iven ess
ĠDu plo
Ġvolunte ers
ĠStr onsay
Ġbol ted
Hon ours
Ġgre asy
Ġnick named
Ġbru ises
Ġbride groom
Ġna ive
Alf ie
ĠRoll ins
Des cription
Ġcreep y
Ġfulf il
Ġfulf illed
ĠNan jing
Ġcorpor al
Ġconfirm ation
ĠPot ter
Ġreluct ance
Ġpolar ization
Ġvel ocity
doll ar
Ġagric ulture
ĠArgent ine
ĠTre vor
ĠUs ually
aza ar
Ġlegisl ature
Ġmulti pl
Sub titles
ĠGU YS
Ġcoax ing
Ġsacrific es
ĠJe ong
ĠCro ckett
Ġinfect ed
Us ually
ĠBid en
ĠPier re
Ġovert aken
Ġhaz ard
Ġcontem pl
Ġcontem porary
ĠACC USED
ĠTai wan
Ġvari ations
ĠVill age
ĠDin ah
SCREAM ING
Ġreass uring
Ġprow ess
ĠClear port
ĠBund es
Ġdolph ins
ĠLIGHT S
Ġcontrovers ial
ĠCatal onia
ĠCommon wealth
Ġinconven ience
ĠIra q
Ġemphat ically
Ġlingu istic
Ġsynd rome
GRO ANS
Jon athan
ĠProdu ctions
Ġadequ ate
ĠUnivers al
Fa ith
ĠTha iland
Ġsophom ores
OSS IBLE
Ġketch up
grad uate
Interest ing
Ġworshi pped
Ġprostr ate
Ġclergy man
Ġvacu um
ĠGob lin
Ġdemer its
Ġslo ppy
ĠTaens a
ĠNev ada
choc olate
ĠUEF A
2 000
A ri
B ook
C y
D R
F C
F rost
H UH
I AL
K ath
L ost
N am
R T
S in
S ant
S IDE
S peed
T ow
V en
V ICTOR
c ats
e lect
f ing
f us
g own
g ans
h ohoho
i h
j ar
k m
l ost
m ess
n oth
r ar
s ense
t aker
v ice
v ald
w ark
w onder
y et
â Ĩ
Ġt ins
Ġt ipped
Ġt resp
Ġa i
Ġa ug
in burgh
ou fl
Ġw ah
Ġw ank
Ġs q
ha way
er ver
Ġb ats
it zen
is p
Ġo y
Ġd io
Ġd ived
Ġd angling
Ġf ared
Ġf angs
ing ed
Ġto iled
ed ar
or ph
an ium
Ġl n
Ġl att
Ġl aser
Ġl ending
ar le
ar us
as hy
Ġn our
Ġn ailed
at ics
Ġh ound
Ġh olly
ot al
et he
et ition
et hoven
ut ters
ut tered
Ġe lf
im portant
ac ular
Ġre arr
Ġst a
Ġdo ct
out side
Ġk ins
Ġme mo
st o
ĠM ond
ĠM ON
ĠS et
ĠS ORRY
ĠS leuth
Ġse Ã±ora
Ġnot ions
Ġnot ified
ea gues
Ġwh ir
ĠA pex
ch u
Ġgo anna
Ġgo sp
ĠC IA
ĠC osta
ĠB oc
ĠB ones
ĠB ILL
ĠB ETTER
ĠB irthday
ĠH unt
ĠH OUR
ct ic
Ġj an
Ġj inja
Ġj aguars
Ġup l
ore y
Ġthere by
our ke
th or
op hil
Ġout sk
ĠP and
han a
han y
Ġal ibi
Ġal arming
ĠG or
Ġthem es
ĠF ig
ĠF alls
ĠF OUND
os i
os oph
ĠL oring
ĠN ina
ĠN AME
oh o
ĠE th
ĠE www
ide red
Ġag rees
Ġlo ans
hi ya
Ġdown right
Ġcl ues
Ġro ds
Ġbr ushing
Ġbr ushes
Ġpe el
Ġpe eping
Ġam mon
ft ly
ond a
Ġco con
Ġco ils
Ġco gn
Ġday care
Ġwhere in
be it
Ġun just
Ġ19 00
Ġfl inging
ord inate
gg ard
Ġapp lying
do ggy
ĠY uc
Ġcr ouching
Ġres ume
ip ers
Ġnight fall
Ġser mon
Ġdif fers
Ġcha ined
Ġcha ssis
Do ing
Ġcount less
ye isha
AT OR
ner y
Ġbus k
ĠBut ler
ĠUn less
Ġsur rend
Ġwar like
Ġind ex
Ġdoor step
Ġside ways
Ġfun n
me re
ĠMar io
ĠMar ino
Ġter race
Ġrest lessly
Ġmoment ary
Ġfr ay
uff ic
uff alo
ered ith
St upid
ĠAl ton
Ġsecond ed
Ġass ign
Be hind
Be yond
Ġi od
Ġwind y
ĠEd inburgh
sh ots
EN DS
app arently
go vich
Ġexp anse
Ġfoot ing
Ġmus ket
Ġtra its
ĠâĻª âĻª
ex actly
Good night
Ġinf id
Ġexc av
Th ou
ĠĠĠĠĠĠĠĠĠĠĠĠĠĠĠĠ ĠĠ
Ġpop ulated
ĠBe ij
Ġ6 9
LE Y
Ġopp onents
Ġcheck er
Ġpen insula
Ġtrans formed
unch ing
Ġwear ily
ĠSp ace
ĠSp ike
Ġquiet er
Ġgovern ors
ĠPhil osop
Ġca f
Ġclot hed
Ġcho ices
Ġspe ck
ST OP
Sh ot
Ġcross es
Ġcos y
Ġda et
ĠX box
ĠX VII
ĠX VIII
Ġluck less
Ġprof itable
ID D
20 10
Ġhusband s
ÃŃ s
Ġfail s
Ġut il
ĠSc oop
Ġpublic ation
Ġmatch ing
Ġvict orious
Ġdi pped
ĠLet ter
Ġrad ical
ĠMal ay
ĠSe rena
ĠSome how
Ġfil med
igg a
ĠMad ison
ĠMad iba
Ġproject ed
Ġgrass y
ĠMa f
Ġforth right
Ġrich ly
Ġconnect ions
Ġtechn ician
Ġinqu iring
line y
Ġfaith fully
Ġimm oral
Ġcrack s
ĠGO LD
Ġpat ting
Ġstro ked
ĠPl ano
Ġtrick ed
Ġblind ed
ĠQu oth
Qu estion
IF UL
ĠSch wart
Ġtrad itions
Ġvan ish
ĠRob bie
Ġcustom ary
Ġutter ing
Ġwheel ed
ĠAN OTHER
Ġafford able
Ġboss es
Ġsuspect s
Ġbal anced
ĠSteven s
Tw elve
ĠSE EN
Ġnarrow ly
ĠMor rison
ĠMo ira
Ġ186 9
ĠCat hy
Ġgrate fully
ima o
Ġpred ators
Ġdim ly
Ġnerv ously
ĠMore land
Ġlack ed
Ġinstru cted
ĠSen ior
Ġcompar ing
Ġpension er
Ġdeser ts
Ġrejo icing
Ġpassion ately
Ġtrem ble
Ġbump y
Ġadminist ered
Ġprec ision
AG N
ĠEr nie
Ġadmir al
ĠÃ ī
raw l
Ġanti que
Ġcontest ants
Ġder iv
Ġlegend s
Ġframe work
Ġconvin cing
rend a
Ġ190 9
Ġcritic ized
Ġlink s
Ġendeav ouring
Ġdies el
Ġobst acles
ĠBook s
Ġdece ive
jac ent
ĠSl ave
Ġgrie ve
Ġhaul ing
Ġfasc inated
ĠWANT ED
ĠINV EST
Jul ie
Jul ien
ĠVer onica
Ġrum or
uls ively
Ġadvert is
Ġbroadcast ing
Ġcri ppled
Ġphilosop her
des ign
ĠFA CT
ĠBuild ers
Ġvague ly
ĠDev on
ĠPeters burg
Ġrestrict ed
vet te
Ġmemor ial
Ġtwist ing
orpor ated
Ġhydro xide
Ġtum or
ĠLy on
Ġgraph ics
miss us
Ġnod ding
grow ls
Ġsurvey ed
Ġlod ge
Ġtoler ate
ĠSpring field
Ġuncertain ty
Trans criber
Ġmant le
Ġod or
Ġpip es
Ġles bian
Ġfrag ile
ĠJos Ã©
cont rol
BAR BARA
oog le
Ġoverse as
ĠMess ines
ĠPART Y
Ġroo ster
Ġsubsequ ent
Mur der
ĠCONT IN
Ġclar ify
acr ament
Ġslop ing
Ġuneas ily
Ġreun ion
ĠCE O
ĠNong da
Ġscoot er
ĠRud olph
LI KE
Ġmonot on
Ġwal nut
ĠLev itt
ĠGRUNT ING
includ e
Ġalumin ium
Ġiv y
ĠCLOS ES
ĠSCREAM ING
Ġhob by
Ġfestiv ities
ĠCra ig
ĠCrim ea
ĠOrigin al
Ġredoub led
Ġfluor ide
ĠRab aul
Ġsatur day
Ġforci bly
Ġrhe umat
ĠGosp el
Ġgiv in
Ġdatab ase
ĠShaft esbury
Ġsomers ault
ĠLer oy
Ġnuis ance
âĨ «
Ġdio xide
Ġoutsk irts
ĠBeij ing
8 2
8 00
A mb
B ew
D Y
D est
D ee
E VER
G S
G IE
H el
H attie
J en
J OHN
K arl
L ow
M et
P O
P ra
P ress
P oint
R on
R oll
S ar
S her
S ailor
T ea
U CT
Z Z
c ookie
e xt
e ither
f al
f il
f un
f inger
g m
g os
l n
l iga
n own
n other
s and
u ver
u ity
w ixt
z etti
Ġ Â¶Â¶
Ġt ant
he ne
ou la
re cy
Ġs no
Ġs urname
ha p
ha ge
nd ez
Ġb umble
Ġb inding
it ating
Ġm r
Ġc ay
Ġc ages
Ġd aint
an qu
an ne
Ġp asha
Ġp ouches
Ġg age
Ġin mates
Ġn k
at z
Ġhe h
Ġhe al
Ġh ust
Ġh ub
Ġh oot
le ader
et hing
ic us
ic ia
Ġe i
Ġe ll
Ġe cc
Ġwe ep
Ġwas ps
im i
ac a
ver ted
Ġre vers
ri um
Ġst ained
ion al
Ġk ay
st icks
âĢ ĭ
ĠS V
ĠS ind
ĠS ign
ĠS ey
ĠS oni
Ġse gment
ea bly
Ġli bert
ĠA jay
ur gh
and ers
ĠC ool
ĠC ald
ĠB led
ell ows
ĠH U
ĠH app
ĠH ughes
il ation
Ġr ake
Ġr ue
Ġr ushes
Ġr oust
ĠT ories
ĠT UCK
ĠT amil
ĠT anya
ore r
ie val
Ġthere of
Ġsa un
th in
Ġsh rub
Ġab used
op ter
op ol
op ened
ĠW a
ĠW ea
ul ent
ĠP rest
ĠP OL
ĠP ingu
ĠP hoebe
ĠD ouble
ĠD upree
Ġal ight
Ġpl edged
Ġor deal
ĠG loria
ĠF ish
ĠF lying
ĠF ifth
ĠL ocal
ist ress
res den
ĠR U
ĠR ut
ĠR aw
ĠR UN
Ġex ting
ĠN ad
ĠN ate
ĠE cu
ĠO U
ĠO kinawa
Ġtw itch
Ġpro ven
Ġpro ctor
Ġlo ading
Ġbo oth
Ġbo omer
ber ville
Ġdown ward
Ġgood y
Ġar ist
Ġar ising
Ġcl ump
ĠHe ights
Ġfe eb
we eter
Ġgr it
Ġgr uff
Ġgr umbled
Ġam en
ud ged
ud ging
ty pe
ĠK u
ass ie
so e
Ġplay fully
ho ly
ater nity
Ġfl ux
Ġsc oop
Ġdis rupt
Ġad jacent
ne ider
Ġrem orse
Ġsm ok
ĠSt art
Ġwr ists
cl osure
Ġte ens
Ġmust ache
ĠShe en
Ġch illed
Ġch ili
ĠV all
ĠV iew
ĠV erm
Ġsl ices
og urt
Ġcont rived
Ġche es
ĠIn n
Ġrec ite
let ed
let te
Ġcle ans
Ġsw ans
ĠUn iverse
Ġind ifference
ane ous
Ġfun nel
Is a
Ġrest rained
Ġrest raint
Ġnum er
Ġdear ie
mb a
Ġtri f
Ġcons cient
Ġdri p
ib al
ĠNo ah
Ġfire men
Ġinv itations
br is
Ġref ined
Ġref rain
RE ET
who ever
Ġexc uses
Ġinc oming
ĠTh umb
Ġlad en
Ġhot ter
Ġcur ry
Ġsqu ire
ĠTom orrow
Ġins ol
Ġglad ness
Ġrepl acing
olog ists
LE ILA
Ġopp a
Ġpar an
Ġpar rots
Ã¡ ssi
Ã¡ lua
Ġforg ave
men garde
Ġappro pri
de ck
Ġ7 00
THE N
ĠSp ark
Ġcou ples
Ġ9 4
Ġjo gging
zz z
Ġca fe
Ġvill a
VE L
Ġve t
ĠPr ay
cha nd
Ġsal am
Ġfort ifications
20 16
Ġequ ipped
Ġsupposed ly
Ġnorth ward
com p
Ġprop ag
Ġru gged
Ġleg ally
Ġlearn s
Ġclos ure
Ġoper as
Ġoper ates
,' "
Ġorgan ised
ĠPar aly
EL S
ĠSc outs
Ġwhis kers
Ġsnow man
Ġtur f
ĠSh in
Ġlab ours
Ġdefe nder
Ġincre asingly
Gr an
Ġdi ab
ĠPaul o
Ġtor ches
Ġtor ped
Ġhate ful
Ġ11 0
Ġpresident s
ĠMal ays
ĠSome body
Ġelect ro
str icken
Ġhero ine
Ġrepresent atives
ĠSu zy
Ġpeace fully
Ġbuck ets
Ġur ine
Ġsimilar ly
Ġbomb ed
ĠChe ck
God damn
Ġthick ly
Ġunc les
aud i
Ġfavour able
vell ed
Ġtemper atures
ĠHigh fields
ĠMac key
Ġrob bing
ĠJul iÃ¡n
Ġroof s
Ġindic ations
Ġsucceed ing
ajest ic
Ġsurv iving
Ġgro aning
Ġaware ness
Ġprevent ing
Ġthin ner
ĠĠĠĠĠĠĠĠĠĠĠĠĠĠĠĠĠĠĠĠĠĠĠĠ ĠĠ
Le od
Ġwhist les
ĠGl enn
ĠGl asg
Ġshock ing
Ġdism al
Ġ187 6
Ġ187 9
Ġoblig ation
ĠRy u
Ġdistribut e
Ġproduct ivity
ĠHave lock
Ġindepend ently
Ġattend ance
Ġpit iful
Ind ian
only include
ĠDar in
Ġhabit at
Ġbark s
Sm art
Ġshr ank
Ġboot y
Ġdeliver ies
Ġprem ature
Ġdiss ip
ĠMur akawa
ĠEr mengarde
ĠFR ONT
udge on
ĠVan essa
ĠVan zetti
Ġdisappear ing
Ã¨ res
ĠLight foot
Ġdecor ations
Ġpigs kin
Ġmeas uring
Back ground
EM BER
Ġthrill er
Ġpsych ology
BY E
Ġenc amp
Ġhug s
ĠDa isy
ĠFe ast
ĠEv idently
Ġkidna ppers
Ġconver ts
Ġflood s
Ġmal ign
Ġneighbour ing
bor o
ĠShar on
Ġbund les
Ġmurderer s
Ġga ol
ĠGall agher
Ġgrasp ing
Play ing
Ġcooper ate
Ġancest ry
Ġgre ase
VID ENCE
Ġiniti ated
ele ven
Aw esome
ĠBuild er
Ġpeak ed
Ġginger bread
SH AN
Ġabsor b
Ġcust ard
Ġank les
Ġintegr ity
Eight y
Ġreluct ant
ĠBas in
ĠDaw lish
Ġsimpl icity
ultane ous
fix ed
Ġspan ish
ĠKaw ÃŃta
ĠColumb us
ĠLib rary
ĠIslam ic
ĠEp isode
Ġinvolve ment
ĠAld ate
WHI CH
pow der
Ġagg rav
Ġbloss oms
Ġric hest
esc ope
ĠEle ven
mad am
ĠBog art
Ġvine gar
Ã¡w ano
ĠFur long
Jap an
Ġapprehens ion
Ġsne ered
ĠLor imer
Ġrefres hed
ĠRober ts
Ġdolph in
repe ated
ĠÅ Į
lov akia
ĠKin man
ĠNort on
Ġresear cher
ĠDOES N
Ġprejud ice
Pil grim
Ġgrid iron
ĠSpy ro
Ġalle ged
Ġintol erable
omot ive
ĠHunting ton
Ġdiscon nect
Ġchalleng ing
Ġanten na
Ġenforce ment
Ġsharehold ers
Cla ire
Ġthirt ies
ĠMICH AEL
Ġdisadvant age
Ġunreason able
Bat man
ĠJar vis
Ġinsignific ant
Ġdanc ers
ĠTuk ab
ĠShell ey
Ġnoteb ook
Ġingred ients
Ġmoust ache
Ġkha ki
Ġecst asy
Ġnostri ls
Ġmenop ause
ĠBled soe
ĠEcu ador
ĠParaly mp
ĠGlasg ow
. ;
2 50
6 7
7 3
A li
A me
A br
A ustral
C ity
C ompany
D AN
D ean
H olly
I VER
I berville
J ac
K aw
K ELLY
L uckily
M ess
M otion
N ational
N early
O rigin
O ops
P om
P ooh
R ING
R EN
S L
S ad
S AR
S pr
S ilence
S plend
T iger
T RA
V aud
W al
Y L
Y ellow
b as
b less
d ens
d rop
f ig
g old
h s
h ttp
l isted
m ouse
m ma
n ard
o z
p ipe
u u
u ld
v arsity
x ual
Ã ¯
Ġt iring
Ġt igers
in ished
Ġw ither
Ġw arden
Ġw igg
re aches
ha k
Ġb aking
Ġb owing
Ġm are
Ġm ules
is d
Ġc uc
Ġf uzzy
Ġf iend
Ġy ogurt
or ient
an ar
an ish
Ġp ang
Ġg ust
Ġg ird
Ġg eor
Ġg rop
Ġg ums
Ġg iggles
Ġg ender
Ġg abby
Ġl or
Ġl itt
Ġl ag
Ġl ashed
ar ice
Ġin appropriate
Ġn ip
Ġn ope
Ġh oops
Ġon wards
us er
Ġe aves
al ian
Ġre ind
Ġre organ
ad ually
ent ric
Ġst ressed
Ġst umps
Ġst agger
Ġdo pe
am ination
Ġme nded
ith uan
st ore
ro ot
Ġwith drawn
ĠM orm
ĠM athe
ĠM AKES
ĠS N
ĠS ag
ĠS ON
ĠS IL
Ġse ap
Ġse iz
Ġse ating
Ġse rene
ĠA ber
ĠA UT
ĠA bsolutely
ur rection
and ar
and um
ĠC ou
ĠC and
ĠC rist
ĠC HAT
ĠC urry
ĠC RAFT
Ġkn ickers
ce e
ĠB ou
ĠB ag
ĠB amb
ĠB anda
ĠH A
ĠH anna
ĠH ole
Ġr y
Ġr uth
Ġr owers
Ġr oman
Ġso fter
un i
un happy
Ġup roar
ĠT ut
ĠT ill
ĠT ul
pp ling
um bed
um sy
rom pt
Ġde ment
ab ad
Ġout s
ĠW u
ĠW id
ĠW ant
ĠW ik
ess es
ink les
ul us
ĠP s
ĠP ant
ĠP aper
ĠD iane
ĠD arewell
el o
el ity
Ġpl aint
ĠG av
ĠG io
ĠF al
ĠJ ungle
ĠL il
ĠL ud
ist rate
Ġjust ification
Ġcom fy
ĠR acing
Ġcon ject
ĠN anny
ĠN urse
Ġv od
em ale
Ġman oeuv
ĠE nt
ĠE lly
ĠO tt
ag han
Ġag itation
Ġlo omed
no ons
Ġqu itting
Ġar ter
Ġar th
Ġgr unts
omet ry
ish na
ect ed
ĠK ey
ade qu
Ġwork men
act ing
be en
Ġafter noons
per ors
per fect
Ġfl atter
Ġsc anning
Ġdis d
ne enaw
Ġrem onstr
Ġsm ote
Ġsm arter
Ġsec recy
cl ip
Ġte aches
Ġfo lder
HE D
ah l
atch i
ĠY o
ĠY ORK
Ġsl ides
Ġsl edge
Ġcr umbs
Ġres ented
IN CE
og ram
Ġname ly
Ġstr ains
Ġgl obe
Ġgl ittering
Ġfound ing
Ġcomm itting
oth ic
AN CES
Ġhard ware
Ġpres cription
ĠBr ick
Ġpass ages
Ġdr ooping
ĠMar ple
Ġheart less
amp u
Ġreg ulation
stand s
Ġfr amed
Ġfr antically
St raight
Ġcol ogne
ug oslav
ib les
ma ids
att s
ange red
Ġmil it
Ġsk im
Ġred uctions
Ġimp osed
Where as
Ġsub stit
Ġ18 90
ĠNew ark
Ġfoot prints
Ġref using
Ġhor ribly
Ġtra itors
Ġconf orm
Ġ4 1
Ġland lady
Ġinc ons
ĠTh ou
ĠChrist ie
ĠChrist church
Ġshort est
Ġes p
ĠBe ut
for ms
ĠIs le
Ġpain fully
Ġstra ps
Ġbar be
Ġbar ric
ĠZ ero
Ġroad side
Ġgun shot
Ġhum orous
Ġpower less
Ġcold ly
Ġimportant ly
Ġsum s
Ġmid day
Ġloc ality
Ġrece ives
Ġtrans form
An nie
gin ning
Ġexam s
Ġfast est
ĠEnglish men
Ġve il
lo be
che ering
ĠX IX
ĠPro gress
Any how
Ġsal ty
20 13
bl ood
Ġpost man
Ġwild est
OK AY
Ġbes et
Ġ15 9
Ġsand y
Ġoper ational
ĠTr aining
Ġsuper natural
ĠAb d
ĠAb i
ĠAb yss
Ġreleas es
ĠEuro fighter
Ġbud dies
Ġprin ter
chan ce
ĠST E
Un believable
sp aghetti
Ġrub y
Ġchurch yard
Ġsmell y
ELL A
Ġjour neys
Ġobs ervations
Ġcru elly
box es
Ġmass acre
Ġrap ture
Ġfeed s
ĠEx pl
ĠEx cept
Ġinterrupt ing
Cl are
Ġhy per
ĠEm il
fl at
Ġhonest y
Ġur gently
Ġtight er
Ġnatural ist
Ġcrit ically
ĠJenn ings
ĠSer bian
Ġener gies
Br ought
Ġattract ions
Ġrob in
17 9
Car ter
Ġphys i
Ġ192 5
Ġwheel chair
Ġemer ald
Ġobl iv
Ġinvestig ated
Ġprinci p
Ġsna pping
Ġsuspic iously
Ġspoon ful
ĠSing h
Ġchem ist
ĠSus sex
ĠMo at
ĠNOT HING
Mad ame
AB OUT
ĠBel ize
Ġassoci ates
Ġassoci ations
ĠMed icine
200 6
Ġcompanions hip
Ġtransport ation
Ġwra pping
Te le
Ġnic kel
Ġrang es
Ġparticip ation
Ġparticip ating
ĠMil itary
Ġconclud e
ĠJer ome
sa fe
ĠAny how
Ġembarrass ment
Ġimprove ments
Fin ish
Ġgri pped
Sha gbark
Ġcommun es
Ġtransl ation
ili ary
Ġtrop hies
talk s
Ġchuck ling
Ġpronoun ce
ĠAsh leigh
add ress
squ are
Ġcord ial
Ġmechan ics
ĠGar ter
Ġcowboy s
Ġrev ived
Ġrac ial
Ġcam oufl
ĠDes ign
ĠUp on
ĠLu is
Ġinstinct s
Ġlos ers
Ġyield ing
Ġga unt
Ġraid s
Ġmaintain ing
ĠRepresent ative
Ġancest or
ĠCont reras
Ġrecover ing
Ġsquad ron
Ġhopeless ly
ROW N
Mc Glory
ĠJoy ner
Ġevac uate
ĠAndre na
Ġimmense ly
ĠWork ers
ĠHard ing
ĠTem ple
ĠProt est
Ġmemor able
Ġimmig ration
ĠPun ishment
Clear ly
cray ons
Ġtribut aries
Ġrehears als
Ġsty lish
Ġamid st
Fort y
Ġfert il
ĠGreg ory
Ġgallop ed
Ġscra ps
Ġstew ard
Ġpengu ins
Ġpremium s
hr oo
Ġdiagn osis
ĠTour nament
Hope fully
Ġthrong ed
ubb ies
Ġeval uation
ĠAtt orney
ĠAst bury
Ġric her
ĠTalk er
Ġvari ables
Ġexert ions
quiet ly
Ġrecru it
Ġacceler ation
acr ity
ĠWol fe
Coll eagues
Ġdil ig
Ġdispl acement
ĠSout hampton
sim ultaneous
ĠGand olfini
Ġsyll able
ĠJose on
Ġinherit ance
Tem per
Ġungr ateful
Ġscree ch
Gil roy
Ġlam bs
Ġrect angle
Ġbould ers
Ġdre ary
Ġsabot age
Ġmosqu ito
ĠMare chal
Ġhards hips
Ash ley
Ren Ã©
ĠPalest ine
ĠFollow ing
Ġconson ants
Ġsentin els
Ġomin ous
ĠTreat y
ĠLina res
ĠAur ich
Ġbulldo zer
ĠPUBL IC
ervo ir
ĠPied mont
Ġpenit ent
Ġaeropl ane
ĠBuddh ist
BECC A
Ġgosp el
ĠINVEST IG
acrament o
ĠTUCK ER
Ġexting u
A ction
A wards
A war
B ay
B oo
B ur
B ear
B rit
C Y
C hat
F ood
G os
G IRL
H umph
I ENCE
J ay
K iss
L arry
L ands
M ass
M ater
M AS
M erry
O G
O uch
P ot
P un
S av
S ays
S hane
T ube
V in
V ING
W ed
W IN
W ILL
b ach
c j
c z
c art
c ricket
d oo
d est
d ose
e cho
e viÄĩ
f an
f ret
g ah
k on
k ill
k ie
l og
l ower
l apping
m n
m ies
m umbles
n one
o val
p resent
r ange
r iding
s le
t ap
t reat
t ray
v oc
w hether
z ig
Ã ¸
Ä ķ
Ġ Â¶
Ġt at
he he
ou ver
Ġw ad
Ġw agg
Ġw erry
re ci
Ġs ire
Ġs not
er ied
Ġb azar
it ious
Ġm un
Ġd ice
Ġd oth
Ġd uly
ing don
Ġy ea
Ġg h
Ġl atch
ar led
Ġin let
Ġin ject
ĠI ro
Ġhe v
Ġh ump
Ġha llow
Ġha cked
et le
ic ism
ic ola
Ġbe eping
Ġe ve
Ġe ch
Ġwe pt
Ġwe aken
Ġwe ights
Ġwe ighs
al gam
im ity
Ġre bel
ir ting
Ġst owed
Ġst unning
Ġst alls
am itos
st ation
st alk
st ruct
ĠM ut
ĠM ight
ĠM ob
ĠM ills
Ġan ime
ĠS at
ĠS ic
ĠS old
ĠS low
ĠS audi
Ġse vered
Ġli able
ĠA er
ĠA mp
Ġgo ats
ill as
ĠC J
ĠC ost
ĠC atch
ĠC ott
ĠC oke
ĠC RE
ĠC inem
Ġkn itting
Ġkn uckles
ĠB h
ĠB eth
ĠB ains
ĠB odo
ĠB rigade
ĠH ig
ĠH av
ĠH www
ĠH AL
il ess
Ġr ained
Ġso aking
ĠT as
ĠT ap
ĠT ammy
Ġcan oes
ie ft
Ġsh ipped
Ġsh ivered
Ġde jected
Ġde bris
Ġout right
ĠW AIT
ĠP ist
ĠP anda
ĠP ONY
ĠD ol
ĠD IST
ĠD iamond
ĠD iggers
qu ila
Ġal k
Ġal acrity
est yle
ĠG y
ind ers
ĠF ace
ĠF AR
ĠF UN
ĠF lynn
ĠJ ae
ĠL anc
ĠL amb
ĠR eed
Ġcon vent
Ġsp un
ĠN on
ĠE den
ĠE sc
ĠE VIDENCE
ĠO st
ĠO ften
ear ance
ag ara
Ġtr uce
Ġqu iz
Ġover turned
Ġar tery
Ġcl ing
Ġcl aps
Ġcl asping
Ġcl umsy
ĠHe brew
au per
Ġle ver
Ġpe w
Ġam iss
Ġam iable
We ren
ud ing
Ġhow ling
ĠK ra
ĠK uro
Ġen vious
Ġen forced
Ġwork in
pl aced
be hind
Ġun inc
Ġcall er
Ġ19 12
ise ly
Ġbet wixt
ater al
Ġfl ocks
Ġpre ached
Ġsc ru
Ġsc reens
Ġdis pose
Ġad ore
Ġrem edy
ĠSt ore
ĠSt adium
ĠSt uey
ew ard
Ġcomp ly
Ġcomp ose
Ġsha lt
Ġmay onnaise
ob i
ens en
Ġhead aches
ĠV ir
Ġsl ime
Ġsl ugg
Ġcr amped
Ġlea king
Ġfeel in
but ton
Ġbu ccane
Ġuh huh
Ġche etah
dy s
Ġcha uffeur
li ved
let ubbies
Ġfour teenth
Ġhard ened
AT ELY
Ġmon k
Ġfin s
Ġpret zel
ĠUn like
Ġreal izes
Ġret ail
Ġter med
All ah
St ri
ĠAl amitos
Ġcons ignment
Ġcons umer
Ġass erted
any body
Ġinter posed
Ġdep ressing
ĠAr d
Ġexp elled
Ġdisc reet
Ġhor rors
Ġbreak ers
ĠHar bor
Ġinc omp
ĠĠĠĠĠĠĠĠĠĠĠĠĠĠĠĠ ĠĠĠĠĠĠ
Ġlad ders
Ġdeal ings
Ġpop ulations
Ġsqu eals
ĠFl agg
ĠBe hind
Ġcent ers
ander a
Ġins ens
Ġins ulting
Ġbar ges
Ġbar riers
AP S
Ġdar n
Ġpast oral
Ġrock ed
Ġmill s
Ġmill er
To gether
Ġbuy er
Ġbuy ers
els don
Ġca vern
ara oke
oof y
Ġcho pped
ĠBl itzen
ĠHer bert
Ġpolit eness
Ġgroup ed
che ek
Ġought n
Ġbath s
Ġesc orted
ĠCol ony
amer ica
Ġhang s
ĠLe ila
Ġsecret aries
ET S
net t
unic ations
Ġconsider ate
ĠMin ley
Ġleg acy
ĠDr ama
ĠRos y
ĠRos en
Ġval our
Ġmention ing
Ġbirthday s
Ġsuper stit
oul as
Ġrecogn izing
ĠPar amount
Ġbull s
ĠGo ing
yn n
Ġban ners
ĠSh Ã¡wano
ĠWh oo
Ġlab ou
Ġsubject ed
Gr ab
Ġsex ually
SE E
ĠBE LL
Ġfil ter
Ġcompet itions
Ġcru isers
bur ps
ĠWith in
UR ES
Ġoccur ring
Ġcaptain s
Ġident ifying
Ġgar ment
Ġgas ps
Ġsquare ly
Ġpat ent
ĠFred erick
Ġtour ists
Ġstro ll
ĠPl uto
IE W
Ġdesp ond
Ġep id
ĠBur mese
Ġchat tered
Ġstret ches
Ġprofession als
Ġign oring
ĠJul ius
ĠHelen a
ĠHE AR
Ġcart oons
Ġtext s
Ġtext ile
Ġcontract ed
Se o
ĠRepublic ans
sha ke
Ġcivil ians
ĠGl ad
ĠColl ins
roll ing
Ġrespond s
IV ES
Lea ving
Ġess ence
Ġow ls
ĠFlor rie
ĠBro s
ĠEn ough
Ġearnest ness
ĠLook ing
ĠWin ston
asm uch
ĠVictor ian
Su pp
Ġqual ifications
Ġadmin ister
Ġdrown s
Ġmyster ies
Ġpump ing
Ġsquee zing
Ġsin ister
Ġvain ly
Ġvast ly
Ġge ese
Ġaffection ately
isha ble
ĠPlay er
ĠAust in
Ġ188 1
Ġtu ber
Ġtravell ers
Ġadmir ingly
ĠWal ton
Ġsecure ly
Ġrank ing
ĠScot ch
uy per
Ġnephew s
Ġstiff ly
Ġchuck le
Ġdisg usted
fin ished
Ġendeav oured
Ġsubs ided
Sec urity
ĠAD VENT
Ġmast s
Ġmast urb
ĠHol mes
Under stood
sw ings
ĠAL WAYS
ĠDes ert
Ġillustr ation
Ġpier cing
CI AL
Ġteen agers
Ġsavage ly
Ġguarant eed
Ġundert ook
Ġundert aken
Ġgard ener
Ġmerchan ts
gro ans
ĠTib et
ĠRegion al
Ġcryst all
Ġstoop ing
ĠRh ode
Ġrefe rences
ĠFA IR
Ġprivile ged
ĠAF C
Ġrestrict ive
Ġadjust ed
ĠLast name
ĠCOULD N
beep beep
Ġbewild er
breat hing
Ġexcess ive
him o
Ġsimpl er
Cr ash
Ġdod ging
Ġfract ures
Ġregist ration
Ġmerc iful
hur ray
Ġmisunder stood
Bern ardo
ĠVaughan s
Ġflav our
Ġperpet ual
Ġmuff led
Ġdiver t
Ġslim y
Lou ise
ĠIce land
Ġboast ed
Ġoverwhel ming
Ġscrat ches
Ġelim inate
Ġemig rant
Ġmead ows
ĠSocial ist
Ġ179 1
ĠMcC arthy
amil iar
occ o
Ġmoo red
ĠVen us
Ġassass ination
Ġholl er
ĠTHING S
Ġharass ment
ĠLeg isl
Ġmushroom s
Ġunac cept
MO ST
Ġairl ine
ĠCOUR T
Tot al
Tot ally
ĠWON DER
Ġchron ic
Ġcommence ment
ĠGand hi
ĠAnton io
Ġappoint ments
Ġsupplement ary
ĠFRI END
ĠSpeak er
AUT IFUL
Ġflick ering
Ġrefresh ments
Ġunsuccess ful
Ġdwar fs
Ġacquis ition
Ġsympat hi
crit ique
ĠHop kins
opotam us
ĠOrgan ization
Ġcomprehens ive
Ġattent ively
Ġvamp ire
Ġingen ious
Ġphenomen on
Ġunanim ous
MAG GIE
Ġchol era
ĠVanmarsen ille
tow el
ĠSard inia
ĠWITNESS ES
ĠGan non
HELL O
Ã¡m assi
Ġki wi
ĠTaka hashi
ĠMYSTER Y
Ġhaird ress
ĠFu ente
ĠSTOR IES
Suk ie
Ġfundament al
Ġpett ico
uffic ient
ĠMaf uta
design ated
Ġmonoton ous
ĠPrest on
Ġuninc orporated
Ġsuperstit ious
" ----
7 9
8 7
A p
A ge
B ow
B reat
B etty
C J
C ent
C ell
D ire
D ale
D ifferent
E ar
F IRST
G AR
H ugo
I r
I ED
I EL
I ENT
J os
K ane
L ess
L oki
M ot
M us
M odern
N et
N ong
O i
O SE
P a
P HI
P ark
T s
T an
T odd
U ses
V o
W his
W ON
W orld
W RIG
X I
Z ach
_ !
a ha
a is
b ies
c ars
c overed
c arry
c ule
e ffect
g iva
h ound
i ago
j ev
l ore
l ime
m ain
m atch
m ister
n ear
n igh
n ets
o van
r oo
s we
s ub
s now
t al
t ock
t was
u ber
Å Ĥ
Ġ icy
Ġt angle
Ġa ux
Ġa isle
in th
in ian
ou x
Ġw ards
Ġs her
Ġs ill
Ġb ible
Ġb oop
Ġb aker
Ġb itts
Ġm ute
Ġo ink
Ġf ren
Ġy oke
an x
Ġp se
Ġp ite
Ġp ian
Ġp its
Ġp acing
Ġg ene
Ġg urg
Ġg ambling
Ġn er
ĠI ron
at ical
le ys
Ġth rees
ic eable
us al
id al
ut ra
Ġwe a
ac ulous
ver b
Ġfor d
Ġfor ged
ad el
ri b
Ġst up
Ġk ar
Ġme ow
st a
st age
ro e
ro v
ĠM ol
ĠM ine
ĠM Ã¼
ĠS or
ĠS ent
ĠS ook
ĠS ig
ĠS ug
ĠS ex
ĠS adi
ĠS aints
Ġwh ipping
Ġli a
Ġli ly
ĠA ges
ĠA aron
ĠC ort
ĠC AMP
ĠB ri
ĠB ass
ĠB RE
ĠB OM
ĠB ury
ĠB EST
ĠB hati
ĠB uster
ĠB ODY
ĠB riggs
if ix
ell ation
ell ers
ĠH ak
ĠH ob
ct ory
il ot
Ġj ub
Ġr hin
Ġr apper
ĠT ask
ĠT igers
ie v
Ġsa ves
Ġsh red
um ptions
ge l
rom well
Ġde ars
Ġde ception
Ġab ack
Ġab ortion
ĠW ord
ĠP RI
ĠP OPE
ĠP enguin
ĠD www
han tom
Ġal beit
ĠThe ory
ĠThe bes
ĠG oogle
ĠF ra
itt e
ĠJ a
ĠJ oint
os he
ĠL af
ĠL ux
ĠR ID
ĠR ico
ĠR ourke
Ġsp urs
Ġsp ruce
ĠN y
ĠN ing
ĠN ear
fe it
ĠE R
ĠE lect
Ġer ratic
ĠO ptic
Ġint u
Ġtw igs
use ums
ine z
are rs
no ises
Ġbo ing
Ġover powered
au de
Ġro y
Ġbr ot
Ġam pl
ĠK el
ĠK ali
so ld
Ġco on
Ġwork shop
Ġwhere by
pt uous
ian g
be f
be ads
Ġun ce
Ġun ity
Ġun rest
Ġun real
Ġun pre
Ġ19 17
te ch
Ġpo king
Ġpo ked
Ġfl ing
Ġgu inea
ĠU CI
Ġboy hood
Ġsc uff
Ġcar b
Ġcar c
Ġdis closed
Ġsec ular
Ġper ch
Ġper ception
cl ad
cl othes
day s
Ġte ch
Ġact ively
Ġch unk
Ġch ooses
Ġch ieft
ĠY ellow
ĠY Ã¡massi
ĠV IS
ĠV OICE
Ġsl ot
Ġsl ur
Ġcr am
IN K
ip edia
Ġcont rive
ail en
Ġmin s
Ġgl ared
Ġatt ributed
Ġend angered
anc a
anc ouver
Ġsupp osing
AN NA
Ġset up
Ġacc using
uc a
Ġmon ks
ĠBr itt
oc ated
ph ur
ph osa
me i
Ġfr action
Ġri pping
Ġchar med
ug a
Ġcons iders
Ġass es
Ġass umptions
Be at
Ġpick et
Ġinter section
Ġinter fering
pr ising
Ġsk ins
Ġfire work
iet ies
Ġimp osing
ĠAr nold
oor ah
Ġexp ose
IS A
RE ADY
ax e
ĠAn an
Ġrep ressed
Ġplan ks
Ġblack mail
Ġswe eter
ĠGr anger
cess ion
ĠCl if
Ġpop ulous
Ġcur t
Ġshort ened
clud ing
Ġpleas ing
Ġbuild er
ati ent
ĠZ ane
ĠZ himo
Ġrepl en
ĠCar ly
ĠCar la
Ġdar lin
Ġmouth ful
Ã¡ ndez
Ġdef y
Ġrecord ings
Ġloc ate
Ġloc als
Ġhorse back
Ġmill imetres
Ġho isted
Ġclass mates
Ġty re
Ġap ost
Ġfro ze
Ġfro ggie
Ġfish y
ĠBl air
ST ON
AL D
ĠHer ndon
itc hell
Ġdem ons
ipp on
ĠPr inc
ĠGu ang
ĠGu itar
cent ury
OW S
Ġhus ky
Ġdest ructive
Ġcreat or
Ġview ers
aint ree
Ġrequ is
20 15
Ġdet ention
Ġduck ie
Ġpot ent
Ġav iation
Ġband aged
ĠIT S
Ġaccept s
Ġdelight s
ĠSc ale
ĠAb ingdon
ĠSh it
Ġrespect ively
friend ly
Ġprogram mes
Ġcommand ery
ĠST AR
gu ys
Ġ11 8
Per ri
ien ces
ĠLuc inda
Mar ia
bur st
Ġrap ed
Ġsouth western
Cl arice
Ġpocket book
fl ix
Sp ot
ket ch
Ġgar lic
ĠMer cedes
Ġimm inent
ĠGO D
Ġ25 0
Ġtour s
AU D
Ġenv is
ĠQue bec
Ġden ying
Ġcoach man
Ġgrad uation
four teen
Ġrisk ed
ĠLo is
ran o
ĠMart ini
Ġtemper ance
GE THER
Ġscr amble
Ġrob ins
ĠRed s
Ġphys ic
Ġaud it
Ġir ons
Ġmeaning less
gen cies
Ġvac ancy
Gl enn
Ãº l
Ãº sa
ĠSE COND
Ġsna ps
bre aker
udd led
ĠSing ing
ĠSing letons
ĠDE F
Ġple ading
Ġnap kins
ĠMo z
Ġ186 3
Ġmagn ate
KE Y
ĠALL IES
Paul ine
Ġattend ants
ĠWhite hall
Cha pter
ĠBull ett
200 1
200 5
ĠLee ville
ĠGeorg ian
Ġlin iment
Ġstol id
ellig ence
Ġreve rence
ĠSim pson
Ġsorrow ful
Ġbetray ing
Ġboun ced
ĠBu en
Ġcommunic ations
Ġborrow ing
[...]
